1B1D021F
EAD0E8EE
04E01639
36D7F3DA
1BEBA218
44D20452
DB0CD72D
FE1CE80B
B10A5500
F4D6255D
0EEB0225
E0F423F4
1DE60CF5
E8D2E41E
B4EB0A08
2119FDFD
E3C328F9
120D132D
D419F5EB
1EF20DD7
0DF4F8CF
0DE73D02
E81A0FEA
C60CF604
E319F2CC
EBF6EF1E
C0D40CC9
38D37422
FE8DE320
F6EAEC35
18CFE737
B8B7160F
151ED423
E5D8EB1C
120E0D30
E021F4DF
EAD709C6
EC1BD03E
2F3318DF
1C0FDFD1
A734CF02
23FECDE9
ED61E5BE
0A14DC16
1BC5F3BA
12D7DA18
F6F80A0B
D1EFC5FB
C314F622
D8E2D32C
3DCDBDF3
DAFC1618
19E705E9
D8B81A07
F3211203
15100DF8
F236EC05
25D7F220
FECA061A
E5E5973E
44F35519
E7CC0E0D
E6052012
EED3423F
E948F017
FBDFE3E7
330CE2F7
EE07CAED
F2F123DD
D1183738
DE154BDE
C605CCB5
0003F6CD
EA03D2F4
F7DC2F35
00FE12D6
FBEE0142
E1FEE6FC
0513151D
FC1CF801
135416B0
E40E3F3C
3A02402E
28DD40DD
5800CEF9
0EBFCBF8
EB172813
10E6161A
EE0819E5
F1FEC0FB
B90AE512
4EEFF5F2
1BFBF82E
27EFDF0C
D111D5EC
D3081731
0DBB1527
05E9EDFE
FB05FFF3
19073301
DF1BF4BA
0B1D083F
C610EE12
D401E8F7
23F1FD1A
F5FDE7D3
DEF1D0ED
F204DC22
1B250CE6
F80A2431
DFE8B6EF
F4012823
13F7F611
1F0C1728
D9F4F4EC
DC00D800
23EEFCE2
0905DE36
E7C90BEC
251C2753
A1F4FC08
F12E33DD
5B28D707
D0E4FC2B
2FCDDBF6
1FEE3D7A
EDFD17EC
E1D51FE8
02DF1710
36F7D3EF
E2EEEB20
0C1E0208
C5FBF81B
1C05CEED
E816C1F0
FEC126C7
38F00606
E5001AED
050600FE
D925FE28
EE11CAE6
E2EED4EB
FF1937F9
F713EF3F
0ACE1E00
0FF12704
F6162DEF
40C516D8
EE08EDFF
2339E2F1
2AE6E003
FFF92CB9
F8070641
F819C3F2
1EE8D63C
F4FFECE9
F7E6052B
19FB0E0E
1FF9F014
0E08EDF5
1606F2EA
0CD2CCE3
F418625A
0D10FF32
FB0DFBD2
2EF101C4
13E6FF3A
08FE08F5
1CF5FA04
DAD0DE10
2F0DFA35
031614F0
062932F1
DBB9D31B
FEF304E4
E7E616F2
F21B4205
E313B91C
26340619
F3F21932
00DA0010
05FA0606
18F21B04
D70917C0
491828CD
D3E50631
19EC0EF6
E3E251F2
DCD1F82F
11F11EFE
F2111601
E3EAF2E6
2AFAE2E4
F6FBDB08
F1D2EDAC
071B0FDF
FC11EE35
DA12FFFA
C40302C7
E11BABFE
30D50AD9
DFF53331
FD156E3F
ED34D402
B029022C
4DE2DE4E
1BD8DE09
EB1CFF1E
03F1EAF9
D2DDF2FC
0309F5B4
E8024FB5
9CED15DC
F9F6BB30
F5F81D04
F41021EE
01F4F119
D70D0D13
07C4FA2A
FCEDF333
E7043A0B
E335C8F6
E40905FC
0D01062F
2B091D4D
FD0C2E03
131F01F5
E2C7FEC2
0212DF0A
20F52B11
EF05EED1
EDF22CF5
A200ED0D
FBF8021F
68032327
DEFA5128
F5EAE6AC
F5A9B102
00D80BF4
FC02F0E3
CDEDE515
F601E4F1
FCE40FEA
F715F12D
DCF0FBEB
F70BF31E
1EDF34E4
1FE6DD3C
14F7ED33
E81FFDD1
C658131F
EA083BE0
0E3CF0FA
E5091BDF
3FDD3EED
F5F9CD2E
0DFFFAF6
CCED09FF
0D210E1B
F2E015D5
F9F402FC
FF02F1AE
D8CEDED2
F0201B0C
EDFCF0FF
0DFD080C
1CCC0720
15F909C9
21FFBDF0
251E2FD8
0BFECA00
F21D2A53
F70FFF26
DD1F1DD2
E8FE0627
0EF0F4C2
F90AEAE4
27E00F06
2D11EEF9
D9D02122
E3FEF721
F9E723EF
F7030D03
20D7ECFD
00E6F127
DF133A0B
EA0A0720
F6EEFDEF
E81FF6FD
1813EEE4
FFFC0E00
0C2EF886
1406080C
18DFFFE7
F82909DC
1142D2D6
EBFF1EF0
0322D1FE
DA14F8DD
DCFB30F5
F7ECE9FF
121AD9E0
12070B22
E9E411D5
C6EA27FE
DC08D8BB
08B1EFF7
142FC9FA
050D1F00
F91F0D15
CC2BD745
11E404DF
CA24D613
F5041BF2
C3D5F40D
FCFCF028
0CF6E0E3
EAE5EF23
06F8BCEE
2AF5FE24
24F40128
FABF161C
D1380DFC
F95412F1
F704A21E
D1CB0AAA
FD0CEFF9
173DC935
0414ED17
06E7E0C2
0EE716DF
1AE3DCFE
F801F333
EC242BFC
F91204DB
FBCFEFFF
EDECF5F4
0109FD37
E8F60CD7
F4FFE9F5
DDFDE81E
CA02EB27
2712DFF0
DDE8131C
FE00E50E
1723F9D7
F905E6E5
15E81CB8
3AFC0411
F80FF901
3A15061E
0CF20E17
1AD5EE24
112D4B30
D213FAE1
E4F42A0D
3411D5FF
EB31F330
E4183607
291CFCCF
201912DF
DC35141C
EACDD853
1EE9034E
10CF04FD
DBD40EF6
E2001514
15FAFA34
2821DA0F
03133EED
E73241F7
E1F80759
292EDBA4
163E65DC
DA09DEEB
47E64111
E100F623
EFD917DB
2608E424
C208C6F1
0002E52E
4D1924E3
BEFCF22C
FD410426
370CE2ED
B70303FF
0AED243D
E91EC9FF
EBEFCA33
F4EB213D
F9D70A0A
05E7C9DC
DA51CCF6
9F1CBCE3
18171FE7
E20CD01A
E1272E01
ED1DC711
F5F301E9
0A23FB00
EAFAEAF9
0722E5F8
09FE1BCC
F3F0DF00
0CF91CEF
E6080A36
213FC3FF
E7E8E80E
0AC22CF8
100D0300
20EC1816
181CE2FB
00F4E95A
DCF519EB
D6F31758
F7FE36FB
B10AF1DE
E213FBEC
2BF9D235
DAF7E4E6
D91F4DF6
EB1C0FE4
072BFF23
E1E50229
CD3A6206
EF022D2E
D7DEEDF1
220BF31E
052B0C02
1BDCFA21
1515D4F0
381121D9
3460B8C4
FB4FE4DE
031A2CFA
C0EAD607
00C914C2
0FFDD2AE
16F7F119
0E18EE1F
D357F4EB
E016F7FD
151918CF
D91931DB
FA26CA5A
E9E6E919
D621F3CD
2CFEEC04
CBFDE70B
0D17FAEC
FABAE607
040519E9
04091830
B8DF330C
D2EB19E4
0202BEFE
FBF0E91C
FFF919E5
06ECF0FB
07FE04FB
020308F6
1A0704E6
0411D800
F0D83106
E5FFD3FB
140407EE
2727EE09
EC35DEC0
EA0FFD15
17220EF6
23181401
25080313
D70FFE0E
E3D255F2
0AD3FBE7
F21D09FE
1318F100
15EFEFF2
0EFBF108
2315F207
E9F82F39
02FC49EC
1E091D15
0AF515E1
0CEDF7E8
25F51406
E7B62FE3
EBFE09EA
DC1BFD04
F744DEBA
F918E8E1
F5FAD2DA
E70107F1
FCF8F1F9
CA190817
12142C3A
0FEB0C0D
EBF7F011
0720E832
1908C0FC
E107EE23
17EDF1E6
C637C8C0
C2ED0BF2
FDF72DF7
E905F307
E3EAFA1E
1319DAF5
11DFCB05
D3FCE3CC
1405EF22
26CF0FDB
E9208CC3
18F11C7E
D10CEFFA
D40EE508
0E16E816
4417184D
58BFF821
E311DC0F
182D1D17
0D0400E9
54B8E629
CD1814EF
236CFEF0
1A0E674C
EC012508
201604F4
3213073A
2EE9E39E
C3EB10C3
E3B90292
16130A0E
F808FCFD
F00AFFF0
FF1C1110
FB03F002
16D834FA
E81D08D3
15FD271F
1F1C0FDE
090A1308
0000F711
E8EF1181
F1FE2012
10EF0481
D9EEFD0E
FBF01A81
D41D0632
E824D8DD
DECF381C
DF1E1808
B214F2E7
15F946B2
2C180DD5
F4E913DA
2CF00C06
CAED0AB9
D6C425A5
2D0EFE6F
3304031D
F408247E
0AFCE9F3
FEF90ED3
F1FBFADE
DCEF1A8A
051AFCFA
03E011F1
B23615B2
38072535
2A13FCF2
E72EDD0E
03FEEEE5
E7EAF585
0810EED8
23CBFE81
F0E70416
1DE51E1B
1FE4F5FB
FFDE2EF8
0B131A09
1014F5E9
1D191D1D
16FDFAEC
CB9F2DD3
1DDDE701
FEDAFEE8
131F0AF6
1712E5F4
24FDEDDD
0117DB41
E7262EE1
9815FCEC
17FF00E2
FB1B4F39
C1BCD1FE
E9E6F4FD
03E034F4
AF220127
D2D03435
DC360921
25210BF6
EA12CAF0
0D390689
2DC001FE
411DE020
03C6F027
10E02268
4BC6E74F
E1B52935
EA1D57B6
E4DEED33
D6CA1D00
E3DD2CE9
16D73C2A
19DF2EE6
0FFDB9E7
2BD4CD2D
EABC1FDD
21242B31
E524F7ED
E357DD1C
B7216BBF
D625D70D
1AE80BFA
2C1134F2
39FA2B33
01F6B905
0B05D1FE
1402D40E
A6CEE725
021650EA
1EF31D05
CF05111D
08F0E5EC
23D71919
FC4E26E7
C7DF11F0
EB0BDAFC
E2030DF0
0EEACEA2
181CEDE9
101202F2
0B0B09E9
DC0E15DA
F8FE05E9
F116F7F5
09F330EE
0701CDBF
C0F7050E
EF17F84C
D6DA201C
FBF9F7F8
2702DCCF
1429E901
EFFD1D2F
CF3007EE
08EFF61F
F1E10DE2
F1E8C9C5
E7F520E1
C7F5F5EC
17033B1A
F7FB0F11
1AD0E20D
F1C3FA0B
0821FC22
1B17E611
D404EC10
05F6CA07
FA460309
1E0B1434
F606DF2D
F9012ADD
F417EFF0
F7F3220F
0F13D7DD
E003DC2C
DBED07CE
E6E20D21
01EF2DE4
D6E2151D
F9E60AE9
0C1EB2EF
1A1137F7
FEED1AF4
E0F402E2
021A3307
F7F50DE6
EB45140C
E5F50E05
F60623FE
ECF5ECC0
50E32503
22E6DEE1
40F4FC42
2B041D27
0C280BF6
0FE1321B
FC1CF9FE
28240021
FEEEF5FD
1F040837
CAFD09F5
FE1B6012
FABFEA13
2BE21B06
D5CDB7DB
20F90E2A
072429FB
F5E3FAC2
0FFB0250
1C0FEE45
FE1B16FD
EF525602
EB1112BF
F9FBE51B
0F07E7FD
CDEE000A
1EF9EFD3
54D7F322
F9F9D5DA
2C1120D6
D1B91011
0FF92608
14D4E8FD
FCF6E103
181D2105
C152FB35
2DD112BF
EEDE0F40
12EACDEE
FECC1201
1BED4C36
F5DB13F5
F8D91D48
E1E8F11B
0AC01F51
26F111F5
F5FEC913
EA0203F5
14DB06F8
FB0EC910
E3EEEA06
D8FBEDC9
DF47FE98
CBEEED0F
F22C1648
3AFD08E8
35D80120
ECE2D906
1FECFB00
40F3DE02
1BCF1739
323CE6F3
ED41E8BC
FBCE1409
D3D917B4
1F1914E3
DCFBF90A
0D0CE2CF
15D3FA04
CD0D2115
1E0A270B
141DFCD0
F617F627
CFDA05C3
1C003F0D

