F202E7BB
2630E8E0
D5D10119
E8DC1B32
D1F7D22F
2CC810FF
1F2915FB
F037FA24
FDF9F6E7
F0112444
FD0108F4
0738F933
130A07BE
ECD30ADC
00F6EC1F
F2F72351
543B0A0B
F5430E15
15F02707
04FFF6FB
0E37DA1A
0F1B2CD3
E4D9CFE1
2A2200E2
5525061C
FC21032A
F2C9FAC0
DFF10CD5
17E760E7
DEABF116
3302C207
00AAFFC2
12ECDBEE
07E3F106
A9E3F11D
3932E12D
211E1912
DC152403
0F59E501
00FE14D4
1B001512
222E06CA
ACF63FEF
FAD80DFF
EC162128
0B25AA26
17F0D2CC
E3BCE426
F73E0112
DE0E0CB4
22DEE40A
F10B00F5
DD35ECE2
2705D91D
D9FC0FEE
171BE3F7
ECF2FC27
135106E4
DE16194C
084619FC
034518D9
3132D1FE
EEF0260A
D6E61503
F5FEF121
EADADBFE
F321F901
0008EB48
F0F31AFA
082FE20C
4B02FE18
D91CE403
0A4232EC
060D1F46
4CD9EFEC
F503E4DD
F715F8F8
322318F3
263806E8
230A11C4
ED0707E4
E21818D7
2A3335EC
09153004
32DBEC10
FF20F1C7
08382003
1C040AE5
2611F61A
F6F7ED07
0D23D9F8
E9F5F5DF
EF1117F3
EADCF036
FBEA0010
4AF0C820
3408FFFB
FC000502
24D81EF2
FAA5CA14
3510310A
EEFE07FC
0ED24EF4
FB14E0E6
FCF4E8F3
F7340B05
1A0215D7
1221FEFB
FAD9E1EE
F2062412
1A0CF61E
2030E83B
ED1B04E0
23E2FCF0
DD080107
F90F0718
130AF633
18FCFC12
D3D4FB0C
EEDBF2F1
6AD0B4FD
E3CEFB4F
F233F8EE
1D02FB01
E2D4E2FA
E2F62221
051CEA0E
C712EE28
100AE4F4
DDC708D5
14F7F4FF
E5F90AF0
EEE8D800
55F70110
E4F026B9
01FF2F12
E5020D22
0D320542
F9D523FA
E30415D2
04C83EC9
DF4DE9E9
EE0F14F9
091E0EE1
32CE36DA
E8FCF5CE
D72FB533
EB3009DA
3909B601
13E7E101
00F2DFC1
05DBD404
EAF624D1
F117F720
F80308B8
A3E315CD
0619F01F
F30703EA
F01AEF31
00E4F410
F9FD00CA
EE1A2DFF
2C0D0F2D
F226EDBC
26F7DCFD
1A05FCF6
1137107E
321DE8E6
D11318FD
431221C1
1DEDF344
10EECA41
C41626D4
3AC540DE
E43254F4
D5FEE60F
EEDB4CF9
37F605BC
20C5192F
15F9D8C9
FEEBFA03
0C2208FC
F33CD3D2
BC0AF22F
012803E8
DFF416B5
EAEFDF04
E7FCF8F7
2DCE1001
DE27F1F9
0D07FB0B
F8E21700
C511F321
FCFB175E
EBE4C610
D7D71F32
DD15B600
1FFAC5DF
E1F2ED0D
08DCCA0E
0DDDE324
FAE2E1EF
1E13F61C
8102F3F2
0A3E1C23
DEF90BD2
C9FED512
E5E04EE3
DC0D161D
E3ECE0F4
EF1845D4
EAEB010A
E3FAF30A
C8FDE549
FBF9A2F4
E4D7E912
F7DA1E24
F7145FA4
121CD406
C80E2EDD
2F1A10ED
CAF7FE2C
3922E718
08C10D1C
E1E6ECFC
DFEB03FC
EAD5EDAD
0C000DFF
C7EA93F3
E51CD7F9
E604DBD7
34140F10
C8D0D4E3
0FE9FB0E
F91927F3
17360D15
0FF3F2F3
1A2A17DD
EB10DD26
06E232DA
1B19CBE3
1804BF18
F5E400F0
CA0ED8CD
E3C70619
19F51619
19391E4F
D0EDFF1A
283B4635
FB13F01D
E530EEED
E6E407E9
28F3F7EE
0B01DD15
AFF82435
D2171C18
FBEDE6FE
F7E9FCF1
F7E422DB
0E010B02
1217FDEC
EF1431ED
15121F0A
154AF9F1
F5F016F9
0CE90E22
06FC0615
0516F1EA
E7050B0B
150417FF
E9E81B24
FC0EF313
CF350DED
D3D31FCD
D7E2FA10
F0F40614
F4F2DA09
FFF1F701
FEE0091F
00250AF2
F723FD09
EAE8F6E7
1123F325
E11E033C
DB0615EF
0F07DEE3
0DF7F1F6
042606FD
EBF2E3FA
EDFC100F
36DF0DFA
EF0AF520
DFF20E11
1AF0F6D1
0800BB0B
C62209EF
F8FFF8EC
F9380006
12FAD919
10E2EFD3
F8D4F203
002E08EB
0FE208EF
FCF72534
2EDA00F5
0FFDF2F0
01FAC811
FC4127E0
FC03280A
1BE4080D
22DB3C06
DDC7F3FE
1507FB05
F5EC0ED4
C7301529
FFE01B27
EBF306FE
F6D6FDF0
F01308F9
1324E828
1EEDF357
06192A26
F90ADB5C
0FC824C2
143D17CC
06042915
C12106D6
DF1EF8FF
2328EDEA
082E1CDB
FF1302FD
14C4DCC4
FAD927FD
0DFB1C07
FED90709
3D0B09A1
F620FC25
EEF72E01
EFEEF3F0
EDD7160A
3222E2D2
EA1FEFEC
E2260BFD
3EF8E515
DC0009F7
32FBE6D3
DBF51FD7
2BD52534
31E834FC
0AFF27F4
22EB18DE
29E7FC0B
D0F9F9FB
112ECA35
F2000AF9
F3100D02
063D4238
E8DBDDDA
E6CCAFCA
C11E3801
85E229EA
E200E5F5
36DAFCF0
F5F0FB04
F0FB1615
FAE310F5
2010E1CE
E0DF321F
020306F3
FC143501
F2260F44
E9D117E0
DB1FE7FD
C61BCB10
DC402AE9
DA37E1BB
CB2719E8
C2FBE417
0F20C9FD
D1025418
2326E326
FB053DFA
1D430B15
A60D171B
FE4830E8
1DD715E3
0AE6DEE6
F603F6CF
E4E818E8
05040236
15E421D1
EFE70024
023DE9F0
A10548E5
00E206FE
F80C0918
06F500D6
DDDE071C
E6F8E6C3
25E608C5
0AD43407
14111B15
02291DD1
E8431F05
ECF3FAFE
0FE5E71E
E14D04FE
2BF7E9A9
1CED1E18
070BE822
23C02301
CFF50AFE
FD1717F7
2229F414
E826F610
071B1014
F3E91C2E
1BE609F8
CCA5F90C
F229F4FA
D1F09B36
0519F9E9
E2CAF80F
F345CCC8
1B26DB08
FD3DE9BA
1026140D
FF1F35F6
0D1BB933
D711DFBA
3D152518
F9E0134A
05FCB350
202813F3
1939F025
531833C8
BF2407B6
DB29EA37
FA011DF7
FB070BE6
12F2101B
35200827
1CDA1024
F3E0FF32
F81DD909
1B241DEC
25E73CBF
5ED30708
FE00E605
FD15F706
EF1B4FEC
2538F6D2
FFF007E1
1906E80E
34070AE4
1EC4F506
E4ECFAF1
311ED1FB
200C01FC
00F61609
4BCF1C1B
09FEC50D
E4EF16E7
1F17011A
ECD7FF05
E91D0D03
FFD4B5F0
1AF6F823
04F21CF8
24121EE3
08F7E505
FEF4EC0C
2645F3E7
FFD11E22
280EFC09
EA0D0407
1908F61C
0C0C05E5
021606E0
FF02DEFA
0EDE08F1
0714F2E3
EBF80616
000CF6FC
050104FC
0A03DF11
FD041D16
16DD22D2
FE120F13
09F20F0C
2EF40107
E0FD0D01
04F500E7
FDE3E40F
09EAEC12
C93E174A
FEDB23FB
E500F9EA
FF22FED3
001CB6D4
F60FF6EF
0429F6D4
C11FEDF4
0BF62805
E00311FA
0605FD08
03141611
E8F101FF
F800FE03
35D6C70C
D0D702D4
14E70BE0
E31202F2
FFE00A2A
FA23E9FB
F7D0D81F
F806C90F
1B1AF704
F5EE2813
1AD9021A
DF39F4CD
13CDCDCA
F025D4E1
F11C1412
F6E8FF36
D2FB13BC
DA14DFDF
FA0118FB
FD06FAE1
02042741
2B47E3E9
C83B0049
440B03EB
10DE2CF6
330213EC
1A041102
090B07F6
0D20F3EA
201507D9
0D16F84D
0F0D11E1
EC0114E3
1002FFEE
E8F906E6
0E1EF7F4
EA0F18F1
11F4250C
0A02202C
FE203814
1EED0CF3
15EC17FB
24C0F410
FB20312A
17EAEDD9
12FAF91B
FE17FBDA
270F1C1C
F8F6F6FE
255A0DE8
BD2E0906
2356C61B
E510E7D2
0707D0C3
08FFF044
E61BEE0B
15E91D00
04C2ACF5
E9EF07BB
301608E4
16BE0105
EDD6FAEC
EE24F7E2
28B633E5
EA0FE00F
E7180210
1C330A31
010F3C2A
2EB9ED0C
3C14291B
D9DFF112
FFE12B1A
240CF1EE
1617BBEB
BA15C3F6
1CBEFD2C
D923F308
F5E914E7
0CE8D712
EC45F308
1AE52F20
DA3F0322
B102C54D
200BF9D5
F21F07FB
EEB1050C
1DEF1824
E3D72000
E50C285C
1A1EFCFA
DF2B4FE8
C1F730D9
16011439
FADCDDC8
B93921B5
E2F126D8
9C1A24FA
E80C26F9
E026DA3C
BFF9F0CE
0D001216
0FEAB3EF
C7DDEC06
DC13ED11
2626E637
DC51E7F6
EF0C0509
DBFED0FF
C9FEEC2F
D0D15ADD
09E73538
14BC9919
CEE2F6F1
25F3EC18
F6E4F80C
0BCC2F0D
D9BEE5F0
20333E0C
04CBE0E9
1D13D125
F31ECE0D
A124FBD7
DBA5F40A
150DF721
1AFE3B04
B817180D
D7344CCE
09FA3A03
00131AEE
1D26FF00
0E32E8FF
DDDEEEB6
DB01E410
070E21CF
1DE41EF4
D527E202
D356C614
57F3D40A
112404F2
F00008D3
FA0A0E0A
54050925
22D9E4FC
08FCFCF8
D5F725FF
15F8F1FD
0216FDED
09ECEB10
FBF80E04
12E207E0
F32CD7B8
19D905EF
E102BC11
020E0E0C
04E8C5A6
4E2D02ED
F3E1F601
D50E1423
FCE8E3E6
2F4A0302
D40CF9DC
E7F92DC1
BB1C0E28
27EC02FD
0BE117DC
11083D1A
26F9EDF8
F4C1120C
FFF30AEE
3708FDE7
0700E30D
DFEFC6F5
E3C302E8
081606EE
1803E0F2
E9E4FE13
1A07ED2F
2ED81707
250A1A2A
F00FE2F8
FCE7ED11
03F70811
14E9DEC2
20182016
09DD1902
09FEF6EF
0CF850F4
0AF1FC0D
150E04FC
FEFB0331
D0D1FCF2
160022DF
E1C00F14
19E2FE1D
FFD82AF2
0423DE09
A7E9D517
0A0217E5
36DAF2F7
111A090D
1816E8FD
01FCB0E8
22F4D6FA
DDC10FD5
22EA0F06
201CDB0F
0F3E31C2
F7E506E2
04180ABE
E114F007
07D3E3F8
2036ECD2
D3021510
D7071209
E513FF1B
EE14DD29
1CFC1AFC
04FA4BFC
F1F615B0
4535C4E2
CA673B83
0C2B0A09
CF2EDE08
D9EF35F8
FAF0E10D
3AE32FF4
00C9182D
43031EC8
FDF32BF7
F8060CE9
EDF2021C
25F7EFE9
DA0CFF00
FFF929D7
221515E0
E105BA25
50F1F1D9
27115008
F5221EDC
13CFF9FC
1F2312F5
311306C6
180701C4
54133A38
0EC9D4CD
C6F3B911
06EB12DF
F6E111F0
1C252844
22F5D1FD
FFFEF3CD
E919F8E8
D8EB14F6
EA0611ED
BE043605
0727FA2C
06F422FB
34030305
16BD0914

