4CC28A0F
2304FC2F
12DEC11D
E625FBD4
F0C61FCD
F1ECE5FF
E304F8E2
F32AF6DF
0BE217FD
CB3FECD8
F51B11ED
D8F5CCF0
0C0C1E0C
D516C536
F7F7FCE7
EA2AE6B9
EE05F6E2
04F51311
0BCCBC11
FA131ED9
40F6C824
244E061E
0D0BB314
E8082032
F4120800
00E0FE0A
DCD87E11
F5E91FB3
E8D93000
F34F5734
EC29F63E
130EF40F
0BF1C62E
1707CB0D
20D3041D
554907E9
1848F525
E501E915
D2561816
161B1BC3
06ECFCC6
F5BAEDD0
F0F8A9F8
4628C7E3
DC16F118
EFFFFDF1
F31DDCCB
E0310A2B
F948253C
B40C1AE9
4FE60019
17DCEC3C
19E7C916
BF04EBC4
1BFF55E3
F1EA33C5
07EBF7FC
091A1CCD
F92FE8B6
F7E5C034
E1E8E733
E2F02811
FC370F45
FB222C38
0D3B24CD
26F7FEE8
13DC2D00
E607E9F3
1FBB461B
F8D00B39
D2CEB0D3
0A24DCED
0FE12302
090405F4
1D01010B
170CE22A
2EE94EFF
BFD719E4
E9020212
000308F2
12F6E5ED
2713142D
0CF40C0A
ECF7FC04
FEE8F5FD
06FC0018
10FAF30F
095B22DE
DFF5CCBF
13F4D110
0717E0D7
0B17FAEB
180BE42A
10E61CDD
1A0BDC25
D1102519
23BD062F
F41202CD
06D403EB
07E6C623
1EE70B62
021B1A10
070D171E
EB12FA13
2EE0F6DE
CB010EF0
05F42211
310E07DE
220F07D3
EF0122CC
FB01EF0D
ECDF1BF8
37C5F5D1
190BDFF0
FB023AEA
32042EC7
DF1509EA
EBF1FDD6
CF31D5DC
0117EBE2
F0171714
1F32FA06
1122111A
F839E9E2
0C202A07
25EDF129
1B1235DA
E70411F2
F6CEE0FA
DC2E0BED
1525CD21
E70EF2D7
E92438FF
EFFEEE41
1E00FD07
0CF800C6
F1EAFDDE
D9F8E3FF
E2243F1F
25E7EF36
F0F70DFF
0408F83C
1714FDF4
F020F21A
0D282012
E607DA1B
1302DBD4
F3FFBEF2
38B13EBD
F0EF02E0
D700CCEE
191C0454
08021EF9
001FEA58
F405FE11
0D091E00
38FBFF0C
FA153BEC
F6EB3342
FF5AD3E2
0619E02E
550CF4D1
F2001410
06E402E0
E832F521
0115FF07
DC1A11D6
46F7F10E
1AF2E814
13DDF900
FB0DF433
4B2071E3
01081613
EA1725E4
D9E80619
DCE9F04C
E6FF0DE4
1500E717
2C0DFC3A
E7C90404
0E27E8FB
FEEBE808
DA631763
0C251A0D
451BEE36
D80003D2
21E43705
1520E4DD
00ACFCBF
FF0F072E
EB0BF60A
3A391B03
DC2F241A
0D33CB26
3718A4D5
27FED710
F6E7BDFF
F3382B46
EECE10FE
25F7FF17
FBABF801
07F3002E
E4F9061E
E5FBE6C9
3307230D
EFF21B10
06D61904
FECFE604
D10C163D
1706F812
2204F2F4
EED40A00
0B03E0EC
11C5EB0A
FED2DCF4
DD24EFA9
09F1FD02
03DBFAD4
160EC8EA
D7E946F2
F1D60C04
1AEEEA13
1910F0D2
3501C81B
292E1A34
29E13108
0CE91128
0EECE90E
F3F801D1
EDFA32D5
FCB40D2C
DFC90CF4
DAEC162F
EE1E030A
1E0839FE
FCE703FE
2BFA25EF
0D09ABC6
F819E7FF
F5E9F9E7
1904E52A
2D0D0921
171504F3
0DFAD9AD
1534D5FC
38E21402
ED390DF9
2A1CC123
F604D61F
EB12F854
0BE5EB0E
F8E720D9
FD0C00E5
E22913EB
EB109EAB
2DE500DF
34E012B0
050F06FA
ED2B1714
EE1F332D
E7F90DFE
EA1AF3F7
0F011AF9
07F9FEEA
E4F7E0AE
21090319
E8BDDEEA
EEEEE4EE
E9F516CC
FD10EDEA
0405E6C8
00021A01
E61EE14F
091B0720
04D929E5
FBE8F31B
19FD1511
39BF1D0E
21E93FFD
04ECEB1D
27D4F4D0
0E02A720
1A09FD06
26EA1ED3
FFFC2DF3
0F0CE3F6
DEFB0907
0BFCFF0B
F9461526
0C1208D7
27F1F726
2710CF18
0ADB0919
F7E817E0
04F1F010
0722F2D6
13E3D4F7
FCE84101
E4FFE5F6
F9F8E225
08F32EF8
FF0CCC2F
0EFC1514
FB2C0922
F021FCC0
0230E04B
0BF31EF3
39092900
E0EED50A
FD0110D1
FE0A0915
FF1506DF
F4D1070B
15E40405
FDD1FBFB
0AF1F3DA
FD0A1402
091122D7
E3E7C806
10FDE836
00061CFF
FA02FADB
04A917FE
D60FFD13
F0E14A22
4EFCE243
06FA18DF
FCFA06BF
0B29E31B
0415BE35
DEDC12C7
EF22EAFE
9AF1170C
1812133F
02F6E1D8
710C01E1
31F3D32B
CEF0BB09
11E1FB21
BBD8DFE3
02CFD836
E90507D4
2324C29F
F0CF3A60
F405BDD4
050CE3F2
353BE9F9
D83E3112
40E30AF9
FA153700
0EF31FEB
EEF4D5F4
1B32EF03
F700DBFA
05041815
071C0B11
CB2BCCD4
2442DD24
FD070FE7
EFDABC12
E0C83037
03010EE6
D44302EC
17C51DCB
0DDD14FD
FEE9191E
09DBEFEC
FF7332BC
F20F3DDA
3F080BDC
1B09F7EE
F81FD496
521D00F4
C222F5F0
06B21CF9
1B0A2130
C31933D8
2A0FC3EF
11E0E0DE
E7F5E3E8
3DB104F2
ED221749
2AF5200B
1EFAF5FB
19EDFC35
CDE72737
2BF13303
E5D1F119
D71805D0
20FFD0F7
17EDB823
BF58FD1F
D7CD0B11
19FD290B
E3F8DB33
02DF1702
1F04EF00
401E1B01
0ACF07ED
EE29FAEE
1FF41DE3
FD00543F
CBD30323
144817EE
07010B04
15DD04D8
ECE812FD
0F08D726
FE1613D6
EB2CEDE7
1ABDF9C0
F726CC17
E4D947E7
2A282409
1108C6E6
0E23FFC9
AB0EFB0F
2031EE81
990C05E9
E53A16E5
FEEBEBE8
EE261570
15104810
120DEC2B
140FF5FD
CA1127EB
37121E26
03F032F5
DE19E6E5
F9192654
EAD71DF1
1EE214D9
10D90C4B
BBB0001C
3BFE00C2
C332464A
162ADFBA
F722AFDB
EEF2083F
004BF0CD
0938E8E3
0C18042A
0EB13B2E
C5C41249
F9FBF6CF
13E2E531
0812EF2C
FBCEE513
EAFE1C03
000B1BED
F3000DF4
1E01CA03
3D85CABD
66E7CA29
03F70CF4
02E31009
F3F8F2D9
F7EF0403
F725EB04
0FF3FAF9
00ED2509
10F908ED
11FA05F5
E5E2F8ED
0C0708F7
F901FB04
0D06F6D9
F10002CD
04E51826
F02700F7
071EE7E3
0FF40300
391CFBED
B7C1CF05
37C709E0
3EE7F02E
F8F53AE5
F2FAFDE2
DDC2F3C7
0E030ADF
11E4000A
0FDB0BF7
19F805FB
FE07F512
07321423
E6FF13F1
3EE9EED6
1FEC0336
E1050F08
0214220B
1CF001CC
23F90CE5
0C11FAE4
FD3223DA
22F0D6C4
F6DDEA1C
F61707FD
11D9F31A
D0FBFB12
20F1FF20
08EEFCDA
FEEBFAF9
E4030E10
EF0EE9F7
C1EA16C6
CD5A42A1
EF03CA07
E9110ADB
E8D2E7DB
0CEA01F8
03181400
FA3D0612
20143302
01DBE7E0
F8F03C11
2506420F
04290FDB
D9D3FCBC
E321DCEA
F5E5F62F
21DEF303
25F0F313
DAEBD1D7
FBEFB734
EFD4DA19
31CAEF0F
03EC1FEF
FEE20403
EFEBF9E7
34D21B2C
28233BED
FDEFBCFD
5DFD0BEC
C4001B25
D7023102
32FD2929
FBE507CE
F825F406
DDEEC725
FB131926
23F017FF
EBFAFD24
0740BC26
03500E27
03011813
111FF3CA
EFFBB9F3
170A0B22
E2231C03
C247FAFF
16FAD43C
FDE1FE21
2C151A1A
4817363E
ECC04A1D
253423D5
E3152B11
FBE2EBBF
E3DAE7FA
FB0EE5F7
AD000F24
FCEF2F0B
01FE2E13
EFFCF406
06D444F7
01ECB9C6
F808F9D4
DD0E1914
34CDFDD2
C5E70DBC
ECF34116
CF0FEEE0
1A04F20B
D3DAD7E9
4729EB00
30E7EEEB
17231842
C7CCDB03
08FEEECF
10D2DEDD
E8C995C5
0ABCFFE5
F3491418
01310FCC
FFEFF005
090809FA
C5EEBC52
F5200606
A96CF8C1
DE0822F1
FD273206
D93FCC0A
1BB527FF
2B0F1B2C
C4D5EA06
31E5F8F6
1DA10C2B
F9211DB2
00F3E61E
10E9FA0F
F8EFF124
EADA07EE
DF1B1BD7
25E80329
0BF30347
0409EC0A
EAD3D22B
25E4F5EE
0DFEDBF3
E005F8BD
FE18F106
FFEACB28
F3E10E0C
1A01FD20
A7FB0B40
262D1EA9
10D339D8
3A13C7E0
ECDEFF1B
38F6F1C8
F7FBEB1F
01E1090E
0309BCB7
13FCFF33
CE192AEC
C4E02209
DA7E1B3E
E004EAFB
3941C3EF
E109020E
E5BBEBEF
BCEB09F3
E5FACB1C
404019A9
29F6E01B
DA0400DE
EC6A0CEA
2EE8E305
FDF017B3
CC21261C
0E07E213
F6E8F9FE
0F1CFAE7
F0ECEFE8
1CF72809
ECCE0000
D93F15FE
F302DE21
1925F707
FD16F6DF
09EF02F0
05FAF329
23FA05F4
F01EE8D0
0D34DC08
01E30458
F6221119
D4FCF9FD
F7EDE401
02EBD909
0411F5F9
22E4F2F5
FD38F025
490CFAE6
F726C5FA
19382605
E319072A
132822FC
241BE502
FC09F520
DB3B2FD6
1CFD171D
0BE9F010
EE2AF72F
F031FFFF
ECEC0028
FD10F5ED
E2FFFDD6
F21BF1ED
ED061C0D
09180E05
DAFEFD07
0C02C4FC
F2EEF712
29FB241B
EC2CFBEE
28133E47
0EFFFA21
DDF40B29
0BC9060D
501217FB
C90DE204
2D0FF609
15E3CF06
12E80DE9
0DE8F62B
DFF1B32B
170210E8
09BC00FA
F826E213
21F8EB0B
F3FC14F3
0AFF2203
E8EE3600
ECBDEF1F
FCFF2FEC
0D061012
F7D2F2F8
301006D1
021CFCF4
1D0E2E11
E4100E4E
12F434E0
D3F1DFDA
F1ECF5F1
00F3BEA7
F5D1F702
D104F7FE
E8DF4940
1AFD1928
CE21F227
EFF7F721
C7A5083E
39042CAB
F1FC2BEA
0220F310
05CFE739
25FF170A
F5F1C8E4
F6EAFB17
F6F4111A
D95137F1
36CFF1E5
0E323CE3
092120B2
3D1714FA
04E80A11
E2ED10F2
FF130D05
F00FFEEE
DA3B0508
E008B6EC
FB1F08EC
06E1211B
DFF2F81B
0CBE0536
4812014E
000BD0EF
FF0ADCF2
DBB7F914
DD52E8EE
E2D8EB2F
FB0DF5DC
F00BFCF2
31290DF1
EF010D09
D806DC12
3B2338EC
E5ED2545
EFC706ED
E41F09CA
EDF20C11
FCFDED17
0218F71F
33C5D8FD
D2DCFBEB
1A320D2B
F024A917

