37FA1009
F8FC0C27
F6D8EE06
06EB1903
F3BEC2FB
CD341B23
15DAFDB6
021E163E
0DFA25DA
2CFBF9DE
FBEA05FF
DD14F3EF
110A1B07
F4CA13E5
C303F6F6
321E1201
35FC10DE
3AEE12EC
0FF44414
E1F3CF12
05F3E70E
0833000C
323DFFDD
EAFB0001
CB1403FF
BA4B1BEC
32FD26F1
E42B0BCB
281E0E17
F6E20EE6
33EAEE3E
DF00294B
4643080F
DE2A21FB
2ED40E0E
1B0302F3
13CF2F37
E902182D
3A17DFE9
E612F448
EB000321
FB3E0A0D
37DDF9DD
DA23BE07
F6B140D9
C3EBE04C
54DDCFB9
DAFB0D4E
1B1EE6FF
30190704
C234F4DC
05140F28
171A0925
2936E42C
20F4271B
C51B05D6
DEEF1E25
1DDF4BEA
F7450648
B44D04DC
F4F8C1D5
231E18C7
184922FA
030000FE
220DFF27
F8033AF7
0B2C162C
1FDDE406
BD1C1412
2CDE2EDB
2E0DA810
DB4EF807
FA1FDCDD
00E62AE7
D9ECD8FA
F2F52620
040B01F2
3F2D071D
ECF1E7DE
2316EC2E
33F2EAF9
0144D70B
41C52DCF
CF2208CA
40DDDDBD
AFE60C1F
0BECED0B
4604E600
09FFE00A
1312D61F
BCD7CB09
080BC924
C81F02B5
0E46EFEC
FC0CA008
0D29CACC
1AEC060E
00F9EDFA
052001C8
FEC44305
A83F161C
00D9D6D1
25C9E1CF
62FBFBE0
F31FEA21
C8BADD30
12031DEF
E42DD348
1DE11235
FE11E90B
2A0A4BFA
CD2CFA19
53001017
C61CD918
0ADCFDF8
E0FBF604
2436F4F1
2548EE06
13240F4A
FB28D73D
E0ECEEC0
F0EEB981
C43CE002
2A1A030F
D2E2F964
031ACFE4
BFCD09EE
FAEA00F1
EDF02CFD
08C9F4FC
FB0CFBC7
F70905F4
07C4C9D9
56EB3002
43CE1CCF
EDDFD9C0
FEF6E6F2
3837FFE7
E411E4E4
E9E827FB
423AC4ED
AD4E10E5
EC3E0C27
E7EBD7E7
1806CD08
29C5400A
04F114C8
CCDA0906
CE040909
351A1D2A
E1421DF4
A4ECE516
EB2DEE0E
0F0F0C06
0CD33C4D
C60303F2
1FF7F201
1B18F812
1BF5E20D
D500FC23
ECE2E804
2708DBF9
191B0E00
EAFD0EE6
FEFE15DD
09032501
1AFD08E6
F8ECE0FE
10EEE20A
213E0C19
F7DB30DE
FBE91559
2DC6060D
CA05D910
E1430FFB
ECBF15C5
FBD0F644
D8D6F9B2
E63610C6
260509EE
0D2DF60D
FFED032F
D91C0303
C389FFF3
E9E817E9
FEC3EBFD
0EFA3D0D
D215CEB3
FAFAF632
FFB9F9E6
FD250CF7
01F2FCF0
0F17F8FB
EF011311
0C1822CA
122EF3F0
DAF82024
16DBFD41
23F3030E
30E50D34
13F9094A
2C310C36
2AFCC4ED
1D04D504
E9E530F8
0535D0E2
EE2627EA
D9CC0A33
000D23E8
EE44F204
F2FC16FC
F323D601
1320E10A
3A04F0FF
240E0609
ED0F2026
EAB405E7
D7F60729
FFE12EE5
F0A40549
530CF80E
472B0AE8
FF000317
0402C1E4
44B33608
B9CD2947
11A4F3DA
1E4EB6E6
D0BDF803
81D92DE5
CC111A04
0BF7362C
240CCE12
15F92631
D1130E0A
0C2C181B
28BFE61D
06EDE1E9
3D1EEA05
C5E6DA0A
4E1A0C35
FCD02DF8
D0E025BC
17142EDE
D7A4DFFA
0E25D2E1
19111FEB
41DCDBF2
0900DE17
FE081118
E5345925
FD18C300
21FB061C
08ECEC21
F20F45B6
1E23F00A
BBE0E9F3
13F8F6E7
07C20604
05F4E2F2
FDEA0EE2
FBFBF147
3C2F1A07
D6F019DE
21C4F51E
D6E40D21
CC071CF6
05FAFF06
0B3B0018
F63BE308
F4071021
1C1413D0
3EE0F90E
0812ECFD
8103FC2B
52EFD502
D40C0204
1D100CEE
C0FA0110
1909F515
3FF511DC
EA0616D9
93283BE9
FC222401
8A0611F9
06EDF928
74030B0F
ECFC16E2
B109F10A
D2E1FFEE
2D382CD5
24E806EC
FAB4142E
E108F035
7E1508ED
13FA1FED
EBF9DE09
F5180F11
FDFD032B
D00D10F7
0716E904
5014FC1F
13EBEAF7
04D5FBF5
E31EFC0A
E3FDEF1D
C5153D1C
F9EDFEDC
2C0FFAF9
F0CFDEF4
2F060E1C
2128052E
17001013
FDE22501
24FE1CF3
E50D2AF8
BB1AEDF3
FF22E3F5
56E61BDF
28E6D906
4109F6E9
DD4DEFEF
F409F50B
3D3DFFD1
DE0CDD0A
CBF5F306
5A0B24EF
E038C513
F006BAE4
0041FB0A
14EEEF17
F1093604
F528D706
0D140514
DDF729F9
FB07E926
C424FD04
FE10FFFD
1FF2EB12
ED0BF0D1
F1120836
D60BFC0C
D31126F8
AFF7ABB9
38E128EB
14FD1608
AE0CDECD
02200FD5
5E151A2D
F3133BBA
D5EA0B19
0A16F821
000702FC
F804DAB0
D1E23534
D918F0F4
2606122A
E901D5BF
1B241805
DC09F9FC
536A00E2
E80BB42F
BF2FFEEF
F7380FBC
43E5215F
01B204F2
D313CF06
0C27E000
2EE9F1E0
FF0A3127
3615D13E
1DF721E3
F0EED6DD
129F03C2
2407F0DF
EFD22CE9
14C3F7E8
05D0DA18
E41AFB07
2FE9D40A
E6DCC30E
18EAB52A
F8E5E0FB
49EAFD07
DCD323F8
E2410CB2
02E6E51F
D34E160A
CBE9E02A
E100DEEC
FFCB1AD9
35142142
18D716CE
EFE50F45
F9D1F0B5
1BF9E107
DA0B3C22
0DA9F8C6
DACEE517
1149BE32
2D3019E2
170C1C10
121A23F8
351B0131
13250429
DCAF13E1
31F723FF
FC170415
D7E30FFB
FEF70410
070CFDFB
16D5E5F6
930905C0
DD3F02D6
2FC1DE24
0E0AF314
160C21F2
DDDF15D2
39FFD8FE
1F0CE729
A16BDB56
EB1D1654
1407E023
15DB0EF7
E900A0F0
CFF25612
DCE52120
FA282F11
1A05F93A
FF195600
43FECD07
410C0620
E12EAABD
18F6E441
F8DF1CFB
17CB32DC
54EB1641
F60914F0
F2FC0A02
E2FC1421
41E7161F
B9EBE222
0EE602C5
FFBCEEF2
32FDE8EF
F3080330
E1CE1DCE
01D400DA
F7020602
F91AF4E0
FCE42CE7
1BFD0C06
D2F022FE
39C7FFBE
F0C0F8E5
FF0F1E35
0B1521EA
080705FD
F60DFF0E
11150921
2424DAF7
081709CE
D41D05DC
2330FCF4
E7FEF226
F7F11E00
F31FC1DC
FCF7FD2C
EBFEF5E5
DCE3F9ED
F315141F
11151008
E2D7EBFF
0000E3FC
E90DF324
E805DCD3
FEF80AF3
EF12FC0F
212AF306
2FEFFFE0
0BE02309
DA0C0305
F8F0F1F8
EDFA0B01
F7FEFFEB
DBFB1A0E
0CF42BE5
DDFFEF35
25140ADD
290DD7E7
00DB17F7
2D13FE0A
221407FF
E4042019
2825FF2C
17E5D4C4
09ECFD0E
06E6F508
EDFFEF1D
1BD84918
FBF003FE
160AFB07
19463802
DFD60003
14031922
0CFEFF0F
0312120A
F8D54AF0
C94CDADA
23031F1E
E31FE5F8
05D6E60A
EFF02DAB
C41A345E
19F22E10
15D2EECA
0AE3F309
BEEE12FB
2DC0F42A
3D2D2416
E8140F42
EF05FFD3
F50FDA1E
2B24FEFC
F6F211A1
D6E73603
FCD9360B
FDCDFB4D
26E0ED8F
15D8E83E
2BE4DEF9
D6F4D516
31263302
B41101F3
48EFEA03
EAC70FE2
B40B12FC
D8213CE7
1EF8240D
0E15B726
170B0A13
B6FCD225
F605F80F
15D5FE2A
C8F91510
10E23802
CC15DEE4
FE140BD6
B01E0802
E1DA01ED
A61CF29E
E5CE2411
50E92EEA
D3FE34BC
F906E8E6
0FFF14DD
0519D1E3
2358ECF1
E30FF0E3
DBE6CF25
C2C14EBB
EA132617
2A23C9FB
05022A12
171CE3F7
0AF7CE24
1BFDFC2B
4E2D2B15
F41F18D1
B7E1DF24
F6EBEEF8
09BF2B21
BEED2CF2
351921F7
0C030D16
170A25C4
0AEB0C2C
E7BCBCF9
17F3ED1E
F90D0A05
05EB12E8
E0241DC6
2D3BCDDF
F40185E7
FC4212F2
ECBC13E7
B90127EF
D0F41AED
6A3824F6
351D00CC
022C121F
04BB3C1A
F3B8EBF4
34F9EBB0
FD72E21E
F8F3D910
F9D51D00
0DE328F7
12111FE1
4AC5F3F6
1CED11EF
27CBEDE1
3003D5CD
1030F13C
10F33DD6
E5C8F3AB
DFF80135
DD152DDE
30B3ECDF
EA2920E3
2103E92B
04F61C1C
C609D8CC
FF1329E8
F61608C8
F5D3D8FB
D24E060A
2F0CFF05
1A171A00
0CBF0F55
E76FE427
10D3311F
C5E304EF
FB26DDF6
32CFD1BA
146BF9DB
E5BDEEEB
D0F9F60B
E1C9CC31
F5DB2729
BF55CDC2
E72D0BDC
D61FC707
6A38FB28
FA12EADD
58CAFB0B
EBDD29D6
422C3BBD
00E3DC28
F0E75C19
072BC7D3
EB3B2615
E8F9F5D2
CBE91034
FEDC12FC
0106EB08
FC1C0FC2
02D62308
030708D8
1142DA00
00D9E5FD
01334EEC
1DF60825
C9101828
32F930F6
01E506DE
02020DE2
EC06DA03
CBFB1A17
0B1819E7
1A05CAB2
F6E5E936
F4F3F9C5
BEDE1EFB
F3290FEA
00D502E4
32F10E19
0D0EF425
D7DA2BE3
8117DDFB
01F021BB
3BEEE1EA
01F704FF
041019E7
07DB07EA
01D5F4ED
0514C42E
480B2206
2F31BBFB
17E3F604
E9D60500
1B1E4307
F206E424
F7FD3C31
F0ECF0CF
EC2EE62D
080BE837
F002F107
FA2CEBF8
F5091345
14B8FD2D
E2082438
DB200203
1DFFD9BE
EC2BD70D
D51401DE
15F811F6
DBFC23F2
0B36FBBB
C601F910
F4EB0009
EE3ADF2E
0D0C0223
EFFA2120
28138352
18C1FE2E
10FA4C35
E1002EFA
E6CB09E2
DB0D2EFF
A201010B
1712FABE
5106CDD7
0EEAFA0F
02FB42FF
09C4CD23
250EEB0E
F50323C7
E6E3D5EE
F9D0E50C
F9D900DD
250CFC3C
0418EBE8
3730DC2C
0009E01C
16232E08
2C360CFB
FAE6E8DE
15EAFEC5
676EC23F
F6F6EBFC
1CDEFA33
B9FEEEF7
E3EAEDDD
BD3904FA
34B8DEF1
FAB80306
57D8033A
3C1FFE15
E1FFFEF9
BD010AF3
0100090C
00FA144D
EF0C2C2F
D02612F4
FD4F01FE
461441EB
10DFED0A
09E8EE24
1B53E72C
021CFDE1
FC0C18E6
0FCCDD5D
1CEE2CFC
B32EEFF9
EEF8F721
D611F8F2
061E0439
060A10F0
F2FAF7E0
164DDAF2
0307174B
1809FCE6
1C16EAFC
DFF2E1DB
0817C7EB
273EEBF1
FACE083E

