1706E6EE
E204F90B
03FA2B15
F0DC2406
3C39F549
1A05FF8D
091B2DFE
D40F0401
05FFF423
22FE0CF7
E315D220
E40AED15
AC1C1C19
3011D4F1
07ECEA0E
22F12C15
F73D00ED
09D40A30
12064C12
F7291833
B7FB00E5
05DC121F
19F5C803
F805F2FF
FF011109
1BCE06D0
2BC6EABE
F31D22F8
0EF11202
0F13EA07
3A60CCCE
101FE8EE
F4251543
E2C2F603
FD0212F1
0AB80018
03B43445
25E503EC
F820180F
15D4EE0B
BE42934E
C0E72D21
EEE9CB25
16133111
1CEB19FF
EFD3D4C6
1BFC3119
4606E502
CC3109DE
0105D809
F0C7474A
BFCD042D
EC00CCCF
E32B1321
D2E4F7FA
F1FCF0E6
230FEDF7
FAEF050E
1DFB20DE
F3DDAC18
F70A281C
E7E90C0D
FFF8220E
D0ED1D1C
FDC9143E
DEE4EEF4
1F262225
F0D80204
2807FC30
BC332311
B41FDC37
20D7E228
1FFC0813
04DCF41B
E6300F03
2EF302FD
023A0105
F61506E7
DB06EAE8
EDDDFD02
F524D144
13D81713
29271ABE
F70E1335
E0FCD322
0CC9022B
F4D5110C
14F32CED
1AE4BFB4
FEEBBA51
411601F9
2DDF3503
D8D5ED33
1F142D05
F6400CE6
ED15082C
191B17D5
16060502
DF14E4FC
F11DE2D4
EFDBB1EA
FEF928C4
1100DAF5
EDFAF4EA
DC19C9E6
DF18F2EA
E01E2F1C
0BF9E722
FE33F3EB
042B260C
5A3927B6
00FB26E9
F31C5CF5
082A17F4
08EDDDF9
F008FADB
17FEFF05
CCFA06DF
D43CE5F8
17461715
E8E4D2F1
0C42E7D2
092431FB
0203FBFA
14CDE919
0B1D16F1
04FED3FF
3C04FD13
E82DDCD7
DDF813FC
150C26F6
2CEB08F8
C016F2EB
ADFAF1E5
550B230D
2723E3FB
081F3502
D0BEECFD
04E3E5D6
1C16011F
1AE1E115
40FE0144
F6D33EC6
3411E314
CA0CF3EB
1DD8F116
11DFD124
11F42423
E2F8542A
1E2CDFCE
EC4A3516
6C20F375
1C073219
1F2114F3
FD22F9F9
55FF1418
06F8EC01
14F6E509
1D06D8FD
0B07FD0D
0FE41528
21F0DDEE
0DE54932
0ED4E1D4
0BE02A0B
F0C8E804
FC0F0811
F6C6DCD8
18D3131D
F343EB11
2032DD0F
AAF71CEE
11ECF92C
3FD8C206
1F0417EF
DF00E216
FFBA1309
DCEF36D5
EDC7F9EA
E72311EC
150D13F1
11EEECEE
17421331
2DD7080E
F7962311
C2C61E34
D6FD08A9
F20201C9
DDC4FFDC
2341D6E8
D7F51D21
F5FDF60C
0FE6E81B
0617F3E4
2DE529F1
DE1AFF0B
DC3FE123
12001B18
EC1C03ED
F4371257
19F0DBEB
F5E02209
0D480F1A
E1C9DC15
A8CE0521
3CF7FDFE
1EABE0F9
2706F0F4
A30EDBD8
14F00DFE
C8EE0B10
15F9F5FE
22DE98FF
F9F2E128
FC230DE0
E20CE8F9
35E6FACE
F9F9E2DD
22E20034
E8F2E2F0
0B04C6D3
E0F807D2
0936FFF8
020D36E1
D5F8D411
2822F7F6
0EDE56E1
E4361EEC
E4F6F8EA
D70519EB
F829E5E0
E334FE1B
ED16ED31
ED28FF11
0A0B110A
00E916EF
F2F5FC4D
1E1B2610
F7E6DAD1
D1B0BEDC
E7E8192C
03D51CE9
0CDD2107
F604FF07
3AF8061F
122343E9
08C4CBDE
FDE409E0
29F9F7E9
CB0B0203
D1F43CE7
09ECF5BE
FDEB1AE3
050F0A03
FC07E3FD
3BD0E4E9
EAFE1CD9
E2ECFE1E
E9C6FC21
E6DE00F0
EAD026F4
F7031007
24F12129
F1EA0AEB
03F2FD36
F8221705
1E06E510
E2EA1110
0EF7E4EC
FD1DF1BA
37E830F1
E62308E3
0DC310F5
F4FA2426
0BF6F2FE
E8F2FCD1
F318FEFD
0321F816
1027F5EC
02FFFB06
22F5FA01
07F7F6F6
EFEF30F8
F5F71AF0
FFE6D62B
FEE8F9DC
053EF90D
EF050611
FB291229
DEC1FDF8
E1BDF5F9
0DEA17F7
DA1C0BF7
10E7D72C
E3DD40FD
0FD3160B
E3300318
F110E729
DBFB22E8
1D04EDEE
2A140E36
07E711D6
F9150B01
ECFCE2FC
14F5E601
0413FB01
12C8FC23
10222B03
06DCE5E7
0BEFFDE3
CA364024
0AE8EAFC
C5F4FA21
E121F23E
004302F1
332621FF
18FD01DF
FB320007
0BC1DCD7
0C37EFEF
D015FF26
EE16EDFF
05EE22C6
57E1D6D2
F7F4EA18
FEEB1CFA
0F433FE4
FBE02502
E2F1F5DC
28423E03
E2E00EED
B830E7F0
201A0E0C
3E061326
08F1DA1C
3401FC3C
06FBF7BD
F41BFBCA
B512CCF0
082DFF06
EBFB06DC
37FC0BDF
BC190338
E32856E7
554D0011
0CC4F6E7
0BCC0639
07FEF22D
0B070ED8
1F05E4E7
050B0D2F
25BD18F0
D0E2FB06
BFE6D9F3
EF11E912
1A31E6FF
20F714D4
FEDECDD8
09021310
DDAC120D
34F60ACB
F0F6F61A
ED1400D8
D00E370C
EF0AE911
FEE82257
DDD710F2
FE2D11CF
E00FEEF3
1832E006
24FE0219
FB9E49C6
E1E7CC1C
083A1E1F
C92D530F
F42335ED
26F7FAEC
F60B1E05
06ECE3EF
34EB27F4
1E12F82E
2BE21DDA
C711FEB4
08EF12A6
D7B51B5B
FF01DE1B
CFD9BE38
E2F5D525
DBE80125
D820FF3B
FE26DE2C
0124F608
CBEAF7F0
EDB8D224
04CB06E5
600CE7EE
2A14024F
FAF2241E
D4F5E916
E94003E7
D1CB2D00
FBF40B2C
FBCFE6C9
13F92BF5
2B22FA20
1C06F1EB
11101705
E90ED057
FCFD1E1F
27FB0E0F
1106FDEC
E90615C9
DFEF31EA
F81CFF3D
D0471EDE
E31CF5DB
20081227
0F03EFD8
00FBF313
79050B0F
B9303FDD
FE0EE0C3
DED40C2C
ED560713
09DFCEC2
2B1A0A15
031D3DEE
FEF2FA07
04F102DE
1C18F126
F9B4F5EB
CAFFF600
28C20847
C50918EE
1BE30B2A
38D54FF3
FFFFEEC4
FAFBD406
D4244D22
F80B21F7
0F121BF7
C8E8D942
0715F1C7
060BD10E
140B300A
091D08F3
0114A832
C2101147
0E0CD010
20F00A04
FB13B40E
CCD3FA27
11071001
EFFE28F3
02DCF4FD
F7BFE511
1B10DFD2
2FE1F3EE
FE07021E
EEFD01F6
340BFED8
FA303DEE
FCD3DA18
2D1A03E7
11060A18
16150125
FAFAEDE6
EB1AF50A
0FDC0104
F2C4D332
22FE00F0
E7D503EB
080BE6EA
FBED0BF4
FE1B23F1
0BD6D600
05E1FEFE
F3051418
D101E3FF
FCF6D6DD
18010B10
1CF2FD0D
0CEB1BF0
ECFDFE25
EF39E707
00E6FA16
15D9F9FA
941124F5
FF0FC9CF
162630DB
2FD50805
F90AE1FD
1BFFFF02
F5FD0904
F3DCE5C8
F60B1D3C
F2F7FB07
0FDA04E6
F6EBE30A
2FE900DF
EFEEF4FC
F3080108
47BFFEE6
0623DB24
0E1D0AE7
FD17DBEF
18FFF8FB
FDEA0DF8
ECABF312
23FC0DD9
E90FFFFD
082AEEE9
BAED0533
E8DF1A10
BDDF7EED
F9DCEEF3
0803040D
2BE7E7F8
07D7D62F
25270712
E8F5DDDA
2CF90EF0
E2D4F80B
E5F5F3FA
5960D70A
CB3804E4
FAD333DC
E92E173D
DBD71FF7
11E0FFFB
151B0012
FFD0E102
0FE8D2F3
E51102DA
FF1BF0FC
04EB2E09
F9EBF80B
F701E4D8
DA182436
EEEE0DA2
E9010823
E8F12FF9
03DF031B
EE0B0602
EDB9F4D0
F5FD0412
F7F32EDF
0AD80EE5
1EFBC4EB
FFF024D3
1D36092F
F2EA24EF
13D918E4
FC25020A
0EEFD1CA
18CD0EE5
E8124414
1A30D906
1133F502
0ED91AE9
E2DD11C9
EBDD10E8
3852FE3A
F72320F6
E3ECE616
230BEA07
15BA29FB
0F20F9F3
DABECB31
BDDD08EA
1DCADA29
04100B11
D51B092F
02C71C24
05D8090D
16113001
22E7EF31
330A3000
F5D71500
F11629EE
E2281309
F4F3F5F1
CFE4F42A
D917180A
0329F028
F8611EA8
B3F102DC
EEEF1E0A
C561163E
CB44EE31
1C2E4219
C83AF1FA
1AEDF00B
D11AFDFF
13AE1157
EEC74F00
E6A81B14
5ACF0018
0EE2C72B
30E8FFEA
03D325EE
0EE31A14
1EEAC7C8
16DE0FE9
FD07480B
07291FD6
DFF51F20
030D430A
D64A0A31
FA22592A
DF070B12
10C919DA
13FA0C7E
EA141619
E9DB0127
3DD4F92E
08C6E53A
BCE82CF5
1419CEF5
DB1AF81B
F7BFF308
DEE6BA18
91D01027
FE0525E0
D40EC0D9
1A1EC0F3
EF14E52B
F7D2D9EF
F71BD839
E2BE9BE2
03062FE4
162EB108
2CFDE809
EAE84AC4
D9ED1B11
36E7260C
00A70DC1
030937E5
22E811D2
FEF13622
DFC4F452
F60CCDF2
07D5E8FE
F8F2F007
FD011031
0414EAF6
A91EEAFA
1BECFCDF
130F1D22
2226040D
CF16F516
E0F5001A
000DE6EE
00D0EFDF
1304E6EE
24F80D11
1006EB32
EBD6FA11
F0D41006
0A14030B
CA14F404
0E010F15
18FBE9FB
E6E3E203
16CDDF16
FC08CCEF
1AE1FF15
F91CF527
F538E70B
FDFFE62E
1A47FC08
25FE3C33
161A22E5
21FBF9E4
19D405F4
EAFB080D
03DCCAD5
1F0412F6
09FC04EF
2D23D70D
6830F015
04F6F0FB
000F17DC
11D6FC24
EFCEDCE3
E3FD07EA
DBD40F12
0ED2E90E
FBFC08EF
F121030D
130528E5
F71FE809
D82436DD
3EE7FEDA
F2321000
DFE0F5FD
0D5001E2
06161009
DED8F72A
F623EEF2
EB0301FF
2441E116
12F022F6
FAFD0408
EA63EDF0
44403011
F4081222
D70ACBE5
E01B0315
EAE6212E
F82FBAEE
0D3F05D4
2B3CE52A
0808FC1B
08C9DE18
E5F9FB4F
411F21E0
D1C1FC06
09D90B10
E6F7F2F1
D8EBCEEC
F8093835
E72115F6
0EEFDCFC
0C020523
080813EC
D4F236CC
D90BFAE5
29B5BFC8
15F9F517
DE1EED0C
FFCF1C3D
290B0711
2D0FCA23
FD220F16
07FB42F9
18BAABCD
1AF83423
04061F1A
F62BD1FB
FEDCFB12
CD25E819
0DF1EAD7
1333F2FB
4405FFAE
1611E0E0
F7EF001F
E4E3EEF0
02F7FDD2
EBD6E6BA
021317EE
B50B04FC
E4E308DC
E912FFC6
1F0CF43D
E5FB19C9
180332F5
24D60F0D
DEF5F2E9
09F53B06
0F361CEF
2FD013D2
0BDDDEEB
3AE6E0F2
E208E704
D7E6F9FE
28FDF92F
360CDF1A

