FED9DA1F
B411DC1B
D40909E3
EFEFE7F7
D00FE83D
18080C3A
20CA2EEB
010AF921
0A1718E4
BA07032A
25D805C2
28081C25
F319E1C4
23165C03
F1E411FA
1BF4ED1E
0B1C22D8
2A08F2CA
5BBB0E03
F3BE1834
F0DCCC50
3E05384D
E8E6F1CF
8110F4E5
01F9E011
E1EE2F06
E3FB0026
FB13CDD0
34D1FC07
D900C7D8
DE3A3406
3207CC2D
E5E2F2DD
481403D3
CD44F8F7
DA0DEF1E
F7E50403
43F9F005
C4BB23ED
C31D3BE7
8B24293D
C8F8E60D
1CDD17DC
EF1DE4FC
F507D60E
11052FE6
39E3121C
01051DB6
098ACCCF
DBFEEAC3
C54CF60D
3FD3110A
FC190F19
053807DF
C23ADC0D
73450F2A
1734CFF8
2EF60610
E4D9FC29
B93AD9F0
182805F7
C8F0E4FD
FFECF5E1
1F09ABFC
ED2DEF26
F3E4152C
16391323
181610F4
0AFC1320
F611D509
D1A51717
191DF24D
DAFC030E
F6EE22DE
04FFFF12
0A0918FA
F027E1F5
DEEF0ACD
32C5FA30
E3F5ECE2
11EBDC08
3B30FE27
0C461301
DDFD0D0C
FD180321
0E0B1712
DCBAFF2E
F718ECC8
0719FE3A
000BDC00
D8CB24EC
362AF41E
0505FC42
DFE83413
F60AE836
1D0D1B17
F130E716
DDED0BCD
EFF7FAB7
0123F7DA
13CB04DB
0CCFE1E0
03EEF222
1A200CFF
1DCC0E03
C409AA01
EDEBF000
1505CDA9
1BF710FD
2C22DCF2
DC13FCDF
FBEDEBFB
3CF826FE
F6DEC6DF
D53AF1D2
EFF207CD
EDF4EF1A
54210E1A
F8050618
0B00F215
F1F9EDE9
0A09EA0C
060108F2
1902DB01
0CEBEAE1
F20403EE
251FFC09
5D0006DD
110D09CE
EC11ECE1
1648EA0A
02DA2BCB
F6DE051A
F5EFEAE7
040C1709
EA050008
0F091248
CCDEC12A
03EB371F
F009EBFC
DEFF2434
07EE0114
E9160DFF
ECD518FB
B317AABB
1528F44B
FD1BD42F
EEF9FA01
04E4840D
FA2CA1D2
4B13001A
D227011F
39EA2AE5
070902F5
D8030C06
0E23DBD9
2EEA1C79
A417650B
251ED729
CCEA58EF
EBD7F3EE
FF03EE12
21FAEFF2
3F073ED7
F21BD324
290E2715
06E5F4F7
EFF80922
0AFA1707
08FB25FE
F52F3102
430EDE1F
002DDDFD
1C1E01FC
E0F1EBBB
FD07C724
E032F802
E731272D
F3EE3CED
0AF902E0
0BE70AB7
DA06F3B2
FC0733F8
01101A0C
F7FEC10B
010CFEF2
F940E8FD
0CF9E109
20DF11FF
F91B3409
0E060F0E
F12CBE18
F3C6D9DE
06041B12
05D92500
07334837
011D1A29
3D1E1920
E33CFA39
BBD4990F
060A1D07
24CCE8E8
F015020B
DFFA45D6
2E4706FF
BDF21B18
48E60F15
EEF31FEB
21EB05FC
39F4C9EB
C0D8E802
15130FFD
D229EA0E
1DFE0EE4
0EE4FBF5
04F70AE7
141C0CF8
C50E0410
041F09FF
A4FBF712
E30AF3C9
10F7DCF8
181023FA
0508FC2F
24280525
F8DC3A37
F10505DE
AADBCACD
09F21DE5
FBEB081C
F6B709E3
0812E3D5
0508D51A
F8F9D3D3
1AF1FFE3
F3C019ED
EBEB0DD8
0BE2FFF4
F9EFFCFE
3F0EE429
2D2D19EB
0DFC0E0D
00C82225
F60F1A27
23F913F6
E7F2F9E8
4A49FDDF
74F1E8C4
E1BDF20E
E73C3524
FCEA0B0B
4201F8EF
EC1AE2FC
22CEFB35
F2D70BF8
CF2B070C
CED70709
0605EAFD
E7CC09F3
04F2F52C
08200600
EF08EA15
D007F6E8
FC183E05
EC09012E
1D201508
2326EB0C
F1FC10EE
C2E0E6EF
31F7EFE0
F4DFFD34
0B1A0D07
FB0906F2
ECE510DE
04FAFE20
05EBF13F
1CE6FAEA
FD0301D9
0DEDF8EA
F5F8C4E1
24120BF4
CCEF2825
013E01DF
410901D4
0327F802
1F08F526
F3142A37
F9EBCEE7
F622E0F0
10011332
0E1C0118
BBE6F342
F3121AE2
0BEA18F2
EFFC1AD5
D51D0C0D
EEE90D2A
0F143A33
E51304F3
FD15F20D
FF2C0203
F30808FB
14EE0628
0F08000D
EB10F001
0B08FF07
0D1D0419
D9F0E7E9
E91809FF
DC00FD13
FAEE00EB
E8F5F9FA
2BDE0005
E6F5E3E6
1129E90D
0B120E2A
E8F0040B
DBEE0008
FAEC0204
C01AEDF8
2CF5F90B
E0E245EC
0524F635
2555FB0F
FE0D08E5
1FF4F910
F7E3CE02
19FCFC14
23CCEF0E
E53ED5B9
0081F113
E432FFEA
0FD8F310
000EF70C
CEFCFAD4
0ADE0F00
01EDF728
07CA1A19
FEFF26D1
17DBF311
3A1CFC20
FD17F81E
EB2CD6EF
27C9F7F6
372506FA
E2C8D01C
FC02F4F3
1E1BDE31
2B0D1915
17FAEB1C
19F34F24
FB1BE612
C52A05FB
F5FF2323
F9ED1307
06051EF2
40262D04
2FF539E3
0C810BFD
F2D40D1E
12D01EF2
3CF5F922
DC041A12
F1F621F3
0814CD13
063417F9
1D0E0C4E
F30ABF63
F5080AC7
22F2FAC5
0EE0EA25
1FEBE017
E41ADFFB
3720D7E1
FF14021C
B916C028
E8E310F6
363B3104
1713E0E8
343F0615
0CC4275A
B5B52BF6
04C71037
16FB040F
4D4208FF
F6D4FEB1
19011A19
D80A2418
FEE1F7EB
0D14E1F4
09CB0422
D809EC0A
10FC1922
1AEBDBD9
EF12DB3C
E703F902
EE0714F3
0508DA13
0CCFE0E2
3FF02CB7
26FFD0FC
D6DE30DB
E0DBF797
50E20EF2
050924E8
040E2314
F3170DF8
1302FDFD
EBEF1B00
04D1CF31
0CDBD846
E2BB19D8
61EA1505
08E22E2F
04FF0F2E
EEEAF738
40EEEBFF
F20E0BF8
D43EC7D8
5A0F1327
F6E7440E
07B05DF1
140A16DA
FA00EEE8
332719FF
ED2201FA
F944FDB1
04233EF0
F00102E7
09D0E6EC
DE2CF007
EF04F028
DA59CAF2
E8271DE8
48F5DDE7
F6FCE216
F8ED10E0
FE3C12DA
F7A4F9C7
17C7C8DE
1D2ADAB4
F1F6DA18
F0511244
43D7FCBB
FD01FF23
E6F73BCA
0DF0E3FA
2AE80B20
EEE50409
FCF304FF
FB06F338
1122EE1B
1E09EBFA
F8BEEE0F
2020FED9
FDFDF7D7
04F3FC02
00120AE8
FAFEE1EF
FDFB0CD5
09D1FCD3
CF01EAF0
130EEFF0
10ED07FE
26EDFEDD
EEEC010B
20160E09
010C0915
2CE101DD
F7F217F5
FE2810CE
131200FB
D2140902
FDABFAF0
03D7F811
F6102214
1304D52E
0A05C711
C0F216FC
4346E317
F709F2FE
32ED270F
0A0A0C04
FC1BF504
04D819FF
DFEDD2F5
DC2DFFE3
2FCF09C7
0DF3F6FB
EBFB0409
F5BD0631
572AC842
11CBFFD3
3FB6E3F5
E1072011
F60AFF0C
2EF4F0E4
EE0C1409
0B0FF600
0AEDD9C1
07FDF213
F3EFD437
080BE702
E40C0521
1D98142D
F2EBF8EF
196413DA
DE1FD813
04F403EA
EFF8FD07
30EE0917
E3194124
0A19EFEB
BE044AFB
FE18F7F4
17EFEE07
FD2EF6ED
20100D17
F502FA0C
1DE1C9E1
EF12050D
F232DBC7
1AEEFFEB
BB02C1E1
4C1B21E6
F0F4142B
001E1527
C802FA01
ECF702F5
2CF91029
CFDAF828
0AF8F7F6
4DF0ED17
A0F11A27
B0F2CC12
0419113A
F3EF16E7
EAD7D606
F713D719
F216F3EA
07150D1F
BAEE332E
1411CFDF
25FC4B0E
05F30B09
E2F0F3D8
21131DED
DEEAFFD7
D4231FD4
1CFF09DB
02DD03E0
FB06F3EB
291C0EE6
27DAD740
D4051120
B4D9D4F5
47FB0231
FFEFE117
DA39F40B
0EFA35FC
EDEC0AF3
29F92F17
0116E32E
CDECBCE5
D722F2EF
F8EBF6F9
FE16EEF0
07070C01
F91304E4
180926E0
17DCFC20
EB05DD15
D917DF0D
180FF50B
D0DA03DE
0DDFE1EF
3B06EDF5
CB032EDA
3FF30331
1D15210B
FAF34A1F
1CD1FAB5
1C15B1B0
6B050F6A
08E0FC06
D200E4DA
CCDF0FF4
F2B949FA
E1BFECCF
28BC02D1
01130F30
43EE9431
19CAE756
A3F7E4DE
1838E9D6
EF4C0CFE
1B24FA0F
00F5BBF8
2AE5CF1F
2FEC3A11
181D3C04
C84DEE5B
2D2AE3EA
05D4122D
E103260F
0819C62A
E5C8D000
9FF0D648
42D2DAD6
31EE161E
D9D0FAE6
25D905F5
C43AE637
FA07E439
0A11A3FF
1304E1C8
FAFC05D6
412F0D1C
DF25BEAC
16EB0813
F519D820
1FE33708
3443D3FD
0AE9DD14
C5D40E11
D1E9FE07
19F906D4
D7EC26F9
BA230526
34EB2C0D
49BBED42
F2DDE4EB
37E61FB7
DA06DBB9
17C8B824
45EFE609
16C317C4
0BE4E50F
D3EAF10C
142203CE
D6F7CE0A
18FD4B02
0C13DE12
F7EFFC17
FA9FF910
632EEAEE
EDD3B9FF
FC3C22F2
14FCCCE4
0610E3F0
FC072602
16E305FC
1C0CED25
290CD916
00FAFF08
12220451
1004ED08
F10716D7
16242018
06F3E4FF
3AD7F9F0
0D060FF0
215A29F3
F3DCF6FD
1B26DB09
2616DBE8
16EFF8FC
F42723EA
23EFEC18
06FEF9E7
0E0C0218
CCE30C22
0706E318
4145E14F
18EF0E2A
0FD8F5D0
1516FEF6
B7E62827
E70AF310
F2F0FB29
F7DAC91A
0340FD0B
2AE6CC10
0F32EA15
DA1F0605
17D9EEE8
C85B000B
04E1C4D5
06E4EF20
DC0A1206
FE141127
0008E8F8
19D802DE
FE04FEF5
4F03F0F9
08FA2401
05F10623
05123EE4
F609F533
E70AF1F5
F52AFA42
3B1EEE28
15E7EEEC
ED01F8E5
130025EA
5803050B
420F2EC9
0AD81F12
1CBC003B
1E0EF0FA
A9220A31
0821C00B
F40BED17
26191A27
20D813D3
4DF5F129
C9083710
DF33F4EA
0229ED07
C11AEBDD
40E40900
C4E410F7
C123B533
19FB1111
2C040725
DDF4F1DC
180F01EF
CFECD127
F80B00FB
F3D6FE2F
2C1956B9
F31CBDCF
E021CD36
CADDF6E5
19CD1EDB
0CE0D12B
FC2EF209
F4FFCCF8
0AF6FA18
F1F9151E
EE040C36
EE2523D7
FE0CDB10
1F1416FB
10160F28
DE12DE06
3DF7FBF2
E3FBE621
DAC6B456
05F22F1C
D9F7081D
F40250FF
39E8F8C5
0CE458C8
EEFE18E0
4609262C
311C27ED
FA16D1D0
2A3DC814
26FC11FE
05281AEB
FE333110
0011130F
B40C02D5
1FE8F1FC
D3F91D16
E000F82A
65240613

