AF0726F0
CB155CDF
E7290445
4FE57A0A
2112D437
410540DA
090BFEF2
0F04F9E7
DB22F11B
F42B1A1E
3C0D1AD7
13150D0D
090AFEE5
E5062C00
F91CEB19
C520F902
CEF1FCF3
4A0E4BEB
3F3CFAFD
DC1219EC
F9FDD938
DE0FF6FC
36110E38
08D4C80A
F3DBFEEC
E83C01EA
17180005
F764EFF5
BFE30507
E20EEC0A
1814DFD3
F3F503E6
11B60304
0E01F8F2
C8F21C55
E4001200
070110E9
9DE4FAEB
12EB00C6
EBF3DA1C
FED508CD
DA01A2F8
D8E0FB2C
FD06B8B1
F004DCD1
2E5518F4
F6C2F823
FE44D2D4
30051E13
E2FB3013
EC1107DB
BE5DCEDF
D7FE42EF
380C013F
EC14EAE7
DB262833
230022FD
C41EE62A
B930EE40
03E52110
1C1938C2
F4CAB7E9
D9F12D2B
F04E2FDF
DD11BDDE
1E1BFEC9
CD24EFFF
C9EAE808
E6DBFE1D
19F8C80E
5AE9F1D7
EB101F25
F61EF4E1
280B16DF
F40419E5
EA4EF028
26DFE9EF
150DF5C4
F1E6D7D3
5BF010D5
E2FAF5EA
AAC87935
C3FD20F8
03E21240
EBEA14ED
3CDA19DA
1E0A1E10
5510D03E
FEF903E1
D31F3A01
B4F238EC
01C92B34
18F8FEF8
063B18F1
1F26F329
F913C1FC
F915F302
FFFF0B07
2E1515F4
22FD8F38
2AD826E0
D1F3120E
CDE6C9F6
F5C304EB
F7F21107
FF0FD308
0B0DF143
09E6FBE9
E307F601
FFFAEFE9
B325041B
090DD4E0
0A1DF3E6
37E01BCC
E7FA0EFF
33F01BDC
04080522
35032F00
D8F7D7D5
F12E08CE
1CF5BF3E
4BFC0062
16021712
0AE81CF7
1AF9F51E
DB17F1C1
14FE14EC
0818301F
EACDEB01
F5ECE8D3
E8FBF812
DA0CEAF2
13F6F038
D911E63C
FB29C0DC
42C61BEF
4712FB0D
E904F016
08F91103
110E3DCC
0D163CAC
C90903DD
53FA201B
D80B03D9
3AE60DA5
C29868C5
E819FD23
F716FFEB
1DE807EC
6FCDE5F8
23F1EBF9
02D5FED7
0D2A31F1
2028E4E2
04FA37EE
05D1E4AF
FAEB1601
FAF4EBE6
DE0603FF
110EDB16
1B00CFC4
0A23DF0B
DEFFFC6C
B43B1939
34F6FCAE
F30B00CF
D40E0B0E
8CE9DD16
F025CEEB
321117E6
35F312D5
ECFD1D20
0DFDC10E
10D5F3ED
4ADC31E0
4B0B2413
11323002
4DFFE9F9
23F02214
D41D1AE2
F90CFC01
EAF30911
BD1A2C0C
E4E1F50E
DE22069F
3D2FF5EA
3C003711
E9ECE5A0
22F008E9
2AE4E6C5
F705EDE5
012FECF6
31010CFC
20E52DDE
2FFBDB2F
F3CE3236
03080702
040BE1FC
340E0AF6
E94EF425
2A252219
CEF9EC3E
702B50D4
F948F6F8
E92DEACE
BE26EFFC
F30625C9
E1DA9360
FD24EEF1
D433EAED
1442F721
1FDBDB3D
28D9F7BD
411E9439
1F22E1E2
1EF7EA0D
F4E229E3
0A0DAFD5
50C3F3DD
0F5BD4BB
060416F3
DB34AEF9
01E52E0F
130FCD27
E3DFF1EB
011068D7
0C17BF45
A504033E
E527DD0A
47E6EC16
D1DA03E7
04FA1565
DBE2F203
D36004FA
2B110238
4D3DF223
1516FBBF
E7EE061F
071906F7
130A0DCF
0527D230
BACEE34D
F109F224
E8E73806
25FAB512
C2E9EB06
F8EACBC4
E31F1023
EFEA2A07
13FEDDEF
F4DF0017
EDDA19E3
D01AFB0A
13E4F6EC
DCAD1FE7
4B54EE26
01F0DA48
0217ED0A
D4E8E534
08DB00E5
0208E2F8
0FD51419
BDEEFE11
1E0DE8F0
F3C6F108
DFF3F5F4
EAF50206
E9D3FAC8
18E4ED2A
1B1A0617
0BEBEEE8
05411959
001808E0
50EE1141
EBFE201C
F127DC22
05ED08D2
1BF80610
0FD8FDFE
0D12D4E2
F114211D
12F9331A
0EE4D2DC
FFF10FF1
2DFC0209
F50B00C3
34F0030B
0612DF2B
32F136E7
D5DAF4FE
EE12E7F0
09162D33
37BEE932
AF1E38FD
1007F0E5
17FF0A1C
0CF11BFB
D43324F6
10D5DC12
021310F2
030B1F39
1DFFB91B
E004131D
EEE2D722
D8FAE70D
341EC90C
0A130CD5
B609F416
1EF204F5
0C0E1CFB
3BC207F6
37DA0E1F
E90718EF
11FF1BE2
2CF5332B
EAEC01F9
D9DBE0F9
35D106ED
BEF70131
1CE112F9
E017FDDA
292F06E8
06E3F50B
2AED3BE6
1BF62AEC
113EDA13
1746170C
1CDCB8F9
4A0F4FD8
EDF7012F
E9F9CE11
1105FCAE
09FA0E15
01F8F7E3
0E4BDADD
DD0D1B0B
F0E53033
0356DBFD
F40FF318
0AF817EF
0AD2DE29
212ECBFB
3BF6EAD7
E220CE19
0DFFE4C4
13FA2738
F337FCFE
0AFCFBFA
D1372BD4
0E26FD2F
2F0F3414
E5EE3320
E1FBF3EB
1E21EB17
C02E22F4
3AEB1CE5
11F7CAC8
0BAE0D16
CC131ED5
FC1B08E2
F30C2A39
FE005A32
F3FACA1A
D0EE2CF9
2DD42412
F814F61A
B6D20F30
24E202E5
0AF42ADD
42CA2707
3FE5F914
D2FBFFC5
D7F71918
CFD52DF1
FFFA1BF0
C517D339
2512EFF4
D2C23832
DDE9FBF0
F8E04B10
E30ED1FE
E2BC06EE
1BE0F60F
1D24F439
2BD8CD13
2801D10E
D127EC23
FFD3BBE4
ECF7D352
D82BEB14
2915F606
E506A3EC
6DAEEA3A
7E0C22E5
43F43A0E
E833CF1F
E6F7100F
FBB6FB1A
0023D51D
BEFFE63E
040914EB
CFDEDF0C
23F7F9BC
E307DC33
F506FA36
F522C5EF
DA291002
34F8081E
F7070DEA
E14CCD00
01252625
2743D50D
1616E8D6
F1210019
FFA8E6F4
F1EF0C01
09EDE7C1
E5FE041D
2E1F201B
F5C2F307
FF001FF2
0014DAE0
F8E22F1A
E922EFFA
3709D1F9
ACC4EF0A
46F0D8C2
3BFFD61C
F048FFFA
C3E402FE
DD12D3E0
FF1F242F
163A07B8
10ED3A24
19DBE907
360B06EC
2113E7CC
1335D72A
00D9DBF4
DF26EDEE
06D628F5
396108FF
27D7E8C0
FBD7A9C6
26EBD324
2CECF00F
47F3F921
14F612CA
C410F7F4
E8231CEF
E40BEE04
F7F011E5
EAEBC525
07C2ECD7
0EECEFE4
E712E0F2
EEC30709
EA1B1414
FD1008FF
FA06F50B
F9120FFD
E6E3BEFD
2B15E8FC
040018EF
230B01FB
FEF7EE12
0E1111C7
2C082425
201A1503
DAE2E1DE
082513D9
0FEDE8F6
1F00D7F3
2F21E925
E81FEF17
14F00EEE
0D02FFF2
2A14FEE9
DE09312E
F540F90B
0C13E6E4
F1EAFA0F
02EC15EE
01F90419
0DFAEAEB
F1DDF603
171FFB0D
F0F7DB09
19DFADE5
E8430618
2E03090F
1CEEED03
0E11F209
C4F3DCF3
1BEED1EA
38E91EE8
F7170706
1EF313FB
08FCE7C1
21072603
000DEFF8
FF18E6FF
E71B0FAF
3A1D2609
1A2513ED
062C05F3
F8080DFD
20E9D20D
2B04E2E7
05140907
F800E7F6
0EF7F615
5BE7FF13
CBFFC522
371903D1
DAFD1614
1E0B39F9
D219ED47
251D1301
D9FCF110
3128E0B9
01FFFCFF
200FCE1D
CBE8DB02
0C0BF0EF
FABA1ABC
D3FA08FE
F3D827F3
1FCF40AF
05A51A3F
3E08D912
F2DFB3F3
E3E8F304
28011AFC
D718D4F5
CDF21A30
10210703
FBCEE4FE
46F011F3
D2E4F90A
2DF00AF6
24E30901
E10902F3
D4E50CDD
F11E07EF
F10821AA
FA1AFE12
E710EA0D
FD3B05FB
C308FA25
11000701
EEFB17F8
B9122112
D703BD0C
2000DD21
111DE0F2
FC021414
FE090007
08F807E4
D3FBF344
38152519
AEF7C900
490AF400
B6FF2D23
E60CFAEF
B903DA0A
01D1F915
D6F83DFC
C3CD01FE
0809DB01
D7F0FDFD
0C01E3EE
D1C3D7D7
1332D700
FC0C1AEB
0416C213
0CD9F54A
FC472642
D6EA17DA
E92FFA28
03C1F9EC
DA1209C5
E0F10D29
16373000
65CD04F1
573AEF12
F0F9E3EE
0513E610
2C0981F4
454CEBE6
F8CA1404
E6FAEF0A
F023F1E7
DFF2D7F6
F3F639E6
DA9DDFEF
F71B451A
111DEEE4
E3FFDD1D
D9EF2C2B
140B04FC
1DF517FD
21EFF0B1
E41CE8FD
1CFEE8E3
BE152CE3
D003F044
1AF719FD
EDFB3041
52C5F9D3
D7E9E6DB
DEDA120F
36080705
AB49E04F
E449F1E1
35E5E2DB
4143EF07
1BB2C4C2
C460B344
ABF2DBC7
F30F17CD
DEB2D316
D41AE696
29FD0648
F1FAFC33
F316BBCD
BB2EBBEA
EC19370C
38E54913
BDEF07CD
17E52BC4
EDD8D32A
E52FD5FF
ECFECDC0
EBCE1B21
FCEF03FC
CFC814E3
013FF114
EEE0E9FE
E01E13EC
2722E20D
AE201ECA
FC171A06
12DF0CEE
1EEF03F1
CFF80CF5
050CBD0B
811EEAEA
1D04D809
F7D3CC0D
01F6EBAA
C9DBE9FE
1B1BE6FB
E81516DC
E2FF05F3
FDF915F6
0F1EC40E
0E16F40D
1D0FFCF2
E7051609
D6EF0621
BCDA1E27
C61E19AE
0AEF0AFD
F1DBD015
200639FE
F4F424DE
F4020EE5
B9E8544A
E824FD1F
42FAD1DF
34DB3744
04140AE8
BE19FC02
E80AE7E5
EB24E4FA
B5D3E9FE
FDD2F8FB
0F20F119
2D2AE306
F1C3E20F
F8FE0511
0F136725
DD33EF39
E41C2115
240B0AE5
260B172C
1F13C9F1
FFEC2711
0401EE08
220D02DE
ED2FC6CC
F7170521
FB17E116
22F4ED0D
F6FCFFF3
06E83102
1B1009D5
1327F016
CAF4FE0D
0CFCE3CC
D5C12409
D4F14410
451DE8ED
ADC41C33
D8DD5518
FF29011D
1B42F51B
1206EDEE
03140001
FC04F219
17CBDED9
2ADFDA47
20F917D4
13EED7AB
CECC07DB
19F720FA
09CE2BF2
1D09EE11
DA24E7EC
22F351D3
19DD0E08
F809F7F8
F1020D1E
14070030
17E91B0B
E5F3C222
18E2E702
2E2110D7
F0E85574
1B0CEC2A
EFEAF61C
C5E8FF5A
F613DED3
D619033B
C143081B
0635F055
1B0C0640
E90CDEEE
F0D6EED6
12F101F0
B8220E1D
F2F2F609
D02CDE14
FEEB22A3
DBFEE212
FA23D9E6
301AF60E
2615F124
F61D04F1
FC05D80F
131E06F9
D7D20D06
301DF8FB
0EF204C4
09DC16E3
1CFF04B0
F524E314
0EDF3CE1
FBF8E1E4
DFBC1606
D6CED310
DA35EA0C
CA284037
12F81629
1EFE0DFE
1800F4F0
C2094E0D

