FED4FF23
0DBE0E12
0FEC1B23
EEE1C808
F8F00143
D805F538
ED070ED9
F1EDFD0D
DA0406F2
E51995F1
12131E14
0124270D
DAF4F1D5
091D2736
D3FC1906
060F2907
0BEE48F2
321916EF
E8C20807
0E0E2C06
E33920C9
04012106
070E1225
20EF178B
F0FDED01
F72C13F4
D05D330D
13D1DE54
E21E0ADD
2B48C1FC
1F0E1EDC
032BC7EC
FCF20827
D31D33F0
0C1AF8DB
E9E6B42C
0BFC0BE2
04DDFCEF
EED4142B
2137C3F3
EC150444
39FEECE1
C026EDD8
10B822EC
F1ED0100
F3F7E7DA
F8F51216
EAF6E117
EDE548F2
1EF8E721
011218D2
164FE930
14FE4DF1
EE0CFE17
0CD41BFA
F7BA02DB
E60A0430
EAD30FDE
0DE6790A
27F44014
F61609DE
0E0705F4
BF02CA09
EE364B0B
00F90807
F018EAF4
12F2FB65
FDD4BD02
0407022A
331107FF
DFDC33C7
E9160A29
0B13F4E3
FBD1F509
0521FE2F
FF1CF9F9
FD1B0BF4
FC03F7F9
0CD60FEB
D81A1507
0632003F
DCF9F617
040E1D08
0ABCFEE2
FF060EDB
08F00800
FC291525
E614DC32
1849F401
1EE8DF4D
F1D822FE
01BCF2CE
FB131E17
3CC7F1E3
E2320C11
0BF418F8
180FF7D8
F2DA0D1C
01EED922
FD41E4FE
E504E133
EA151129
E82E205E
F9DADCEB
1EF71C17
F8DCDEE2
0313D225
0233FAF2
E9FDEBE6
17FE15FA
02FA07D1
09EC0135
FC1B3025
0141C9FA
0E1BEAE0
DC47D722
0D07E5BD
19C2060A
09CBF6EB
DD141123
F60EF443
00231AFC
FD01EDEB
E5E512D0
10F7E634
E40AEB1E
123AF911
F0EEF316
06171BDF
EAF00C35
FB5E09F7
080A3AE7
15C81101
E72A0017
FD2AD1E0
0BF2F51B
FDD41EEF
AEE42BEB
01F71A1C
43F5F3E2
FF06DD06
EEE5D0D8
0BFD1411
F5F9FC0C
3810D4DD
09EEE216
DA090B47
BFE6EBDE
FDFD990A
E726EB43
0DF0DF97
11DC2017
1604F30B
060610DB
FEFB2501
1EFA0EEF
C30510FC
082A0A12
E409D016
B3B5DCF8
C3171232
1809254F
F0F7EB2E
FCCC1E0C
17CEE1B4
F3F0DFFC
C7093D20
3410EC1A
E70DDF02
26F6270F
28E9FEBE
0A201C2F
1FF3FE01
060CC9F0
4E04F2E1
2D203729
D9BF55DF
DA3F09E4
07C80F14
FEE033E4
FDE9C216
EBCCDDF9
F908F8D9
FB0308E5
E40BBCDC
DEF8E909
05E2FCE0
E07315F3
25CDD666
C7D81509
E6DD1006
2914D425
0A1DD9CA
EC07E100
0BF8ECDD
1CDD3635
17E7EB04
F5F9E61B
08FE0F11
FEEDC9F3
D70304EA
1127FFE9
D806E01B
EF2E1AF8
1EE915F3
F40E162A
F4DA34BD
FA1BDA1D
2FF6F7DD
0F27140A
6819F7EE
2EF0161B
1C27284C
F5255418
EAF8F2B2
EB07FD06
17DBE8BF
00F902C4
E1CC0335
4103FD02
FBDE17FF
FD1EF534
13EE0712
FFEA289D
ECFB15EE
FBC9C02E
F9DC19AC
EEEBE5E7
F7BAD8F4
E51D091F
17FD033E
05BA10F7
FCF91259
D9DECC01
0BF50916
0EC823D9
16080814
EA06E53D
04DB03F9
1408FA0A
08DBC6FA
12C1AF45
D5D91C37
F90E3430
0CED15ED
2B0139ED
ECFA53CB
FCF9D102
EA0E4C5E
09C9F1FA
44FEE0DE
FE23F4DC
0700F6DA
FAFBFF0D
D4E01A0B
0E3C2538
F5490408
26E3FB0A
F5EFF8D6
F10B2C00
1842FACE
0BEA221F
0929160C
01371B06
E400EFE0
2BD72F11
D007D52A
13D7DC1B
08E20DE6
06EC1307
13D520D2
151CF617
F4213005
B6FAFE2B
111B11D1
F9F015ED
F8FD30EA
F202DAF4
FF230F05
100B0200
090A20DD
0E1B11F2
E71EE400
EEF02A09
06290D16
D41908D9
22D9FDF1
11EC12A2
FC1AFD22
0F161AD1
0705E925
321A24CD
34ECE72E
1B0802EE
084DF6FE
05FDEEFF
F2F225F3
FE00FC03
D8EBF7CF
F61A09F6
08E2F21F
13EDF30F
F608E71C
18F9361A
E9F50B11
FAE5F326
F012160D
DF02EE02
ECC4FC00
171F13C7
0416EE1C
FA06F3ED
05FD0819
FD330A00
0A040BD0
2C0B17FA
F4DC21F5
05FD0D09
0BE1FA08
E3ECE305
07E9F009
D70FFA02
BDE1F5FE
26110C16
62E3DCE7
001CE7F8
44F43C20
310CEA01
E1140FE7
E7150B37
B0DD1A03
390E0DC8
E6E506F7
42CDE4E1
2BF9094E
FE1BF6EC
CF000BF4
0C0714F2
F8211703
052CE8ED
D5FD1126
F90106C9
E626372A
0CE8D101
1A23F913
BDE10447
07F4590D
20062F1E
1BF405E0
EAFE56E8
2613D637
F0051DEC
49ED02EF
ED02021E
EB180C19
13DBF80E
F8110F07
DC240ACC
2ED2FA26
3DFFEFF9
ED25188D
2FD02306
F5260FEA
1CF6DDE7
D8ECFC17
EBED3005
BE03DC24
2A32F3DD
DE07F10C
D5F609E9
ED0B0E04
EEF20621
F9CD0BDF
D4DE25E8
0FFFFAC4
D5E039FA
08D0FCF1
B5D50C2D
F6E61FCF
D0D5FF0B
08483232
00D2B104
16F10110
00F014CE
0D1FE7A7
E4FEFFE1
E9E1FA50
2D590D1B
13F42815
1A232B1C
E41A1ED7
F82BEFB9
C0D7FBD3
0D07E97E
07370655
E213064F
E02109EE
17EBF7FA
0DFF1B1D
FE1A022B
D612C219
3004E213
38E7F2D5
18F9EDEA
2233D137
22301318
16F8E4F2
E602EBE6
DF0015E7
F1EFE805
F64AF704
2EFEE2D4
090FFE3D
E4411DC7
DC17E7F5
F526111F
CC18E404
FD34F3F9
F65E17E2
21C825BE
FAC700E1
BCC6CA2B
15EAD8ED
E81109DB
E4F91DDF
EDEC0428
0CEEE517
01E117C0
2B1928DB
F5A2070C
FCF2022A
0C07020A
1BD501D8
F202C43C
DDD9CDCC
DC12FFD9
D6EB50F4
E114E534
07EB07E0
F0D807F4
0E74E4D1
F0CBF3F4
DBC4E0DE
130C01E8
E343F611
F923F9C8
CBE623F4
FEE80100
0C0213EE
0D0B08F5
F504050D
0904FBE0
44FC312C
2AF03C06
FC19E508
E214CFFE
FAF61FEA
F01B0DEE
11FB1BF8
F406FD26
FCEA1508
FFEAF2DA
F9141028
09F0F7F9
17FFF6E4
EC0CF6F3
F2E3E4EA
FE121AE9
F9060219
E637CFED
24250F2C
FCC509E7
CFD72CBC
FABC09E6
F90817E3
E6FFB7ED
EFE008FA
0DF2E10F
E7204FF7
0CF9011C
E00D01EA
FE07D807
F5F50737
0704F613
0F2C11E9
F3242532
DF3A3134
E137D9D9
E9F708D4
FFF1F9FF
23DC0A0A
F4F0E3FD
1C06EBEE
D31F1C1B
03E7361F
2418231F
2001FB03
0405F2FC
E2FFDF08
E714D222
F918FA10
EC02F220
1F0EE405
FE02FF08
E75C1615
0901F427
24E10E11
DFDB04F1
F8EA040C
05F4220B
2BE911E1
E015F9C6
FBF00A03
08D4F203
0F2D0D00
FDE61D25
FFE3E904
DEF00D1A
E40DDCE8
EC3C1B03
E305230D
E7EB47FB
F1F704EF
FE12132E
F51FEDE8
FCFDFC07
C3F61733
E4EAFEC9
00E30007
0DC9F519
281F0CF2
01ECFA37
F7D5F142
F308E6E8
2F0B030F
08C7060A
0F13D80D
F00DE521
F11A1AF5
E2DA3344
F60A030E
1A0512EF
FD2135FE
FEE1D231
3F2DEFE8
EF14BE09
DAC2EFE7
F61CF5C9
15BD0D0B
F20AF11F
E7FBE41F
FA1E0DFE
FC3803B9
1EA3F71B
0A51B30C
F0DD1328
DD03FA02
2FC13CE4
D9CFEE1D
1E0FF2C8
FCDFE6FA
01F633FC
E817F036
E8152110
FEEF30EF
D8E4C1FC
EBE91C12
E907061A
E0D5DDF2
A706021A
05160314
1CF2CBFF
02050FF1
0CF7250E
FDF5CFE2
EA03D62C
FC15EBF8
0F4C0E04
20D5EB24
FE0BD5F8
F614FCFA
0DFFD9E2
19F7B0F5
FFD4303A
EAE50DFA
2420F9DD
0329FEFB
F7F6E9FE
0D2033EC
0963DEE8
0E3A2BC3
3DF012E8
20FCD829
501A1DD1
CEFA6CBF
27D2EB20
1408E932
300BD62E
D6D6E111
100538E3
3BF70AED
F13C1E1C
09F3091C
E2F8FC20
F2CDF0F9
2AE55800
F5E90338
6BFEFF3C
F8281B21
21314133
1D0C36B7
D60B5FC6
14E1EDF1
EFDCE21C
DE2E4923
09EA2F27
F1254349
3523F002
19F8F8F5
FFC4D0F9
C92BE426
F92310FD
EB38F9FD
0AEBD901
12D61FDB
F451FDF0
D500BEED
E5EE1200
38F53E81
05AED732
F919E418
2303ED44
FB6B4DC5
351A2100
EEF41605
081CFA02
03EF122F
FE32E1D9
14C6F342
1ABDE637
FD0E07FB
F73413E9
DF1804CA
FDF80102
193E3FF2
04240F16
EAEC1B08
0536F311
1813FAFF
00F5EA2C
062516CC
031FFDFB
1823FACC
FCAA07F7
0B3A0817
F1EDF60C
0C10F407
1EDDE901
F0DE192C
1DE3FBF9
041E0218
E23F36F8
14D9DCFC
0F1F40F7
252BE0D3
112CD50D
F00ED114
05CE13F6
EA0DE201
F60B1FF4
2CBB18CA
13DFBAE6
250305FA
92396233
0EFE0FEE
25071A10
D0F70DB7
0311EEE1
16EDF4CA
0200FAEA
2A17E2F1
DC1318F2
E2F4F12E
02092810
1D06060E
020B0BC2
1CDFE0FD
DEEE1427
EDE426E5
0EEE0A07
2108D60B
04F92AEC
FD07F5E9
F517FD0D
E42BF8DC
00170A05
05F5E214
CB7EDA31
10371F0C
11C100ED
1421FC13
E7EC160F
1ACCF6C5
E2ECC319
1957DFBB
0FF8FE27
11270513
0F24F212
FB012404
E201EAF5
2CCCC733
F8A0AA1A
1A182F20
CC1AF401
EC1C49DB
09172F27
F6EBE2DB
EFCDEF34
01FCE1E8
17FAF9FA
072FE3E5
0EE61FCF
1339ECBE
45EAD5D8
10C5E361
CBE5FC16
E320EC0A
EE1C19DD
0ECA0043
E5EFEF0E
200108F2
30BBD2F6
F2EA0B24
1A13C8E4
1729EF0F
F1060E1B
DFFF10F7
01E916EA
DCFE1FE9
FDFD22E3
0C0BF71A
F221FD0B
F80CEEEA
FFC821D7
F9E40CED
FF4CD4FA
010E19B3
280E15EE
1EDBCE47
DA1E05FC
E9FBF7F7
F31B15AB
10380DE6
134B1302
F8DCF8BA
0E140A13
0C0A1407
22F2D9EA
ECE6E2E6
E63439C6
12FAF304
C9C7151A
130616B8
E806CCF1
0D18FA0A
EE3D3C19
10140EAF
0CFC250D

