06DE28DF
08EEE754
1DB914F0
1A0716F2
100BE8DE
11A3C4F1
FAFB0133
E3FEF50E
D33432EE
F80739B6
330B10E5
1FFF0DDF
D5091202
21FF2FE5
0EE11AFD
18F5AA1E
E5F063FA
180CC73D
38DC18B2
1D01B8C5
310D0CDC
1518DACB
0CFD1A11
1303FACE
EEF61EFA
0220E8F5
F8F3C319
20F902F7
E7061408
FBFEFFF9
F0FCF908
F1F7D51B
F30608A0
E3151EB1
CFFEAE0F
1D014A1E
000636F6
1436E115
57D248F4
26F9C8AE
F61709DE
1BFEFC0F
0BFC0FE9
CDF720F3
1805020D
111A1ED6
CCF8DF12
CEFBF0F7
2600E9FF
E6FC39EF
FFF1FB17
E801EBE0
FC04E50D
F2DB515E
2FBF0C11
08E4FECC
22EDDB3E
DBFCCBDE
13A92002
E6192FBE
1202F91B
E9011E19
FF0103E8
24F9E921
EDE90117
FAF61E3D
0F0FEE05
15FD46D8
0AFC0AEE
F40AEFDF
1EF6D008
390D0F19
F6F22F0A
0508C83C
FB0D12F8
FBFE1FF2
F7FED232
10F60805
F9E81E07
09030017
27F4E12D
1AF71B0B
EB02FF04
0E081CFD
FD130BEA
0D06D52D
16E3D112
FF050ABC
FEF22845
12F23C1F
FF0C0C16
FB064EC7
0807E8E5
F403050C
E61901F8
040008F4
FDD8F809
2AF90B9F
16E810DB
F4F3C42C
E4ED3523
FEF1DEE8
EDCC4039
160404EA
09D7BADF
01E83B10
03FAF64D
DC00FBFF
11FA0937
F0E6DB26
161810F0
06FE1ADE
E2FAC31A
0A02DE30
26BF30AB
D2EFE23A
01F12FB4
F4011CE1
F5F017F3
0D025202
0C1233F6
FE00D5F1
F900FFE0
02FD0135
F90ADC09
E9FD1A20
F8B1DB12
D002E1E2
EDCEF410
FB72D0F7
E1084524
E4B5DF03
070B00D2
FE16160E
E3C2EBFF
002F21F5
093316D2
271B1F15
D5D1EB34
F00C1AEE
0926DEB2
EF3F47D8
ED1AFCF6
FBFB170C
1407DA0D
162D0BDF
CB4EF7F4
E1FFFD22
0439FFD9
0EF21733
5C2400E9
2BDEEAEC
0C001127
C23844F6
DFD72134
FBEA11FC
E400FFD8
13EA2ECD
CBEFEDD9
F93EF725
FABDFD30
101D3A05
C0EE0500
F02B1BE6
E32301FB
B92F01D7
100B0723
F88AFF13
CADFEEFF
29140E02
22AB2626
153CF00A
F4F1E6D9
FC0CFFD2
55AB220D
4DA033C7
C7024F3A
08D7D53D
060C24ED
79E0F1CC
46DCF7DE
FC2427F5
2A270C11
FDDFFFEB
0DF21FFF
F429F5E6
DDCDEC07
E4262B6E
F43DF2EA
26C4F525
27E15041
049FF62E
F5E22A30
25AA2F49
EBFEF6DF
040BC69C
D7B71608
203DDB6F
16E4F349
233106F1
F2291CDF
FA543BCA
F2F6F0ED
FDB421DF
15EB0BD8
1348DD41
1016010F
2BE0EDCE
40E82C2C
FF23E8F5
2CE1F00D
347EF854
DFD917CA
EA26F70F
1FE4FC1F
0806F3C9
EB1DEF07
0AF2BE3C
D91F0E44
E212C3E1
020FB3EB
EA2FFF23
FB1506EA
26D6ED1E
121AEC0D
FE04C820
D9FDE0F7
1321033C
F9021E13
F20F051A
FB23440C
00E5C1FC
F6132CF9
07E4013D
1A35D916
F211F02F
0B00F6EC
F2F5E3D8
28111E01
2101E903
E2E2E603
0A2019DF
15D1A304
0924FBAB
E203F525
2DD101F0
0AED1839
ED00D7ED
210405F9
27570DB3
21D1E0C6
19242FDB
EF04EFF6
24CFED11
F3F0DBFF
FE67E918
CA0A41ED
DEFEC921
0DD710F5
21F60227
1904E4DD
0A061A33
FCFED713
2E04E70E
1EDCF115
00FAE742
ECF511DC
27FDF2DD
E1EA170B
E6FE1629
E30AFB01
F608F081
0BEF0A08
FEFF0C57
E119F41E
09FFD8DE
14FFD410
17FD101F
1AFC0FF8
02FE1992
ECD90766
E6FAEDFC
F7F91B01
280131F8
F7190DFE
03FE3C3C
DC1AE608
BFFD115B
F6FA1CFF
F9012BEB
07FBE8D7
16FDC2E7
1A0C0C04
020028BD
FA19160B
F2FF0C44
DF220E01
43000C5D
29F51A0E
F70511D2
FCFA01FB
0F03073E
F70AD8EC
EB01D5CE
EB1B1CED
FC000020
05F9120B
1C03F2CB
F41A3414
F70138FB
0D0FF8F6
07FEDBEE
20F4F6F4
C4F80C3F
1A271123
F8FEF2A9
F9F9DBF3
FCFC1547
F6EC1920
F8080D18
EFFF2606
FF0709F2
2DCE0D17
EFD12AED
FEF406EF
2FF0FA5D
1A1B1F03
1CF41481
38F8FB01
15FD0010
09BDDEF1
D4040ACF
2F110CF2
D90CF90A
08E3132B
C902C7E8
0CC72D0E
030A3249
EB16F3E1
37F7F107
160207D2
33F648DF
2147CD11
CFF925F8
36E52AE7
20F9F819
8E3606E8
1A07E1C8
10E4F035
21070FB2
E7FB2F47
D9FBD955
BEDA23CF
EEF90FE7
FF052310
D41A022D
F931D6F6
DC08D4F5
1F3DF1C1
2A28D8C9
F3CC38C6
EB011890
0102EB23
11F642FA
D3E1F431
E41418B7
6446AEE1
F6EAE618
29001125
01FCE626
142CFF46
30FE224B
01113ACD
DD0816FE
F2A7D8E4
D0F6D4EE
FDD52210
02FCEF44
1EBCFEAD
06FADAE2
3C1826DF
D30A27E8
06FCEBE7
F7FEF00E
9C1A160F
26FD20D9
CE2C11E1
59066404
B6E2B709
F3F53CC5
02091AE3
F0F837E7
DA0016F7
F90ECD1C
0FD2EE35
CDFFF8FB
0A04D504
03E00BFE
EC1517D4
C3F9E711
1E1CFF1C
C80B0A52
331A4C55
CEFC342A
D2F8EE2B
2E05F6DE
1A230721
F608EFFE
EF002016
E0FFDAE1
F3210740
D001F3DF
39EBBBC3
06FFAF2F
14F1EFFF
3DF608F9
08DEEBFA
F802FBE2
15E9F30C
C302C228
27C4B836
9DFE3D0C
C528030C
FD47EFD2
1D20E509
25FFF330
0B0E30DE
E2FF13E2
51F14DEE
28042A02
FFEFEA08
01CE3806
FE04FA34
01FEA4D8
0C29F4B8
ABFC1611
2C3A2F02
DE091BEB
DCCED40B
EA04052F
09B71277
1606DF36
CCDACAFC
5200230A
D6F5FDE8
0C04E7C1
E7BD20FA
D203DAF6
12FB04F8
EE09F902
1CF214DC
E5F5EBEA
F43FDAAE
0C6A590D
09F70E06
E732160F
FC020CE6
F532F6EB
06E9F100
DAD111F7
160902D5
FB97ECF6
FDFFEE00
FC1A0C01
F8F70C0C
0727D51F
08021142
18C6EE19
0DE30D18
07B8CF0E
190ADE0F
22BFD40A
E902DAFB
049FF150
D81F40E1
CACF0401
26DD0515
081D01F4
C9163AEB
3ACF09D4
FD10F6DA
05F2F5D5
F20AF013
F21122F7
FE0CFDC9
F3ACE0E1
F1F5FC37
EDB7EAE6
04F70FF0
FAD801E2
02CED6D3
07F3DC2B
1ECC14E4
DF83E8E8
01F6FE21
FD48EF22
1800F70F
06C8FE03
30E91BF1
01950330
0DF3F3FA
E816D310
0203EDF3
FD33EB1F
FF24DF46
06D7EEF9
DB3811F5
EF2F03E4
1603DB02
08DFFA11
EF22DE08
174CEDCD
F9F9E40E
1503271B
00FEFF0D
110105FB
13E92B34
FDF32CF6
270DB8D5
ECFE1F03
F5F7D616
200A1110
0512E336
1A023E1B
DC06040B
1A0F2AF0
0D0E292C
0CFD0D13
E0B7FC01
24FFFE09
F6C9FCCE
03FF0FD0
FFDA3000
A1140615
E5D435EC
0B11E5B7
F2D9D52E
21F8A40F
09F2F7D0
24FF1D0F
EF090E2D
FD05E3F2
08EA0C15
E8FED8D5
29F9E2EA
F8F5E2E1
DE0402D3
0D0BCDF6
2919D9E0
07FCDF08
FF1B1721
1DFCF21A
CFBDFC18
17109EE6
ECE756EF
0006F918
0F1CF449
E504E0CE
32F92C17
FF060381
02EF18F0
190313DA
26FBC62B
F90FD71F
13DEE2CE
AEF91AC5
EEF6EAF9
0005410C
06000F4D
F51052DD
FB233DD0
0A060C07
DF36F20C
F203D62D
EDE2C6C7
BCFB3900
C6221ED5
2C36F8FD
4ADC27B9
F81D2F11
E45C0504
F214BF0C
CD0A16E6
D2EA9AE3
100B26EA
0FF8F93E
EEFFBB0B
2CEFFAEF
43EDBE0E
E8070002
312DC820
D9F80319
1F3E4902
BA1320FD
F3F3FA02
E1F240DC
1317D844
20E12E27
FCD5FAFE
18F9C5DC
5502C9D4
EBEBF4E9
0E47EE23
32FEDC0C
2DFB33DA
201A282D
2238D9CD
EFFCFB2B
F1F90AF5
DBE40145
D1F132BE
D50A8AC3
D7F8F7FB
F501CB1C
F430FD19
DAFF0BDA
18C4E9C3
36CFFFAD
38DCC803
E413F401
C201FEE3
0F02E2CD
F63EDAF1
0500C92B
B6FA24F4
0B09CBC9
34CCD812
1F0020F5
D1BABAEB
D1EFFADE
223CFD0D
BB00FCEC
E8EADF08
E00B32F5
A914C61E
26F50510
32F00425
FF00DDF2
031907AC
36FD1EDA
F7EC1DEF
0010F10D
E403E423
14EA3BFF
FFD00D3D
EF25CD0B
05F03A12
F8EBDEE6
FE0D0F0C
F0C8E70E
E8FB00F1
1D0C0CEF
FEE7D313
48143515
DFE50DEF
3E204820
F514E8E9
2E0AF805
370EFAE0
082500FC
E5F9F1F4
16C332FA
3803E811
B41BDEE8
D1F101F7
E70D2709
E7210DE6
E1E62EF7
34FE28DE
F60D0AFC
0DABED07
EBBEC8D0
200DCA29
0445151A
0CFCFEEB
140C0008
19322443
0B23280D
14DE1FDC
100C2A0C
ED1C02EF
EBB3E4F3
3017E604
CBD7EECB
1AEF201B
0C1BD637
0BFA2ED7
F7CA0DF5
4D08FE05
F24B05EF
B729BEFC
22B40207
1EF0F7EE
30F5FBFA
BFF20514
19DAEF24
080908F1
07E7EA07
ED00EE3D
312C0FE4
1401E7CC
EF02FCE5
FDD51D09
08DFE811
BC03D7FB
2900E722
1BFEF008
11FFECDD
D8EDDF21
DD11E0EB
FE0C0615
14E3D7FA
F407C91F
23FC00C1
1CE8CDF1
25E22CD5
F4101DEA
FF112331
E002FDF3
F3EE0611
13CF1ED2
CF01F02C
0BF1D1DD
E9BFBDD1
FC2B1309
12120731
EB0524F3
F1212F2F
25FEFBF9
F110143D
45EBDC1B
D8175C33
F509D030
1FDCFB27
24BFFD1F
A5D70652
CCED0BF7
08EC2609
DBFBF2B8
25251706
E14E1FFF
0008E9ED
3DFC0E1D
AD12DCD8
E716FD0C
F819F6E0
2A1202EB
EDF8231B
1BE529B8
0C07E62E
EBEB4D42
F547C329
1E112ED8
EE1DF4D2
ACDCF212
E00BF0BB
0205A029
04EA49F4
3516D622
FE1520B7
EA053115
032AEA01
070E08E9
EA1EF812
21E2FFE0
16F42616
1EE6060B
DCDC0C36

