DCBDD9E5
D42FF2F6
18F0D7F3
EFE862F6
E617F5DA
33DFEBDE
020DEBE8
F8E61104
6423DD14
22F506C5
C5F0D6FA
13E1EE0C
1FDFFCDF
1C08D10A
EAE6C0DF
47F61C02
E2C00015
29BB1FDA
32010111
0B031607
54141817
B710AEFC
F618FFF8
12EDF9CE
3FE605FC
E8D521F7
D810E7DC
E003EA0C
02EC4316
0E1FF2D2
2AF122E2
EC0D23F3
15DBC600
4A1A2124
062616F9
12EFF7FA
7E0C0FFA
D221F9F8
EAB3EFD0
09FD10E2
09FA0FFE
26E3BE0E
161ECE00
E808FEE8
0F26DA06
29FFF7E7
D12B0AF7
20EE2502
C24407F3
00FBD7F9
1AF71AEB
1FFF2509
6607FC10
F9D70108
060A07F8
B9E9FDCB
C7E6FDF6
DCEC0E08
CB1136DB
E9F938FA
F7E2FC0D
0609F623
EDCC2C10
3ED1FBFD
251DCF02
F51CF6FD
16F3DEFF
00E02AF1
011509FC
FDEB04EE
0E20EFDE
F9E647E1
8407332A
C1D0A504
0E090A05
F50D07D0
01160101
3104E5F2
30281B07
0521F6F7
F9F1C4BD
C4E2EBE9
CC0E29F3
C8FEDE0E
F0FF14DC
EAE9E3CF
0FE323F0
60FC162F
C7DEED10
B042ECF2
01003B0D
21C6FBE8
FB06DDFE
E807F2E7
302BCFEA
081AE218
F7110429
FE15ECE8
04E61DDF
1BD3FEDB
500B2B27
D51FB651
05E91AEF
0D1B07FC
12011105
270C2B0E
FE022FF7
1709F2FC
FB12E625
CBEFC922
E52879FF
D1710DF9
23C8E027
CAF3ECDF
0806FEEE
21F5F60B
DDEC003E
F3E3E7EA
08E8E40C
EB17F206
1E131805
2AF933F3
0EF417EC
FD0EF21A
430AEC2B
EB0B0404
F217051D
E5FFEA1A
03E30BD1
16D41B01
DAF8131A
E9F31E81
F3EC12D9
E3FE0CC2
D8FF0D1F
C720DF1B
D40CEDD3
21E90281
180FDF00
FAE70122
1711F3EE
0A0AE8E5
20D8FDEB
4246FEA7
FEEF1DE6
E6B9F5CA
DDF743FD
ACFB0C6C
18DCFB03
3F142C34
01C80111
21DE27EF
4AFFF050
0E3FDB7E
3CA91FFA
1812F4D6
16C912F3
FDE31681
38EE1EFA
0C26FB83
F7D61F0A
1000FA1F
EBFE2212
0A24F7F3
E44CF918
FEFD039F
E7F1FCFF
0FE70A26
07E7D61E
F725EEBF
06213D06
04310F4E
E7E619D9
F70220F1
2BF6F704
B71518B9
E311F420
F101A849
25CBE2F6
09C3F6FB
FB15BB0E
E031177E
DA470C0A
DF2BF2E2
25E224F5
097E2B08
F8FC133B
EB1DDD13
EEE611FB
18C4F511
CF0DE703
FFFCF87E
51E8C632
1DFB0816
2B05110D
CF01E40B
63FCF0F4
B120F3DC
F73B0202
E6E84171
0DD015FD
101A1EAB
270ED24E
D3E83610
ACD9FA1B
C7071CB1
2B22E9D9
F416E404
130AF1F4
F3ECCD3A
07F612D6
361700A8
FB012DFC
1CE4FCFA
F713DE03
0BC5107E
17E90E10
DBF0DA16
3134F41F
DE06197E
201AFDE7
3C1432D2
F8FEEA1D
10FEF61C
2A2AF001
B906C07B
CAF9F306
F0DA5D3F
02FFE80C
DAECFB1A
5E13DFCE
FE0BE01C
261A0AFE
0317F706
0DDD58C8
DB0F262B
2CC80908
13AC10FB
F626FE0D
E5F80F3B
1CF825EF
0BCDF719
19FAF837
FA290CD8
EA1107FA
1104DCFB
0C29EC07
E0F3059D
F42AF810
AAFFFC63
BE14F70C
F538F5DC
DBF318F9
23F8E8CD
FC33E93F
E417F70C
20F71221
E2EF08F7
EF09FA1C
1F140212
0A11E105
14F7EE01
1FF8290C
EC0AF108
F8F90708
CEF8EA11
E5FFF408
040AD5F2
D00DEC1A
F6FB07F8
DAECD200
F2EFF121
F81AFC03
0C0709C9
371B1902
E3FD0313
EEDD25F6
F30835FE
20F5071D
07F4FF17
10F51728
F10B0DEC
11F0F8EB
E012D6DA
04FC2200
DDF72C14
FF1CEEEB
C70102E2
042EE018
06FEFD10
19F8CAF9
B907E4F1
130BFE1E
F3E20ED9
291ADF18
FD06FB14
E9F2DEE9
F107D1E5
28F510E8
0117E600
12E7EC1A
F7E41CF1
0F280FEB
EF15D5BB
2216E009
E4F902EA
CF101C0A
F20510F1
E01417F9
EA0E08F7
4B05F703
2F2323D7
FF1CF7F5
F31C030E
01FAFEF4
1DFBDD25
0FFCFFFD
2EF4120A
09F4CF04
EE050FFB
F01E1FDD
065A03DF
FF1318DC
1AB80AFB
32241115
320EDCEE
16E51DBE
0721CDF1
24041510
2BCBF4F9
D2190EEA
F627F008
30DBEADA
22FC0911
2DEC38DB
FB04F103
C9EFF310
D2F834F7
EBF11F1A
2FF6E005
06E9D806
152AF905
0E22C8CA
0B27D843
1CFFF6EC
F1E350D4
18EDD202
2A24062C
D6DA0F38
C33300FD
3CD61413
F5CC1802
0E2F0C17
CF2FF506
16F81C19
16EB04F9
F0EFDA17
070114EE
07F31109
DAAA250A
6120CAEF
1F41C2E7
1326E603
FCF3F6E5
1BF4F6AA
E9DEE1E5
E623DE0D
FA2B14F9
F4DD0A10
F5F60622
17E3156D
0AEF3505
19F01D12
E60DF9C8
402AEE0C
EBC412F6
F616FF10
2E031EDC
0C03C8C7
00342B2B
F4FA090B
D0C1BEF2
22DD3FEB
05D4160A
1C0F19EE
FE0ACFF6
011DF6D9
FCFAF6F0
0902E715
16F12E18
DDDDFAE1
1442120F
443CC1B9
F33B38F5
D3EF15E6
08E5001A
42ECE71C
F9180919
22501BC2
CFCFF5D9
FF23EE1A
E11FEF0B
C4C5E40B
EBECFD09
FDF206F9
DC1FFA02
CCF811D5
19F3E8F1
2CEC0AE9
E723E6FB
00E10C1E
E20718F9
3CD3DE12
EF14CFE8
D212FEF4
6CCF010A
EAD51DFA
222002EA
16FE041A
E8C5E8E7
2B002122
F4C40E20
58ED0803
EE0F310E
04FFA0E6
DA03DBDC
F316F08D
2608EF0E
F90CEEAB
D5F9FA25
C1B7F107
2520D2F6
1916DED0
3DF328F8
17FC330F
4D29EC0B
EE184CE0
0F0627EB
21EC08FA
F8DDF93C
F537390C
352522F0
07F7EFFD
0A003417
D4DFD010
0CEF0BF7
31F5F237
11E10F0E
3B000B00
0A2F07A9
FAECEEF9
EB060A34
110EFBDB
2DEC0E46
EF24FF05
F8F00A34
D90829FE
E2EE011D
04E9FFDE
09F9E028
0BDE050E
2C28C09F
0B17D4FB
2A04D605
F5E7E9F1
F5EBE5FC
E9F014E8
08F6F900
1FF9FC0B
E2E8D51A
ED14F30E
140DEE24
1BD613D4
1A0BDC0D
EFE9200A
E7E1F841
E20205F2
0B0C011F
F10BF0E7
EB0C2203
FB0735EF
0718FF10
F3EAF7E8
0208104E
0BE9CBF6
09210DD0
0FD708D4
D9DED25F
D2D80FF9
0E15DCAD
FD0FE715
F80FFF10
19E5D01D
03180EC0
FB420214
07FDF3CD
081A0F08
E7E1E41A
E501D00D
E150C4FC
FF02E9F0
ED1321C4
DA232924
B6D1F622
FB020FF2
05F703E7
0FE6F4F0
C80FFAC9
1122EDF3
1C2F0DEF
3EC8F903
F001D1DB
E00B240C
0102073C
39FDFAF7
18EEE4FF
1AFCF6DB
154F0410
50EFE522
21FF0AF5
21DE1CD6
F318EEE8
CB28F014
BFF9F5EA
0709F206
0CCB0FE6
0E15190A
BD22F5D8
39D7CAB5
DDF24EDE
C1211D0E
F00FD4FC
040C0B1D
D504150B
100CE917
F008270B
F5E6F900
01EADDED
CF1115BD
07C313EB
F1CB37BD
F7AD0F31
CABD12F9
F8FB00FC
04090B0A
09FBF80E
48070D0F
2AF300FE
E000110E
ECFE0CEE
F42ADE1C
10DDD804
F5050E25
E22AE32C
04FD000A
F40FF500
4CDBF516
4B0C18BD
19E6F82A
E60DE0F8
21CD2A07
F0EB191C
00F1DB09
15112B08
FB022000
FFE80EF2
1FCFF0E9
020114EF
D6B736FB
E4D31413
074AEBF7
0104B218
ED2C09F9
E3220D19
D7300609
2AF42406
06043100
B7EB29E5
0AE5041C
EAE6E207
E6150207
112010F8
46E31F0A
181DFADC
A3C001BA
00E0EF0C
34E40BEC
03F6E3F9
0943FF4D
0D1AE4F0
0E08FF36
0B2B5DFE
E8F7295D
81CE0B0F
D1DCEAF9
412AF907
F4CE1C00
DBEF1D97
3233D01B
050F2FFC
FF37131E
E69DF204
D2AFE617
DF00E2CD
30A830F5
E806FDD2
EE222F0F
0D002723
34BDD51F
2D17F311
F9FEFE0B
E4EEF5CC
0A43FCE1
1CC629E4
E9FF09F0
22F1F420
EE0CD949
3FF2E60D
F4E6AC0F
30331C0C
2CCF0721
E9FB0402
13CEB4D5
0CEEA603
062222D0
D4C511FE
0E010321
DD30AB10
FC43EAEF
0EC6DB15
C507162D
2DF2D203
43EE1967
C90FDDDC
280C14F9
D3DB0902
CF20E51D
EEC25A31
F4071D15
D900F306
2D451D25
DCF2F226
11EF0F06
19FA00D4
0F10F326
F9E100DF
DAC00527
492AF5EE
0EFB0501
0A18367E
1DE9F3D8
201201FC
1D030213
0608F104
EDE62AFB
D3012346
1FF616E8
170DE7E3
DDB1EFFF
10F1EEF3
E127E3FB
112B2023
051013E8
B325FFE1
ECEA0DDF
0EF50A12
2C2B21DF
ECF4E52B
E64AC0F7
F8F713B6
F2D40D0A
06C13B18
15CDEB0F
1E080E62
02E50707
F308FD03
C11DE308
E723157C
FDE2F916
3601221F
1539F013
F20EEA0B
ECE70C3B
DEF51333
161A1205
043DDCDF
08E6271C
EDBA0AC6
DE14170A
D9ECD8D5
610B0E2A
12F20B02
C20E150F
63E3E9F7
01FF23F4
14EBFEC7
C6F0D8FF
CFF0F2FA
0E00EB0D
23FF1F47
B7F8300E
09090E3F
D8101A02
E9C610F3
17E6CB37
AE07F4DC
08FCF1DE
E007D107
DCD9EFE6
24DA0E08
4910DA0E
32D1021F
1FE6D534
36D710F9
BEDE131F
192C15E0
EF0021F2
C91BF90F
ED241CE2
EDCF01EE
DBDC03DD
18C50022
2024FD17
DDF8ECF2
EE081AD0
CC3A1F13
2FD95B36
D2EEF7E9
42380431
1AF408DB
4722F5E8
0B1E3500
11FE02E3
161EF20E
48DE071D
02DBEEE8
0CD1001D
E3D2DA02
FC25071F
F1FBF50A
1DFBECFF
F8F81311
E7ECE5BD
0B25321D
D4F9F7F2
DAAF05B2
42232018
32E90145
F8F6090E
FEBE1525
07D8E3CF
FC0000E9
B6CB1709
C208F143
32E9DCE1
1B311E28
0FD7023D
24CE0E2C
2FFDF7BB
3727FC09
19FE1B48
08CBDB1D
401716F0
DE3B2993
1601FC1E
0CCADB28
0D012331
2D0CF4DE

