BABFAAF3
B8FD1C32
E1F80BBA
E10F01E3
F116D626
1526FBD9
22E4FC12
EC1C3BFC
11FAED0B
EA041613
E8081E0A
D9E4020A
0B4A2342
FB28040A
EDF9E9C8
F9322025
9D102718
20DB0ECA
E821F700
21FBFC2B
B70016EA
191AD2D8
0F0536FC
EFF319F3
0406E519
01000B27
E6F50D02
AAD0FD20
102FE7FF
D7F1002E
FBF8DA33
040D10C2
02EE09D8
FD23D333
FB01E5C1
041C3C74
F20B1F18
2D0611C6
4722DDD1
E3E30763
F9D436F0
62EBD815
15F20303
0EF40320
BFEF0BDD
E73216EB
D10FF7EB
1F1EE302
2D3502E6
4409D445
F0FCD8F4
283BD924
504B0A2B
EEDE342C
36E8F2F9
20F237C5
0ED0D7FA
C6DF080D
010EF71C
17EF1916
5418133E
E0F9FD6E
0A542527
08DDD01D
DDD5EA01
CB031222
15BCF009
31FFF51A
18FAD5FE
E9BF0D1E
38DF3701
F3EB1110
08120130
E5320E0D
BBF4E50B
0ADBF9C3
E2F2E42B
10FFF9EC
000807FE
E5C9203B
F32C05DF
EDC612AC
B2363ED0
25BBF206
130AE5E4
2DFD0215
DFF3321C
32280870
ED2C640B
32EFB44C
EFE0ABEF
2ADFFEB6
2E010A34
C224E4C0
F5F256E0
FB0AF2E4
1FFF3319
65D1EC35
26D2E1FB
0D1A1FF3
00ED38EB
1C1BE50D
E2091767
F3031039
DBE9B20C
0309FB1E
1F08ECDD
E10A1B05
AEEF2A0F
DC02CE40
0C022C04
0D1BF2F1
D9F12A2B
D80013BD
3CFFBC04
E401E754
D7E82BE8
40EDE0AD
F2C1CD00
03B50AC2
0D1A172D
07C1FA0D
DEF82DEE
0039F8BC
0313F71E
E035ED0B
F902E914
FB0FFF18
2DE3EFEE
E5F2DADB
29E8D30F
3CBCE71B
0C06F1FE
0C371027
18DEE306
1703010D
2A00F809
09FA1723
27E51300
01F925D5
0EE1DBD9
D8E7E90F
15F0071D
E0EB08FF
25FF2320
070BFCEC
C9011903
06C82302
E0CBBE44
4428D5FB
09D4F4F5
05F823FF
21EF06EF
146C14DD
E1EBE607
08DA09DC
FDE220F7
0C0015E2
0F3514D0
FD0BDA0A
06F506EC
D0111401
3404E6FB
2FD5FAEF
F5130BF7
07CAD6E8
1513F3DB
0E023329
2BF415DB
05F6E3CC
CAEFF900
C7CB3AF5
122DC5C3
4A47E830
20280FB6
181BE548
FDC5EACF
072027FC
06083517
37CA2ED8
1BE2151A
10F50E0C
F04C0603
10D9251F
E6F1160F
0EEAC827
EF09ED0B
3AF8EA23
50EAFF24
DC022304
BD1E03F4
D615EA06
12541FE8
1CDC1FA8
39F74600
FA0EF8F6
FA1638D5
F030E6DC
FBF84010
2CF6F546
150FCF2C
1001D2F8
390B00D8
F9DCD7FF
F1FBFE04
0A2306EF
BFFEFCFD
AEFFF2F6
E0212229
CFFA1ACA
E40CD7EB
19D6FC23
FDC10317
11B6DA0A
0FDE32DF
1BDA0C1A
F2CCF606
1C2816C8
D72AEC27
08D1F5E1
F1F8122D
D1F31CF9
20F43CCE
E108FB25
FD340622
D902E312
F9091330
181B0915
F7CAEAEE
170917F3
F4FA302E
F508CF04
35F00316
27F5EA12
CEEA14CB
28132921
06FDDDF2
EF16FE32
FB4715EC
03D3DF16
45EB50DD
1C39F113
39F7FA76
F8E326A4
ED022AF6
FFF9FE36
EE3BFFF4
23EC0D14
C6EC0530
1E26D1DF
DEF3FA0C
0E02F316
1E063710
D601FBFF
FE0208DC
E30A0907
0BD62911
E858E9A0
01D1021A
1E370489
FEF642E7
1BF6EFF1
FDFB15EC
E2D346B2
2F2A2AE0
1C2B1742
FFFB3220
EFEAEC43
FC04350F
C4FFEF8E
321F4311
05DE2CF0
01E889DF
07E327A3
12FE51FD
F9EEF89B
EBEEE7D4
F324EC3B
F5076EDF
1C0003DB
F1082BFD
031D217E
F4110E4C
11E5FF41
F0E1DE04
BBF4F468
E3F34D13
232ADFFB
EE1C48F5
01EAF236
334AD628
F02AFA17
C01C2F37
29E2F348
0CEF6309
EAF6F7CA
36FAE119
34270CEB
FEFF32EA
C9EF22F5
FBF7C41E
E3F9F381
0EEF5015
EDE2EA26
E4EE2022
1605F359
F9F3A6E6
E4F1EB81
4A3507E6
0CEFD7D1
22E284EE
2EE103E7
050AC6E5
0826F6CE
59CA15CA
CD3FDF65
FEF8C5FE
3A17F47E
FF0A4E17
E4E609C1
CB1F2100
D4230DF7
E50A1D57
DB132707
00E0F120
1321AFF3
D1231BE9
F2F2F305
131D3800
0522F4EA
AB1EEFCE
FEF9BDCF
EBDFEA0F
C0F0F6D9
F505F208
EF213CF5
E9DDEC24
C3F0DAF6
E8F702CA
F70EE902
E509D500
E1E8D8FB
D51ADB25
270DF7ED
E9ED1B14
F2DAD5D0
D4FEBA03
2BFFDCBA
EC02EDFF
EC1BCBF3
F9BA6A0C
D62E0B9F
E51BD611
F8FB0CD5
200EC8ED
F72420FD
EAF5EF21
DBD9F7C6
FA2C17FE
37063553
0508CC36
44ED18E2
EBFFDBCA
07E4FBB8
FD10D319
CEF430CB
2507EEDD
16BC193B
1C0A053C
43E8074D
D9154DEE
0412373D
DA083000
26F73BDC
57B30647
EC2AED25
D7FE813F
1F0BF8F0
F9E8E9FF
391E366B
F50E114E
1EDE1A50
1CB4FAF7
1112EAB4
E3F819CE
15EEF91B
02CA2A1E
09D62AC7
FB13F2BE
FA0C2710
09E812E5
CDFE0200
1002F50C
D81602E9
14F6CD2C
2203BC14
FEF31AEE
CE00F5EE
040FF235
27EFE3CD
D9EE0304
2AE4D5E7
BD040803
D9F44904
21DE1EFF
2E1004EE
D6F6F902
EF023D14
E2EEF711
050C2DF1
D12FCE52
E0E3F3EE
41E014AE
C0D2022F
B6231CCF
81BFE6E3
00DE0110
FAF1FB16
F2F424FF
1FF711F6
0B0B1225
332F1ED1
14E8ABD8
11C21F57
22EFF2EC
F1F1D54C
33AD1B18
410928FE
02D0DA1F
1CEF11E7
2302E113
05EF1304
12050C0E
0B3FF63A
6CBF33ED
14BA0EC9
2D28F7BF
2EE5D735
E1EF25F4
30FE32D0
DD0FE024
1D4B3B0A
F0FA0C01
0619ECD6
18F9F104
EA0EF6CD
1DF8F308
0322EC3C
0F061000
F502EA12
11E5F629
08F2FAF2
C34B1CED
A8D1DF0F
FC0DF011
D52D031E
130F0817
FEFA1FF5
2E17F2F1
17130BE2
03F10903
14EDEC12
1A18E627
FF04FFEE
07F4F4FF
20FFFEFD
18110DD5
11EFF704
1CE8DC28
DFEAF12D
18F0ED2D
13E8F001
1424E80A
EE12E6F3
E7FBEBF0
D0FC3F10
0AC52304
FBF22911
D615FF22
EAF12CFA
0BD913D4
140FF50A
0204FC08
1408FF02
FD49F73E
002AF91F
FAFC0AE0
09F405FD
CF01F6F7
F5020B03
EEDF32FC
DE1E180E
EF22EFEB
F12A2A25
20DDE2FC
FF10FD03
0300F725
EF00E0F5
2EFAEF2E
1BFAECEB
110A0E24
DC01240F
FC0BD7EA
D8050609
01C9DE01
E9DF3FEB
DED6EBEA
E5DB01D1
FB0AF905
0622FA19
0DFB08F4
14E5020A
BC11E300
15F4FFC9
D62118ED
1737FE3A
022581F5
22DC14BB
F70C190D
14F32202
04C00C1B
EAFF0FFB
2341F300
EEFAFC3C
D9151D43
0EE11A35
68F8D729
550413D1
161CFDFA
D9230E12
31F1299F
D1FAF67E
08DB2E01
EBEEEEA3
0C09CF28
3BE11511
11360F11
ED27211F
08F23ADA
0A2EB9DB
E7FD551A
E7D71A1A
E9DCA2F6
11E9E70E
E6CDF80A
23E1F7BC
F30BF101
0C0E0EF5
F9E418E7
F708E2B9
38FCEE08
12E1F307
E1F84BDE
034AE89E
EF282817
FF170E09
24EA0C18
030BFDFE
1EC8E4BC
CD0BD71B
F5E8C6DF
F6FAFCB0
E1F3A8FF
EC010C46
F535AEFB
25D500FE
D215DF25
0DFA22F3
18F9064C
130D0F1D
20F53E17
FEE127EB
37D3B01D
111C04CB
EE105B2A
F3EFF9FE
010E0C06
0EDD105D
CFEFDAF4
D80C14D5
1D2D12F7
EE09DF29
D5C411D8
DFDE15DC
120E0D21
14160410
062338F0
E3B33101
E53F0E10
E3265C0E
281C32F2
063F19E3
24F10815
E604CC10
19E6DC0A
EEE1E454
0DC6E6D0
BA1007E4
09D80FEB
ED13D1E7
2E1005FD
00020227
0BF3CCFB
14E5D713
E10033E1
E7E8F230
B696FC9E
01C9ECDD
E21D152B
D9DE21C2
091CFC0F
25D9FDEB
0CFF00E9
3232F207
0BF51807
E222092F
0D030009
1C30D0F4
CDC510D1
0E18EECE
BE1BFC3C
F10BF1C7
F5DE1710
E2F4FD00
E71606D5
E3F33235
A8F63FE8
1124CC08
1EE7F53B
0CDAEF2E
20F31206
E202510F
FE1055ED
98BEE119
26D0121A
D9D5B81C
DB13AE1C
3DD4CECB
FE2DF020
2BE554D0
0626F117
0912C203
1707FB1A
18F4F3EF
E61E3E09
CA18CFCA
111EE3DC
2810C3FC
FA001513
CE1DF210
F4020208
E3280BFB
E41F01EA
47020C02
111448F5
1DED08AD
0D18F801
172CF450
FE150F04
001B30C6
FBFFE8EB
CD2BF2ED
17CA0ACE
FFC822F1
E2203391
DCE90F20
2AE4E80D
E40B0818
FD0B0205
1B0D08EA
2BD70DB3
041FEF0A
EF1B08CE
C424F715
3D14021E
0D02FA0E
24F60E1F
26F40945
B8F01BCD
08EE0803
0E0811E1
C117E529
3014F1F1
E5FA0D08
3A06040A
9EFD1B25
0408C898
020127B3
08EE0803
13FEFBDD
1EE113FA
CFCC1EE4
E8201608
ED230EFC
0DF00A0D
5CE610FE
03101D2A
E5FF03D5
000CF000
35D120EA
E7E9F838
0BF2F426
03DE00DF
B8F013F3
D5FB1313
AF1107D7
3FC0E0D0
F8123915
ED11D92C
0EF0E307
F4BFCFE1
4140F4E3
130C0E09
021A2B04
EA1F3402
D8F0DBBC
29F919F1
F8C71029
19F6E030
D60B1625
0C312B19
2E4C0BDE
DEC507F6
F32A05BE
CCF2C9FF
0EF70E13
29F1F1F7
FEEAEC55
D013D722
E1F4DB08
01D622B4
CDFBF61C
0D0EF7F5
EAE5E822
F4FB29FE
DDEDC9A8
FFE8F715
F1EAF42D
DEF74C0C
F81BEB09
FF0EEF07
CCEADE55
1413D2DD
17F82714
FF19D73F
0DC8D730
34051846
E3BFE6F0
C321F23E
140A3DC3
9701D9D7
54FD0359
DB18FE3B
DCC6EDF0
23D130FF
203D0A21
00DF66DD
E20BE7ED
38F0051D
16EED223
050CE617
0AF71E0B
091F36EB
19E4F80C
364B1B2D
D1E2292E
D821EC05
0FE024F2

