241EF7E1
13273C21
F9F0D941
A9151D05
E5A01261
52B6F6F1
0DDCEFD4
2EF32903
0B3F621C
C306293C
F0C20D06
2FD90305
0B19E1E9
20F315C1
0FD8F433
1B18DA3B
27201028
2FF613DF
448726F9
090859F9
F7FF27D3
1202D7F6
E3F3E82D
1FF1E5E6
FEBB05FA
F1120536
64244DF6
18FA0547
F81A0DC0
CA04D4EC
D1F20610
E5F901D7
F1FAD1FC
6E1EF910
F9E9DEFD
3030E2DB
1C14F90D
E50AC706
30CAFBFD
CA0B3E2B
16BBEF18
D2F90D00
3CC81E01
F2441907
14F9FC0C
200BC734
012FDFEF
38DBD318
A61309E9
B21AEC1C
F4E209E9
DDDFDC31
3218F7FD
10F7CA20
33E5E62D
A9FDF6FD
F234EF13
0500FBF9
20010031
1C0606D2
49089723
E61BB80E
78EBFFF9
080A19F6
EB002DEC
ECD50005
31CF231A
FB040012
4431F0FC
13F3E015
FE1DE706
D6E2131A
E026DE4E
101C0127
34FBE9F4
AB09FCF1
FF0E07FA
13F9EB03
EF10FAF2
16ED23D3
4BF62B36
422B1C05
FAE24201
3F0615BA
021DE2F4
0EFD12CD
2706FF16
EED6D4EC
F0F208E3
15F2F6E9
E4E507F7
C61424F7
1527E623
1AD91CFA
DD451B1F
1322C323
F1C0EA01
E71501EF
1A35FDE0
7E030CEB
F9FD20DF
1D071DA9
1D04E2DD
E3D12021
041BF601
21F1FFF4
EADC222B
12F310FD
0405EE04
EAFB2D18
EA04260F
9525F4DC
0207D4FE
F00912E9
D6E8EB14
EFF70DFB
DDDE0C08
E625BDEE
CB00E4CF
D8105757
F319F2EA
141DF0F5
EBF4081C
1009FF1D
FD0FF3F7
34D90ECA
32DA0B14
45F71A16
400B1009
F6E1E5EE
ED10F8DA
EFF2E914
F4EFF421
210FC901
BCCAABDB
3E072DB6
E243EE09
06F241FA
1735E3E4
00E3E124
B93C2CA2
37374603
530AFE11
F8055B3F
451CAFEF
07E914DC
021104E0
DA1B21E9
E8FDF91E
F1D7AD00
D809B9FE
FA0AF9E0
DC2D160D
DC0905FE
0B1108D7
C11D3F04
0009FBEA
F8E81AF5
0F082CF2
0B0217CC
12CACA0B
230DC014
FBF15203
FEE905E1
F1D2F4FF
29F2EA07
E4EB20D2
11FEEAFB
D23204D2
22FFFDF6
20013317
E019EDC9
ECDCE006
46E201EE
25E6FEF6
080E4F2B
DE5B291C
E8E0D227
F33C2704
F626F4CD
E320F1F2
FDFCF4F4
190201F0
0A003E05
2BFD1EFD
02E012F9
FEF716E1
E115EB2C
1571B4E2
152306EA
254FFF1B
270906D5
F7C8AA15
1FFF042B
07CAE110
E3FAD8FA
E3051BE4
390F3510
00E5381F
EF00FD12
49FFCDE6
0C4416FA
15FAE1F5
EBDECA27
C43938E1
B5180226
151AE91A
0B190B0B
1117D3C6
D2D90809
E33BF324
4E0902CA
0AE1020B
EC001827
0AFD0B03
D8E515F3
F72B0100
F3D30DA8
B8ADDA12
E6E9EF12
F7321DFE
F0DF1620
13240718
FB0A0515
1816FBCC
DD05FEEB
2DF71AFE
4611F0EE
0F39EAFE
3108FF04
321E0FE1
CD23F6CF
15001E27
B11614E4
1EE3243B
DDEF2924
020BC5DE
212A11FD
0C14E91B
D8E5013A
E41EDE41
D31CFCF1
E0FBE9B9
3DE8EC0D
D5F5FA08
29FE09C2
E806F1D9
3200EE00
BCDD0831
0C000EEE
F60E0EF3
E4FE1F16
F2133B03
FD05EBCD
C436EAEC
1EE5033F
1BFD2A1F
07181BD6
1D130613
E4E80C05
12F7DDE1
421201E7
E3DD21EF
3DED0B3E
00F6F5FD
0E2104D6
FBFCF93E
2AE413CF
E61E0F08
D81213E3
154C05FF
5EEC2114
ED0E0EF2
513429F1
F0072603
780514F8
06EE0F16
10212A1B
EAFAF2EF
74001C0C
FFD6F5E4
8E19D6F9
ED13E42A
75E312CF
F9D63DE2
18F70DEE
111DFFFC
3DF2D1EF
F8ED1508
0D160FF8
F604F8EA
1C020E18
CBDC06E7
E51412E2
FDF4FC0F
4F010503
F6FDFA08
20F9FB2B
1D42E8D4
9EE8E4D4
FE2B440E
F2DA0530
14F812F8
BCF83304
F8FADBFB
42F611FC
09071702
7CFC40FD
F2E30D25
0100D731
DF11FD17
10F3F2FA
B8E6DBFA
16020FEB
02F20702
F8FCFBD2
22F1F3F8
02F626EC
DDF1E5F0
8BFBF724
E705E80C
D9EB10F3
C90C0B05
03DCDEE1
2E521E02
F71BAA13
20CAB402
15DD2210
1938D7D4
5D00EECF
15E71414
2DDF22FF
081510EA
34F40DFC
DD0B5F1F
1402A918
390916B4
4209B92D
242706E5
DFF51AE3
2318FAF3
73DB46EB
E32DFEB4
D7DCFBD6
DF0DFAFC
F717FF0A
14E41FE5
4BF2FA35
3F57D606
C20D13EA
F533E5EE
F20620FD
D8CE1E5B
9E2C20F4
23F7FC00
B8F2EEEB
C0E91123
000DE1E6
1FFAD9EB
1838310B
FE2657B2
01102BA4
3816F3AE
DF230BDE
DE1F2B16
20D8EF0B
212AB9F4
44E2DE05
D505CDF0
EDFFF9F5
9BF60BF5
BF04F013
0649D8D3
AB2442FC
07DA1EE6
3700FD16
D410D3FB
9A121F02
0C1F0CDE
35F61D0E
DEDCC7F2
2500FA02
263408E0
14FD31FA
FEE4F914
05130CD8
0DC30502
D5F8313E
B9EC14DC
E007103A
F3150900
31FC2B57
F54806E0
56ED62D8
41E31A00
FF11ADD0
DE2DD82B
F7050002
0C16CB09
D6EA0607
D6ECF729
E7181D17
0A0DA543
B4E5D71D
35F6B6E2
E205F813
E4BEE3F2
E60FF412
24EF0DF5
E012D018
E47E02D1
05080CF9
F6050225
0B1511F6
FD0ACDFC
F4F1E916
0EF3DFEB
B8E6FAED
36DEF8FC
3009DA21
2962471E
C1E93F2E
E0F10E26
E5E5E1F4
C1ED1B11
E9F50E16
FA05D600
37001A0F
33D518F6
CE10171E
EBED0F37
DADA1BED
4537D71E
0BFBFB0F
0220132F
1909F13F
1CFFD8EB
2CDC28E6
F20105D3
0405CE0E
F94B3B18
C931BF03
FA39FFEA
E6374CF6
C0E6C2F6
4223D50F
1AE0F7C9
11DFE4F0
FFE717CD
D722ED05
26FA2DFB
030F0F0C
0203EFE2
2FF9FA18
F3DFD70F
28EFF939
0DD4D8D6
1012F109
0816E3FF
08F50026
F1FF420B
F219F8F2
F42D4530
01FDECEB
02F512FB
E9FBFD01
0F01E31B
0D12FB0B
0EF2FCF3
E5FDEFE4
00FC0D0D
FBFC0811
DDC8F5BC
F5EDE0F6
16DCF8FF
00FA0C06
FF080D03
FCF4E7F5
04C8EC02
27E315F0
31F6F0FE
12E424E8
F904E708
0914E4E4
FEF1FAF2
EBF9DEEC
F3F8DA07
36D8E2D1
15F10FC5
1A21E937
FDFBE3FB
03FCEDED
1229DF11
E201E701
E02838EA
DFED12D6
100FF208
17F90CFF
D0120C02
24EEFE04
F80AF809
EAECE8EF
BB17D90D
18F9F2F6
F9270222
E8EFF0EF
00F6D520
03F3FA09
15D6F0F7
1B0607DA
14E121EA
EEF4BAE9
1106FA05
60F70BC9
2ACAD808
18F6CF30
123A03FA
9D12E717
FBDB00F8
1517E5F2
0BF33ED2
3BF409E5
47FE1EF1
D6064315
13E1E523
E614CCF8
37DA2EFB
1F1219D8
19E913FD
FB071AE1
CE0F062C
26FBEB11
DED0F8F6
37FFF32D
EF19EDE9
D802FB03
2CF0F4E7
07F326FA
E51F02EC
13E02FD4
4313F3F1
EDFF2DB8
49C13A19
1FF1E6FE
C6F6F405
E6170A1F
06350BFC
DC03F7F3
EEBA37FB
C20409FA
CB1ACF34
CDFE2C19
26051DDE
E41A1709
EE0F28FA
CEEFE70C
02E3D324
FA05B504
22FAB80F
8905EBF6
D2F222FD
3D05FFCE
FA195CF3
F803461E
1F3A160E
0D0AE30A
EE22F7EA
54FFC3F7
221CF6D9
67DA29DE
0B3E1E2A
7E12D71E
1EE318F9
170308FB
13D412F2
FCFCE318
D115D0F1
10EC1E14
FBD71ADF
2511DAE0
CC01E01C
0CF336FE
303912AB
F5F90FDB
09F8DDB8
29F7E551
08C823C4
01F20703
D4BB10E6
4DD8E9CE
0D1DC210
A7FA1605
2541F514
E2EFEA0D
ECCDF6DD
DC10F31A
19BCF5F9
19F4151C
EF17F6EF
D91B054D
DAD50BDE
11F2E2F6
F4F592DC
1CFE30F0
511ECA0F
DFFBFE17
E222F801
E21B061A
D1E30E0A
66FEDC09
1CFE38E8
A402FF14
19F2EE2C
94F0E92B
160407EF
0DE30DF4
BA19E719
EEFD161D
2DF2C10F
F519D8D8
15B1EBD3
A825B90F
16110ABD
FEFF36F2
22032BA6
EEED1EE1
DECEF6D3
F304BBF4
F6E2132C
23F3EA1E
EFFDFEF4
E7EB02E1
E0152539
67D0A225
E135E515
0A20E5E4
FBFF3219
F4001E09
F4C52614
F9FBD305
C2EF05E5
2D0B4205
EF240C08
FF1703EE
F6C3EA06
1E08DAF5
ECF73A24
DC548FAD
15C336E8
E62D0FCF
F9FF0A14
08E9EADD
1407E7DD
09EC41F5
130919F9
D916FDEC
17E7ECEE
FA050EF9
0213EB00
1D0490CF
E719F617
CF0DF0F8
102AFDC8
CCE438DD
FF331217
02F909DD
EB27F9DD
EEE004FD
0B679339
241002FC
F1B105C9
E400400D
25021D17
DD1C111F
FCE7FD09
FC0FFF1C
F9DD1E2E
EA04E122
B410C8D8
AA28DE17
F1EEF300
D4E442FA
28E904F8
EEFD330C
DE121416
F4DEFEF3
08FBFCFF
190AC3E7
01F20F08
23011305
FD2A05FE
FB26E3E1
FF321B1A
0133E020
08100EF1
49E4E4FD
080508FC
F5FAF6EF
1EFDD0EE
22F2EB38
4B2B1EDB
2AF3FACF
F8263804
24F6F6DF
17FFD7A7
340DC6F5
01DEEDFE
FD1701D2
F5ACFA07
2413FBF0
1AF73720
36EF0DF3
D6F0F6FA
42230A1C
2B02DF08
CA01360E
EAE4EEE4
58E8EEE9
FD39E811
03E5F2E6
021013D9
550A02FC
C60E071A
31061AF0
F2C8CC0E
472A25D9
0F08CAED
F1191220
0944E90F
FB16193C
0DFCFC22
DA42F2ED
EAE12902
20DB2C0A
F42118E2
CE3BED35
42FF4121
3216CD01
04070802
DE0C020B
0223F4E3
DAD32437
1428DDDB
08D81A15
FBD0E731
B551D4C3
F52C470D
3F22140D
27F0E225
180A1E03
0307FF0E
FBE6F111
F3AE2BE1
3817BFF2
11F8BCEF
FDF1F719
01D6EBEC
DCFFF617
3C2FE6F1
F8F325EA
E6E8CDEC
A8EA2D06
241D3011
9920FBDF
FB0E1E16
320A16F2
E10EDACD
E7D7061B

