21ED16FC
2515D5E6
13E716FE
49B3D2BD
F528D604
51FDE2E0
2C06CE02
0F253AFF
F8FC1A08
2AE4FBE3
E5D42502
BEFDF80A
DEDD18FC
F9F01DF5
EFD719FA
F22CE4FF
DA2CF60E
26490F0D
E0E8F2E7
04DFF5F8
280AF504
FEE301D1
161A04F9
1BFCE208
DAFF091C
51DB3009
F5D9F213
E7E9C9E1
ECF80FE1
3C0F0513
582823EA
D7E1E7DB
EBD00501
D5F6CCFC
E9973CF6
E9CEEDFA
0206242F
E9001BEA
CD9BD109
17ACECFD
ECE9F3E1
2C1C1CE8
D0B86CF4
2F150815
12FE3907
FFE81F15
F9C20AEE
E3D2FDE1
F9C3FB01
2F3407F5
351CFFD8
E0DDF425
F3D50A0D
0561E625
E4EE3D17
36DFF8F8
F9FFFE0C
071824F6
CB1FF9F0
DF13EE01
73FA1905
0314BCD8
C31BFB13
122D48F6
02F43BFF
2C011C2A
D6F40BF8
3E0B04FD
E0111DE8
C2E00DDD
FBCF1015
0B22080A
F10BFDE8
2F1120D1
CF0F0C0F
0E08E3EC
0FFD0209
121308EF
39E7D602
1B20140B
451F0EEE
3E07E81C
DD11DB00
1DC622FF
49D2DB0A
3CD9D2F7
130C060A
DB13DF10
FEE2DDFC
26E5FF0F
E425320D
D9F9DEFF
30AAF5EF
29F01601
CD07FC00
C100F801
0219FFF9
E7E00308
0305E3F2
F4E3260C
42DBB9F9
27022620
EC1E0BF1
14EF1ED4
CBF80111
D0FAF801
0C0F0301
010C4402
FB05DFFD
F1EF1A09
FD18DDFD
1E1117F4
F8110E11
FB1AF106
11F7E003
DBFA011B
0625EC06
37D5FFDB
21EFE2F5
FB0227E3
F7FF3A1B
1823FF30
131DE912
E11C3CFA
1CD514FA
FED8FFB4
240D2813
01391111
ED162CD4
FFFBDB0F
07ED1601
12F103F7
08D5EDE2
DFD70914
E70DE614
FFF013EF
10FB12E5
67E30FE5
11E6FF16
FAEAF5D0
32F6BE30
F429EDF1
EB0340F8
9C0E06FD
13194D05
F255CEE3
08FA3019
1C22EF06
31E3BB13
C5CB0333
FB48F104
C2B10007
6007FD23
9A13F5EA
CEB2E61D
C928BDF5
1FEBEA00
ED07DBF9
1300060F
E7091603
FF0BFEFD
E7DFCEF3
2DFCE6F3
40D13206
0E1BD6E6
1CFA040E
19F5FEFB
3602D408
190FD806
F80F25E7
E0EE07B6
371646E2
34FF2821
D4D1A710
10411716
451BEEEA
24EA30E0
DDEC111F
D5D81DFC
8436F2F5
E2080ED0
ADC138FB
EC25C61E
27D0DB25
05122FED
1217FAF0
F13C19F4
4D180AFA
C004F8DC
BB26F0F9
EEF926F4
FDF90CFD
2EF5D61E
EEE038DC
DB17EDF0
7AA557A5
2FE8D2F1
13D60643
4019E8F2
0F312E20
FC4CEBDC
11ED0506
E710DD44
2316CBFC
ECBB0EF7
0DF7D716
E00B2315
08CFFEE3
2FD0F3FC
7E2BEAF9
0BE3F709
C4E0F22B
1ECB10CF
302DBE29
CF090EF3
69EEEE01
02D0E610
B90BE6D8
ED76FCE4
6140EA05
EF050DE8
48EFE3E5
17E7F9F7
13CCFB2A
34EB11EF
36CA2500
E4EFE704
5DC4E1CD
E9EB35F3
F021E2FE
ED1000C7
04D3E71E
DEE2EA19
E3FA0D26
F6391E01
182310DE
3AACCCF6
1017ED04
FC110300
212C05FB
07251FDE
EC4CA0F8
16EF1BEA
FBCF2AEE
24DF01E9
0EDEF629
F8F80E1F
460FD00F
E6E1FEF9
0B201BE9
E7C7F613
BFADD411
1AD31D0D
931DE8FA
D2EEF105
47F800D6
D604F30A
742AF5FF
0FE3F205
F5E8E207
F464EEFF
CCFADCD0
21121911
4825E2D1
29F23CF7
F3F0EF0C
E9F00C05
DC23F7DA
D0DC10EE
AA3614DB
CD03CD01
B8F33039
29F504FD
1A090731
F5FAFDFF
022120E1
EBECD6FB
0FF5F5F6
E4E8A413
B2EBFDF6
1AF5D402
14EA0D0C
A80F0F08
E908F5FE
0E11F8FC
C6202516
11F5E2FA
EFEB181D
D31FF9F1
120EFDFA
E01312F7
B91E07E5
2CEAE1FE
000FE4F8
1302E806
F2CE0024
ECDACAF8
3CE0F2D8
E9F5E221
E7F1D6F8
11F8E6FD
F1230DDF
ECCEFEFF
C0EFEF00
D8060DFA
1108E402
36E4E612
CB1316F9
02F932FA
B1FAFCF7
C4011703
37FA1C32
DDEEF418
3412E30D
EE1305ED
EED40CF4
3709000B
DC27E3F9
10B5DDE2
08020ADD
E7F34ADC
35F42F0D
C3DB3D10
D6300D41
02ECFCF8
193CD2D1
DBFD2F08
2F292408
45E8B808
11DC3815
0F11E8F0
30FB1931
0CE5F4E0
E9F916FD
12B7B6EE
0BF7041D
57025EDB
F8120CC5
17F2F40E
0FE7DAE3
DC05E1D2
FFDFD301
F70B0D01
BA13FDBA
4CFFF3FC
4413FC19
1CD70AE7
9B2A1301
2810F006
10B2F9F3
0E1CE3D0
E90B32D5
FD2117FE
AA011000
2BEAC00B
DF21ECFF
12F722CD
1AF3F1DF
59D4F4F0
3A23F533
403628E9
23110812
38DEBDF9
D60C100B
0EE50E20
28040A2D
2702DBEE
4B06F3DC
F3ECFE0A
D8EEF7F8
ACE63DE4
F5E41C0D
F7F542DF
30C313AF
0FF8CEDD
F401FAF5
0A2FF0FC
3DB4EB24
07380C10
382DE9FF
030E3B08
CEF501D4
F0FC19F4
1AF7D7EF
E009A8F3
06BC1051
09FCEBFF
E2EDB512
13DB2DD1
091EF5F4
00DAFD13
122B1C06
FFAC28E9
FEE11FF8
E6162700
0B3B2CEE
D71F1301
DE19F1F9
00EE1FE3
280719E1
E3D3DFFE
D50F2929
AAFEF80F
FBDFFDF7
E3F8FC0F
E811FB00
DACD0A05
0DF13BFD
D5E9FC14
BEF02207
E1F5C815
F3012C1F
C1F84E04
D3FF1DE5
E2EAEDFB
06F90ACF
1625E7EE
F8E9C90D
1B2ADBE9
1752022C
DA32CB05
E80EF2D1
D915F414
00111FD7
37C837FD
1D3F1F07
EE33CEF0
D50DEBFC
2FEC1010
191AD9CF
DC30E0F7
28D719F7
FC20F8D8
15DBDEFF
FEED16EA
EA010F9A
F5C3E5F0
CCE220DC
1AFA00ED
DB0EFDEC
2A1601F9
21240805
33F335F7
150A14D5
0014EA0B
E110E00A
FE02FEF4
DCCF2A19
13DCBCF7
DF0E1C15
E116200B
08F512FB
EEFADEF7
C31EFFEB
DB2A0409
FBC504FF
D5FBEA1A
1509DEFF
11EFFBF1
08E4FEFF
0FFEFFEE
EE03FDDE
2BE9BEFA
05FF1B0C
2C0825F5
0B02F917
2F13CD02
10CB041E
29F6241D
04F9EF2B
DC0A1B05
0DF10603
0C07F306
D00403EE
0F0B13F8
F9F40EFF
07281308
D91E30F4
34FDC6F1
EBE9D9FE
FB100D05
F6F3CEF9
06D70F0F
F3FBFAF2
002EF8F2
FBF4E9E0
1ED94E29
F0DB24FA
352F4F0E
0BD1FBDB
28FDDF04
0DE41B11
1C020B07
06F51603
F02802F4
0F1C17BD
1EF6F002
F9DCEB0C
FEE0FBE1
1BEE1F05
E00A0EE3
1D07FBFD
FAE6F3F7
EFFAE0F9
F7FFF60A
010E11F7
F1BE10FC
EF03EFED
20FB3BDF
DC160400
D8CCF309
DBDEC3F1
F8D90D02
C305CF3F
09101DEA
39DDE90C
0ED2D4F8
D034F3F7
28201EFD
0803F80A
280D13F6
FBFD3B35
03191FF7
0CCFF81F
E0C703F1
F3FEF30F
E23402FB
CDE6F716
BDD41501
DD3DCC27
E4CCDBF0
4C11F719
FCD1FBFC
DF061810
1FF703FC
27EFF508
1E1B37FA
E711DBF5
FDE6DF00
FEF7F5F5
29121CF0
DCF0DA3D
EE080D08
E5E50211
3D0F06F1
0EFF00FB
0DFC0F05
17F90BF0
FDFC59F4
3A122306
F5F5010D
E6ED06FE
17B2E7DD
BAFC1CE5
DFF42306
10250515
F6E90A09
20FBE1F5
DFBEE31D
3003F00C
2614040E
CF240FF3
17F8E404
2EFF071E
07D91408
F9090FF6
56FD0CF2
190E1D04
D22DFCFE
CDD9E1F2
15BD0CFD
ABFB2915
163D0A11
12F4EF0E
0B0803FC
E1F61E1C
293D1AF0
14CBEDE5
39E5D8DB
B3FB022A
1DFC16D2
FB280C13
26202D01
46D5182B
C1CB0E07
21471605
D8F70EFE
D7FE1005
8913DCD6
BFCE1911
19FF150A
30F8E3E6
F6F405F7
3117F3D9
DC1701DC
CAFCEA2F
CE1328F0
30433CC6
1CFFF513
10F5E103
D4143531
CD1B66CC
1E1601FD
32CFE307
CD2BFF00
03251959
CA220DF9
E1C7EEB6
D42FF70A
D8BDFA05
0B26E3E7
6729E8F5
FBE933C7
0DAE03DC
FAEB150B
F7DF2649
1517FFD4
E4C703E1
D10EFF1C
02D5C4CF
D62A160C
10B2D71F
511B10FE
F1E305ED
FF0B060E
2F0C0600
F4123727
FEA61002
F2FFECE3
E92F1214
E009BF1B
03E632D8
FCDB283C
EBDD3955
7CF9FCDA
FAF7E820
232AF6E5
0AE2B32B
110924D7
F808B13E
B6F7F617
21BF04B9
FE441518
01DE0BF0
07EC0D0C
BAD4E505
07261FDD
FFE345E1
0AE2DE0D
E013330A
B6E5D8E2
2DF914EB
18321319
160A160C
07F5EAFA
B2ED08FC
F901FB07
EEE6FDE0
221AF70C
4D0015F0
230D261C
9CD80D07
204318DA
161DE200
DC20EC87
50E71706
FB0DEFEA
CAF602E6
D2F34027
2DD8EF0B
00D3FFD6
D2E3B644
09071816
33250D1F
05F9C4F8
07F21B0C
07C7F5E5
1C38ED28
121AF812
B7E5E1E9
0CC6FEBB
F8F71021
2713EEF7
E3FA0CF2
17F303F4
9A0B0E0F
F3D3AE11
E21F0F14
E7F1E300
FF0DF207
FDFEE623
16110BFF
EEDD14D4
4C15FD21
F219E2DA
42DD0A05
F90303EC
F90B130C
F2EB0E0A
14E334E4
11F307E9
2915E00B
E50F2A06
47F5282A
6653E5DF
26CACF0D
D4EA0B41
1CEA17E3
EC0C2718
F20FF624
DB161FFC
8CD0FBCA
1D260E2D
EB05DDE1
E8322AFC
09DCF6A9
18E0E4BA
A7FAD121
DC261D44
2EDD1ACD
3708EAF4
FB3F3BF8
EFC733F7
2CE70116
20F92E0E
1010EBE4
11FFF714
27051615
1808FD0D
22B2011F
FEFA2FFA
FFE738F7
F8F92FFD
CF171908
4019F1F3
F2F3EDE8
FC31D7FD
FAD4F4EF
09041CD6
D3EEED08
271E0A04
D82C0B0E
1ED7220E
05E2BEE6
D7F21939
26FBEA33
EEC6F204
97D414EF
F021DFE7
3F0A191F
07E80FFA
071719F3
01CEB3E6
CA12D9F8
1A14080F
DC11E5D9
E0F8181E
E5EB1606
01FBC220
CB0A4212
E8F9E0FC
1126DFF2
FCDBFE30
3AE3EEF9
1C16F20A
DB210EF3
1218F8F7
19F0D6FC

