0FBCAC0A
2FD8002C
06C7121F
6908061B
35F91B67
21381EE9
1535F911
260FF905
F8F6FDE2
2D132944
F21817E0
191D3DF1
0E0310D4
190709DD
F4CB14EB
220C4AEA
07E122E5
28C12342
0BC44B38
E4F2FEEC
22F014EF
25E4E1DB
26F4D009
07D9DD0A
DDFC001B
E42BF4ED
3905DC36
11C5EBFD
D00CE30C
02F028F9
DD0C1625
2D0CD7E3
C60E1C29
48100BE6
A8D910BE
1BD169E6
F8E8E029
FE0EE217
D63AB748
02FA0A11
0601E0F7
F8DC1A25
F1B826F6
3521EB07
F22B18CE
302315D8
DF1F181E
D22BE0E4
1B13F4CD
0827BC0D
0D27EFFD
A1FC0B1E
ED2202F6
6132DC16
DCFE1E29
F1D81306
DCDEAF09
11FB5218
C9162222
DD05DF3C
0AE3F22B
DD10F008
27E8082D
E50FF4DA
FF1110F6
F2ED07FF
1E152103
0CFC0BC7
1CA43AFF
DDCF0808
E6221A3E
0F070FE0
C9232F03
2AFA0131
F3D50426
11EBFD22
140AFF1F
0913D82F
FB0FE1F1
02E40024
10FEDEF4
13C921C8
012DED7E
FBF5BA03
F707242F
F6DBED0F
F02131FF
04FB16CE
16C9EA0D
42AAF564
ECFBDDDA
2DFB01FE
E839E511
F8EA2321
F0A317BB
481FB7F3
0F1800D3
F9000924
F8C5FA0B
DB310ACB
0CF5D3F1
0FE9D918
EFFE141E
FA27BC3C
EF2D0200
20D81212
1A3FFB2B
01F3F413
0D0B01ED
031C0514
E5F4E99A
B1E1B754
F5C9FAF3
FBCC0B27
0FFDE7F6
15171107
05DD2F02
F61D001D
290233CA
10FD4D7D
09162F08
EBF4F1B9
0FCEE3D0
FE2BFE3C
153704E5
01CF4F12
FDF90B09
28FA19FC
0BEDE302
DB0619F7
0A08EC16
E9121D1B
091E4C05
101C370A
DEF7CC1D
FCE7FDD6
1302501C
D1F0E740
F814F7FB
E71DF6FE
EBECFF52
D6F5F808
01F6EA0F
E7F5C01D
E817FD4C
DC0C2712
ECE0CB14
F8DBB7D7
F2151219
21DBE22B
CAF72FE1
DAF2E2C9
F3F7EB03
D63815F2
F1C3F71E
08FA0D01
0B020A10
E0FA12FE
19E7D9CD
D6170C0A
F90B1E18
3E1AEDF2
FA280100
E58501D6
FAF91726
F20EF926
2205E607
E9FE2C0C
05F8E8E7
DF18050B
062811D6
0102C301
FE31D0FF
070BF10B
D5F300E5
EE37ED33
E4B70BF2
4750171C
3CF3F52E
E1F260E1
041218DD
182BF21A
10F745E7
CBD608C2
DE1EC3E8
263EE520
CF81D4EF
F9D1E4ED
10D30D1B
EA0A1703
02F9051E
00DBC829
44E813C0
D4082304
12B71F09
0AFE3317
DF190A20
3EF64FFB
0C07D1D4
D4F733CF
FDE51D10
06D51306
FA083ACF
39030A43
05371907
1CF4EEE7
CD4350E7
1BE03D1A
2DDBFA49
0F262E2C
C6BCFC2C
FBF5E9C7
12E2DC67
CFE1DAE2
06122C0E
00FAE6EE
11D71607
E8D40B48
08062826
D2F71B11
F4F024B8
FE0FF301
FFE1000D
E1C9FC17
D3F303FA
F3FF29F3
230E43F4
36F61CC1
F700F51D
E1F801F9
9F1DBE12
BB2B0821
F70018E6
2AE50AF5
2BB3BCEC
C3D7D54A
1F1CE520
F1D572FB
16FD0004
0C1E0AF0
E72A36DC
B63C200F
FEE4C32D
10F5084A
15310040
E7EAF81E
DA2DA104
DAE4F3FC
191927ED
210AF02B
E9F5FC3C
B9E2DDCE
01F6F627
BEBE16EB
22EBF203
5D2DFFFF
E814FD15
F117FCED
F60611E8
0413F0F8
FAE4F413
E5FBEEF9
CDC5FCD3
A417CB08
362DD20B
09FEFAF9
18EDE3F2
FDE82DF9
F6E100BD
C73DE711
D00C001A
04B3E4CF
11DAE0DB
FC030C24
DBC4E40A
FC1508E9
062313E4
09FE07E0
1DF40205
FCF50244
E4E31C0A
0A100CFB
0006E819
0B0F10FB
FF011709
FBFAD228
D536ED3C
20CEEBD5
E91A0311
35EC00D8
EC23E7FB
08E4E1C5
052219E3
E8F8F102
282B16E7
CCF31BE5
03E21127
18090701
26F21E08
2CC810FB
0501FF1C
2D1C29F8
0CC8C10F
E630F728
F9F707BF
FEDB0AD1
17CBEFEC
1DE4D618
23011801
F9FDDC1E
16F2024F
FBF40DEF
FD150318
3D162BFB
24F4E4F2
02E911F2
230DEFE3
F4F32B2B
06F9F5EA
F2BCE5FD
E939C14A
01F107EE
E0EDE3FA
14DE9A0E
C205F025
3BE5F9D7
5ECACD1F
E92E0F29
26273CBC
A3F902F5
250BCEEB
F5E8F2FD
F7E305D7
1D1311F0
28FF04F6
0FEDE41B
C918E4D5
BFED2101
060A05EB
EEBDF51D
0EEC2FE7
0ADFC023
21462A07
F112F80D
42182E10
532AFEC2
D90C21ED
120022C0
1037EB2D
DE04E5D2
1DBCFCF5
0E17EBFF
29C7C1FE
5CD703EA
00E1EBDE
DC0F1221
0AF8E802
14E9D428
06F8FED1
07FA20FA
F70A11EF
E3E20919
0EF640C8
0F2EC71F
EE22FCAE
0ABBF306
0EE1DFDF
D8F9FF16
0300E830
060CBAD4
F8014B3D
DC02BD23
20D00B23
FFD538CB
4B2BAF54
B90F0034
01E0071C
D9F917F0
F606190B
07E80C24
1C460510
10FBF137
E6160AC0
D30DF6EA
1CF5404B
2C11F01B
F2471837
F2E2103E
EA2CF20A
232344F5
DC12D208
ED1BE513
56FAE6CB
DF5BFDEB
00DA1216
59E5F9F0
EA11F8C7
FC12061B
ED18E2E3
BFF5DA0A
1B09CCD4
2A20E012
FB181CF1
D6E410EA
18F52322
2BF60DD7
F6E0D400
62E50011
FB12181D
FB000A12
00B30F07
10FDEFEE
ECC11D07
EDD8260C
E6F5080E
D30BD8D9
F3D0C6E8
EBFC09FF
D918061E
E3051942
F82F0EF9
C9261BC6
061FF239
08C7183A
EF26A9F5
096E02F1
CC22BAEE
F01EF6E6
E4FC0E60
C209D032
FBE5E9E0
2129DFDA
063E1E1E
F736F2F9
FEF1CF0E
0FD20F2C
EB0139FB
FD1472E7
E004E5F6
DDEB0226
F8FA03E4
FEEA10F2
490800DC
3C12B70F
F5DE0035
DF00E6F7
39FAEF1B
DC07F4E7
00CDF4F1
2A2C28DE
FAF1F3FB
E3EAFA13
04F40D11
D4E3E7F4
002B13FD
F507E3E0
F701F4EA
01F809EA
FAFA24EE
150B0507
0E19F609
EED338E8
04FC02AD
DDAC14FD
E8E91CE7
F211FA10
172CFE59
00F816E3
09E90831
34DA07EC
00171116
F600F601
0AD7E6FF
B609F7E7
0F13EE04
F4FEFC24
F40715EA
C3F3E70A
F214FB01
F50F1BD7
D509352F
D2112EED
E20A0AF6
E8E3F1E0
0200EE0A
0BF303FF
2D1904DA
E33DDE19
252A5AF1
F30FEC11
ED1FF617
FB1300E1
14110519
DA0DE80B
0DCBF902
4F121315
11FF05F0
DCEFE0E8
35F61500
D9073D1E
1412F715
EEFF16FC
1106150A
090AFE0F
09E2110E
070DF21C
0405FC03
F8DFF40B
0220E4D7
15CFF09E
4DC8EBFF
E013D9BD
140AE00E
F343B9A8
0B0F1103
C6FFF526
C9EA29BD
14042CF7
42041A0F
F01E0E28
D223101A
DD001D09
01FD0107
0508D007
DAD50A1B
DDEBC6F6
1C22ECFB
B82FEC1B
E4F6D3F1
DFEEE0E9
EE01EF47
ECD30FF4
F9D8291B
F9F6BC16
021FE93C
DDF0F1E2
27E20B10
C3F5E907
DB1901F3
F40D210F
F9FC14F3
CD45FC04
F8DAF5FC
0131E2ED
F116EAEE
E8F3DC03
0FFFDBDC
16FE101A
E4FB1816
150E04FB
2B310924
2113FBFF
06B60317
DE361725
07070805
F9BFF81E
4310132D
401AE824
3CBF1FF6
0FF0F217
E5F3FAF9
F4D71B1E
E1110EF9
1EE93AEA
E314EA12
11EADBE9
D611D613
E8FE1415
18DD2E4B
E7180EF7
FA12E919
DD0C1E1D
19020529
0422F62B
DDE6EF13
CC0C0D1D
C2D8EC3A
29AED68A
EEEE0A31
F6F70536
EC4A0204
20D11EEC
FF19152E
FC2C19FB
3E0C0DE3
3EE120DE
22FC09D8
13F311CD
990F4CF4
74FCEDBB
E101DFD8
153AE8F1
22075DF1
E611FA0C
C3F3021D
FE032DDF
0FC546C0
3A31F11A
F4DF4018
EE0FDD14
11D02ED9
E2D5FD0E
EFEA0753
E11EE2BD
24E80C21
28DDEDF8
D02CA2E6
03C53E40
F5F1FFF5
3AFF3FEE
DAEAF80F
03BEFC4A
F63A43F2
0D145503
1C06109D
D8FB18DE
DDE1D24E
09EEC918
D94CFF5B
FD0A12FD
FCD41047
1DD733CA
D65018EC
09DDD3C6
E107DE11
E5FB1A09
F74D1BC4
4503D219
EA19FAE1
D1D92BEF
D914DE0E
15F720F7
F8D20603
1A19ED08
D7DED6FB
092AEFF3
E4FCF81A
0FE4F804
FD0A062F
192FF601
05E111F8
27002926
E3010901
D2EB05F7
01D2EE06
102404E9
17C9CD17
BBDCFDE4
DD06E222
15DAE1DB
D604FD3A
EA110CDB
C315F8FC
16CFEFC2
E5F6EE07
FEEBFEFC
FFFEEAFD
F7E9D10D
00FCE4F7
EA0809F1
E5F8EE04
1100D80F
ED08F61D
F5CA08CE
1DF101DE
BB0FEFD0
2007FA1D
F3102B04
E82824ED
13D5EEF1
FB2F1100
D7EBE20A
19F3EFFA
16ECF9E5
F0E8EFF8
0B010320
170F9D08
1B1ADCF1
35C4E105
E6EF13E7
463DE31B
09F12BD5
37CF16F3
C90327F1
18F21A1F
020201F7
19F510EA
F6F9F006
07F6120A
FF0E1CF1
2BDE080B
00102BF9
CD37EEF6
CDFED2F2
F5F0F708
314010E8
DE0E0A10
F81D200D
F7011CF1
10251331
0729DE0D
E50EF0E9
0A2F20F3
2C1CE608
0EE62EF9
45C3F54D
2AE50DD5
F5170436
08D12D1A
1DE013F0
96F132C9
DC140AE8
04FA0623
4D1102F6
E0F5ECCE
DE1750EB
4ED9E80F
071605D3
E8F43123
BDE404DF
37FE0AF3
0403F9EE
17290AF1
0908DC0F
F322FAFE
EF24EF09
F5D6CA1B
DDBFB6F0
0CCA152D
CC1ECEE5
191412E7
1FFDEDDC
F918D3ED
340B1AC3
D8E70126
FD0D1737
0704C91C
A3EAF209
F3140C23
D021E302
FE26F210
BD10F410
F153EE02
11EF2DEE
08F6C5F2
EBEDF2CA
CFE4EDD1
37FADC14
07ECDDE7
26FC09EF
0AF8E81B
03FF3816
DF28DDE3
B9DCE0F0
3AED3909
0F1CF9EE
E5053ADC
0A1D50ED
E430F3E1
ECE0E41B
F01CDF34
FAEAC302
09E40C2D
EAFEFF15
EB0FF4E3
26FFF1F3
F5363920
26EFE0FF

