1B0A2832
DB1E171B
FBFF261C
CBFC0606
D343FFD5
A9B3F833
DA0DE315
D9001F03
F1FDE90E
32DE010A
EE100D10
04201906
C43C0D03
35EC3028
F7130B0C
FEC123FC
1BF816E6
D22421F7
4EFB262B
1DFB26AE
F5E81814
F3FFCD0A
F80513E9
5A1EFAD8
F858BF40
AA0916EB
C52B14DB
420409F7
FC0D1237
FA19DD30
3435F031
3800F5F4
F1C31CF1
D806F4F2
0F2AE9D8
39E23B33
F3FB1307
110ACD16
FC22F1C5
F503D30C
D4E804CC
1623BA40
06E2392A
13F1E1EC
C4EBC0C9
2A371229
3411F0C2
2507D545
00D00BF1
27EEF227
D9DC031C
DD0B1315
0CF818EE
1F12F4EE
E607F9F6
F0100029
38280C14
22D7E4DD
B6FE2A26
0EFE0310
4FFCEF96
4AC52220
EB0FF0A6
0A3607EF
010EFAD5
FBD7FD40
E7C80507
BDE21110
20030744
B40B3808
DFBF09FD
D4101DFA
033BFE24
D5DFE30F
011902F5
C9F1F9E9
212A0A35
3B0527F6
F6E708EF
DA01E112
FD53FA0B
D80C3206
2CDA0507
DF0CCC37
263F2500
01ED16C7
EF2F2AE8
FCF51A0C
21E10529
19311AF5
0CE817DB
4B0B1831
E9DC0E1C
34EE3A08
F92AEA16
2E25F0F1
3CDF04FD
1C07CEF5
930CF3FA
D62208E3
D9EC251A
BD25EA19
0B1812D0
25FB05F2
1BCAF5D9
09F8214A
340EDBB5
004917F9
2FF5EC08
1DE715F3
F2D10CD2
4BFD19EB
C9380C0E
AE1333DF
0229011E
E2F516F7
450AFE12
B31EDEF5
14FDF617
F304D322
3CF0043D
F10DE301
FD140902
EDDF14DD
30FE0DD1
4003F1C4
FD2A0611
F1F3DC09
190EE901
F8DCDE02
220CEAF1
D2E916E0
F63426EA
FF08FEED
02DCEA16
103527F8
F440FEDE
E2223204
FDE6DA0F
E6FBDBF1
F5D6261F
D5D5D1C5
014230E5
3813E80C
D8E8D9AD
FBF49DA1
D70A3CD5
D6DA2BE9
E50BD9DC
E3F51BDA
1EEDCA15
1106FCE0
ECF5F5C6
03D91810
480D0A24
E4FF01F9
15FFF3F3
06FCF902
1BE206F4
12F6EA2F
F59E00F2
0F04E6F0
E4EAFCC2
AC2AEF47
0BD43224
0D240905
1AFC0921
F9F6EA2A
DBEA1509
39E10DF7
D728BCF8
37FD483D
24DC361C
24230914
FB10F70E
FD000CFB
D6C77B09
0AEEF2FE
CB1B010C
A8043301
0CD5F4F3
6420FF36
04CE2BEC
0A1508CB
1D29112B
39101403
3ADAC11B
F4E61911
CCD6EC0F
E61CB9E8
04392D1A
07161408
1AE1080F
3905EF1F
2217C8CD
04F1F2E4
0036E82A
2C1223CA
E70EE827
AAF2EEC9
09EE1C02
160DD4F9
22EDEABA
72FE2413
16D0E12F
1FCCE51D
E8DC17DC
15FB48F6
3EE0CA06
1CCDDDE7
F7280C39
F41C1500
F8DA0D28
3CFDFA37
D5650222
E607DAF8
E51D1807
300525FE
12E30A0D
D0F721F9
F0EE222C
11FB282D
0128F1CA
CEF0CA2D
DCD6FDF5
64E0DF19
C01BE620
44E611F6
EC2AF210
D4DB0E07
166CE817
CC0D1608
F60A270B
C42DD2F4
000F400F
AAD41DE9
DC3F1113
02F8F80E
24D91907
DCF4F5F2
E5D0E818
CB04170B
23ECDC18
35E3C5CC
FCFBCFC6
132D1AD1
04DFEB2F
102AF6FD
1B0B2AF6
C6FFEDD6
E619E3EF
6828E213
01EFDDEE
22EF08EB
0DA9D9EF
0E05E00B
4906E9DE
E0EFE1E1
F7EE04E2
100BFBDC
DDF8F22E
1E1802FC
0A02D626
D316CE05
EF1F050D
CEF707F1
01F3FE26
2124F611
C1DF19FB
D20B0303
DDE1ED04
DB1D032B
EB0FFFFD
F308F93F
10FC1F41
03F2DFFF
F902F9F9
F015E4F9
010E101E
E50F0811
F6F80BF8
C7F30F1D
11E7FF03
211418F2
090A2228
DD182D06
2BE205EA
17EA0024
E5C9F5E7
F51BEB04
1FE0ECF3
EE21DBC8
E3F2EF11
1ED1D409
D9B4F3ED
FEF71118
0AED0724
FE0CFCFA
06080E07
F9C7E3F9
F6091016
B6E4F208
CEEFF4E3
ED10FDF1
29FAFF0E
00E0490A
0FD915F8
F0040D16
FDE806F5
37221DEF
11ED1A1C
EFF3FAE0
E74414E6
0FF201EF
113709DE
1111102E
34EEF1E6
DE01FAE9
C7ED031A
D20F00E6
F42AF4F6
1BE9D526
E4D210D1
45DEEACE
00FC1840
DBFCD22C
3CF1C5CE
43EE073A
173B130A
DD12D700
F6291724
3AC11004
04021106
DDFE0DFC
23082B0B
2FE40A0F
02CBFF12
07D01B06
2014E015
EB1AE6EE
CF034508
DA2704D2
0BFE1FFF
4522E720
103E12D0
130811CF
15FBCD12
24FE09D2
1502CFF1
E23863FA
08251B16
0FF2FEFD
00D7E8FC
F5EAFB16
DE19F2F0
1EDA4ED8
FDEF4ED9
E70BE6ED
0DE9FCD4
231701F5
3B0D1BD0
E5C1F513
07F7EFE9
EB1F1DDC
FA31E2F9
1026F326
11F416E9
DAD90208
F21ABEFE
DE1025DF
0D64FE41
2D3736E6
CAD6F1EB
30200430
DBFB0901
E3001EF6
01470317
1532EA03
52C301EF
06F60F1D
ED1DE23F
091405E7
CD09FC1A
24C2C41D
F7EBD4E5
EF3BC219
290ACAE2
A90FDBD0
112907E6
31081D0C
F3B707FB
1E3F3D2B
57E4FB00
0AD03201
F8203A26
31CBE601
00010FEB
EEFFF410
1C2DEFF0
280AE3F1
FCEF00FA
E5E123F2
051D0650
3719122D
DB101215
2C11E929
2BCE15F4
2FE4F3D7
C602E334
1F1D00FB
16C7D9F8
12D70019
E320E3FF
EE121E00
F3DCFD05
0215EB2A
FB100BBD
0A27282B
E71EFFE1
B0FB00F6
36FFDDF2
07D9FA2E
BDC1E40C
20AEE51F
043639BC
CCE144EE
EF38FDC2
0F033AE4
FFF9E409
3B07E9F4
FD3D1733
CD0509EA
F2BCF111
D612E725
171A09C8
1FE912EE
290724E5
EB1DF3E5
09F10F10
ABF9E3EF
0DB92AE3
1E1EF302
0AFBE10A
CB3E03F2
01F4FED4
C7010B10
0DFF1A17
310F0B09
F1081FF9
2E2FEA1D
19DB1323
381FE70A
26FFF825
F261EE01
1A19FA06
05130BE9
CEF5F41C
281DF1EA
09010BE9
0A0EF500
F8E7FA2A
0578CC35
2CFB283C
0D39E6E1
0E1FF9DF
F1E1010C
31C80601
FD0224F3
290F0FEB
0D1F10FE
080DF214
F9F415F8
14DBFF2E
F81F0908
06E805F7
E01D13D4
FEF90E29
F7EDEC1B
E3DA09FA
ED23FAD7
FD05E4FC
06101B02
03F8E20C
090C0AFC
DAFCF926
F611F7E9
0126D5E1
FBD50700
00F2FBF9
CD0CFBA4
15D80C17
F611F4FC
2D230709
FEF7E52D
12E8DDF4
F5B9066F
07F210FF
0A19150D
F8251AD2
131F01FB
0E18F325
DE03E81F
25F2E009
F1CD23F5
F3E91C2F
F7E5FAE9
F613100C
07FDE7EE
EDEA48C3
F03CC2D6
ED1AFBF9
E2FDEBEE
2BBF0EBC
D5E75702
0FFCF40C
0833001D
F70F2310
AF26EF10
254FCE14
2B12F507
DBF30BCA
F03AF3FB
FD034207
18EA52D3
D114CCF8
BE05FEE8
EC1BF112
EB07E4FD
1D2AF5C5
0204F843
0227F400
E341F619
03010CF7
381B1DD5
CDE50CE7
03FF0DDD
F73F122D
E9F804CC
02FCFB03
17334018
08C4021C
21F00CE0
DFD509F4
D0F31115
E804FCE6
0005130A
F508F70B
F60E09F3
EDE9012E
18F7E91B
24120D26
4D1D51FA
3B32F7AC
DE0605E6
F32015E9
D0010304
B133F9F0
E50517CB
18D2FFC7
0C1202E5
FA040C03
C50AFD10
D80BF83F
F916F7F7
FFF7DD2A
1403D701
13B71AF8
F62FF4E9
B4B51F09
AA0D5801
2E3FE705
17EFB8D1
F9EAFD02
0C09F2EC
0FFE01CD
2011F317
E3F7172A
040A0937
E709AD63
AD1318DF
0D1A0404
073CFCE8
EA06ED2C
010FF406
D01C371A
65F0E4B8
1418321C
1B2CFA42
1BFEDDA6
10C11135
3BDEED20
241ED10E
2290CDC8
1E18F908
00EFC8AF
E808392C
F4DFA425
52FFFA3B
13FED60A
02E63F37
4204225E
0F15F630
2F0DC9BF
100F11DF
10F1D4EE
2139F1EA
1F043CFE
0613CD29
1E12E50C
0808F1E2
212AE3EE
C52E03EF
FEF1EFFB
E8CEF2E5
051D2FE9
240E4E10
000F5031
E9F8F5C4
FB091A18
F316FBDE
D4F8ED0B
E30F0AE7
47EE05DE
1112F043
1CF720FF
32ED16E2
E2EB153F
F0DEFAF1
0325E9F3
BAEBF3EA
2B130314
FBCF0481
C13BEA1A
1AD2FCED
1BF8FD12
1EF8E4BC
F6DBF94F
C31D0E0B
0C1304FD
DB0B3313
31F2A217
E5EDD3C7
E61B07F9
E7F8D7EE
0CBFB30E
2402EF02
F1E3E40D
CAE8FBED
E9F8E10D
1F16CD06
E6BDF432
FDFF0AF1
E92A3A0C
CCE51C21
D8F8FADB
08FCFF08
1EEE17E4
E51718FF
F3B6DDFE
F4F31BFB
FBFEF2FE
09DED1F1
EF03F70C
C8EBC1FC
F32BF541
0D1BFF0E
FEE5E3FE
132B271F
313945B5
C4E6040C
1AD756FC
36D0CEE3
F3122CF9
E7FC0411
17FA13FB
09FFD7D6
FA40431E
23371CEE
FFF3C6ED
3114EDF4
12CBCF44
0728E92F
EBF2C5EE
FF05E2FD
FFCDB824
FCFFD5F3
D4F904F3
E2E714EE
DF0CF4E5
DF0B1F17
30D0BEFB
BD13F0CD
DD35F814
F0F201F2
1229E335
F134DAED
ECF2FE0A
1209F90E
F6EDDCEC
F5D9D2EA
C4E825F5
2617E017
F4FAF010
1B061F36
130D05AE
9DF4E108
0BDDFBEA
D821FAEE
03D93CF5
EA0C091B
0313D8F9
23F4E0FE
F8FE22FD
C533FDE5
3F1D1B00
10E9FD46
E5190D32
C426E4EB
17FCBD15
1ED2EF2B
1702F2D7
B30AF708
EF1CE8DE
E925DEE5
004CE7FD
F7DB0001
09C6E100
0D23ED23
31C4ADD4
1DB82CEA
00EC1C12
46EBD7F4
050F22EA
2B130DF3
4C490B04
1B13E202
D41CEF61
23073535
13FDF0EB
D71C0402
1E18EC1E
4511EB0F
0B04EDD3
383E07FD
4D1F249B
E81AF7DC
270914F8
F5DC1608
FEFAECCA
25FB0F0C
21FA04EC
F6F2F1EB
DE41F264
F202211F
19B611E0
1A20FAE3
17C4F6FD
E4F227DF
101DF506
CE050E19
D70F2706
223DE2F8
FFFFEBF2
E6FE2D14
F8F60202
EFEDF2D5
09EC1F29
E5F9F213

