EDF029FE
1C1045CC
F9FA01DE
1D0A0C06
1AFB19F0
1711EE29
B739F709
251512FC
133A0C0E
FD002B04
FD242CA3
4906F723
2BE7BFE3
C5F513D7
F22BE9F6
04F5E72B
0FE6E4DE
13580D49
1736DBE1
E9C4E8E1
244CD512
27F81952
1322F300
F6F7EBFA
DC0502F6
FFFDF900
0DDB330D
1DFD0D1C
07F9DF13
DE0E18F6
2407BCF1
EADD320C
F4F11C32
E8E30ADD
121BF835
C906E32A
01C9F7D5
F5FF0A28
CA1431F8
EAFEC94E
E201FCF6
E9134EFB
C70EDD1A
41C3E7E7
1322ECE0
0EEFE9E1
D9FCCCF7
0500FC50
19FA100D
D221EE54
FD251807
E4FEE237
0702F7B4
DCE8D80B
3C344ECD
18E03F2E
18DEF3E3
084801E3
11DF04F5
10FD2C0E
1F0BAE21
F3F50819
032C14EA
001EFC04
FB03E4D8
1C2FE4D1
111E02E1
32E219EC
E5E60612
E3F2FDEC
153308C3
ED2C4318
2E0BFD04
EC05D43A
0AD71D01
0B120F09
FD3B18F2
1FFE1840
090AF601
1909F605
58DE232F
DB0B0A02
DDFFD717
0CE3FDFC
FBF7140A
F4F5FE09
E0EB0501
1A03F9E1
F4FFF7D8
D2FC0A53
104515F3
FF24FE30
F9E53913
03FEE2A2
F4DA290B
F5280713
0FDE051C
2330210D
D923F02F
161015E2
10F900EB
E3E11D03
F733DEFE
F1EEFA1C
E718E8FC
1335140F
4BC641FB
E806D052
0100D823
17DDEAFC
FCE2DCEB
02EEF902
C5E0FF1C
D7E81A29
37AE1215
3B20EA11
F21E0DF3
04061BFF
0EE1CDF1
0404151E
FD26D50D
10E9FB34
FFF00A08
0405F803
FACD08F4
FC050517
031B3317
EAFEDE29
0B0002F3
0DE1E0EC
F1E1C9C4
E4000013
EAF60A0E
12F20FFD
E937FFF3
ED260DF1
18D4F908
14E104F6
D11168FA
F7191112
F7E60F0E
0F1D0636
01FB07F5
1318F90C
2A16FAED
0D10F215
063025E6
1F09EC10
5257172F
230305EE
0801AC15
3FE8F813
DF15E946
1D0D2FF1
C3502FE9
EB002A06
12F9FFE6
ECC10EC2
EC4F0726
4ADFDEBB
2807F201
2318304C
E51614FF
CEF0EEFF
15C7D7E5
44D4F80C
1CE4FF45
0C321DF0
E3EF0DF0
F011F0F2
0926F700
BF222715
36CF173A
E92532D9
172ECB0B
E321F83A
0CE60915
2BCED6DF
DC041409
EC18DEF3
FD0C1224
0F4B152A
0C049D0C
250DF12B
3B1307E8
0CDE0D0F
FE02E532
3C313ADA
0736F8FB
E7D708DA
41CE080D
F5EE0601
2281E903
1945FFCE
41E51D11
1D265004
E1DFF0FB
EFD018F9
CE06C708
21DBD609
EA03E41D
DAFCE01E
12E2E517
210D10F8
15D9BC1B
21D9DE0B
F60FDAC2
F7C2DF2B
C4EFF1CF
E2FAE304
11190009
19F9E804
E0E4CAEC
06EF3C43
CB04C6F1
ED1211B0
F4080117
0401DFE7
1C00FB07
1C0506E6
5DEDFCEF
1306EE02
F3DAF4FD
FAD80C08
C411A81D
FEF6F9D5
D619FC39
1A05DB03
0FE4160F
E310FD25
FB030B16
CC02062A
E61CE80C
EED2FFDE
E8290F0D
F5E7A307
04EF301F
08DEF9F1
1D35F82F
CAF105C9
00D5162F
EFFFFD31
1AE41A1E
CED9BDE3
EBBB0904
1F33FCE7
1AB7E805
2D1FB81A
1905DC29
1317FF05
03F0E726
EBD11105
DDF1FC04
2B0B13F4
1FDA241F
010E10E5
E6F70501
EFD9FADB
FA11041D
12200E2E
DA02F6F6
0FDF000B
FAE205DA
2E14E5E6
0012EF20
EFE002D3
E42D07E5
E3EA06AE
07CCFE17
E7091AFB
0DE91713
EDD6E3FD
0A1E1415
FD00ECE8
0505E712
FB0CFFDA
F203160E
FFF5F5EC
ECC9DD14
0B23E91A
F123BC32
0CF7F502
34F022FF
FBEDF9E0
170AF424
F509131A
1748010C
01F7F209
FF0302F5
0E070F33
2E0FF0EA
E9F60FF4
0E1BE022
E5F8E6EC
EE0FF1E5
FDEAFFFA
0CE4D50C
E645F8DD
24F4FC09
14ECF7F6
2FFEF210
0007040C
1DFDDB04
FDFCF0DC
2621FE16
ECE6F8EE
EC3DF9FD
E3F5FB02
FEEE020D
0220F5CE
EEFF11E0
19D0E910
D70B0DEB
10EAFEEA
0C061EFE
FB14D427
00FE1AF3
0100FA0D
03F40FF6
FDED0BDC
E100EF07
1903F8DE
FA3731DE
D11CEB00
275EF9FC
06110410
011D03EE
FEC60CE8
E9E3F2FA
D40DCE2A
EF1CDF11
D118D423
14FAFC9E
F955EB1C
08F21407
D8EFC6F6
F2170324
C73C1507
FAF30339
0925F3EB
E7DDF910
E91A00EE
FFE213E8
5409F411
FB4316FD
EEF7C4D8
FBDC091C
EF32E9F7
EAEAEDF6
20FF19D5
11EFEDE6
00F91714
040F1BDB
24ECDC04
0B05FFE7
0A39100B
00FBFFFE
D3C7F912
02F9FAA9
0F1DD102
DDB3DAD1
0BE5EBFE
10FA0A2E
F5F0254C
E00016EC
44E80639
20C83102
DCFC0FE5
F9E7F70F
E4001A11
B9F5CEE0
3C14FA11
EDF00811
D0091B04
C1CAF65C
5548CE00
FCE2010A
0214E2F8
C1EDF8F0
31212843
C94D00D8
3A970006
2806FC29
CD34FDCD
BC36080D
16E5DCEC
DFC7001B
E1C91203
F202F1E2
F41703F8
01F30417
D6E515F6
002BD715
09260409
DD40D7FD
DF0BCA08
18E5FE2B
FFFCF403
FC362A07
FC0712BE
B5E83306
33B5EB34
0C36C33E
4312FA56
2C2D20FB
2FEED808
2307FE17
3206DFEF
2708F618
2CFACEDD
CB2FE228
12E91000
FFF40F0B
AEF70BEF
E8F7F530
0CCA0C10
1010F213
00EFF8D6
23CA2F20
C9F802ED
DBE426C4
212BF1F6
02EEE118
12F2090E
17F5E320
FBE4F535
FDCEF434
400CEDF6
05FE1005
0ABEFE0E
1107F143
08000D16
BA7E1FF0
19F8E000
0C08E9FE
FEF20818
DCDC03D8
C9405509
F002B41D
DB0F0323
27E3F02D
F60713AB
DC13E215
0FB5D2EE
F8E515E5
0DEFE91C
00E8FED2
C7CC0028
F4241503
052220F5
1FF5DEF2
2024FEE8
E8250B00
B52008E2
FAED0AFB
F8F6EDF9
04EC01F6
F214FB13
F50702F2
160AF9FF
FCECED04
03FBFBF0
01F5FFEF
D407F7FC
E6F20908
FE04F713
0F04042E
17ED0A07
BFF1DCB8
0BEF04C8
1ED6DE00
E8C51C02
EAEBB12A
F5082120
07DD16FA
00FD1AFC
1F080210
DBF11E0F
F7ED0ED7
16FBF9FC
1303F60F
1E06F102
190AE604
0B10F80D
B4F80BD9
041A060B
030103F4
0E0FF8E8
F0F700D9
1B03F70D
FAED0813
FB08E660
D0D5BBD8
10011733
FE27240D
0FCFE314
E418FDF1
150A07F2
BD0B1EE3
08201212
15F2ECE1
1AFFF306
EFED09FA
0D2B191D
26BE1714
B8F616DB
21F1E8DC
160602FB
1915F908
0DF80E01
E80106EF
E2D7C4D5
12D0FA0A
EEEADA07
EBF0DCE2
FCEAF4FA
01D00EED
E11AF4E3
1715C8BE
0018091A
EA08ECFB
CED50001
CEF9172F
0A1415F4
E10BCA08
C4DFE54A
FD033503
2206FCEB
01182803
FB03FC0A
1DE30FDE
32073118
1024D9E7
39D61827
2C28D9DD
07050CFA
EFD9F5FD
FA09D5F0
330CFAFC
05141201
111AF0ED
0DE00E1C
FD08FAF2
F301F1F6
F0C72B22
F924DE0A
E5180903
F204060D
F6CAEB0C
F500EAE3
F8001004
DEEFF5A0
FD3914FF
C2D714FC
E721E4DF
EE0DEFFF
F5EBD7D6
111EE8FA
F2FE0FFB
F21F143F
1608DC18
0816FF1A
2B0629D7
3BFB22FE
FEFFD9FA
1301EF34
194EF701
1A050B19
FA1C19F0
CC2E0E3F
18052F02
DD09F3DE
2D2211EE
FD09E900
F512C9CB
14023514
C7FAF1D6
C617DC45
CBF9E1C7
FC1205CC
FF3F28C4
F7E908E0
09F06C03
991AEAFF
0D1BE20F
D817071D
ED184FF4
BE560BF6
FDE0260F
1659B3E7
BAFB1201
C73CC2E1
FC22002C
111EF4BE
F0EF1815
CCCCC1C8
0EECFEF5
E0DBE906
131DE6F9
FCE8E03D
11FA45EA
26CBFC18
07D9D94E
18F5DEFB
C00C06D7
F200061E
F8F4EAD3
F20523E9
071E4BE0
3F09F815
0931FFFD
25A1F6F1
05DC0F20
D903FEEA
361BF113
CD5DE258
DE1C0331
0463221B
140406EF
25C823E6
D1DBEF23
FF20EC26
1006E319
C7D30AE6
D412D4E3
F905B861
ECECEFFD
EFCAF9D1
EDDFE2B0
EF0320F6
1B2614F5
2D0A3465
F833F25B
D7F711A1
CDB702F2
38FCFBFF
2986224E
E9BDEE3E
D245DFE1
CD2D3DE6
FD1AF903
DDFBDBCE
F4FFEEED
010B1B15
21D8ED11
0806E5F9
1EF2F504
F2E9FAF4
FDEF191B
FE00E8F9
DC081F11
FC000BE6
261726CB
3A150ECC
E5FFE3BC
013115FE
EC10D1F8
DCFBF537
E907E200
02111E09
05E90D01
D5A1FF5A
DF273E19
22ED21E9
02B32AFC
C7E82EFB
F7F2F413
CBE72533
110C0618
D0D9F8FB
EDB6F8C3
DEF92611
37F3F82F
212E01D0
EEFC09EA
08F3071A
F53F1215
E908FD02
E8071FDC
075D12E8
2DD3D4FF
15A6FADC
18E2F0DD
FEFA0B05
1A1310E3
2DE5D414
14E1E4A1
DFEF0402
0FFF3400
084D040D
04F8B89F
E68F0C10
FCF60C2C
E6F32305
1FE3F108
1B092EF0
E4EEC40C
16C0F4CE
1808FE17
091306E6
ECF5F6E7
E3CF0F12
FBECEF1A
F51D0AF4
E717EB1B
0CDFF1DA
F40DE0C1
44FA05DA
E5EE0204
03F8E4E8
25C913E0
E91BFEF3
030A20F1
0CECFF04
D01146CE
3008293B
D502DCD2
1CD7F0E7
03E5F304
EE060B0A
DA1EB803
D6441602
33FCC0F7
B62C0B00
04F2E3ED
0013F1F4
FDD8F82E
D20BFDFE
FA3511D7
3F17CDCF
2C04F018
FAFD20C9
F3100C5A
0341001A
0449D93F
1DFB3733
F2C40E12
14092421
EE2C0BDF
FAFFC804
DAF2D3DB
D8F2CAFB
200E1BE7
FC0ECE01
09D9EBFC
ED27DBCD
050ECAE1
F80B1902
E4C8F4DE
0A380F02
EFF606E8
B1FBF3BB
DE3FF8EF
17F114E3
EC230BF0
281D0614
2909C13B
0B00F1A7
FBD80A4B
0431FED6
31E9E31B
26340C0E
FF2E1AD7
1F0EC6EA
041B08E7
F8F42722
22F255AF
2E1BE942

