F6FCDE0F
DCD3D826
100CE7C3
FEEEBCC3
FF090E04
F32913C6
01DD17FB
49D82B18
E61DC741
F5F5F97A
020C022B
0626FD1F
EDD1EBB3
F5F410E2
1D0C1231
0C0B0216
0ED4260C
FB4107E5
02F4F4BC
D1CD04EF
0324FC21
F602FBE0
02630BFF
1EFBF4C7
0B0F13F5
EF0AF706
13A33418
21EAF104
F4DFFB33
DFC00210
F308E6F1
0707FF01
08C722D9
DBBBF8CD
E1DA1F19
101B1741
EC2C09EC
09F1D6F3
1A09FBCC
12FD57EF
F6F057F7
2CE6E30D
2A152AAB
3107CFBC
1EFA0EEE
001C12F4
11E0FF34
01043014
FFEE090E
05EBE205
EC2603CD
E01EBAEB
15BC0841
DB30EE09
1E22FBDB
08FF1519
F9CD2901
0CE6CE1E
19DD021E
0B25FCE9
F20E02F7
F5C9070B
EE2C08DA
25EB1548
07EF051A
E0DB11F2
05CD194A
F9F0E643
F901F01A
0FEBF01E
0AD9DFED
EEF41400
EF20FB30
07001C09
06ED14EB
2710D8F9
E4111109
EE20D008
1809F9FD
19001BF9
05C8D2D9
BD1AD1BD
04F718DD
0B080D0F
F5CD0D07
0309011F
07FD00FC
F3E30EC9
17E71735
F212FAE0
141703E3
031EF1F4
080D0C3B
EA1716F8
FFE70B24
1C09F139
0D1C1E0C
12F60422
F9D8EADF
20D4F82B
3106082C
05F2F514
122EE735
2DFE05E9
103CEE06
16FDF12B
29F002F6
210217F8
12221DDB
0E09013F
EA1903F1
12FFFDFC
2AECF11C
D31AF3F2
074EF137
0F421B44
E908E903
32FBDF11
FD10000F
2C191725
00F8CFF4
00E71DF5
05E2FA07
FF0BF700
FF28160B
07EE0152
F60222FF
FD0714CE
F61C140D
E8FA2413
2C011E6C
F0153540
E71AE6FE
FDDEF702
07040926
030011FB
0AF050EA
28024019
2C0C3006
EDE9E4FC
F62109FA
45CCD615
F5C320E0
01141FCB
EE19B81C
FA08CBFB
05F62EB9
F7DAE72C
14FCFCE1
E3FADE00
27F5112F
CCF410E7
E6F00522
0BE008CE
2DFE1400
D8FBE318
EBDE0D05
25F2081C
E0F615F8
17DE3F12
F0370615
FC19C305
F80803F5
0AF813FE
2403FA08
E8F15A2F
FA3928F3
06D71510
09F0E804
100E1722
F410F919
F0F3EA26
D6D3D2EF
34D8C5E9
10F7D035
CB0421F1
E5EA1920
01272911
FF18FAF5
F8211318
092305E4
15E7D90D
00DD0CF2
000217E0
FF0C0DDB
14F7EC03
DF05240B
EEF4F8D8
C50AC70C
00C5DEF7
F2380D14
2711D2D0
08D1300E
F727EA14
080BE6E1
CBF6DAE5
EA27D3EB
30DF03FB
E4F4F823
01F5FD31
F83301EE
2915F7C8
E806F0E6
040B24F4
F327F228
06FF07F9
10E30DEF
151252F4
192F0111
1A01211D
1C380F10
32D818ED
E7E2D726
F820CB36
19EDFBF9
B2FDEE2F
E8350530
E723FAE7
FA36DCE1
FB091509
EF11E007
10FAFF13
FEE4F412
14F3EED8
DC1BE51D
CEDA2EDF
FE403047
190F0A13
FEFFDE1E
20DB10EF
050F13C8
E11033E9
0DF80910
1BDE3003
08370910
1415EA1D
15FEF8F1
EFEF0C2E
11E913F9
0E0BF6F4
06E7E816
DCED04CC
FE100611
CDE5EC38
F510021E
0C0ED84F
EAEACFF4
503E0B20
2537080F
0FD1E30A
02F1FFFF
EEF20C05
E2F8F3EB
F22126EA
F5D5D6F6
EBFBECF2
00E8232F
09DDCA17
12C81C0B
F600FBFD
09091207
ECF50D00
FFF1E8E6
FCE7C4EC
F6FB0ED1
05FC1428
09DD26F2
16D2003A
F5C002DB
0C1103FB
056B2B21
0820FC0B
08F8FD19
0CFE06E0
FBF61BF1
EDFDE40C
192FEFF2
35EAE8D8
0FECF1CC
FC080605
0A170405
163206EF
0A5307E5
06EFF9CC
1CF1F016
2AE001FF
01ED0F07
0CDEF903
0F061016
FFEFF10A
FD0DF115
DFD50FF2
050DF121
040EE5DD
02260DF0
F7D61510
062CF6D5
FCFDF3FE
FE090111
E210F410
0902130B
0CF40936
07FA26F0
F1F11B16
08450F02
19F3F828
11D1F502
26D5FB10
DC24FF29
FFF60D19
0BEFF802
D33910EC
FDCDF935
08E41113
F711DB1D
1B28CBD1
0100F7F6
E3F7FD02
0F4242F3
041B12E8
F8E1E9FC
ECF2341C
06CDD3FB
2324F403
E41BF148
04DB080C
F5DCEDF8
E1C620C3
18EF41E4
FD0C02FB
BFF7D822
080E1912
D9B93DE1
221521F9
1BE0DADF
08EB1A47
0704E62A
010B3110
D801FF15
0EFBFBF8
25FDF1E1
F5FC22FE
E6EC2404
0E2201E4
0AB620F2
F905E7C8
2ED8B7E0
38BFDC24
E20407FA
2CFB1000
0BE815FB
F7372004
EF141D15
07C61507
1726EE1C
1718D3FE
FD140E39
301BF9D2
223108FB
E901DA02
3E19FED9
39DBD909
16EDF10D
22091F23
0A112CD1
C92AEFE6
EC70DED3
FE263A0F
F8F914F1
F1F6F851
AD06EAB6
08032F2F
3909CA0A
DFD917EA
C70017CD
EA0C2A30
F1150F17
BCF410D0
0E0BBB3E
160C3618
0604C0E4
3B27C30F
14E60FF9
F0B80DF6
23EF33E8
0A17C600
0B26F1D3
E4FDBD35
FFC0E5CB
FD72F8E6
FB18CC19
233E0104
361AD40D
12EAEC28
0326E204
1128FEED
F501DC0F
26EB1610
EC1F01EC
0201EA4E
11EF7521
1E37FE42
F60EE415
23B619EE
0D0E1715
1A07F81A
23050E28
FBF8F802
320B31F3
1AE61405
F61C23DB
98FBEF39
1400CC4E
07BF10F6
1804E4EF
0DE54E19
0233222C
04B03EF2
BDDA20EB
4D0115EA
F650EFDB
27E4C0E4
F3240900
31F11DE7
F9FB0C1D
F10F11F2
1A3D0700
F2DD0490
F11FFA14
F227F1F1
DDD3020E
2EE80AEA
D608F632
01D82839
06F0C040
FEE6F81A
0AE5BDB9
07D50F13
F219DDF6
0D121A05
DB0BE7FA
0D1ACFE8
0435DDCF
F9FB0F1D
051AB21E
E2D53A34
F0F701F9
F410F22F
FFEFFB14
FBF713F4
04FB090B
063D1C0B
F4C5B9DB
4BF5F205
21020702
05E608ED
FEF20A24
FDFD0AF9
080FF207
00090AFC
F2F0FDF8
0514F90C
0AE71310
EC0102EC
DF14F506
08F20923
12EB0215
D7F6F8D6
074FD925
E5EAFD28
F8F9F3EF
E122EE33
F0FD2CD0
FCC6D9F6
00D91011
081CE8F2
F0E3ECED
ECE8E216
FE0BBDF0
30D3E3F9
F001F801
E70BF903
F6FAEAEF
E70F01F3
E7C00517
E9F01825
18F01114
3C08E648
021800F8
F6D9F5EB
EBD3BFDC
E9F00312
EE18F4BB
E315F0E0
E8C8ED01
15261113
102BF7BF
01150019
F50B3841
DD1D2502
EA02FB04
F80A11FA
0403FB03
F3FB06F3
01592112
CB06F31F
1746E7FF
D3F0ECCD
02010B11
000B1506
262FE418
0A36FF06
FD0C17FC
E9FE0C48
E7141928
CF0A0BC9
FFE20717
013717EE
060ED80F
F5DD26E8
26F23620
28EBE8F4
FA3F24BE
F7F608EE
FFC10D1F
DFD33019
17FCDE0F
10E013F8
0BC02D2D
C7EAFF23
0B321A29
07DFF60B
01D2F82E
BD65E39B
0E26F8F2
F0FFE433
FCEAFB27
282E09FE
19180100
00FAFD08
13200EFB
082E2705
051F08A6
2A07E9C4
0A43FBDD
051BFDBA
FDF9F1FF
EDFA1CFD
0EF505DB
2EE7D2FF
F110F309
EF0315F7
1E31FADD
F10606C4
F9FF1CFE
01E8FAAD
F4FFD5FA
D8FE220B
0502FD18
1E0CFE20
062CEFF7
141A0216
0040F6ED
E6EE0BC3
D9FE1E3A
1001F108
F4F1E912
EDB5D721
D60420FA
1C11FE4D
FF160A0C
12D0F80D
F4B80C20
F8370EE4
03BFEC07
053AE3A7
FB46250E
0DF50509
1E284BE5
0A2CF102
1DF6F7D9
12F9F919
05B9FDC8
BEF22D2F
F302E6F5
FCFE1F2A
1A121939
F202F1FD
3832EF1E
51F80B33
084D07E7
52D4E5E0
E6D00DE4
33E8F6D9
DA1517E3
F80EF640
FEF5F548
101526FA
FAEBED03
DC0D06F4
2F08551B
E0E00306
03F2EBEF
0515BEFA
F7FFD91A
132CC5CC
0B3F06F3
BF25E2CC
F416E707
0117073E
FA1A02EA
52CED9ED
F801FCDF
DBED16CA
C3FCD1C6
E0DCFFF7
F729BD12
3127EBF2
00FA06EB
04F21911
08472EE1
EA1CEBDF
1D170103
F0EE00F0
E51C2E1F
A4EF18C8
17E43D16
02FDB4D3
20F215EE
2F2212FE
43CD1202
E044F2FC
E1D4DB45
20C21363
0F422A04
0A04E50F
26FFEC39
EAAD002C
DCFD5B3C
14C4D51C
07F9140B
07140D1D
0ACC0F30
1F1FE8CF
073E1FFA
2F324100
03D81704
1420EBE9
F5110010
0EF3030B
050100DB
220FFDDC
FAFFDAF8
F4E3CEE4
09E91CCF
F51B04ED
0AFC0E07
FB14070C
05E713F8
F11BF1F5
23E01600
F807EEEF
D62CBBE0
DFF52F1E
0D09F8F3
D91DF202
0002E728
E40A032C
0A12F3E3
043021DC
1A05ED0A
F09ED661
E712161D
DD39F406
05EDE302
EE29FD0D
FCE2E643
1AA91120
E5F404D4
0CE8EE07
02EC2A09
EE19E633
FB34E1EA
F3040A1E
F8FA060C
F70A33EF
051C1013
28F6F458
0826E2FD
FAFD0100
F8C8FE37
123700D6
1F0224F8
20EFF9FA
FF0FD43B
1E021208
F626E8F5
0201030C
E8EB0AED
FD20CAC8
F7FDEF02
E7EA2501
0C28181A
0DCB0D3B
E35500DE
33CC1128
FB190439
13150DEE
FA08D301
26FA0413
1803E9CE
ED2312AE
0EC6062D
E91FE304
F31A1628
2D0DD525
080D0F1D
2233FBB6
C1F8381B
2601ED03
37121C17
FCADD3DF
C8FCC8C4
58D508F4
243617EA
EF05C9E2
0006E6F7
08EF5525
0FD813BD
1AFD220D
E9B5CB39
29DA2351
1509EF22
F10B0B01
F0ECE300
D7FB2E44
E20A1617
12F91EFD
C9F542EF
3DEC27F4
FBEBFA23
021BDB0E
0E1E12F5
DD261F08
CA13F90E
18DBF146
0613E4E8
F4F9E421
F925F600
E31BF2F8
35E71ED2
DAD7E71E
E419FEFA
130CD062
0332E5CE
F4E920FA
E1B3FC24
0CEAF8FD
1317E1CB
F8B7B2E1
FFF408F7
110714D8
EC104D1A
FD1A0115
FA212D36
E11F1B2E
F5062DFB
FFEEEA44

