3709B6BF
180716FC
571E221C
0BF019F1
28E2DEDE
ACE3F82C
FED4E51D
15FA01E0
AF121708
390634EB
F3E80401
E9F70C33
DFE1E1E5
1F0F2CF4
E21503F9
E8D1241F
0FF615E6
0F02EAE5
1E36E6F9
DF0B00E3
DDD61105
0A112627
15E5DBD6
E7E423F8
D70AFB0D
3CE4B3E5
F3112221
88D502F7
C2C8E3EB
F831FF0D
332656DA
3ECBECE2
FDD2F90A
C307CEE9
2AF91010
20EFF912
020BEFDD
CB012B24
EE00E1CB
36013A2E
4AF9F21B
0AFE22A9
DE25D6FE
4C005A38
F8D2F0FE
DFC02221
D7343722
E5102AE4
214EE118
EFD1EAE9
1531381D
B7F6AC23
09EFF869
160DEB05
F104EE1C
C419082F
3F040307
BDCEFAD9
0128EC02
192CE7E9
D0A804EF
1F0764B1
17F84C59
02FF2CD2
C4F502EF
14E833BD
13FFFB3A
DBD2ECFA
021CCEA9
CD2C2EF5
D7B03A02
EE2206D9
1E2320DD
FA0CDDD3
00CBF6E9
591DD5F6
F0F5121B
CC16FEF9
E01C06F4
00270610
EFF306D5
EB031031
01142CFF
F7FF04E0
E5FE2C0D
2709FED7
053FFEF8
3A1F21D6
EEF70B0D
E812BEF7
D6BF54DB
053FE0F8
E5241F0A
38021222
DA08EE05
BAE8AA07
E5FEFCFB
0028F0F1
2F07EAF4
F403F21C
394F254E
05F607D0
BF2D0252
B8D620E3
D20353FF
4504D611
E93FC620
02DCD306
DA0BF006
0AEBFD13
F7DC2B57
45F64A11
070BE4F8
16F30814
0CFFEAF2
DBEB06F6
DDF0CDF9
2AE10B03
D5D6F1A1
124AF710
25136410
211C04EB
231210F4
4CF9FCF9
2507EA29
06F1DF2C
F9CB05D3
ED19FAE5
00FC27E8
175BE8E8
F3DCFD0B
0F090B01
18F8231E
E9301A02
F523F3E3
04E82727
E6DF18F7
C2F6DFE1
CEF5E70E
27F82F06
04FEEEFE
0D82F81C
B917E442
2A17FAD2
ED051603
363B67FD
EFDAF507
F4E44DFC
F81510F5
2711B10C
10E632FD
FA28E801
E8EFC8D8
36D2080A
47CF2115
30BA060D
0303FB09
E909D8F3
08FBE10A
F1EFF722
2102A3C6
DC1B1E0E
E622FF33
25CB1CEB
17F91EFE
CEFAFBBC
FBFA0E4E
F3E8CE00
BE0BE2F7
00FBE618
1F43026D
3ED804E8
B30E16F5
F820C832
F0A89EFA
CFE516D2
E643DBD8
CD22A9D8
F01B1743
2BBB19AE
DFE5E4F0
0E1D1A1A
D0063410
C7EA0824
19F498DC
0EDE08EC
19E9E2D9
0BFA0C20
041F2318
1F0D37DF
0C1AF5D9
00FEFFDC
09DE0D20
F4F716DD
12E2F0EB
00DA1CF8
0BBB3B09
1A02E41B
FCE5250E
27FCD908
11EBE7E3
5BFD0D30
E6F502E9
D800240B
2E1FCDE0
ED18F5DB
0CDCD41D
014C1E42
27F8F627
04D0E3D8
2321FB2E
DAFBF5FD
F40B2CF2
F8ACDEF7
EAE533F2
09C9F617
0D15B1E7
E2E5F3F4
EFC81E1D
13402748
F3C5FD0D
C82E0F21
01FA07F8
EEDD26D9
22FEA9DE
F50B3807
4318E908
E2201DFC
0D4D03CD
180BF6F7
02DEFA05
7D403907
2A0EFEF4
1FFFBEDB
0DF0FF38
43160B33
F74D2A0B
03AD06F2
FD0F37E0
E7EF0939
5027E729
EB21DF34
F204EDFF
F6BA1D04
49171F1D
D91AF0EE
0B4503F9
F3E50E12
12CFE217
3B24E212
F7183CF2
0415ED4E
2520F602
050F130C
C95BC5C4
BDEE4DF2
EF0CEC04
06F4150D
260BE827
F0071EE5
0A02F229
FE0B0427
EC15EC16
0F08DAEC
EFCFF1F0
1BF0D8E7
191F0AEF
F4F3F103
F423CBF9
EA230CC9
FC14280B
FB0D12ED
3C13F3FE
E3001613
2D21FE21
0DEFFFF0
D1ED0B2A
020D10CF
FA17FA2D
FFE1EFF7
F706DB0C
1DFA061E
DE3E0928
FB053509
E0C715EC
09FF04F3
2CF102F2
0FFCF90F
DD1A0916
DCFCE2FB
E512F212
09F7F121
FCC336F5
10F5F1F1
0CFFCAE0
FEF42810
09D219F8
F6FE04E6
1AFAF5EF
0ED7C200
12F0ED35
CDEDCB26
F60CFAF4
16E4FADB
01E1BEEE
FCDBDC03
2A19EC31
F6030C10
0F0D23EF
EF05E409
FBDFD6E0
FAFEEDDB
151507D0
0AD606EB
DC2CD707
05D1352B
0BE4F002
0803EF02
E108AC05
F2F41DF6
CED9220E
EE3B15D0
2AC3F6FC
0D0C0BE9
DC07183D
13BA0D12
E832070E
E014C9F1
1A11B4F9
93294101
0429F90C
F0D7E4EC
09D11BF8
0332F004
2308142F
2B1F1EC3
F1C92828
02E2EEF4
DF04D81C
E924FAF5
15E662A8
E8EE031B
EFF4130B
E4F01AF5
4021EB18
F6E4C33E
B8F70417
EDE3EBEC
F3122CED
32C81330
EB070B0E
FF380204
EFE1F40B
F1DB1C1B
1D10FBE2
EC13331C
D6D3D30C
CD4CE90C
C022E406
F9EAEC3C
E4FECBD2
02283525
FB2EE3E2
E50C1930
2312E6EE
0AEF2628
E5F702D7
2C18EA1F
F4F6FCFB
0C0E05EB
0D2BFAF2
E72D23E5
B9C7F9DE
E0D1FAE2
B5E5F71F
2CFDECE6
0B1E22E8
471DE80E
FC200002
0D1407D2
F4ECDC89
2BD2DEE8
CFEF20BE
E2FDDF0A
F3D11AE9
EE1DDAE9
DD000C0F
02E7E9C7
E6DC020B
130102FC
0E61D9F2
D8F800E3
141DCDF2
F8E6EA10
F0FDE809
E20305EC
F5D81EE9
A80D0A34
340E1625
4CF2F30D
FE18E219
5038F512
F41C2707
F9FDCAC2
32C4F6CC
7EDCD408
07DB04EE
0C020317
E8F6F308
F5F1F2FF
DA2A08C8
1A410512
D8EB14FD
F421EA2C
CD3DF00A
CAB604D7
1D2C0604
EF1831DE
A3F5DDD7
0DCEDBC1
F61CD5DB
E6B51BF2
FAEF0F17
01090C12
0BE78ED8
00050527
FFF01BD7
F3FF02EF
0F1E18F8
22EA0609
0AF20CE0
3103EE19
073B2306
931F0CC7
0703FA19
0AD105E4
1FC0FDE8
10ECFA19
DD03DC40
5C0611EB
1A09F1CB
101CDEF7
4102E2E9
370E0712
FFFE2E13
73E4E40E
E113DC7C
FA1617FA
FA12F929
DB020B10
FFFD06E5
A90E06DB
DDBC0712
0CE7F0F6
0EE301EA
9910F0EC
F3FCFC1E
7ED5E227
12FC01E9
B7EFEF16
0B32FA18
812C072B
F3090E1D
6527F3E1
200D25FD
811104FB
4B07E9F0
81D1F428
E0C4FE1B
7EE211F1
E7F20316
7EED29F6
311433E5
7E3B0114
0C230805
8108DB28
2105DB12
7EF11A04
DC10D4F5
7ED7E9D6
F1090108
8100C3D9
00FA1C09
7E022B09
EDEDE812
1D0EDA08
FBCAE8F0
7EFB06E1
FD110CF6
63F1C57E
1D17EBF3
810D19E7
35070E06
3C1E1709
B7FBF80F
7ACEF510
1EF7FD0C
7EE3FC11
21D33DEB
7E4240EB
FFF21018
CD02F813
563513B9
94ED15FB
F715E6FA
810B19FF
F610EBFC
4E01FCDE
F7E4F401
8103E809
13F5EBC9
63EDEA0F
08EF310A
17E32DF5
FC17152F
EAFF2C30
0B0D01F7
38E6FA07
FD301808
EAF2263E
010FEC36
EA18E525
CDC4FED0
061311D2
CDDB24FA
F421D101
D32FD5EA
0110F825
F4291F3D
0A2EFC9D
EDFF1B06
F3F21708
E1F21FF7
2314EB0C
B8252807
0615FEF4
32EF4C23
07EF021C
E8CE02C1
1DDD14FB
FAD9FB06
FAF4D7BF
1104F4F3
F706E305
E40DFD05
0F051302
F320FF02
E126DFC8
F855F50E
0C21E6F3
07271915
EA1AF4FA
0D0FB231
F468D9F4
1F0A0CED
070C22F7
D10928E0
130C3BE8
F9E4FCE2
15E615FE
EBEEEAD4
04D0DC2F
D8E6EE29
F4ED0DD0
271500FA
F7E9D9E6
F8FF0DF2
E1FBBA00
050CD4DC
F5D439ED
DF1CDB17
040FEC34
FCF5CC1F
0113BA14
2C140A16
FEF633E1
1AE90401
18D8D324
EA01E2DF
81F6152A
21EDF13D
5B5F0A0E
1FF2F0DF
FFF013F7
FFB6FB09
B4961BC4
EFEDE6E9
0531E713
10DF2C95
CF020D34
452A55DE
ED22FF56
1426E41F
DCDF1F01
813ADD01
04D5D6E0
8CF7092E
3B21D716
00E22C02
81EE08F8
4116E91E
2916310E
07D415D7
F912F615
D7030702
F7FAE9C9
A618DEF0
D11619F2
F8E4E406
03DEC7EF
0B42F1FB
280AF92A
DCEA01EA
3012EAF2
C2F2D722
F902070C
144AFDBC
D70D19B5
C2C31603
550FDF11
FE9F1E0D
CC28FCF0
1E0DE711
12C4F7DC
F0E7DEF4
DADB1EFA
C8E5ED38
F80A1EEF
2AF50336
41131003
4226220F
57FDE40E
D80A413E
E05A0633
B60A0006
3504E908
5300F812
EF0FE502
14F5E823
2B4C0FF8
2DBE0C1C
1CE1160E
F4EEF9DE
F3F31400
A8F9F729
34D4DFCE
1508071B
49FC0B0B
082E0403
06E9FF19
E4E80A37
D6D40C0F
25F1EDEA
CDF7EEFC
02020002
EBFBED04
1F231410
00E318F7
0F0C2126
E0FD1A23
E3E3F7FE
FAEB0FEF
1ECEEC13
0AD3E3D6
0FE72D13
EA1C12E6
09FF0106
00072013
0006FFFC
180704D3
400CCBFC
BF06F60D
CBE2E4E3
414112DD
1CE2F4ED
E21EFE37
08EE40F9
0324CE12
19ED261E
EEF610F9
D0D63914
ED04E4E3
F8FB140B
3409D439
F2A2050A
DCD4C820
F1DEEBF7
0EF7F038
E0D4020D
F5000024
0EBC190F
F8F6D907
071021F3
24FAE223
0DEC4D10
EE0FD7F8
D5FDF7DD
140702FA
B6C7ED1D
35E6F918
0B1001F0
0451F218
CF24211B
3402D227
B01E0515
CB4A0308
030DCAE2
7E032220
00D81EE5
901E060B
CB0E1111
96191815
FFCC19DE
5FEBE511
031CFA00
7E0A3406
0E08DD41
00F3D3F7
150307E7
F906D61B
10E10008
AA06F51E
12D71FF8
B8EAE707
092B1DE0
8104F2FC
D9F204DE
45E2E713
415532D5
7AEC2AE3
C6DD0416
44012DD1
F0E11427
3925EFF2
C9F100F3
9BED161B
D21D21E4
43120FCA
EF2EF42A
A11B0FE2
1E1BEEEF
81072105
03CF04DF
8116F0E9
25FCDF04
23FBF8FD
C9D1131D
4E0F1201
1EEDEF0F
92010F08
09E5EBDB
70260927
2221EADB
BFF33EEE
562116D0
BCF7A013
EBDCF4FD
7E130426
1EF6F002
19EF27CB
F41E110C
59142D01
D71917EF
030630F9
FA2BF01D
45E2EA0A
E4F1C92F
47FCEFF5

