F2E4EB04
0700D9F0
03E6D81F
3224ECB9
06B312C4
E042EAEB
F15BF52C
FAE7FCDB
0114E7E8
D3122DFD
26CCE914
E904B4E1
FEE814EB
12F7CEFF
142EE7CE
12FBFDFF
404FE4F8
1310C3C0
F4030FE3
B91533D4
EDDDFD1D
E51BD516
E9ED1817
5D18F2EB
D0FEFE1F
1E0AE5BF
4A4314E5
F00C01B2
FB19FD06
07DD2917
10EFCF33
F01810F2
FDDD2EE4
FCF62CEB
0103F513
E8F6D7E7
DF0CEDF7
43FC01DE
220F1DD2
F01FF023
EFEDFF06
B9FA17F0
D1E015F0
B1093904
333446C9
D4071FF7
09491C37
D6FFA6F4
1C27D2F3
E603E7E9
E44048FD
C43F23F4
F3050840
01DA0EE3
FEF4FA09
D100C902
F312ABED
11063D1F
F8E3FB4E
F5FEBEEB
F923E8F7
0B0101FA
B23851F2
F2F2F21B
133DE811
3B1CF40C
0AEF0A12
E7F40611
320C1B13
E8FF81D8
0CDED8EF
0107EED5
DC60F8C3
47099AC2
F320FCDE
C411FC14
13F0FB04
D6354F0D
02BC1912
F70C0612
FAA43813
A8E804FA
002D15F2
E9E82B01
461DF488
0809FE45
F0FD1203
D6DE030A
DCF921E7
1DF6DBE7
FA1617D9
F3270AD6
FFE7EA1F
C524230A
1DF7F618
63DCC30E
0FD316EB
0FF53B1B
C72AE921
6A18BFBE
101F0313
11F403F2
E706D823
3CCB5FF7
30C4F105
23D2D819
FB0FFE09
E9E03DF8
FE0BE10D
F50BF80C
C013160C
C1F3D8E3
E5E6FC1A
1D01F016
20FEE8EC
100BD314
00260307
0A11E2D6
D91604E8
9FF2D4D7
30CE07CD
FFFEC5ED
13280D0A
2BF9F2ED
BAE120E2
F30B05A7
DEF80FF6
2221EDCC
39FD1DBB
09EEC70A
2FF20D07
1CF20F18
E6E5EFE3
1A00200F
1E0D06E3
0EF9EF07
F9F0FAEF
2603F417
1AFDDE23
FD02EB03
D7E5A5EE
F50602B7
F3CCEB13
0EF3041F
07BDCCBF
02EAF0EA
DBF14023
BDDFE32F
2F0732D7
F7E56AE7
FBF14343
CBB8FEE9
ACECFCF8
03F91F01
05FDD2CA
A7F62302
00D6F9E6
0BED0CCF
D7F411FF
FE0A1BFC
2524E1E5
FDFFE7FD
383C4021
0DE1FA06
DF2201F9
1AF3092F
21E7F7F9
F20C56F6
F8FBED0C
1215F41C
C1041806
04040703
2BDC09C8
0316E007
C822A4F8
62F2C30B
D190971C
4BF31539
06FEC6EB
131B0223
B1D31508
FCFDD427
E6043003
24DADAE9
DAFD0B04
01180B1D
D8E20015
9C0EC7F7
FCE3D50B
E5F223C5
92020B0B
DF014BF3
28D6FFE3
19181C08
031909FB
E70C2621
FF151307
DCF94222
1B1F181C
D71630F2
FDE81228
F1EABEE6
13DF1FEB
093638C3
0BE2F928
5B054BEA
08E8E01A
13AAF9FD
2B490BE5
EEF4FCD3
0102150F
24FA3F2D
CB63F2E6
E4EA76F7
CB06F606
120CFB09
172DFA13
16FADFF0
E6FD1200
FC0411E6
FE2612D8
1E0FD3E6
811E1ECE
C4D0201E
2FE411FB
F038DD15
1202F707
07174EEF
F7F4DA09
BCD48D1B
AB2D1112
D5BFF80C
D817FE08
FDEA020A
0D58EE04
F9F70B07
3DF9E8EF
211928F3
2305F3E2
043EDAD8
455D20FE
F3E3EA19
EA100A23
EA070DF4
0215BBF5
21E211BB
2712FE13
FF080125
29DE1C20
F12048EC
B6DDEC1F
BCDF32F2
EFDB0F0F
EAEEF71A
11040D1D
331721C9
F5EA0AFB
ECE8C0CF
FB050B0A
340615BB
EF1707EE
1A0CF40A
320100FA
33F508E5
042E0DC3
09F9F1E8
E9DCF70B
FFDAF5F4
FF1BDFFE
D5F315EE
130C0CD6
F9ECF8CC
0EE01D2E
F80A27E5
ECFAF8F4
EF180F04
162006C4
2F05DDF0
310503EF
FFE4DDFA
EFF50C02
04FC11FE
F819FE04
15FA30FC
0BF0FEEC
1D07681F
CB5F11DC
3F080802
CC1A02E7
3903B734
04EF040A
20172312
12C704C9
560116E9
D00D2311
EBE4230F
0626EEDC
0E1D22DE
E1ED0DEF
19DEC116
1FD0F70F
070BF2D4
05D90B1A
2C04F3F2
F7F52104
F805EFEB
130B0403
040BF5F6
DFE2F3D6
F1140203
34EF1F00
37FEF2E9
F016F6FD
150AE60C
20EAF817
050CE5EA
031E210B
0F02DFCF
013FFFE5
EEFCEA37
E1090DE2
BA11F6FA
CEC9E8F1
0E3021E0
3BDA4EFB
B119FEE2
E813D84E
EAFB14EF
ED35EC0C
0BD61D2E
30DCF215
FD06FCF8
DC08EE13
FFF20E16
F73AF4B3
CCEDE4D2
F9BFF0EE
1AF1F820
FC28ED02
F826D7F4
FAD80C0A
F900BE2B
D729F3F1
C1D97BDA
F2DCF527
DB2A1A00
24FF410A
CB070BE1
DB431400
EF000032
D4D4FA11
E9FD2AF2
F4352D44
E8EF0116
EF12F94F
FC2B25F1
261E37F7
11600327
1A001D31
CEF5C017
EB49EB1F
32F606E4
1A33D8F3
D12201D5
2313E505
1BEA6209
02FFE3E7
17175EF9
F5C5FF09
2A05FF04
F8130B0F
0BFBB41A
D505E7F0
31EFB9FC
CC010420
0B141545
172922FE
DAE4D10D
FDF1D0FE
EE0A0FD1
2C0B50FF
FCEBECDD
FAEBD0F8
2209383A
FA99DDE9
EFDB25E1
E027EA02
0215190A
34F207F4
0DFA22D9
FAF117FD
ECE4B61B
3E531218
2EF6275B
FA42C234
EFE21707
0F05F1F2
2DF138FA
242D1613
0EF31AED
EA62FA25
FEF72418
F2F326AF
56FC4CE5
E8160207
D4F8EB03
F0342421
2C00032A
002A0D08
E3F50823
E8EC1435
D2EAF826
EFF0164B
BAF91338
E4D81809
BCDCBD01
1110E919
D6FCF307
CB00F60D
F0240D02
0B2B2CE5
BBFC1BF5
0ECA222B
10012908
F4C72333
0FE7D901
060AE610
F32A0D0E
E0EA1C27
02FD10F7
3FF43711
FF1629EB
0DFE18C0
11F4EDED
13072C3D
0DF6C111
E73104E6
C1E9EDEF
11F60E0C
F212E731
24F103DE
11F109E0
CE3305EA
46F80895
F5C3DE12
DCF5F4FF
27F3CAF8
18FD1E0D
180D11FA
20FF1BF8
F5DDEA0B
1C06F9DF
0CE2F5D1
110011E0
3CFDDF10
242CE9F0
F60AEFEE
F113E10D
F123FB0A
10FBF1D7
FCE5401F
1BF0F100
F53B00F8
F9092121
F706020D
E6FA0209
F320ED0C
E31ADCEA
1A1C12FF
F4F2D8EF
2304E900
0B07EDFE
E3E10002
FFF0180F
F0EEFEEA
171BFBF9
30EF141A
170F0008
23E5210E
3A1C11F7
09DBF0F5
3301E92B
10E0FAE6
F4070BFF
010316F0
EF0915E5
38CE3121
D00FE4BC
272A14DF
F20824F8
F80F082F
250E1BE9
FC0B0EF7
EFE3F6E0
D70BFAF9
F3051ACA
F3050D09
FCE1DE01
E6EBFF08
14C15709
10292B0B
0A0714FC
AAEE15F7
E6C33125
F0FD2B28
E3D50115
F313F5F9
E504FCD2
EFDDFE02
F529F920
E71F0F1A
0703EE1B
E5FC0B44
C3B825F1
FB2506E1
EC0CE3ED
11EAE6EB
250DDD13
FFCD0C13
3511A8F7
DFE9F10A
BF03291F
0234DC44
47E5ACD1
E9281305
F8C2FA26
BCD7DE08
0FFF1010
EEF419E8
DA06FD04
DAB8D0C7
FCF6CFE5
1D010F12
03EC0231
EEE80315
0D0D2016
04B9FE28
D5F313E2
1BF0E620
E51305E8
121EE5D4
D6CA0F23
C71EEB0A
D2003006
CED80417
110C0C08
03ED0BC9
281717F0
D30DF8F0
03ED0423
49E211EC
19210AEC
3436E333
D5D9FB34
1608F1E1
13FCDC23
1F34F01B
3334C524
DAB328E7
0B1908EA
E8E91C01
15FA3625
242C0FEE
261AF30E
F9EDE628
D5110BE4
06001EF3
CED15612
F90620E3
DB0AD336
F906FB08
F7C44D03
42F80525
EA03FDEC
FDF109C4
C208E42D
2E06C7FE
1C140A03
29ECD5C2
25FCF6EC
43E6EF24
C3FAED42
06E01910
07E0D2DA
0CD4B8FB
F6020318
2DEDE1C0
ED072242
41F0F12B
CDE8E40B
0CF8C13A
140004C5
CAF4F5FC
0957F50A
1C5256CF
F203E836
C33105F7
06F2C4CF
CD0DCAD9
F2F63600
1FE517F4
0E0B4004
D2D8EB3C
26251A0F
F411DCE9
10E6F640
F7251A05
155505DA
EDE237A7
D35B30FB
5208FEDF
071EFEFD
BB56EAD8
F40419E9
2ADEDB1E
8DEDD30E
FDD7E311
3FD93FBF
3FF8FA0E
02D91909
CBC948D2
A7EF1834
12C6FEDD
291A37CC
D30624B3
FAEE3AFA
FF51002F
C2F1F823
00090E0C
21FE2BF4
3532D002
25F8E712
38B5FFC8
0C06216F
EB08D507
0EFC07F7
F0DB0A06
24FABF1C
FDE1C818
EA3E05F0
EBFFF1A4
03194120
1AE2FFDF
06F7B61B
1DECC5FB
1BE409FE
010816F9
E109AC00
E3E3E14E
20D73DE4
D3002F25
E6036701
013A0522
F9FDCA44
C80910E3
EA04FCE6
16071613
F60A0EE9
39D301D8
F0FF02C9
0D45180E
2F07EA25
01F430BC
0B10E51F
FF1F1EE8
12FD1ACD
FFEAFEF2
FE0A16E0
FB38DE01
EEFB16F0
F2461824
D514E868
3E0D1424
E7DF1520
EAF72A0A
FB13F7DB
C730F821
1CEC2BF5
1DF51C01
1E14E90A
D8D405F0
08E709B7
26EDD6F7
03DEDDE4
21D10BF3
41EEF802
E2F0F00B
E501C3EC
F712F302
F9FF0614
46D60B07
E0F3EBDC
C1280249
F4F7D63B
BDF2EC15
15DEF212
D9F110DA
DFF4F9EC
0324FD06
3115F417
E936E807
F6075232
F225ABFA
F7EAF40B
FF160BDE
020F01B6
E3F508FC
13062127
21DE0BCB
2A044C01
FCD4D0F8
150D070F
D8D21223
CCFBDDB2
E7C825FD
21F9D8DF
21EAFBFB
D0CECE0E
190917ED
243016CE
FCDBDAFB
1323A400
09140DE6
03F91200
1AF1FA11
124CECCE
BFCFF90E
1DF209E6
BAFDCD12
D1DB53C5
EF0FD81C
11E31ED5
11F90C03
13C928D9
F93D10F9
12D33FEE
38F002C2
163DFFED
E41424DD
E80FF0FF
DBFBFC0A
0404F6E8
195300F5
D14E0CF6
0C1510FA
FE2B050B
D915FB13
02072B37
EBE317F8
3A13D8D4
E8E2130B
34ECFFED
6DE612C2
56FF2009
02E31030
E6F7EAF6
F0DEE8EF
C4033A08
F627D90F
E409EA15
FF20FA04
18562315
F02000D7
F0EA44E0
09FC0705
2918F5D0
F1D4CF0F
1A30D036

