12ECE1FC
2407430F
37D933E2
0D04DC07
F513D106
07F91922
E7DFDA3A
EA1705D9
C2E10AE0
D1CDDAE7
18071104
0A03D2E7
B9B717E8
E227EADA
0FFCF2F7
00FDF00C
4026D808
DE01CFEC
E004C044
0CA3290B
F8E6D542
C8E90FFC
FC2C02DE
4E4D0A20
0AF7080C
0EF21DF9
12CFC6D0
1B120126
15181DFC
19192B08
26FA4940
FA2EEA07
F833F90B
FF49FF1D
EDBB522F
14FE3E20
FB07F8F6
0B10EFFB
E9F019D8
E809CAFA
F8653116
FFC625F8
E2F81DDF
B530F8E7
F1F82C20
EF060AF8
39F0C900
0223F8FC
FA2118ED
1C10CF14
6E0A53FA
D6E3CFF6
FB182CCE
22100323
0D0AFA17
CBDEF803
EB0615F6
E41DFBDE
0928BEF6
E3EFC4D8
15110ADA
DB2E32F2
D9EA1F28
173E1F14
CFDD07E6
EC1912F8
2F031716
F9B31530
B1E63A2A
2E25DD07
D3003901
0C28F733
F629020A
F3040C37
EA0BF1FC
0C15FB05
0A04FF05
D1ED31EB
F7F7F8ED
E8111019
E41D4A1C
0E3402F5
D1EFE644
E6FBF902
01EA01E7
D6E50A0A
F42C1CE3
2AE029F3
F041DD3A
C441410C
1002221B
F3223B05
11F905FA
E5FF1F2F
1C040FEC
EBE1EE25
F814FAE8
F20DF91D
B60716FB
1B1DE5F8
11D10935
42054FFF
FDF7CC1B
0004FE27
F103EFBD
EAD71ADB
1C18CBFA
E819EDDC
D8F2DF08
E2F5D944
E7FAFD06
F506DDDC
D5EDE00D
08FC1844
DAD3EF13
C1DC4305
1606CEFD
F501F2EF
1FDDD8FE
0205D3E3
D90217FF
01F3D4E8
13002BF7
DA20F3F3
FF07D5EE
04100A19
1813C4A8
33DFE6DA
1908B700
36021AE6
4ACE0600
F1EBCCE6
F000DCF8
02F503F6
F0FAE3ED
EE021600
1D04002E
21FD1FCE
EC08F6D2
D3F9DB0F
EE19EDE1
D6EDDAF3
F00CF0E0
FDF5E5F0
0303CFFC
F616DF19
EC25FF03
FDE7E330
1127E408
15CFBDDF
090D2AF1
0CF9C1ED
0E0BBFEB
EDC8F1E9
E0DA1B52
1AF2CCE9
4714CBD7
E2CA24FD
2514FDEF
22F030E5
DA3617F1
07F40E0C
F5D9D8DF
FFFDFA08
3B1B0321
BFED40FF
23EB01E9
CEF4FFED
E2F308F2
F8FCFC10
B70408EF
070C14E3
F6D4E909
0FDFC020
F9FC261E
06DB11FC
07E42223
E4E63C01
07F448FA
01F0D905
CE17E02C
0E1305E0
EF292DEE
002EE7F1
2339D333
2BF536DD
EAF6DBBB
BDB5E8EF
CBDB061B
2AEAF4D9
F7FE13FE
FDDCFEE5
F139EB2D
0521E50E
2CF5F4EC
0688EDED
220FE9F4
EAD6D911
ECD0A4FD
24FA10FD
F7DC1321
0BFDF2EC
BBCBD007
2F05C719
E0DB0940
0B4C0901
E9EDE838
0944F6FE
D3F4FAE8
0EE619E1
1BF5165B
EFFE12EB
D811E4FA
CF1C1603
0A2101F4
140D110B
19DBEDD4
D4FE6707
11FF08EB
EAF200E7
2322FE00
0FA0B9E8
2DFF0321
28D01D05
0FFFDB1D
D11A4B07
E9F20FF1
03DCBDF0
EA120029
10F209F4
CDF30614
32FBD7DF
06F0023F
0FE00707
632F23F6
2BDE0E18
1302FB06
0CDD33E6
FE012120
041EE81A
CEEBEE0D
0E1C21FA
143A0949
C9FE17C0
EAE0332C
E3D02B03
1835E4D7
D8001AEE
D81B1907
CD17C718
F6FB1E34
F8F5DAF6
FF00EF1A
0B06CC0C
14FDE4CF
F60F3311
1CFB1017
4C0C4A0D
EE0027FA
F9040BF4
F3DB1A10
FB061908
150D040F
0920F5FE
4028E5D6
221A12F0
0DFEE311
2AE5E905
BF07FF00
3B0A3B03
0407EB30
39150409
EDF9EBFF
DDC0070E
DBEBEDD1
14FA112C
FB04FFDF
02F805FB
03F7E30A
14FC21F7
45EAF70C
04EB151B
EAF60415
0F09C4DC
D0EB17EA
24FAC8DC
E9CA31CA
09DBFD2A
FCF20EDF
1008C4EF
BEE7FD04
0DCE0F43
F409EC2C
25341E10
02F307FD
FAFE0001
DDE2F201
E90AF006
DD15F4DC
2A0B0602
161648E2
F30DF6FD
1BE82F17
DA04F80F
1CE8CD01
0403CDEA
E6210AF3
02E82BEC
2405E105
0E0DF6EB
08FD0B10
E53BEFE8
F7F90017
2C080BFB
DBD58E20
EEEEDA06
26FEF20A
091401FD
E5F40CF8
C511E6E6
21F704F8
14D702F7
F003E33E
F80B1DF9
330E1AFF
F5FFFAF5
09070605
CAFED318
E527CE12
34F41606
E2EB453E
11012F03
BA2DF831
3B34DEF4
1432091F
BDBFE516
2EE0112F
F2DDFDFC
F8E2FD0F
F8FDF8F9
29ED081A
D904041A
C8FFF43D
F41315FA
020B26A3
E20E0512
24D135DB
1CECC7F1
FBE6FC31
12E5EB08
DD24DAF5
EAD51F0B
E7DB1E38
FD0329EB
00D0C201
06F2000F
E0F512DE
06DDF20C
3E1B2309
32E6120A
77EE1116
CDFDF4E0
30D7CAF8
FCED0306
C714F4D2
E7FDE003
16191D3C
FC33B8DE
3CE1FCF0
CDD30FF0
054CD332
E543CFD3
EF02D8DD
CAF1F8FE
0FB6C2D5
CDE11C17
23EDE218
D8A0250D
3638E1DC
F0F7E119
0217E623
E42DF017
E7FAFED0
0016F0D5
EFFCEA03
E64DEAF0
E813DBF1
E51AD31D
3407BD23
DFE8EFF2
EEE83EE9
19BFFEFA
460AF81F
F015F602
D519D628
14CDFB07
18FA0F0B
0E18EA01
2DF5D9D1
1BF9ADF6
190C26F0
2ACCEDF8
280A0AC1
FA07DA21
1008DF2E
EFE1C2DE
0111E2DF
04FEF4D6
0C061A14
18FA350E
352D5B11
E7E4A9E9
0732F8A9
0744E303
0CF0FE20
F211E408
D5EF2B3A
07EB33EF
69CB04EB
072ADDDE
F8530607
E6FA270A
04E9280A
EC1DE1FA
F9DF07F3
EB141DFC
E702593F
E5D181F6
F113E006
26E51509
F104E0EB
00DA0EFD
18BB3DEE
4E11FE2D
3216C3A7
EC3423E8
0A080F12
AD1932EC
09FDEE0B
FE1CCEFD
063C4F1D
01D046E9
E02E2DD5
A4DFF11D
E0E4ED16
08F5103C
FF0920DC
15D0BE00
EA020003
0A111C02
16EFEBCD
08E5EA11
ED122D54
FCC4DCF2
050EE3DF
F90310EE
0508F0FB
06FB05FB
E309FFF5
FC120EF4
E7110D26
0BE02609
F509FB16
030005FE
14FD1202
F9EF0926
DE1CF6FE
00DB1FF5
3D08D7B7
D9E2F319
08DC5423
1231E9D4
F158DF1B
2A1F09EE
05E6222D
033A2913
1907E1EF
1AEB1919
E8090A03
391F9EE9
0D220B03
0FEAE516
FBE5EC04
0E23F8FC
F823EFD4
090805EF
D3DA20FE
0A010515
0D19FF10
EDEB00FE
ECF84FE5
F82310FC
AD0BE322
E9C7FE12
0001180F
1408E7FE
C5DC0EEB
11F6ECFA
CEED0FE4
08272A0F
FB023230
01C8EBEC
24010EEF
00050DFF
FA0529CF
F00BD008
FF30D51A
F5D2DAF0
FD16080E
ED07F50D
15D7EBF6
07E641DF
4727E7EB
DD040308
FB2DFB1C
2AF62AF3
FD18E41A
F11BFF06
D8D3F8F5
021043EE
2E02F5C7
2C17CC14
E9FC3429
EC0DF4E4
DE0D031B
5EFD43FF
141FEB04
121108D9
E72D4217
F9D9D721
A6F7DE2A
B724EF44
040D4CBC
E2732002
01F82C12
39F61BEC
1AF0FB05
19162113
D20410C5
C902D11D
0FF722E0
2D16FA11
2CFD0923
212EDDE5
011AEA0C
DCD53CEF
F1150208
2632FA10
001D0207
02F80108
FDFADFF0
34FD2DCA
0CD1290C
1E37F90B
2204321B
2DFCEAEB
DD07EFD1
EBCCEEB6
00FFFF09
091BFE0C
E1FCF8F5
122BE70D
032EFF26
E3F1D909
0005F5D3
030535FE
12180903
130E2203
140139E6
110ABFD6
FD083EFF
FFFA1D09
F70C13F9
E4F1EEFD
98E91D04
3CEA19ED
08140F09
EC180507
F7270725
DB0FBDE1
480E38EE
FD040FF4
3EC5E7C4
1711D4F8
EFF6F0FA
09131312
F61AF1E1
184F30FF
104F0E03
E5F2D225
09F2F4ED
CF18D018
E2C4E500
E153F705
1D020BF2
E8B9C522
F11D1CEF
D93A1414
181EDFEA
024EF2EC
DB001C23
1EFE0DEB
232AFED4
240D0615
BC0D0B08
151A22FF
A7FF0DDD
3A0FABDE
3903BC00
0712DFD8
29D91CFC
1936EF14
DD0EE5E2
D1DB0E0F
163103D7
0453EC00
F05717E4
FA1E9BE4
2BF8D028
0D252617
17DA0F18
1CF60CE2
0C0DE4EB
262CE8EF
07EDF81B
A71CF115
DD0849FE
FB2C3615
CA31F9DD
1BD3F1EB
F6ACE6F3
FAE300F4
46C01EF2
DCE8BED1
38E61DD7
EEC7CB22
DBC8E0B5
F4EAD321
F00FCDFF
01BC1109
070F0DF8
EAFF03EC
060803EA
EB1F1BF7
DED91107
FEEE08D2
E315EBDB
EAEE3AD9
3417EB07
0B0205FD
F4E712F3
E7DB07FC
FD3AF607
1EE3F2E6
0103C6FE
2703D7F8
F2070205
F0F0F4FC
11F832EF
29001227
21F8CC03
B301081F
24FF101D
31C0EF0F
4143BDFF
CE1CA1F7
0CECF1EB
0CE92901
1BFE020E
DD050C08
3F0B07BF
1F3934FC
FA041F03
D5DA1EE9
06EC0EE7
1E201B1F
0A07F3F9
1B111D0F
C434E8C1
0DD108E6
FE0AF510
0DCC1DFE
E0F3EEF7
0BD7C20A
EAFB2F1F
FEF44D00
D0F5DA1B
1FB903F8
04FD0601
E902DB07
F8EADBC6
1C181B39
1D03FD1C
F214D11C
E2E0F3E6
0E29290D
CFF0DF24
2FD737F5
1520F9FA
FEED26E4
2CE306C4
FCF0380E
0F0AF209
E2E4D7F3
0F1BEFCB
F9FAD028
F821CDF8
E6C5181B
2C1100DC
1EDE2C02
A91A03EA
07035D30
20F40C0A
080AF4EA
39DE05F3
1D0B98E9
1611FC0B
EB04F203
16F119EA
FC0F3C3E
E2E724EB
DEFD1B12
21EA0410
B605F719
E41619E3
C5E4FC09
D6ACC1E9
F31F0328
06DEC900
E908EC10
EFD312D5
D61807FC
DA150C32
FD1243FB
15E5FEF1
1FC3E901
19F5FFF4
F2BE04F7
F340E4F5
BBF1F1FB
13F82DFD
2710F5EE
FEF804F2
EFE0E5E8
1FEDEBF2
E2EC2615
13F13C1B
121214FB
1208CA17
1DC61B31
E4CD1638
F6C054E3
59D40B0B
11D3C6E4
1435332F
F703D6CB
F61A12F0
FC0EE704
1DD71D12
E73C09C8
1AFBE0CE
BDE8DE07
D5F519F8
082B1DED
1ED345E1
1859EFE3
BEFF03F6
F810113C

