EE08FCE4
F8FAF63B
051E252D
024FF73F
2DDFD4D4
13E2AC23
31C7F320
18F4EF0D
0CB4E59C
000701C9
0D1EEE95
0DFF11F4
FC05D221
EADACB32
DA171B27
133BF11A
E5362845
E1201EE8
3717FA1C
CE45D1F2
33EED927
14D81335
270ED631
F6DAFC01
F83623F2
4559090E
1D1BF435
B80B0907
DEFBF9EF
F5D5D9FF
D5B43009
CEF917C1
D8A3FEE7
041F0127
DE06FCF6
F80B0B10
0316203D
290C24B4
B9E4E154
E200EDE3
13F8E6D8
0805BDDA
ED741EE3
11F8071E
DE21F784
E8ADDB0D
F31017F9
0DE62081
001FED1A
1FE72719
91F40D51
ECBF2909
EC1EFDFB
2A1940E3
F0FFFE31
0EE41020
DCD6F315
DBFDF20C
F3424640
D01ED7E1
14D6F94B
F4FFD6FD
0B3B0308
0E1F6BF3
DD3F15FB
F118FEF9
F6D1091A
E71ADC19
F810E9F7
22F12AE0
A8021BFC
C830EE0C
FEB4D136
03FC1F13
D6ECFC12
010100F8
FF0A02E6
17FC17F9
DC23F9E9
23FD2E1F
1A0FF8F6
23E31642
16D30437
26F5D7F7
FBE0F344
DFBE240B
1503DD24
2509C622
8D02E9EC
060F0FED
E52EF52D
D9E3EDED
D5CDDB18
34CCFCFB
32DD0896
EAC30AFD
E2F919DF
0DD5F920
E2F1E6F6
E414421D
FD19ED4E
BFF504E6
F2E907D6
06031642
EB03EC33
C8E50109
12442208
12E8EAEB
0D0BEBEA
0DECE408
02DC16EB
36FBE5CD
19101C07
E7011607
EACBDCD6
F5F90EE9
15E0E508
2101F511
3BDA1116
F2EE0DFF
FAF1EE0C
091EDEFF
F4F83000
0C1733E6
572B01B3
F7FBEBF3
EEFD1401
E832FFB5
F45D22E3
F30B02FC
0FF8E007
F806FB1C
AB4EDDE3
0FF8F9F2
255C412A
011FDE59
1AEDCDE0
33F6F7DE
001BE40C
E5EAFF00
001CFD36
1CDF0D10
F1FC0FF2
EC8B17ED
31C6F2F5
2EF14604
FAC0EF1B
020F1A0F
0127275E
192BE810
27D6EFE8
E8E5D7D7
19E8CCE5
E7ED05D3
F1061DE5
FE36FDFF
EBF5F7F5
E2EB33F8
07EF1508
F01E0208
0FD2F818
19F6FE00
1B0822FD
2208E7C4
1DDFFBFE
1820FFE3
060C130A
E51DD1F5
34E21053
F9E00CD1
00FF17E7
0615E1E3
20F73D5D
E524DC1B
0E41F5BE
0DD53D11
50D7D7E6
FF05E619
05F50F0D
1404E0C9
150ACB1F
0DE30FFE
3BDB1B0E
EE2C3CFA
13411AD4
F1F2E965
0FFB26EF
0815E9F4
E71EF4E5
FADE2DE8
09141312
07EEF5DA
E2BDE60D
EAE72A12
EEBCE1F5
0006ED0D
D2FA0AC8
040912DA
F3451204
EF09FB38
BDEA14DA
E61C010F
FA01E82E
08FC0709
E9F7EBFB
0AEF1A24
E7D50AD3
E7441DE3
44C037FD
F9CF2AD2
0C0D0B0A
F9F4D8D1
D3FAE6ED
D10A3013
FD3B05D6
FD2D07DA
FFE4F9C8
58331822
2AFCE21A
0FF2DF18
0ADFE6FC
06DD1316
0E160FD0
E9181DEA
4EDFE704
FBD0D1F1
2335080E
27E2E5EC
24F938F3
E2CEEEF8
E4FE04EE
0F110A02
F210FAEE
14E7E3EC
09F70D05
02D009B9
3F3A092C
C4E40CFA
1326FC31
FA5C5B18
FEFDD418
F10EC522
03EA2ED5
1F340CE0
CDC4EFBF
0902D219
F6EDFAFB
E92DFD11
F903D92B
F0F7EA0E
091EEF12
55FBF4DB
FDF30F10
EE141217
00BCD40D
5DC81AE5
EDFA1E22
1646E5E8
FEF8EC02
E6D5FA0A
18EAF257
D2030F02
23F609F8
D7FE07D7
0B0C0292
4006ED00
FAD0F908
1F26E7DB
0704E6DD
E8FFE5D9
330F0630
E0EB1414
0E1101D9
F609E7E0
104B1E42
3D2EE3C7
EB1F06CB
CECCF51A
1DE21718
E0DA0511
E7F209F6
F5FFF019
1201F10C
DC0FF1ED
140417FA
08E5F9FC
F31F0047
3DC0E1FA
0A4FE2D9
20271EC8
1426F3BD
F9222131
FBDBFFF1
2A0B38C6
1C2200D1
1317D043
16FC0E20
06DF20F8
FAE309B7
211DE3E3
F631EF21
1CCF2C1B
39F60705
1F0B142F
F5F60A93
F7F1FB12
20EBC8F3
E25AD410
110BEDA5
ECFB0720
BDE9041C
03D32EFD
1C33F25A
D92AEF20
07F00513
DEFCC6E4
241AE718
F6E2FE0F
1DFEFDD1
EBFBECF7
E8FDFBE7
E2FEBBF7
E50E725D
34DC21E9
380EB7DD
14D6DBFB
FB250E4B
1ACCCD11
00D616E9
C90DDA18
1FF2E1FD
0E18221B
E21621E4
E60D0807
E0281FE4
E65119EE
FB171505
D8EEFC0F
3C1B0EE8
FA1CFD17
BBD4E4E4
0E262BFE
15201902
DC42F44A
0FF414E9
0EE204F4
2DE314EF
58F2E8D8
01F4C22B
0DDFFBF8
1BEE0FD9
F8ED02EE
1F1C09F9
B92A2601
DBFE2313
13F2BBB4
D134050F
F8FD1811
D0E22500
FD2306F2
C6E61F5D
442FFB38
12A010FB
2F2409FF
EA7EF9F3
2C1CE028
C6E23658
FC1CFC43
0507EF23
13ECEA06
1D07F8EF
2BDC43E9
0A1AEBE9
CBFA670B
19F8214C
DCD926FF
41F7C7FF
34F6070F
3104E605
1FCBF9EC
16F324DA
99069BBB
11080FDD
DEDFE22C
03B4E5DA
61E033B6
1DDF14EE
E90C5212
16250DE7
F202F5E5
221ACED1
04FAFA07
FFDAB70D
243A142A
2A19E4C4
C25A23AD
FDE71B00
08110323
F140FB2D
1C0F2F03
0512FE3A
040CF60F
DBF4CA0F
0CF3FEBB
E72C1651
D7DA0F12
C6CF255B
DC062935
06EEF6F2
E20D072C
F6D8181D
FDE914F8
E42AE6D9
ED04040C
20CBDFFE
18C7190F
3303E46B
1ACE15F5
EBE50A07
0C1C1504
02100B0E
24F7F5EE
8DEA2F07
D7FA03F5
0C22DC10
190824C5
5E09C7FA
320B11ED
4614F516
0BC045F6
15EE1D34
23F20ED0
CEEDD3E9
01DA1D2A
39B6E9B1
DE1128ED
0F0414D6
DE121DED
C502FC3E
E045F712
4347FFFF
1BF70DC9
E10F0C25
13E21132
ED2CD129
E1F60732
0AD00426
3124D514
F8341EF5
FE2EE01C
0F24010A
0DFF36CC
090A02DA
E5F02821
00E4F213
06E300FD
FB27EFE7
1D1035EE
05F8FFF9
0A00F8FE
E82FDBFA
33E4ECDF
CDE8DAFC
DB1F61EA
FA00F0FD
281603E9
35DEE8EE
0911F3F7
E1253506
F4CE160E
E3E216EB
EA1CE80B
DB2D04F6
F8FF07E3
E2210DFD
131414F5
F7D5E9DB
01190706
FB10EBFE
0DE91714
CF0E0715
E1170C0A
0E0701F7
FDFEF504
29FFF6F0
020C02F4
BE07440F
29C1DC08
71F119E9
22003832
DBC822F1
14DE02EE
FAEB1C11
E50C19E9
12F5E6BA
1126F9E3
0809E405
E70EF100
C6D2F3D7
E2180126
F7E30AF8
1313F7EA
C11F220B
2336E41B
DBECFBF7
E10DF4F0
032202EA
001C26F8
1039FAF8
D2CCF7CA
0ED238F2
B1B2D6D0
EDD10F32
FB3EC3C9
1FDDFC02
05F42CF2
CC2B173B
C633E7E3
DCE80C22
F0F434FB
EAF6E039
1114D602
3A14FDB9
51FC4E11
50F513AA
0CFCC704
EFFB0B68
0DD7FB0B
CCB303DF
B3082EC4
0D15EC56
260DF204
26F80D33
111E2624
0B0923E3
F8FB0E10
B318FA16
210BE4E5
E235EC2E
08E1EFBA
08CEFAEF
03F6F200
EC1A1DF2
391B1DD4
FAF8E3EB
1D032606
F818F78D
F205570F
14D6F65E
FACC4335
167E04EF
F90F11EF
DCF40497
CAF2FF0C
0E04F62F
EDFAE7F3
0FC5EFFB
271E0CC3
0A2E03AE
2623021C
192C0C22
E50E3B0A
0FCDFBD5
2FD4FCF0
15C405D4
FD0F0F2E
99FD3028
C50243CB
19E20FFC
FF1E1AF7
F9140FFF
FBE41406
050FFBDB
E6E9F9FB
41A92A19
FDFFEACC
0B1F0734
22CCF61C
25FA10CD
FE25F4EB
CD1A07D4
062CF216
01DCD907
F700B3F6
F5F103E5
EF9638DF
2ADADBF1
150918EC
D5E96686
29231C59
22FAF3E8
33BCFCC4
F030F51F
030AEB4F
332C1922
F0F6CE43
E5BC35C6
2C3CE4E8
14C9011E
0FD928E3
39302B14
39D26009
D5D8161B
13F7F113
09201C29
F0F5F0FC
DC0CA5AB
EEEAFDEC
320AD0C3
28E9E418
0707EB21
02FD2CCD
35ED11D8
2FCF3B21
E1F128CD
D2B0DA0E
5F235AEA
32EB24F0
F1E0EAE1
BA1AAE0C
C005E169
B9EDC127
142F3205
2651ED1F
5041EA1A
360EF3F5
0BDCF6FE
C864F826
1A220B19
C42D02F6
D7E92207
1617F201
DA1C34D5
1EBDB91E
0EF90000
D8D50BE2
142CFDF1
4A26EDF2
E716E805
01FBC402
15DC0642
DEE5B72C
E4E30510
12FA0E0C
010201DE
EDF7FA27
06530428
0FF2F2FD
084A14F0
DB1737ED
53160D1A
08D31510
081003F7
182232DB
0BFCF003
16031C01
DBE90A00
0FFDFDF1
0AF2EDFB
0845D4EA
EAE617FE
02E81FFB
F8E1FC12
3EF4D63E
20D80303
F71FE442
04F600F4
FD030603
F727180C
FA16D7D5
E52E0206
09242A1E
0F0C19E9
F8E31FF4
F8070DF8
E7ED0A19
274EF107
0C0A1DAD
F1033407
0626E819
EE1AD612
0E32FDC6
D7E5E8FD
E50FE82A
F2D1D916
F41626E4
07F2CDF2
D7F20EF2
0219F9F5
D411F710
F8B5182D
E0E1DC10
091B061A
0CD6E4FF
37C4ED08
14D22C02
09F4FA0A
07E701E4
EBEBEFEC
DDF0F52F
0FFB2C03
22CEE365
2120EBD9
071D3EDE
E3E4174F
CBF33C2D
D3FAF3EB
F913F6D8
F4E1E1BE
1EFCF0FF
52FF56B0
102205BB
F5F60AE6
0DF01E15
3F50CFE0
F5F8DFED
10DEE9FE
00031EDE
13E12DEB
DCE12DF9
0CE60EF6
ED50C847
E7FACCC5
1E090ECA
1E1AEABE
E0F915E3
1858077E
DCD2F43C
3CE8FEF2
1ADFF7C7
DEEE10F5
E9CE0421
0C20F1CD
CDF0ECCF
2CF21BDC
F812DBD8
2AF7D00B
F108D1C1
F2D50806
0213F430
2BDD1BE7
1615430E
E611CB06
13CB0EFD
D82E2538
50D50B18
E7C130F8
F81705E5
1B1D18E7
05DFD6F3
F3CA0FF3
F8250113
170DC322
0435D719
EEFDFC00
2DF00AEF
FAD126BD
080DF336
F8FEE3F3
E603F708
FAE40549
01C947E4
18E9E901
BEF50BE1
230611EF
FCF4EAE8
F4DBDD00
F2F9EB16

