DBE808F3
DA0B030E
2430D000
0C02351F
1DB7F53E
B9F5E3ED
F90A0600
1E251B1A
00F7FE1F
11E106E1
1CD8F70F
EBD6EAEC
F01F02DC
040F351B
EFF604F8
E11BE3F8
40470F04
1ADA0BF5
EAD7F13F
CE33F143
BDFFF8F6
C6F9DBF2
18EDF510
F32F06FB
05BA0BF2
F2F9F9D8
09F8EF0B
4C0FE419
CE2E0600
2EF2EFFB
2BE3E420
17160BFE
4CDB0525
1DE312E2
F0FDF101
2AF1EA04
F7E10110
DFF423D7
C0F8F735
242428EB
C7241C25
F2B80AFF
E9F91344
E0E2F31A
E93F23EE
2D332313
E2ECE51A
EB040908
330806D2
D704F813
ECCDF83B
21EC5714
27EFEDF7
F52DE5F8
1B18FB10
DDEBECFE
06150EEB
F8FAFD19
1417FE13
BCC0FDFC
2A46262A
FA44FF0E
13FCFC34
364BFE13
2D2DE529
F61501E7
1112E7FE
04FB3918
08F71805
03D308D3
FAC20AEF
F1C806E0
9E01DEE1
0D4AF7FD
EF0FE903
D3F315FC
25EE0F01
11E8F005
051210FD
F1F2C10D
FFE2EB13
EB15D32C
BCD20916
EAE70AF9
1DECFC0E
1EFFEAFB
CEECF7D6
C7CFCCB4
2515EB4F
2B05EB20
3BEFE8FC
EE3B3E4C
0CF404FB
E638E7FA
2EB926E8
0408E5ED
E0F5021D
1CCDED09
E1F301EF
35E8F1FB
DD3600D3
0035012F
33F90F2E
F1CCE90D
330502FA
E1DB0C0A
0814F3E7
0BE22B11
21EA140A
E22B4202
ECDDF2D8
2EEDA802
1E1C1E29
EC0EF8DF
001904E1
EEF3F900
FCF0F90B
13172BF2
C507050F
1E0F1319
F213F6F8
F33037FA
F7DC150C
0B2EEDFA
44F5EE19
E618EAE4
E0FDF4F7
12E953F4
21F100E9
07240B13
31100DFB
EA19EE11
11E11402
F124DE0F
F2210C08
CA19F3C6
FED12516
DD17EE68
0F031015
EBE50FDF
26241EE7
035211EA
FEF3FAFB
1EC31719
41F91D00
E8EDEF25
D5F1DED3
0FE528ED
EE0EE12E
F83929E0
EC1B0BD7
232B0010
F6541001
B8FBD70B
182300F4
FCF632FC
FD09FEFE
F002EE01
0B0300FE
EEEAF4FA
E92BFCDD
EAD3D7D6
EAFAD8DA
E4BA1E33
D2CCF41B
E0DE0101
2D13FE17
2A0F3417
F72F0DF1
DCC6F3FE
F2D0F9F8
27E10DFB
D8F4F00D
CFDDFFF3
162522F5
4D11BA15
14B9041D
C7DEED05
2C1A1DF1
E61110F2
F0301EEF
110A0B0E
09072814
E9EC320E
E81009DC
25E6E300
37F315DF
161F24ED
160AFCEA
1428E91F
D8FBF001
DAE5F5F9
F1490609
FAC40B18
16E60AD1
36DADCFA
052E1DF9
DDF31D09
1CCD140C
E1E5BFF9
0ED52508
F712D9F6
DE1702E8
37D4C0DD
0D1AE71D
EDCB1203
2DE624BF
E62F24D3
EA0210FC
F846002E
070D1EE5
D12523D6
FB051202
04C8DC2A
00D60FF4
EA06DA0D
E1EC11DA
31A82D05
0D29E00C
01FFEDDA
2596E6E9
123DD630
F3E21AF6
1429F933
263FE417
EBE53C2F
0614F917
100FE6E5
F802F616
02F73007
18CAFE0D
F73F05E8
F508EFF0
D20B51D3
FEFCCCE1
24D7F7DB
54FE3000
9CDD550F
EAEEFFD6
FD038AE6
DCF70A00
E0E7F805
EC1C12E9
34F1FE3C
0618E037
21CA31DE
D635E914
DEFDDB03
0B0CE00B
F6E6F7E8
E706FDBD
FD1B1DDD
E5D91114
DF1919F8
EB4113E7
6E1FF8E2
D8090B17
2BF7C90A
FEFB02FC
3005E607
F3FEF608
FD02FDEE
2910FDEA
301911EC
2600FDF4
2853F41F
FBFB10FE
3826513E
FACFFC10
FC6E0CE7
EB09F3F3
03C9DAFD
F2FF2004
F32FFC06
422E0D19
E4EA0208
25E9F3FD
0CFE1225
150609F8
E8DE0512
FC0DDDEF
ECF300FA
1300081C
EDD201FC
0901ED06
19FF1FD9
D802F0F5
F32C0AF5
FF0F08E2
06060714
120B0F1B
F20B1CD9
1DF5FA0E
FD4107E9
3707E7F0
232CEEFF
3206F0EC
19E93C14
0C02130F
1BDC2703
FB1401E0
F01304EF
1C09F406
18E3D926
040C183C
1200070E
EC1811EA
B906EAE6
39EC04ED
0203CBFF
0C0810D4
0FD30F04
15DFEDF1
FE1E39DA
4701010D
0309BF0B
DFFF1100
F916D728
09F1E91F
27130500
081C1DEA
FBFFEB06
08061D10
FC4706FE
19FE0B0B
E8FAE73E
0DAFFA10
12181849
0C38FC14
E5F6E6D5
C71AEF00
1BEF3305
DFEC1415
1CF2F4E0
C048F72D
1E5014F5
182D35E2
2C03D2FA
EA00040D
28DFF605
C7EA130F
2BE82108
2A2E10F5
E9013DEB
0A0DFCF2
191925D6
180001E8
EC13FFE1
D6140F28
29CAC628
E8120E00
2FFADD14
E7611606
1EE2C029
0AFF1203
0AF5C4D5
000C2EC3
C1F529E7
1AEDEAE7
16D9F7C9
FA1614D9
E02406E3
5747F9DF
12F0E904
E21DEACE
CAF7EBCF
140610E6
E2FEF6E7
F3E004FA
30EF2E0D
EDDDF7E1
185D320E
E2FC211D
1CED1215
1510E8FD
E2DAF1DE
1E050604
CCE1E8E0
F238230C
230BE8FC
18115327
E915E61C
030617E1
211B2C0F
14CCD5EC
E105F5EF
3D8904F8
FD073100
00E603DF
1E3702E2
ADE3E811
CF26D732
03F1F6F8
150D1554
E0CEDC51
D03EFD14
FBFFF503
E3FE16E2
DBF5FFE8
D94DDA00
00EB03E4
D9E9F905
F9C51FCC
0EFF2816
25F30522
F4013800
DE03F1F8
32030C07
C1191DE5
16CCE40F
FEE303BC
230F0FE2
E218FF30
24DA1D08
11140FEC
24181D0E
26D20F03
04FE0836
C3F0200A
F4DB07B9
3F080B08
20EEF6FE
0CEA0924
D42F38F7
04B1110D
54D62A09
13B10B1C
F5171508
BD14F200
E9B8ECD1
F6FCE913
F2032913
17B60319
FDF3BE44
41FE0D24
23FA20E3
C9F4E9F6
1D4C650C
CC2B06EF
33EFE119
C6E31D16
C93BFBDE
F9DA0024
04E81303
3006F434
FAFC2428
56F51E0D
F8A8211A
3644FBEE
FD100EF6
2C080001
CBEFE0EA
50FC0C03
2EF80307
FCECFAE6
E4C80E16
16E91B19
1BFD3A0B
040BFEFD
1608F004
1E15F8E7
08D409F5
D8080C1F
F3FC1BE1
EBFBF3FA
1812F8F9
F92901EF
0C0FFE0B
FD0111E6
D7CD00FB
13F1F9FB
F40704FC
E40932E0
06F62306
1C140BE3
02DB1216
0E2207EA
F4F606F6
0B17F806
F1BCF7F0
14F1F702
E5EF181F
151205FE
14F918F9
F9F803EA
F4060B01
30E7E0E3
180604DF
0233211B
0AF63123
25E80EEE
0818ED00
EFF3FEF9
F412FCF6
1B29FDE2
034DEDC5
1401FD2D
E7FEFD01
07142615
D2F8192D
E8F0F6FF
0D05FE11
AED8E102
0BEA0E1D
FEEC00F0
DDFB030B
0B2902FC
F9D6D50E
051F15EA
D2CDF0F5
E115FA30
F6C4F3F3
98D2280D
10270EC9
F1FE00D5
09E3FE05
17FC000B
C004D7D2
F234E0CC
26DEF505
24FF09F3
021FF5D9
F311F325
05FCFE14
C1F4FFE7
EBFC14F2
FD080907
F7050A1C
EEFB0901
3FED44E0
0821EC04
E00DEFF2
D7E512F3
2212F310
E6F6EE0A
1AF10303
01090802
061DFBEE
BD07F6EB
C0E01DFA
DBEF14EF
E90AFADC
E3E501F0
E4092A00
090CFBF8
E806EF0A
2219F9F3
EEDCE3DD
0D06EFF6
F6EEF50C
19FA03FF
1C140F16
451304EE
DD2202E3
03F3FCF9
15E20C0D
0DFAE9CF
FAEFE107
03F8EB33
02E3F818
C008E008
CDFFDFD4
FDD81726
0A241D05
16F6070D
F3EEFB11
D4F800E0
F21EE2F4
00EF0EEA
DCC11BF4
FEE10624
13090DFD
E6361201
18DC25F3
CBF0DFF1
FA3506CC
09F1C52C
1B1FF920
D802E51D
3EE1020B
F4EEF82A
D01114FC
1C0B2FD8
05E0E7D9
BEFFD6FD
EE5BFDAA
C51DE619
06EB0AFB
0635FA40
FAE70521
07CE1C36
D1031AF1
EE250242
0B23FF1F
E1CEC5A8
06CAFBD0
2028FEFB
26F1E8F4
0B1DFB57
1E1C330D
172242E9
FC0DE303
15C802F0
F0142007
32A81737
E11EFBD6
A9F22CE9
17F90A07
34CD03C8
34BD3504
0FD2ECEB
09E426E8
FC1CF502
37F62CD3
11EEF70D
E9151B31
11DD24CF
38DEF9E3
BCE42D12
F0FA2325
3D3DCF4C
F1E4221A
0D33C11E
D22B692A
CBFA2A13
333B0004
EB16DFDD
EED10D1A
F805F7FD
10E8EFD3
C3F534D4
021BFBFC
5ACFC530
F036D1FC
FC0DE8EF
EF33EDDF
1210F9DA
FA04E703
DF0AF605
EBF7F7D8
E71D1BE9
E7230218
07FFEBE8
0A17E4D2
EB1906C9
FBD52924
0C0DDFCE
020FFA01
F01D21FF
0BF2D5EA
5515D609
AAE530EE
02F4FEED
FAD9D3E2
0D11F905
001C02FC
FBE6E7E3
02F4DCEE
1107DAF7
F2D8FCD6
100EE50D
27CD13DD
EC10DCED
E1E0D438
F31118B1
E61ED516
F8110FE5
002D0143
11FEFD14
FC18EBED
CBF01751
15C0F5ED
EAFC1DDF
02F8E00B
3123120C
F01206E4
F21F135C
E813F2FC
E9250CC4
0119E80E
F227E9F1
2319E336
FDE704CC
0433B6FE
010CE9D3
0B50EE26
FA02FE00
002CE7D8
0CF70AE3
0603000A
0E0EEEF4
052B32F6
DCCD0B16
2EDEF5F4
FC131CE8
03D1EC0D
EBFAF90E
F3310B08
DE10EAD8
19F8081D
F3E213D3
FDE0150C
20C6FCEC
F4EDD80D
140B8123
04293831
DAF348EE
3FDEE711
2BE1D607
1AF5D8DC
FE190DF2
32ECDA0B
20FCC345
09E3F4DB
E5161EEF
EC331ADC
FEF78116
17FA0EE1
E2FFA1E3
F433F80C
FB16E5BB
47D92C0B
F6F0E6F7
1508ED0A
F9014532
1B06D8F8
E6574E13
181EC543
59F418FD
EF4D18F0
DCC966EA
E4FC1B08
F2FC1C0F
D208E4D2
FD15D2DF
E615EF08
C8230310
34FCF732
DD104B09
1EE8190A
23F0281B
0622BEDC
010BC6EF
1D0F0DF0
D833000B
DA180F4C
1F17CA00
42E80C42
1B0C9C12
150106FC
EC1A48FD
02F6EC0D
E63C01CB
FA0CDF41
22E11F08
C721312B
E11B291C
12CEF000
E81BDFD9
11ECFEE0
150567F7
E7E61EE8
EF311732
1413E6EC
02F92D08
FB2012FB
EFF9811A
004633CF

