14041F01
FE1F0751
BDCCE922
F2F1EC38
FF22FC25
F4DD1DF4
FA111139
1A0AF2F8
F3D6C47E
CE12ED2A
F8E33503
07FC09F5
1C190822
E2E04911
F510060B
1FB0C62F
F6EDDA15
B5DE154A
DD1E52ED
ACF1FAD0
ED22EECE
F0FEFDED
17EFDDBC
20080930
0A091928
0C0C0C02
E4EFD501
F318E5DD
36F5211D
BEEFEA15
C9072CB3
DDFDC3DD
E43EF201
C51E0BE2
03DAD0D3
F9D71135
0402D900
FB07F2FF
B908D5F6
F002ED1F
031CE1F9
0C2DF7D0
D9173C53
04E500E0
06EF1BCD
F532E9EA
FDF7C1C5
02F6123B
C401CB05
E1F3FCF3
0E06051B
D5252B1D
F108F601
03E7ED1E
04E4C4D8
0A56F182
F7F4E8FE
17E1E515
BB1FD801
F4FA3C3B
E20010F7
FA00EE15
01C532C4
EC09DC3C
F01B10CC
CDC7F4D0
04040000
F351D713
0511D424
0602F109
FD290323
E62C0FE1
39E80B07
052DFD3C
1014EE03
EC27FE00
18FD11EE
13E00141
E200ED2C
0FD3F743
0409030B
1E020B08
DF1108D8
F6111AD9
01F40406
EA02FA33
06DC085C
EF140E49
EA1A0BEA
C6331022
02FF18F7
1538000E
F2F4C8F2
1A1F1D4D
F019FFFC
0DF007F8
0EE81715
091B17ED
1B0A2BEE
2CE410E6
31D3F9FD
D039ECB4
F80C2725
DEF80F2C
CC36B41B
EB1914EE
A5EC2806
F2D4F313
16103BD8
E71202FE
FDFB2306
10FFF9C3
1D2AF734
14D8FF0B
FCDE61D6
E9092E0B
18F4EC46
071FFCDF
E20EE803
F3D7F8D8
0C00EF13
1531F30B
FEDB01F3
03FEDF1C
F0FD18FC
D7FF1C19
0AE1E835
EC1E0339
47032649
E60106F6
A8510029
08052DF1
11F6EC11
F10E1601
EE151840
FF120FD9
4713C3D0
1A26DFF2
07C1FE09
19391AD5
27F11C22
F5F9FBAE
1E21FAEE
01E71710
FB2AE217
F7F52E11
3A3912A7
27101A00
12DBECB6
EF16D6E1
0E0F3BE4
53D4ED17
3BC1000F
03BC0701
EAC9E714
F7FFF72D
C01B18EC
C400D6C4
3702FEBA
4104F120
E00EE505
3D031907
E51D340F
F114DED2
E71CDC50
33F71CE1
074FD9AE
0CF9EAF2
F9E710F8
F70AECE8
D800F82C
C82B141D
08BC3508
F2ED1EE2
09F52645
EA1DD2F8
37FE11D7
F0EEE808
0CC421E8
E413DADB
2F231E17
39FD07E3
CA17B3D1
16AE1926
110119FA
23001103
1B05E127
40FB3AF2
7BF3E0BE
0320DA3B
EECDF824
BA300F2D
DB1E4C3C
24FAF2EB
1EC32BD7
D1310519
E2C6EFCF
F4E1E956
0D131EFF
0703182C
1BFDDE11
FEF7181C
07F80D15
EB1F0413
D1180628
2509E1F4
EB1EB2CB
1EE4D542
E6DEE4F3
E429F3E2
FC20D910
0038C627
17CC232B
C015CDC5
F1C1DEF2
E1C5BAE8
1BF22B17
11E41609
F4F918F5
F5100D04
F3F40F11
C70A03D1
FE034BD8
0CF5060A
04EE120F
C3FFED0C
10373108
04E61D1B
FA0CFAC8
FCE714F7
F7EFF7D9
0C19C238
07E1EA21
0DF3F90F
0327FAEE
EB1D0DF6
FBFDED30
F62F08F2
1504D5D8
D52D14C1
16F9F4ED
17061C00
C0FC63D9
CBEAD5BA
F21CFDBA
152E13EE
E8000C07
1BF84FE3
20FFF0F3
E42FE0F9
1C36FCEE
18C9F0F5
05D9FAF1
F106D405
02F10BCC
0F2DFF26
F1F1EC09
0B1401C0
13EDC719
FB3DF038
F0FB07D6
E9FB025D
28E7020A
2F07220E
D9F90DF0
FDEAEFE7
03001BEF
F4F4DBD5
03F004F6
00E9ED49
0C04CA2E
1335FB34
FB0306FA
FA1C102D
18FF25E4
E4FA097E
071C3E2F
1EE4F93E
E31CF0FB
09F81316
DC0E1D05
082228B2
0CDBDC2E
DFCF1F19
FDD1031F
EE19E8D4
E32D27E9
000C0BE1
18F4FB24
121CF6E8
05030AE1
EFEDFC36
F2FDEFEB
20FAF03B
00EFF515
F9D9F361
F9E80E0B
FC110059
F2FBF109
04E8F9FA
20E217F6
FBE1E169
02EDEFD1
F601F266
151405F3
E81BEFBD
11F2D6E7
EAF01815
F9F7DA05
F62BEEAA
0F241107
FB050938
05EE3816
EF00FFBE
05F8E341
101407EC
02E20DF8
06F6F3D9
FD2F08EA
FF1F3219
0B0321E4
19E8EEFB
15E5C6D0
0F152AE6
1BFFFC25
22FA040E
F7DA49DD
04EA13EB
DF10CBCD
52F632F3
14CE40C4
0BDB2706
EEF3FFEA
CEF71B7E
2127E009
11F9F256
C718C2E9
D2012425
02CCDFEB
35F9F032
EE06F93F
16D1FE2A
D4B5DDFB
E9E9FF41
11111417
BE0803D8
DEC8ED27
2B16031B
D505E73A
0C0919FC
F92DDBF0
E6181126
F826ED51
EEEF0C05
F017F907
1BFBF3F4
1603E4E5
EC042EFA
FA9D4E0A
331E1042
14BB1ECE
13FAE49E
2D1B1E10
32190DCB
E106EDC8
1F150F07
FA302356
CC17FEAC
E1150EEB
E61D57D3
F00E04F6
011F0B50
17EDC715
DAF50530
D8C70AE9
1722F236
0DF511D8
FC00FB4B
E81F20D8
EACE11CE
383FC8B4
FCB7220D
041821D4
04EACD4B
02E2FC2E
2846431E
5207E60D
135C00E7
37192E43
E52403E0
44F7D7FD
37FEF2D9
0D2EF9CF
02D1E1D6
153AFADC
C50EE607
F3EFE0DF
FBF0EDDD
050DF91F
1FD0FD06
EAE40531
E5D3C718
11DD1CFA
F5DFD13F
0A363A31
F5E2F310
0C1714DF
141202E8
07EEE7D6
0716EE10
001016E6
06ED43D6
EEEF03FA
0D20DA30
E1FE1DEF
301A2D10
1DF41ACC
F601FD21
E847E4AE
FC2B141A
C93511F8
0CD32E31
E334D0DF
0A310219
E10D390F
E506D8DA
110FAEFB
DF20E324
0BF4F817
F317CEF4
F715FBE7
FDCBE405
C3AAF02D
04C9EDF9
012AF326
DA2105FF
03F8193C
E92EB7FF
2A0FF7DD
0A0B14F3
130CD828
08D7221D
03D21F09
E8D9E3BE
F5240005
F611FFEA
FFE2EAE2
E9EB1B1B
08F5D614
0002ECF9
05FD19F6
24F336FA
F7EC2B38
FCE2F4FF
06FDEE05
03E7F009
F805E31F
F7F3F803
270601D5
0500FEFB
24FE16F7
04171018
0501FA18
E0E5FC15
01FC16EC
E9F6D70C
E50605EA
FFFD191D
04E0EEE2
F007081B
0B1E0BD4
F309F42A
E7CC18FE
31EFBBE7
09FC03DF
20312D21
3CFAFEF7
060BFAE8
D8F808E5
0D16D2DD
15FED827
FEF5F204
36020114
FAF6F0FD
5000FE1C
1F0BB203
F8FC1612
11E017FF
03F9FE0B
ECF4FF00
36DDD9E1
0AF4191B
EC03F0EE
00BEDE0D
0FE3EE22
160E1206
F3F910F7
F6010106
31D71E2E
BFECD7DB
E30CF921
E9F61B18
E00C08FD
F3F0F409
FB08F66C
3B55F705
11FFD606
FA1003FF
EF232DF3
E6070BFB
1B06D302
F9EDFD0A
0A02FCEC
05F22EB7
EDF716D2
FEE0D95B
F11FF8F0
163AE6D2
271816F0
2BE20C9D
F00B9C30
DEEDFC56
0423D40D
07FEFDD8
14EFF7B7
1ECB10D4
59FFDAC7
02E03C63
11F9E100
00F803D5
EC2C2C39
F9C6FB2D
25D0FE05
BE060B6C
04D5F6CB
0333E0B8
0AF502E9
F6FDEF21
D0F7FD09
EA02E7A5
01EF1BFA
E8FDFA0E
F404060A
190FFD17
23E4E309
F4E3EC0C
13FCB5F4
FF32F0A3
F406E122
04E7D12D
FCEFF327
21E4D4B3
03E41036
DDC8011D
F4F81AFB
0903DB1D
E2121EE0
14F2FC7E
0A180817
16F31162
EDF0DEF6
F9D5E381
F20DFD27
E50CE0E8
2AF9263D
1FD63AAD
E8DF1319
F7DA15D7
FBF1E0F2
F9F8EFE7
DF03EA18
F2EDF337
D7F5074D
DF0308D9
1B17C40B
27F2FDFB
26D9F12B
0D1F2E58
FB0AED1C
CC23C0DD
7E5748F8
F205D2EA
31FF0A30
B0CB37F3
FADCF341
3BFEE738
36C8CCDF
08F40D2E
FA2A18BD
01EDC0FF
E499D3FE
2B0636C5
EE161957
EF0A260C
10D91944
A8F6FDDA
101FEEF6
08080DFD
2BE83A2A
F01CD2D8
DAE111A7
DF0FF9E6
D7174110
1FF8DC29
E303DD21
04F90D21
FE2FE7E2
21B11B08
18FE5220
3ACFF80E
E516E3E5
3627EFF0
352E0620
DE18F617
EFF903C9
E00338D3
0230A505
5113EAD9
D410FB25
FD08F0FC
0930094C
05E42CA7
310BEFE0
F034E131
D904E500
CBCEE036
1715F41D
F5FCF81B
C1F8331D
F0FDF001
FA0BED0D
B0D631F5
08E917D2
281AE114
ED0B0AF8
E1FED714
F7DED5BA
4625E61B
F800C7DF
FBFBDD36
12E6F30B
FD130CE2
D9FEF9FA
14EC14F1
F299C9E6
213B07C2
D398D7FC
FF0FFFFD
14100A02
F6F225DC
1403E7EC
E417E5EE
F10AF335
E7F13224
E2E2F52C
10F0E398
F9DBE912
FEE9EBFE
F9211CF5
EADCFDE8
37DDEFDB
0AFAEA00
09224DF9
18DCB9E6
9D0BF90F
B7D8B12B
F6C10AFE
11C4D81C
F01709FA
07F2EE10
ECDDF968
09E71BD2
EED7DD07
EA342642
E6F1E908
F9F61309
EA35F713
EFC6D968
DDD33220
FCC70839
E0BEFA1E
0116F2FF
D8FB2A28
13FEFC0C
F1D00DD4
FEEBEC33
D110301B
401BD8E3
F806FA05
11DD28E0
01F80D05
160F0230
2214EC1A
02D9D804
EBE3F3EE
20DC23FB
15E725F5
1D0CF9E8
EB11F8D7
F8E627FD
1DF1FE19
00E33617
0FD6F2EB
06EFBE09
1806F51B
05BCE1D8
0825FEDD
37DE22CB
DE1B0FF3
DDFCE7FE
FC29D9EE
CD2FE203
ECE517FA
10FBF4E2
ECF3E1EA
1ABEE4A9
20CDFF04
D8F3E2D4
F610E8F1
2FD20232
09D3FD20
1BD5D212
0B23DF1B
E4F611BC
F7004001
0302C657
27F6D5DB
EBFEE14D
11D54420
F6D0BE18
E3D214B0
E51EC94C
F002E11A
040AFD1A
C7040ADE
FCB3D818
2DF30DF0
D715031E
EFF0D70B
0EDB3120
D4FB0932
0E15FC43
CEEB0CDB
FD18E6EA
FA12F014
E31ED513
34D6F3E0
1BF40604
021DF11E
0EEB0509
14E02BE1
0C2BA501
1DDB211C
3F1A13E5
08E70A1F
D71FE7A7
D9F03EDD
2D0A21D8
FEFFB505
1CF4FDD4
B3F1F5FC
090B1ACB
02E809E9
EE06260F
F1241F10
09DF182D
E2D2F80C
FF0B0B14

