F9E6C8EE
FE341F1D
F1FC0C05
05DCEA31
0E003D17
09F12034
F50725E2
F00232DF
F313FFF6
26B219E9
03E3F9A7
111D12D4
E700E148
EF2A3521
E11A15F4
1219FDFD
F33F2A20
DDA4110B
0CDBEE01
F0FEF826
E2FE1F00
020BB918
1409E0CC
E6EAC1E8
FCEB0AE9
E92AF4F0
FCFCF0A3
B8C6CCCD
10F214E6
0D041BF4
F1DCEBE3
F82FF532
FEFC2431
19EF0614
ED300E19
04672536
0900F7C6
FEFCFC09
03162EF8
03B4EFED
07FEC952
F4D85016
236B9DD5
04CA2528
051334E6
FCFEE8FE
0BE2D5F8
11F727CF
041AE406
F1E4BCCE
F3FB221B
DB3FE4BC
0605DDF7
FD1C1728
08104B34
CAE303D0
EF012CE8
26FD28DC
F0E10318
E0D5D3BC
FDFAE109
FE1C25FA
28E312D3
E80E05BF
243D1ECA
0105D9FA
F6E5B2F9
E9E402E6
DE010124
0509F2CF
FA000D0D
F6EF120C
0BF3E613
ECDCF8D5
1CE4D824
050B18FF
1206F3E1
F23DCD1D
14EF41EE
060A221A
08E0E23D
F802401F
FFDBDCDF
CBFC1147
0EF61005
EEFA1403
E700DCCA
0FE7EFC3
DCC0C847
2F09E623
DA170B24
EB31031B
300C0CCC
CD1607F7
0800F9D7
0DEE2715
D705FD1D
D50D02C7
124900FF
DF25FDEF
FD1B3724
EF2FF2F9
F5F6F9E1
F10BEDED
1DDF19B4
30230511
CB172B1E
120F05EB
FEFBBF08
FD08DD0B
01270E14
05EBEAD2
E8FB021D
D3F20DCB
F6211FBA
F357211B
050B4824
14060E1B
FD18F1FF
0BF0E811
1B084900
F5E0EC29
032C00FA
FBF90905
E2062F03
43F41719
F9CFF418
E733FCEA
27F34BF6
3B01DEEE
E81A0EF0
03DFEB13
0F262327
13150709
06021AF0
DC02F7FE
15EDEC26
11D3C1F4
0EC8E1E9
093AF5FB
0EF30A01
1133DD30
FF0EDF22
05F0DC00
214DDFF0
F1DB4F17
E534F030
052307EA
EA0D0205
FA37BE61
10F0E0ED
DEC8E400
DCDCC3FF
2026F22D
C2C4CE16
00D9E9F8
17F2BDF3
11D60011
0817170E
0EBA37FE
0BFC2D06
DD071EE9
EE01F7DF
01FBF72A
EC16D4F9
00FF2E08
0702C5CF
C5F536C1
23F7BE07
FAF5F5DE
16B6491A
AAD004E8
E0E81416
140E123D
CCCE1CEA
E2E3FC0C
FDFE926B
08D7CFCA
2D2935CE
E2DEB526
05E74915
CF1C0C00
F1EFEFFB
F3FACF11
08041810
13EE0325
0A001A1B
09FADAF1
46DC0A11
5AF3D9E8
F41411E7
DB183BF6
350FD051
01EFD31F
F0E61EF0
0EF9C926
E304D819
E419F005
E2131641
3410FBDC
14F00C29
06F215DA
22091207
D4120623
EF0014E3
03FEE7E6
0BF80612
08F230C8
FC2FEC7E
F91B14E2
EC31FB0A
00192015
CE0E2D3E
E0E1E418
0D3807F8
DEC60209
1252F3D2
EE0415E6
FBF1EAD6
0D0EF1DD
F80F1D0C
094CF0E8
02EE2DA4
00F21F41
D0C1FBEB
F503F6FA
1DF9ECE5
105BF1C4
1D1A52C8
1309FCF5
01D00011
F81FEDDB
09D7F2EB
E80304DD
250A01EF
EB5C3101
EF1818DC
17DEE11A
11B5FA34
0CE2E1F0
04060835
EF000A11
00B8F14B
1DD4E9F1
0BDCF42F
000FD5FB
FA48FE32
502E3816
CDA412EE
8F1A15F0
020BC30A
BBF92137
141AFB24
FCFE02EC
080107EE
1109ED2B
03F7E4EF
09420FF2
FC0D1907
0129FE14
FDD8E9EA
111903FA
E5E2E9F6
EED022E1
1ADACDB8
13EBAE20
0915D915
101FF909
FB17FAF4
FC15FE2B
FDFEF2E0
F413FC09
091213EC
04FAE1FF
0BE215D7
F7DDEBF0
EC280FE8
10DEED03
ECD90CF7
271AE6E3
F7FBE1DE
0336CA1D
00CE00FC
09E0E610
FDF7DE16
F811EBF2
21EFF003
D3DCFA13
10FF3DF7
14FC2006
16E20FFB
1C240A13
FCFEE2EC
14FCB9F8
F30616F9
2710F2E8
E0EDE824
DEECDAF1
050BDE0D
05EAEF37
F9EFFB07
0F1EFF28
101ACD24
F2C9EBC3
F0EA27DC
03F70EFF
01FAD034
FB0F081B
E4E0F3D3
DCEC16E3
FFCB07DF
F5E3DC14
FB48061C
CFE11424
0E1DFEFF
F3000FE1
FFDAF2F4
E603D80B
F9E0C223
19F4DFE8
F119D1DF
4BFFEC00
FDF4DE0D
811AECD0
F3EA1E0D
EA00C010
1AF813FB
07EF14FC
E8E10EF4
E7D105BB
E445E136
4FDE3A04
1F0904D1
F22EFB43
E0F1DF2A
C8E303F9
05EF1809
C405FAC6
E81D042D
07FD082F
F8E6F723
F60213F0
F0EDDCDA
CBF8E40E
E7E80B21
4F0741DA
01F125EB
E6131BE7
EA32EDE2
C1DFE6F3
EBD1090F
EC1522ED
090B251A
EFF3DA03
16E7F8C0
03F50305
F901FDEB
CE59D7FD
07FBECFD
08DE0D35
EA540D26
11041A06
FBFB3818
B6F6D8E0
17AE16ED
101912E4
2CF3B8D2
F53BD128
16FFB733
52121129
FB2AE9F9
0506EC14
163FE906
0134D6C4
070813DA
59DBF3F0
2EEC4B2B
EFCFD408
0A45F3D3
370DF52A
EE1FF61C
C1D0EB45
F8F822ED
C526F500
04161E0E
22F8F518
CEB730D8
0D194C0C
E21B2CF5
E5D911EF
F7FA1EC4
E4FD0B1D
2FD4E551
E4FAFFDC
DE2904F9
22DDE8DA
F535F33A
F9F3EA03
FFBCB611
28E60FC3
E51DD0D9
F43804ED
18113808
E7F20F22
0B051D27
D826F102
10210908
DDE6F80A
0E0C38D1
09E90E27
F4F9B846
F2F0913D
0714B703
062C0417
ED05DC1A
CF14DA0C
F3FEF6CE
1F3737E2
DD175CBB
FBBECEF6
2D06D8C4
152DE831
F5E602EB
DDE0E21B
FBCBF0DC
193225EB
E3FA324E
120D0799
1E27CC05
301D3302
07F3194C
140C1D09
03FF2DF3
E4FFFD33
15EBF635
1903E5EF
F9E0E905
EC10C3DC
E0F801EF
ED201C02
1857ECED
CCE8E421
CD2B13F6
0E44D512
30E816FA
082A2C2E
12280D29
1F5BD5E5
FF0113D3
D911E2E0
F8FDD823
18220309
000E13CD
14EB0B75
07DFD502
0EFBFD14
FBE40C05
02FB000F
FD0EFDD8
EA040D0A
E0FE020F
FA02FDE9
1BEFF0FF
0C161B00
13D5E8EC
03F70808
0A161004
FD0B1105
29DCC5F0
0D01FBC3
0BDB460F
E5F9F3FB
F1C8C3EB
FCDCE7CD
250C3CB3
F0F7CB30
F0FF0FF3
F42DE0F4
11E412F7
132BE43C
0808F8F1
FBF61B19
FEE7E2EE
EAEAE504
FFE610EF
BEF9C911
E812FBF1
E227FBFD
F8DCEDF0
05F6DFF5
0865DFDC
02F51F59
3102E81B
EB34360C
F338D8E5
F52DEBFA
0D0B0509
E6050B05
F2DFFF25
F2EC12F0
FFD1030A
F708E60E
012F0B23
0FE6E1EF
0429F70C
EE0BEB00
3CDB2F02
FDE20DC0
0EE9FEFA
1014ED05
0104E307
E71904E3
02122619
E0191DE5
E80922E9
F52410F2
120508FD
1424DD13
F3081625
07F8EED9
CC33172D
2D0BF9F7
014795F5
BFE80FF5
F0FC0DF6
D638EAE4
FCD6FEF0
2B16EEC0
DED5F017
D9E606F5
F2040104
082F1B2F
0CB80401
04062EE7
FA18F42B
F8810CFA
00F7EB0E
FC030D14
02E21600
FAFCF123
17DD1CF4
E24015C9
181EFC1E
2EFD3EE3
1BFDD60F
0429F31E
F4F30818
FFF412E8
261B0F2A
1D2811CF
FD051332
FE1806F0
D40323D5
145916E5
02322C1D
CAD4E708
E327482C
0B09FC0E
20EEF921
10E718AD
03EA2305
1E04D20C
E7FAE44F
FFF9F1F9
05394827
040830CD
062F21D9
1B05FBE2
0AF7C201
12C6D7C7
FEE5DF25
FB1112BB
0930FEE0
09D1FCC1
0F1D1ED8
FFDAF1D6
11F5A4CD
DB1510EC
C915CCD8
62E40705
0FC946B1
C8CA0029
DD4DF1E5
E70E4AC2
0C14F1F6
E5F7FB0A
CC09FDC5
DF382633
080C06D7
33FDECE2
39271A54
C6FBFBBF
321BCFED
BAD82D21
06C7BFB1
1F14C634
1125C340
09EAFB21
052026EF
E630FFF8
F1042AED
1C060AEF
FCF9E82F
081813F0
F7CF03B5
01FBBB0F
04143112
B7C737E1
E2EEDED3
1A2103DE
F33B77D9
3C200251
F2FA3B0B
F3E5E732
4815F713
D2231C14
FC1C1416
02E1AC28
0B11FDFD
20112FFC
FEE91822
E743E225
36FBC200
27D102DF
000322E0
2046E1E2
0159ECF4
F43A270B
38E9E8E2
12093231
DDC45D17
DE2FF0AB
D8CC942F
1B04CEA6
2601F92F
F33FE40F
D7D1E237
45B5E22D
F927F60C
9CF4F2FD
F61FDF10
09ED19F4
F600FC23
171326EF
1D07F5EC
E7150CDB
0A3C1821
25E2FFED
F005E6EC
F9DC07F5
051CFEF0
FDE7E90F
F4F419D8
172646E8
33E01404
0DD81238
02DDF727
011C01FA
E81915F8
F0DC00EC
DD021BF0
3CDDF6DC
01F91027
FEBA0E23
BBCF10E8
0FDF0900
E8D61305
18EBFC05
EE00091B
1D07FB17
FE24291D
44ECEEE6
D0F3AFD9
B6DEBA00
E609D614
F5153AEC
EA0DD4C8
E14313FE
00B60017
0033F40C
F4D316E4
08E2E51B
EA24084B
30F8F4FE
0606C708
D0FDCF1D
FF403D19
322F2512
D9EF0FF2
E6092619
070E0822
61FA0B08
DAEB0DE2
FDC2E0FF
003C1E05
DEF71FFA
05010BFF
F9DAE019
E7F90ED9
D2151BF6
D5FBD80D
FDFD0E0D
0BE9F6FB
21E8D7E7
EF1C0B4D
D0CEF715
E6E0D7D8
1724D80C
20CC0CE8
27E920EF
324043E8
E1C01A6D
DFE335EB
28D7EDEE
F1E8F6FF
FF31FDC0
DF0808D4
05FEE3F7
0801F0F1
F91A2414
F7171316
D7F826D4
C54D0457
241DF11B
10EEE0DD
00D51E04
FBAFD227
27F10105
3006FFE9
160F2B16
0420DAF2
19D615F6
F6070228
16001A01
AF37B17E
05A41FC4
0DD7EAF2
1004E622
131222CF
11F9DAE1
F5251EE0
05130BE7
2BE3F604
17240A2D
2317EC19
D70C0BF8
06F9BFC4
F135F50C
1E1DE8F4
FD140B33
F904D0F6
FA0B1E14
EBBBBAD2
0A3911A4
0F121DCE
DB1341F1
FD0FC346
0C06E6C4
0D473014
3E19FDEA
05BAF925
0433FA03
06EE0AE3
21EE112C
02E3B90D
1E4F15C3
EB25D0EC
DAE400F9

