073D090F
CCE10EA6
370527FD
0A08E909
1D1600EC
14FBEDF0
201C0319
35040110
F2FC6A24
F5E73A17
FCFB1B0C
18F4F036
04174C1D
2900FD11
1919E7D6
D4FF4BDF
C8F206F8
47CFC614
05110AF9
CCCFF0F5
51511BF3
40E9BD1B
05B105F3
49EF9ABC
08EEF514
1FF6F1EC
1F3FE823
ED09C5DC
F80CFA44
E15F20FE
FD1B09FC
13EFE568
ECE4D93F
60F29DAB
D002F80E
9CF34516
F602F101
81EC330A
E3F920AF
6630C442
0DF0CCC4
190B28F6
1308E8F2
0219FB1D
24FF0305
FE190CF0
01FBD414
0035E434
45C6CF44
01201007
AF041818
0CF8EE44
FFF725EF
0324B4FF
F304F701
1FC2F10E
0DD7F6D7
3AE316D9
32E91A3A
B2DE61D9
0EA8269F
1DF0A0FB
1617ED0D
BFE50EF9
1F11D0F5
EA00FC03
FBF2172F
ECE8CCF1
05FF030D
3CDEE1FA
03BCEF17
4F158DFA
10E8E9D4
F7121808
1AFFED1D
E90E15EF
09140F0E
0AFDBB41
F9F4EDEA
07F025F1
161F1625
8C034835
FA21262C
0C07D006
FE13181E
F0DD132A
0A36F3F3
D1F3440F
16DF25E7
07F3C825
EAEBF3EE
171BDDEC
070E3BE5
BF19280F
F7F52ADF
0111CBED
1406F9F8
160AB408
F1E93404
F1EE15D2
0309FB22
FC37CF0C
0F3C0144
E80607C0
D5F222FE
BA060CDD
351400EC
1F050ACF
28D91929
D7FD2423
EBE9E6F2
C2003AF9
0611F8F1
FC026C13
190937BE
3407AD16
2201FD07
D1FD1EE5
E0F4EC09
0D02FEFB
1B0417F3
EA1D0B0F
F1111214
03EBE5EC
160BE1FC
FF022B24
23F9E303
41F4A018
2A1C14D4
170A21DA
C7140FF7
0D281809
C6ECFF00
ECF6E415
0A142ADA
302F0EC9
AB24FFD0
FE3CD02F
1AE0F428
0F16D811
E5FDF80E
F2FD270A
CB06C3EA
FFF4E315
0BC30622
E8F332EE
EFD2FCC4
FA16EF03
362FB3FD
E708DC16
ED11102D
1F1539E7
1616D633
FC3FB422
6308E3F5
D30ACB09
FD47D331
52FC44AC
E5EC10EF
B8E4C312
31EB3CF1
2EF97E02
F7F902FE
02F7E3EA
FDD41C18
F71F240D
C5DEFEF1
F81B23F6
2E243817
3AFBF3CB
1B0A96DB
1AFEF81D
03F50E48
A6DBE407
DEE9E3EF
EE08DE04
E62219B5
12FEFD02
EF4907F4
39C80BFC
18F3F9F9
2F0D34F5
33F3D414
23D93A0C
2AE02CE1
E50A19CA
BAF1EBE2
F720B54C
0527EB0D
DF01F10D
1D03071D
310E2903
F4DA2B11
30E747CA
1510FB0C
A6D66E37
10D9DEE7
05EDE4D7
08DFFDEA
EAEE8110
1B27020E
06E5E10E
2606211D
29FB0FE9
D2D4F124
0513CFD2
F5FE22FC
CFFBBC15
E2120FFA
E1CC55FF
EE1D1909
E6FBB8EB
E10AE281
F3080CA8
0904D801
F53A16F0
0D25022A
FF13DCE4
0ACD1E11
D2EE07FE
C7F1FC15
21E90702
08E01502
C0FBF5F9
FE223E19
C6FEAAD5
15EDDD29
0709F306
E538DB00
FF181D1A
FA03E6F6
11221201
EB07FD13
1C30AC31
F80C33F7
E7DFBBFD
D2C0F9FD
FADF320B
24F9E909
D5F41807
FE29F5F6
2BEAE21C
1D0A4327
CD0BF3FB
E9FAD7FD
E01620E3
3504D5D9
02A14B02
21FB1FE9
DB07E62A
F3401200
1C440D3B
0A1A0E1F
D20328FD
EED5EB02
30F1D8FD
E4F5F302
F0150ADB
0901FE1D
DD08FB0A
E0E50116
FFE01EEE
F9E7F8F1
F51F1400
CBF8210C
F10124FC
FFF71AD3
26F316C4
0E1ACFF4
15E4E618
1311F2F7
E9F61020
D5E1EFF4
0600E7EE
0E3FD911
2E2F03AF
F70F2E22
F023F030
0E18E7E6
FD0809E8
FBE617F6
E4E11A23
FB1FFEE7
101B1335
DA0DEDFA
E002C3DC
BEF30B12
FAFB011D
0E1700DB
0903E606
15201011
EE2D0E1F
F313ECD2
DD1705EE
FBEFEA0E
E62D1102
1556DB0E
FC20E2DE
061FD5F1
D6BCFCFF
011DFB07
09000E01
F6F4FCFF
1A0C24DE
032419F7
17F01D1F
F8FDD821
1303E6FD
1AC420DC
040208F5
0C1A07F7
F9F5DF29
F8DE0012
0819F110
F0E8C52A
07F013EC
1AE9DDE7
F10A0BE4
F2DD2319
F6DD0404
F52C14E8
04FCEC1A
CEF234EF
0AE1E136
F0D1DEDD
262DA60D
101624EC
E3EBFB19
36351E35
BFD2FDDB
1D18EFD2
C800F429
EA0D06BC
3937A70D
FF20EBE3
F5121025
181C0CD8
110EC214
CFDFD4E1
DD113020
D32A412E
11F0C8EC
31E427F3
E7B9FD1D
F8EA3021
EEDC5009
E2F71405
0D2F12F3
DFDB2CE6
17EA0E18
F40BEDDA
E82F10F1
F20403E8
BDE51CF0
09091F08
E30D0716
09B47E2F
29DEC5E3
DDE6FD4D
010B0A00
EED6E817
1E02EE04
EFEC16EC
F9FB26FE
F10316E6
E877180F
F9DEF4D2
E93D2C16
13F4111C
E5D61702
EDFBFDF1
F4E6D6BC
20E01EE8
23FEF212
FC000ECC
3234072B
CB381D24
07F907FF
071A30F2
F70819F9
DA040C14
CC322446
4A28EAF7
D32242D6
41DB1DED
F1FE00DE
BD080110
1112091C
ED30F34C
0AD20E02
1728F7F6
12EE150A
FACBED07
EEFEEB15
F8CAEE3A
15FAFF29
142C0701
1101E50B
E10314EA
F2110D0E
16E2D400
00E2F517
F9F921EB
232D07F5
FF07F810
E213F317
0F151FF8
DB162AF1
E6FF520E
19D9FF10
1D48BA2D
D30AFDE5
2BEB06E1
CC13F23B
E70D0B62
1A0BDB12
212D0D1F
0218FAFD
051224FB
15FE12FA
04F2FA37
D7350C25
EBE1EE1B
0D05FB30
04D330ED
14FA0F31
10201CDB
D8E004FD
F22C2BEE
16E0EF01
101BF0E0
F1010AE5
2DF2F1F7
E0CBF341
BECCD5FA
F3EADCFB
1E49FA0D
27D8FED4
172ADD0C
F5212117
0616F6D9
F9E7F7E3
A0C616EF
39E8EA0A
290218D1
2EFE061A
0E1EBC31
E3F4F519
BD07DCFB
0BFF1A0A
DCCAEE03
E5E09311
ECD225B7
11CB0C42
1E2DEEE3
0A0CCD03
F1F41001
05F61FDE
08EE150E
E8F5F5EF
00FF1E00
05D4B4FB
06081A21
1C0B20FE
F61116EE
07FC1AEA
25E4F902
01F20FED
B3ED5113
F9E00C13
D61EE7EC
080A3BEE
F80547F4
1C2747E6
20190C20
F0DFCA00
E7E7E214
08EEECEA
EA055728
E9FFBD16
1E12FFD7
D40112EA
FCFA0B15
15FF12ED
2D23EAF4
2B00E5FF
02101002
FF060B16
E12705F9
DFFBF2FE
F834F6D9
CEEDEBD2
EDE8BE06
1FEBE237
31F408EB
212C32ED
E60D02FF
FD04F2E6
3ED7E242
0AFBE4F8
0AFB180C
DAF90E1C
2FED0FE0
3A0748FD
D2F8FA65
FB18AFE8
E5CAE30D
1117CA23
06001C06
F8000312
CEFB3F16
31FBCF1D
ED18E7FB
EE0D2235
E102DE26
F9D32538
DFDDECE6
31E6F009
07FBCE14
E71106F1
110A1AF1
E70CE526
D02D2D14
05DAE2D4
16C10ECC
E52418E8
D4E93BF9
E9ECEDC3
EBF7D1EA
F60ED1F4
1DB13018
D10F4C9F
0121BB12
A0014627
0FDBEE1D
CA0504E9
FCF01DDC
FE034208
27290DE5
D34DCF11
122401FE
FFE8C9ED
FE1DF00D
F629C90E
E4D00122
0A14D709
E8FADF09
ECE5D8E8
F7E1FFE1
09DD22F5
CD280104
D02B23DB
F3E0CFB2
011DBD3D
E9DFCF0B
3FD7EB03
DD2EFE13
C305D311
09DFEE1C
D31FEAE8
1AFF1A05
F3F82A01
E8F92F43
F7D024EE
10D8CBD2
2DFECD01
F3210810
F930E9F1
DABFDDEC
15ED408A
BE19F9F6
0F072CF8
0A060416
1EE6181D
EFFE9F3A
01D122EA
CDE5C2F5
2D1DF4F6
3E24FC3A
F2D909D6
F0C21C2A
552E12FC
D950C3F8
5420A414
F1CD3607
4B32A2F3
090A0632
32B2810F
D83A03F1
DDCDFAFC
0DED2911
FAEC3005
FCEBDB1C
47ECA0EA
1CD34E50
05D602E2
DAF8E6C8
0317F323
E6FE0935
D00BFBFB
E830E60A
7EF2AA1B
3007F1D8
C75117EA
31E71721
E00DF6E3
03E7FE03
954362E4
E9171803
D5EA3222
ECDA0647
1EE7DC21
1CFFE4F7
100032FA
27E6F0DF
2EF72D1B
3318F6FA
5AFC96E8
EF02FEF4
2FDE0F1D
14F2E80F
F3ECC6D0
1F1D24E7
0A14E4CF
08EB5B36
26EFF047
EA28A5CF
F2E8E4F6
E7E6F200
1C29E435
20F11ADA
D181FEBC
EEFA2323
1201E742
02E9F1FB
FF35F24E
13082602
97282EFD
2640DF23
F1D64429
EE1537E9
01190600
ECFE1AC7
F105E2EF
0017F8DA
473A6A43
E516EEE8
65333320
0C01F319
14011415
03F1FDEB
E10FF615
10D12C0C
0DCCA9FF
CDD806E1
2CF209F7
FE264121
01082EF9
F70DF21C
2FECFFE0
FAE3D3FD
F70AF310
E0F4F129
E219F904
2FF10BDE
DFE5A2F6
F6EED8FD
04DEF018
03270622
071A0717
D20500D8
1B155AFC
19F7F8FC
A8E5ED3D
EFE00A18
E4112315
0621EDF2
E0FEDDF4
F4E4EEE2
48F201FA
19F22805
240E011F
E413132A
46ECF20B
F0351CE3
C70A2EEA
EAED1F13
D9EED701
01F3F7DF
3A09390D
E7F22123
AEBD9DE7
2CFFF0F7
302A2C04
D0DE230C
E01216E9
FFCAFAF3
34DBEED1
15FC18E8
F9E5FB0F
EDB2EE00
E9EBCF07
17EDE1E2
1E130A11
FFF211D8
F0FF1CB5
10C514DA
0416F324
F9E629E8
0E3CF825
38DDD314
F003D2DE
13590C31
C8E74300
EFFC2233
E3D24423
F518F3F8
15F31FEB
1103DE1E
29EDD202
06DBEBD3
370ECE1F
F806BFEE
2AF7E505
F8F3F900
A2FF7AF7
04D7F4BC
B61F54FC
100430EA
5AF3DC02
FD181DED
D8064754
F4EC19D6
5AFCA9FC
F60B20E2
F1FEF806
05BED914
EDFAFFEC
EEF7FB21
3722B407
2DE6EAFF
66F893E8
0702E10A
DAEAE929
0E16FAD1
15072A18
BEE4E7B8
2CF81841
2B23CF2B
81F248E0
29F00B26
E8E15019
CAF9FE17
22FB2B38
2000EEFC
7E3A87FF
EA091FF1
ADF5E509
CD17E1F3
63E2AED2
17F1F2E2
0B01E40F
3DF41E34
D6EFF3FE
23FDFCF4
040CA3D3
C30CEDD3
B708D83D

