08C4430D
E51A122C
D5142058
291510E6
2AE529E4
10D5F8D3
34FBF3D3
0838D318
7E002F19
E7F60C1F
9FFB12E5
FA06E11B
0AF02BC4
251317FC
322A1B37
230CEFE3
C8F1D6E5
04F2DDA7
F11E1EDA
F2CAF62F
FD15FA3C
20241125
D703FA16
1CFB1322
FF0503EB
1E1EEA11
1620FC2D
12F22BF5
110FEDA0
13E8A0E7
3314F01A
36FEF02A
C741D00E
2B33B3E1
0FC60804
1907E8E6
0413E825
5437ECF2
B32A4421
E2F8F0EF
F0E0E3A6
E3FC02FE
D32ED5E7
FC1EEDFB
35CFEC15
1C0B090B
EAF40624
0B04F3E3
F024D917
F0D81AF2
B8F40B11
F6D42F0E
08EBD2B7
FB06ECD5
3005EE01
03E823F3
F22DFFDA
1014FD16
C9E22455
CD2DFBFA
FE29F8E7
F9DE03FD
1E3601F5
1247CAFB
250914EC
16E6F7EF
2808FD03
14FAD0EB
1B04E80D
E2042A14
F3FE1C27
1311CFFE
110F2ED5
0ACFF5F2
A810030D
FDFAF5F6
3CE6F90B
1103F907
E001D343
090CD00C
2E02C138
004200F6
1F1FD202
C4F8D902
FDFC14EE
1531FD47
B6FCFDFA
FBF809F3
59AEDB03
EC101B13
E7BDD112
FBE6D202
001802FF
F812E2F3
E5DFD411
F1C3E12E
EBC7DC08
06F7F3F4
41F7DCE7
11F1F626
F7ECF8CF
283CB3FF
FBEF032A
0B3C34FF
18EF0BD9
DEE3F022
A81DF414
E60B2901
12F3E103
FDF9F121
C5FE8D2D
E3E717D8
E929FDED
FAFDBEF1
0316F8EF
EF06080C
0D0105CF
EDE7E1F5
F0FDC604
E8221A56
F0F6E8FE
E3FD5B05
46F5EE07
EAFAFD0B
D2DAF6CE
FE18FEFB
0001F3E7
FF17EE00
9CF4F5FE
FBCE2CC5
FA120E02
D2D2EE21
E011210D
14D72401
F7C6100F
BBBCD905
D5F9110F
24200005
6D00EFCE
E4FED00E
41FFF3C1
B340F42C
2DFD0BFA
230705EF
E60BE610
AF1AEF13
C0D3291C
182100DF
B830F4E3
FB07120C
BEE30FF0
0AE80E1E
FE0D3142
1C09DA0B
40DBE00D
C6DEBB1C
18EBFFEC
D9E10D29
CCE0D704
E201E23F
DE24E4F4
3D0D1419
C22A34FC
040D1524
2521F324
1A161F1B
D3AF150B
FCEC0D08
31F40002
F1F4FE43
90F1F6CF
24DDFCAD
0CFBE6E8
EFC11F61
48E501C6
2E29F225
E209EC28
1529EAF8
FEF021D4
EA150EEE
FF15B5E8
0D0BE9F9
DE060F29
D87629DC
06D8160D
41DFD8D8
59CD1A18
200DE8C9
DCEFCDEC
F1E400F3
DA0712D5
27220422
22F2D801
393EF610
4EF11DFE
F5F115C0
32BB2A0F
27E6F125
DA162E01
050310FD
98D61725
120016D1
0A0E2EC9
5C1ED8EF
CAE9F8FD
3AEBEDCC
6409EA20
E72E1DFE
2DF5D3E4
0EE5D315
E6F31F26
CCF4F907
07FAF4E6
EEEA0224
161EF6FE
07DE03FD
BCCE0CF6
F00218DF
102011D9
FF0F0610
1C3ACEE7
09FEFB15
FDFC2CEB
0EF91901
4BEEE2DD
02F4DFDD
AB08E911
FEF6F516
0D1EF31E
19DDFCE4
1F12AC31
AE19F721
4116E91B
BC10FA1A
B95803FE
C8ECF61C
06D700D1
1711DE02
29FC0CFC
D7FD0BF5
A11004F9
E1F4FEE7
03F7ECF7
1CDE04C6
F6EDC63D
E0CC1B06
64250FBA
0D32D7DE
DCEF2401
DCF50406
5505554A
0815F619
131B04D6
E1FAFE19
33F940D1
253AEE0D
030E15A6
E21C101F
EB02211E
090AFD25
F107EBD1
2405F9E7
0C10130F
14122BF6
051DEDF1
F1F50D04
09FF02C2
DD14F3F4
1E14FBDD
14E408D7
C7F209EE
02FD10ED
DAFA17F2
24C6ED0E
DB01EB20
F6F819EF
33F2F51B
191CF2F7
EFE0DF3E
04E2FD09
F412FE19
F5DD10ED
EDFA1A16
F71D0603
130BE9F3
0EEC110B
FD12D82B
F7F1EC0C
DB0FE53F
FBDC15FF
B9F305F9
15082F18
1CDCFBF1
FDF60008
17CE39FF
F9EEFD0E
2229F62B
09AB09E8
DBD609FB
022508DD
D71A0027
FC19CB19
DADB2611
01EB18F2
2205EB10
F9FEEA16
0DDFEADB
24F2E033
FD06D4E4
070DF313
26EFF609
010710D5
231A28F3
F3100EFF
B3000EE1
11F530FE
F501EDF5
DD18E808
FC2A07DC
FE2105F0
EE3811C3
E448F7E6
FBE03606
1927CB00
F52FC897
F92F2630
18EBE82E
D70718EF
CAECCE0F
AFF73F31
02FAF1ED
F81611D4
C0FC1001
110ACBE0
E6D9003D
07EDFEDC
0D30F5FE
BD482F1C
04FB0C29
ECF5FEC5
E016FCCB
0DFDE420
FDE1EEF1
43F23C11
04E705F9
04DD32F6
E1B8580B
DE1AE7E2
BB2ADDF8
1EE92FCB
2606EF00
13F528D8
45FFED09
052DF3D3
16A50110
E4EDEE08
9B55E714
0FD5E40F
E2F61124
2100FE1E
06F3DA09
3211D4F5
4BFB231B
36D7FAEF
FD12220C
18C9DE0E
FCEC1C95
160B0B13
14E9F3F9
EBED22D3
EC25E445
02EFFFDB
0D0400EB
4C210EC6
3CDEEC1B
FCCA5E04
E319D429
55072FF5
41360AED
E8FCE8F5
F5042A01
49D8071A
20D52534
F202F2F4
51D7DD51
DFF11EC4
19FBE10D
280EFDDA
05CC1BD6
3BC0D3E1
3108EFAF
17200610
3B1639B0
4906131C
D41EEFF6
0DD43500
D6F33303
FB16DC02
13DAF1D5
F4E717FF
C1EF003A
11D815F0
27EF3DE0
0D19E4E2
0C271AF2
30E503DA
F831FEFC
F3D813C7
01231005
EEF5F4F9
2CE02FF4
FDF91AFD
D5EF40F2
19F4F5FD
F701F21F
D7041905
F1E71335
00E239FF
23DE24F7
10E2DEDC
FD15FE56
2ACC3DC3
1C1F01F9
1DE9FE31
8B25DADA
FB14E92C
0F0E0221
E147E2FB
5C2A4218
CD1DFD0B
0CF2C702
18F2FDDA
A6D709FF
27E61E19
0CDB0AD1
D60418EA
E7020F23
162225F6
EEEF09E7
09030109
1225DD0A
C4FB0100
4C34CB90
1E18D527
ACFEF0D9
2FF0DEDE
B8FF29FD
C6EB01E4
27F9E6EE
121E3240
FBF6C416
0A3200E1
1F000400
F50513F7
3F092618
E4ECE506
EAF4D94C
EDF2FCF0
F7FB0102
FAFEFD12
D909D12F
DB19E625
12E30109
D20C1C19
01FE1105
020501F7
DE0351D8
0E09F20E
18EA42FD
EE0605DC
0C10EAEB
FC17E31F
F9EA041E
C00C4214
E3D01C23
02ED1EFC
F5E3121C
F801040C
D0E32313
F1EBEA08
03F91310
ED10F9ED
1C1EF308
03EF0317
13F3F1FC
16F117DA
15CB3DF8
190524F8
BDDE1025
4C53020D
FBF6051B
0FE0F71E
1D370AF5
120DF00A
0FF9E5AB
0510DADB
EEF1ED15
F8F80EFC
ECF332DC
15E9F2D6
FFFC2BFE
1F03F5F9
0D58D8B6
0E091900
1109E807
E6EFEEF2
ECEFF90C
CFD6FA14
CDE8F947
D40FF400
0E00E915
DAF9351F
16F43D18
D4F0F10F
1112DBFC
24F0FA1C
CF09C71D
D3D2FB2C
090C30E2
152EF20E
55123937
06BF0009
0EFDF7E1
C9C5D101
1400114A
062BF801
1CFDEF08
3705F6DD
F82D2317
E1430E13
EF0CD7A0
1516E530
CAF6DFFF
0CFF2730
06F6F8EA
FC172A06
FF0E2B16
DED90CFA
25CB0918
17F1032F
17FA1141
F3DEDCFD
04191701
F0D72718
030BFDD9
F102021E
DE0739BC
17FBE9FA
F4FAF7F5
07DA1E13
282913E2
0DEE0505
E12A15E6
101F1C0E
0C0604DB
FB08D50D
8F3463C6
1D130626
C8180301
0CD8150E
D422D2DE
FA3107E1
121036F9
E91F31D6
FEFFEBEE
08022F42
0DE0E312
210CF31B
24E8152D
DA114439
C6D2DE18
10D12508
142DF2D7
36320FF4
1FE61019
D8141009
FA01A9CE
25F4E8BA
FA1ED040
EBEF01DE
332534F0
FDE92A19
310AE6F7
0D123721
19E4F1F2
DF19F5AC
E6EA1CD7
DE082619
1EB3E531
FB20C220
0FCDED09
2BE91C01
19155AD1
F9FE025E
CEF1FF03
14EF1913
EEEF3318
E223E61F
261701E0
EC0EE5FD
B3FF16FC
E50FED1B
A50AEE0D
FD4B1503
FBD454E3
100CC4F8
79231E0C
AED63235
F9ED2D89
0114F4FE
282D3404
EE19EFE6
AF4D1BFA
10E8E9FB
E6072BF9
15E9D6F5
0C81E6F8
F8C00C3E
33DE18E2
0CC4B206
F409080C
E8D90DE9
DFBFEB0E
0CE43D04
DF44CFEC
FED2F44A
2ECBCE29
0712FDD8
04FAE303
FDE4EFFB
0ED0FFEF
E9EDD121
56E1F2B4
ED1D35EE
F2FC1705
D9D61605
0F252BD2
13242914
0319FE22
021CEDE8
03D2F491
09FD0914
16ECF313
1C2AEC14
35F81BC8
3542FD08
D52426EA
23231CE1
2ECFF608
F02AEE0E
1B272D42
1A3AF2FD
4BFC0222
1505ED38
2AFBFD28
E8F71006
09F3FCD8
12F1FA19
1AF5FE16
0209E013
FCD60904
581BE9EF
EFC10DEB
E80C06F1
DF31FA2C
CE1727FD
0D06F8EA
C6D91D11
EFE806F5
2300F3D2
5EB509B5
4909D81A
DCF01502
00FAFA0A
14F4FC17
17F7F0FB
0B24D726
EDE6D705
DCD70CBA
DCC5F117
01F5E515
FB1507E8
C9E42B27
DE2EDD09
1A13190F
204B0F0A
230A2908
3910FAF7
0406290A
DEF213DB
E424F219
E4100EBE
DEF0F3DE
101825FD
0DFBD51C
E8F32928
1A0D1B2C
DE22E6EF
98253619
23DB5606
130707F6
D5D51E53
092A1B3A
CD122C10
3808510D
FFD312DB
061E0101
0DDF2F28
E0E40B05
F1F6F505
3DDB0710
DC11D807
F51E17D0
2125C1D0
F8D13BDD
C3250125
B8EE2009
0A2CDA09
E820E9FF
11ED0BE2
C202E7C3
171ADA44
F6EBF6D2
D834CF0C
FEFCFCCC
E7110018
2319C2DB
0EED2AF5
F2E2BB3B
E507271F
B5FD01E5
141A19D1
0EFE0CCD
EBE5CDF9
1E182CE8
33DDD8E7
5431D20E
EBF808D7
E70FF269
130CEFE4
16DC3819
15C70719
041D32FE
4D3414F1
B503ED37
25FD1A0F
09EAF5EC
0216FF09
0101F7F7
0FED01D3
FFF6FBFA
040BF0DB
22F2BE25
EFC6E102
B7F71DF6
25311505
DC19FCC1
E811D402
220BC62E
FC2C2C10
F706BBFD
F8F21BF2
3112F8F8
1F13DDF4
0EF20629
1F12DE0E
D317E0ED
0F1FE2CE

