EC0720FC
144CE6F9
1E200DE7
0AEFEBFE
F7F400F6
F7F6E010
E0EA08ED
20F40607
60CAF8FF
3A1C0FDE
17F7ED20
FAFADF00
4D0B14AF
DF600F13
0C0AE31B
32C5B53A
FECEEAE8
0C01D40E
24081C3D
00E32519
081B13CA
F5EED41A
03331506
F5FAE2EC
11090213
FEF208EE
F8F4CCD2
1BEEFAEB
E00ED2FF
032DFD02
F8F5FB2B
110F1AF8
10F2E702
CAD9CB18
DAE5DC21
DB0A1A12
01F403E9
2BFA2A15
11CCFF03
EFF7F520
08FFD44B
EF30F01B
1BFC1BD0
C806E829
F904F9DD
00EC1F1E
002AE3FA
350E16F8
F04A09E2
F7D5F21E
30EEFEF2
2C01F717
2320152D
1BF9EE0E
FCE50AF1
08444A0C
28F6D5BD
CFF90E1A
02FF13E8
34A62902
15F4FF37
FF05F3F4
0714FAE9
0121D7D6
0A06F7F9
19FA2213
E5EEF314
114006C2
0C08E300
DF19F7E2
28F8FD17
E10455BE
0714150B
FCEFD701
06FAED05
E6E4E9F6
FFEE17DD
20181005
FEF40B07
130BDBE0
0905F8F8
F92A44EC
E913FCFB
010E5FEA
1E0BF1F8
131DF711
1FFD00E1
E00721F5
F1D7CBFF
1FDEB10E
0CF2E4FB
27EC2CE4
1ADF0DBC
0FF2181B
F5111609
10100F04
FAF00D20
271C1B35
ECC81F12
10EBD3FD
181913FE
EBFC0B28
10FCE9EC
E20C1041
FEEAF0E8
E714FB10
22F531EB
10C82522
DFD8D4FF
00DA1F27
01FD03F2
F2E75AE8
0215FD1C
12D6EAF9
E6E52EE9
FFE9D244
FB030F09
F9EA30F2
1706F2DE
1CE00618
0E141925
09E9EDE6
010CF9F5
0227E40B
D8EFF9C2
18E91016
27EC40CD
E607B012
01A9EC16
19023102
14341708
F8EF6B1A
FD0D12F3
EAE781F4
FCD3F300
E7DA2001
1FF8C90E
DDF59601
B6061328
00F728FA
34D30910
E9FE16E6
0917DCF1
F12F1DC4
D10D04FC
10EC1131
E4F71ABB
A3CF2EDE
E332BD99
FC550C20
2721C4F3
463F0C5C
F5DDFF0B
D94FC0EB
DD2F1D13
09020C08
03E0DA28
DDFB7ED9
E73415F8
C2E429FC
DFD54C33
0CE3F42B
EFF4E6FE
EFF381D0
F3310B21
FC1FDF1A
0DD719EF
0E2C6EFC
ECC7E30A
23F181FE
15E01739
1F0BDE21
01EA2BFF
0D3531D5
0646D5FA
420AE3EF
15EAC5F3
DB043EF6
37CEEE05
0BF46AD7
E8E5D3C0
C1EEB9DE
3D0CEE29
F3210013
D8EE16F0
EBD4F433
F20EDE05
D019EEFC
4A1CDB2A
0FF570AB
08ED15CA
230A7C0F
E3B93BD2
D7D5C9B9
002BDB0B
AD21A1CA
CAEA1F3D
1A7075E7
294A2BDD
53011104
23DDF427
ECB827FA
D304D4DF
FEFF32BE
F3531EDD
E8F6DD05
EF0FD8F7
3C031F2A
EEF832F5
1A01CFF2
F705D6BC
2600222B
ADE62059
19CA4AD8
962BD6C9
F714D0B6
FA1C14EE
F0C4121C
0914EBF3
1AE802D4
EDEE22F6
0AFC1517
E8F2E025
ECF3AD08
E9153DEC
F0FF29E8
1BF700E9
06D42310
D10FED18
0F3AC932
DC03F022
C415F1F5
EE1200CA
FAF94712
0A1837F5
14E4FE45
E107D9F5
065518BF
EFF3EBE9
E703EA31
1A1A31FE
E2052D12
F43D182C
171D36F9
F20B2C04
CDCEDC11
170E0D03
7304B633
D826CEE4
E046D80E
C6D326EA
ED12D4FA
E503F10D
F006D0E5
1E19C80B
F613E60F
1E14E8F0
000C0CE6
DF06EEFD
1118FDC7
16FE06FA
E6E603E0
0811CD17
E83F1413
23CDE21B
FA030A0C
FFF929F2
EAB8FF24
2125EAFE
3C40E2F0
F81E14E2
0618F0FB
FCFE0921
FC110904
001F3413
F5DB2025
FBEBD61B
09E4EB19
161EE602
07F31FFF
F9FA01C8
09F1EE15
1B1101F2
150D02E2
CEFDF000
FFF0FC02
FD0CEFFD
00111404
EC17F205
0DF7DCF7
03FE2017
0A0ACBEF
F0E504ED
E604BBCE
09F8F817
1104234A
F8E40E19
2616F91D
1D030F05
F7FEFA19
F1F70112
DD0CEAFF
F0FCF319
EB0A0AE6
20DDF609
E80711DF
1C13110F
EE08F809
FEEF0CC4
ECF6E901
14091755
0E05E8EE
0FFBFF1F
EED3E12B
F128DF08
EA18F503
FAF300E9
E3ED1E06
110CF019
05D51CFE
0B01D931
F22400CA
1BF7E1CE
1B051DBF
B4DA0116
F5F8E40F
1D101D35
24DA22F9
18F54A02
04E210FA
F815DA33
25E7DF2B
46C92C17
1718B6DB
DFD5F515
0A1CF6F2
2D180409
C11906F0
FFDF4011
EA08F31E
1B403441
241EE402
E6F896D4
09F5DAD1
3116E4FE
EEE9F207
341C3EC9
D7E90A05
3B06DF1D
0BE00E0A
E9E7FE19
1D00DDF4
F2CB13E0
E3EB131E
09F618EA
2FF9F712
F815350E
AEDDEB27
E8D92511
13CA031A
24ED09C9
220A05D7
DB21D417
DFDB21DD
25F30FD7
1918F909
1E68FFE4
097A2DD5
F3E82606
03E525FB
2B09FFE2
EF16E8FD
5916E1CF
10E4110C
2BE901F7
DFD2231B
F9F524FA
E2F6F9FF
4F34ECFF
FB1024F5
EF0DF73A
1AED071D
100DFE01
2C063B2C
5BFD2F1D
F422E6E9
0F25F234
0ECE0BDD
EAF4C7DE
A7DDE134
1A051FEA
220E0B33
42C5C3E8
0E1AF4F9
FD0F3F3A
F0ECF8F8
FCE703F8
E92AF710
1A2A4ED1
03F90407
DB041D37
0FC90B62
00F6A90C
05C7DF04
F6F61B3B
E71602FC
02FF0A07
3EDF3214
0C12CDC7
EE0EFCF3
1A26120D
D8190AF4
1514EAE2
CAF3FD0E
1D19E906
F7E802F4
F813F02B
351AF40B
DF060A04
E737031A
16DC01DA
E9022447
E7F811E4
1418EC0C
F4FE033F
E217F507
0012531B
151D13DD
FE2AEC0A
FB01FBE9
FA000D3D
E01DF2F1
08EDE10F
1F1113E1
05FC0A00
F1A1EB1B
FE291809
DE180AE6
01E0ED24
EC152E0A
2916E5F9
FAAC0204
F50A1BCA
F6DEFE17
10E4EAFB
10F8EFF4
26DAF800
0FDCEE0C
FD0107FC
0211EA16
FE13210B
E7158109
FFFC1E1F
E0F0FAEF
100707F2
1309E5F7
0711FE00
F41D2EE7
F7E700ED
1FE4D9D1
F5F5FBF6
E7E2FA05
FA090CEE
0B003501
00080D15
FD0514CF
E1FEDF04
EEFBE606
0813BFE2
EB16E61D
DE110AE9
F4336221
F0D73B1D
331A3ECB
E748E6E2
0231D309
F80B0637
0C0A0905
021616F4
F9F5E027
040C08E5
CC08C40B
01FE0719
FF00F9E8
20DB4034
07F4ED16
0A2E03F5
0715F006
FEE904FB
F3F7E405
07ED06DA
00181CCD
49F1F7FA
2625F2F1
0D2107F7
DCF361DE
F002FADD
F4FAF1EE
FC3ADB3C
FBF2F41E
11FDECF6
07E5B205
E213ED02
FCF154E4
EF363509
E3E98604
280F02D2
D8F7BF38
15FA12E0
FF07F5E0
D707CF11
FBE42EE2
F6FB06EB
0D2C2709
090E0703
FFFB0E0A
1A0CFFBB
1318E901
17EAFF00
CFFE150D
1CDFF737
04DBF610
EC140597
052315F4
0F230904
F00AF306
F4F81BDB
131D10E0
1921FAE2
DE2521D9
EE1924C1
09180C13
FD2B0D1A
FA3C42F6
EA23F535
E107E1E5
FA07EF06
EC15FA22
E4FCFB18
0D23D5D2
06F617BC
0418FE30
24090E23
1016240E
28F00F0B
07D326FC
13FE172B
E10D0801
07D9F11B
EEDF1623
08D9F812
32DB0825
03EDE3EE
EEE43FEE
020C1937
074CF7F8
0F0216FC
1C49F605
1723ECE3
EE15CD39
0412F9F7
18F13005
04151C0D
55183405
180D0D36
F40B1D1A
100905FD
0F0AF0ED
08153810
03112BE7
0CE9E715
EA0901D9
FE18E3BB
EAFE18F3
051CCBFD
EEFDF00F
50F8C703
190BC3F1
E1F9F20B
3FF32624
4B18E7FD
17172956
18EBEAD8
E830C74D
FE200809
1417DEDB
1B040CFE
B93BF2FB
CAD3004C
2E3014DE
D9F70B2E
210D0DD4
E2292BD2
4233F805
2F25FFF7
1CE20B15
F3B2DC27
F509DF19
FA05E713
0E020225
1CDC033D
D82C23D1
12F1C113
140205B9
12F5DCF3
060EFC17
A3EBA6EA
D22133F7
47081321
DCB2D9F4
B9FDFEFD
08FE11FD
F4F411D8
FCBF3F0D
F104B13B
0E2E29FF
2D1FD7EB
133FD0D6
132D5E21
E229FADA
08EF0C26
D8D4F7F3
A20ECF15
32EAE90D
D9FAE60A
48FECEF0
12E0CA03
EF16C71D
F704D0C2
ECE6F6EA
F9293F17
EF36E5F3
2327DB30
B719110A
18BFE1E8
E602CE04
1E9A113C
32E6D800
D52428C9
2901DBF6
FB0103D0
F2DB8211
F310F011
07048123
0BF635F5
04E50002
1B2610E8
07C2953A
F2FEE3ED
FBEF8108
E82202EF
0503C5F8
0205FA05
023377E0
DFD9C224
2600B5F8
200ED2FE
05F6CC05
0BFD19F2
E2DA81FA
A5F8F2C7
070A4AF5
23203022
D7DA3ACC
D925062A
170C2115
0E3ADD19
0AFCED17
FA1308D8
F1FC4F20
04F2E01D
F7DCE608
20D2C8DA
08266A00
D904FC12
FC06D813
19FE231B
1D217E37
E7E51BFB
F5146902
E6DFD9F8
03DED02C
25FAF5ED
DF159DF8
430CECE6
C112C030
3C0EE3E0
ED078A48
18F3FEE8
F207F8D8
2136D6C7
522F5543
B3F4FEE7
F9FD98DE
0CF1CF0D
1513822D
03E22A2F
02FF03F1
F60B0A04
1A16D9FE
F5F61EE8
05145806
FD14F226
F6EDDF01
0007111D
07FC23D7
D7FCD72F
0DE11722
00E915F4
02EE3125
C2B30ACC
270BDF13
E8F015E6
09171807
3B22FB0C
E12E2606
F130F509
241037FD
D9EBF7EA
F32EA7EF
F61CF808
F6DDDE05
D728C3F5
F6EA11EA
D5211405
0BDDB1F7
17121EEF
0ED9C3F6
18D51E26
EFFCF9EF
ED0AEE02
FD09EF0A
00240312
D10A13F5
D2E3F008
DEFC9E0A
29D4FD00
11E2C407
1F24410D
04EE08FB
EEEB06D5
0A14C3F2
E0E60DCA
2FF72B1D
03F1F917
C041280E
25D61021
DD361CE5
E8FDFCD5
00BB03FC
35FDF0FD
FBCA3D34
2330F53A
DBF3E807
4D25E8AD
1F0C401F
F7F4E43B
EEF7F801
E5E72534
FD4B20CF
14F52CD6
21E4210C
ECD5EF13
EE0AE115
1E2D001E
0723C30A
25162D36
0A00B504

