07508E04
EE26081F
0A14FBFF
E20CD204
E6E71919
E4D3E0F7
EF152D21
FBE3DA25
DFE3C7F8
0D23102D
F8E030D3
17F8E11F
0CF41EC5
DBD01AC0
DEEFD313
EBEFEE19
DC0B7BFB
F1E548BF
2B00F00E
0F211909
1EBF5DF5
C921FB0E
B7F561D2
1003EEE5
DF0201F1
EF21E918
DDF61757
D8FEF31C
8F1D12C4
0203242A
FFD53903
F6E8053D
53262613
FFFE0C02
06F4FE17
0BFB2218
CA0ADC01
0D551506
D9C6F731
EDF507ED
E11502F1
3211E8E9
F3F700ED
1FE90DF0
0A11030D
E5F905C9
221FEDF4
09E128D9
180C240C
E5D0E63B
0F0FFBF7
0DCAFFF6
260E1816
ED180AFC
DC21C0E2
05DDFEB4
24F9BF06
CDF8EC1C
22E19009
E717E13E
112DE1EB
1A0AFD07
D723B9EE
FD2BF0D3
31F6ED01
F6ED0E07
0529382B
F1F2F1D2
0BDD2CE6
3108E506
140DEEFF
F305250A
EE11D505
F4E81BFB
DB0227F4
FB23F2F7
0EE311E6
07F5EEEF
F91CDAF3
11DDF919
17DEBB2E
F703C44B
FAE20811
0328FDE4
F4150006
1716FFE9
6F492AE3
FF040444
0A81530F
1E3D0604
F8D6F80B
11F0DF06
E32BE214
F232D1EF
DCF908DF
13E202E1
020CE916
F6F908F3
EE382A18
D714FEFF
3A06F1FB
09B11B15
D4FF2CF8
F9EE1BF1
F2C8D2F0
F4D30831
230F1200
07CD1E5B
E8DADEFA
FA09F1FA
0726DC0C
0828FEF8
07EB48F7
3005F306
F30DE51F
FE1F1427
ECFFDCFA
FC3618F5
13DB2712
03DA2BFC
F91CDB03
E61CECC7
EBEA3206
E7F217EA
EF122716
0631060A
2FF01C03
09E5E31D
3EE6F427
17F2474C
F402DACC
D4A6F6ED
09D30BE3
1F01FBFC
FF07EFBC
06F722F2
F10611EE
03C5DE17
F9E81EE3
1FD003F5
F8DD0B3C
EA13FFFC
EB08FA02
18C904FA
0A1F0635
0C1EE30A
F027331A
E3F605F0
07334C18
CE440EE6
E700DD25
EF342315
FB31CC2B
FFC912FE
1030FCEA
1603FAF1
055F0C13
E0D5E55E
B737FA1A
16C6DBB6
CBD0F0D6
0E240401
16130CEF
0D08F9EC
EED2FB0D
C8F5CC09
C2D4FDF2
110C2411
EA140DF4
08E81EEF
F119FA87
65FDF593
1A061C0B
DC2F111E
EEE4F9DE
F7FB19C6
ACC5F629
C313E8EC
163A0408
E5FA2210
EDE2E9F5
E4CF122A
08C52A9A
1108CC2E
09EFFA12
8EE40E0D
BA4CEF18
271AF9F8
EE10352A
D8221DEA
F931D6EB
1F13E2F6
01D82EE0
F1414407
F62B2206
CA240CCD
CF0CC12F
26ED07E6
E6FC2EB4
1D111908
24E0EEF4
F8FF3115
E7FC08F6
F115F3F3
FEF3D9CF
1CE9E7EC
FF20CE07
091EDBD4
1FE80D3A
F89D5317
3518DD0D
33E404E5
091C0F54
1EEC001A
D20F1019
1056E41B
C006F919
05041226
0C2F0806
03F8FD1D
F2200004
F5FF2FFB
F001391B
E63908AF
D5611A01
147EF6D4
EDEFE1F4
1534F922
D612D93D
F221EC1D
13277122
FB0AC40B
0246DA2A
35D6F2D2
2BD00B1B
0FA1E9D4
390CF809
270FFCDA
C702DC0F
FAFEEB08
07FAEEF8
F016E6FA
1F07406E
02B4F6BF
FBD516DA
05FAFDBA
ED44F723
F0DC0103
F3E92E38
235FF6C7
EBBE0F3B
001E0407
D8FD12FD
2B4513E1
FACFE3D9
FD1202C8
1122FB09
DF2227E9
EC3AC9E6
0CFCD11E
F1CD19F6
12C604FD
DCFEED13
092B0B1B
FAFE21E9
0705D409
29EB102B
CD050E04
07FF42EA
DCA9F1E7
150946F4
F7BCC321
E40F810E
0CDCF3DC
F90125FB
F82C35CD
00EB28EA
F425F9F2
0F562C13
0ED617FE
E50BEF0B
E42EF532
23DB0E00
0D2AFD22
F603F0F5
2EE9FFEA
1D09FC11
09140528
0A0E2CFB
FB04D7E6
FE12A5E0
F1D1EDE4
0217E806
E208060F
14F63E0B
12F90904
E6F66D01
E9ECF715
FE0D0C2D
092C28E3
C5F051FE
F0DC08D9
FC28BAE8
0AD701FB
141B401B
E832111A
0A4F19F4
0C0CFB00
23EC5823
FA2A01F1
08FC46EB
F8ED1CEA
01E8AF17
EDEDE4E0
0A1527FE
F7E9F911
05C2D8F6
F0E4E701
DA0100FB
1E091ED4
20C726EF
F008F9FE
1FEE2DDE
DBBCEEF6
01EE0302
0CFEFADC
E6100A0D
1A0A1713
1403AFFD
E700EBFD
14DF080D
27183C1D
F41F2FF3
F7180201
32DCF9E4
F3E8EFC8
D2FCF0E3
06173922
19E5DA09
111B1DEF
1AF20C26
FF1C2025
E6162602
BDF91CD4
F80A120F
D3C2F4E4
F0E8BA1E
36190FF5
F80DF037
06F6F706
0E160342
FEE8E7E9
B51AE704
FA270EE5
EB2186E1
FC070609
1416B922
19F40FCD
08FC40C7
1B0502F4
F2E312B2
0129DBDE
F93ACBE8
29CCBF14
20F4F830
F0FC1B22
EBFCB4EA
FFC5F6ED
FD07061E
17C2E919
2604AB11
E8F1D1FA
48241710
FA0D0E06
3012E419
0AFDE9FA
F62AF1FD
E13707C8
FD09F2EF
20EEF6EA
C741BA3C
AF1B1EFA
05060017
E7FACD1E
F5F5F94F
BC3500CB
1D192621
1037FA21
22A12BE5
16FD9929
F6FAE2C8
104F0DCE
EA06F21A
16F4FC00
0F0FDB10
142A08FC
11C931FB
09D40EF3
19E39DFB
FFAA161C
2DE61EF6
18222B09
061A10F4
15E61D21
F91D17E9
450A053D
FC0FD1F3
10C2F130
0004F0F8
EF18E826
E022FF10
1407093F
EAE51C5C
D5DBEAF4
E30E6AE3
FFFC011F
34C8E709
06EF1026
5BEFEC33
E00B0315
164D06F8
50E3E043
E3FD1404
012C2AE9
FA0C0C0D
FC0EF9D2
DECA1B0E
24E7DA0B
F6F616F9
E309CE00
000C8E0B
FEC6FC01
C44924ED
21EDF1DD
1112FCF7
CA35172E
0CCB1DDE
00CB06F9
C7090226
0C40DD27
E1F5DD30
E51EEA0B
C91C0B08
1E043231
301B0807
11B7DE18
CD4505F4
C90301E2
EF17F9EA
0520F0EB
C713E0F7
03141717
D3C93418
E6050FDA
1413F61E
090231FA
E924FDEB
F1FE0908
EFF8EF04
10EC1500
F8EDF3F4
0023FF05
FBE2FDDD
06E0FE00
102011FA
0BF600F3
F9121215
F5051600
194AFBD6
321ED12C
FEEC1E17
EB00D5E0
E41018F0
F4EC1FCD
2AE8EFEA
12E5DA28
0F29E8FC
F7152A2F
0B02DFED
20044731
13020AFE
FAFA0DF8
293225F2
12F41116
CC000807
194EE3F4
13F0F202
2130DA2B
EBE7FF02
061901F6
E9ADE1F5
0A08AB08
31EE01FB
E30FA3EC
08F815F1
E8F9D935
FA0BF704
02FEF9FF
1D152B19
01FF130D
FBFB0612
F934F42B
0B241C14
0DFB1E14
FB0E0BFE
DB145A1D
FA0A020F
FC33D0F4
000208DE
16020E11
F1CCEEF8
020E1A4A
2938E910
23030CF9
DF0A4AF0
1F08DC26
27E1D9D9
DFFBF6F9
03DFFDF3
ECD31A0E
B14509F1
0841033D
DCB302EE
E60FFCF6
4D223FF3
39F324F3
ACE41BFF
EB23F0E6
2014D90A
E917F811
0911D6FE
D627D6DD
F3BE1BE8
F5310EDC
1C55FD00
F92CFFF3
FD1E0EFE
F6F00335
C228F0FD
F62B0513
1E390E08
2ECD11D0
CD193AEE
05D70AD9
E1E53F09
CC3A070E
D525D3F4
0217F8D5
FC0D3007
D8E2151D
EDC3E100
0CE610D0
115006EE
171AEBE5
341005D8
0D291001
EC302E1E
FFCFFCCB
C4C8FC29
EEF722F9
070B1705
ED0AFC0B
E7EECFDF
F322FB10
D3F62428
1B11170E
DB11B907
F614F60C
B26550CB
E221F900
FE3436CA
FDEAD0F9
E4E808E2
0715F7D0
26E0E0DA
1548EBDD
F9EF1FBC
3A4D6229
27481C1B
40FA20E8
D5063503
F4E4E3E9
44F3651B
10C247FF
172F62F7
F80426F2
FB0931EB
100EABF1
F2062B35
D4E7D30E
34DCDE1B
CE2EEAFD
DCE3544D
FBD51DFE
0A37FE14
4CCFF3EA
262AD7EF
38E02BE9
1929E902
13F404C3
FFF50613
0AD9180B
F2DF0EFE
2502ECFE
D8052304
DF7E01EC
CEF8DBF6
D5F43008
00C3F3FC
2AD0011E
F1AF171A
E7FEFCDE
F01F0A42
231416CB
F742DE3C
EA1BE3C7
FBE84A10
17C532E0
DFF20CEF
3AE6DEE3
E5E4F0F3
F928F131
ECDE03F1
F3321DE9
0BF961E5
E92DEB0E
37E23ABD
1727EFE2
011424D4
EF5D04D0
082F224B
06F7DDF1
63FE3DBA
44CE095C
2DDA45DA
072C3504
03E9C7FA
F8C6051B
1347FDD8
BEC70625
D915DF04
E20B0EF8
FC0F15F8
05E6F716
FDF4DCEC
19F7040D
F844FF38
F903FA35
183DF617
11010613
FDF1ECFC
FFE8FFDE
E5EEF1EB
DC08E903
14D1BD03
1EFF06F1
F2FBE6FF
08FFF201
F706FDE9
FD0D2337
E1CD0F1B
2E040828
0A13F5F5
EBDCEF04
24132305
D47BB114
ED1A071F
FD090919
0CDBFFF3
E0EF14E4
D3F6133C
330CDF04
0E900C81
AA4DF32E
DEC21205
19F1F103
F1FF1B3F
F63BE0C8
F49F16F4
1E0EDF0A
0BFC1C07
1F2BD1FA
29F7F412
FF2F01FF
1A2AF5D3
FC1A1411
12120398
1A35F7F1
F4FAEEF5
F5FD13D4
F02116E0
2817E017
0BFB132B
05FAF90C
E0F60AEF
030909E6
E62BE9F7
E055FCE5
05F0DB01
F1F21722
B3151F00
F02CEB21
0517061D
FDCA2CDB
24D3C9EE
17C92524
0F00E716
E6CFE509
F220F4DF
C709F42A
1D3FCE33
DF1B0A95
FEC0FD07
07EFD4FB
10EBE1CE
2CC8D938
F70BEC15
E8041D38
200B1DF2
FE110D05
22203F26
023F19F5
D3193C14
D5C8F5DD
1124EF25
F516FADC
C5EBF507
182303EE
36FF2926
FEC9FFEF
4137FA10
2CE320DD
20F5390A
0ACBF401
4109FD12
13B9F015
1CBB0F01
021F1104
ECDB391D
160AD9FF
E63A72DD
3A14F437
440FD304
0DE408E8
FC09DA17
FFFF0604
E1F603DF
35201323
CCEAD41C
C403E417
0836CAFE
E739ED13
1AE507F4
2AE7E260
35FA2FDF
192B16CF
4922D30F
13E32104
0025F0FB
FCF2E4E6
20210119
1AEC0130
12E62E00
1212150C
F5D81DF1
F3F90B19
EF020733
062B09E6

