3CD5AD04
2AF945DE
00D03CBA
1D21DFFA
ECDDF0F2
7E1E1727
D510F7DC
EE0008C3
0A0DFD48
F5F71AFA
02F432E7
081AFACD
11133DCD
F21C1326
24DC24E9
F807EAC0
0F05170C
F9E3FAF4
B644E2FF
2111E618
FE06F2E9
01F8DC01
D4E8F74E
1137F71C
03B00125
05DD21B7
27EAFBE1
FAD8DB0B
14ED42FD
BDE80FE8
F8DCE71C
0202F9C7
082B1AD3
1307CA08
2F1ACBE1
1634C316
001E10E1
06ECF9E0
F6E4FEF5
F605FC04
2362DBE9
2208183E
F8150906
06C3DA20
0F04102B
ED0EE9FA
E2ACF8FC
E2EDFE08
E829F8F9
F3EBFF17
EA2F2E37
021E0807
1E18D1D5
EEFE1611
26EBEC13
121CDE0F
18FFF122
2DD9380B
05F5F6DD
252204E7
E82A1E34
0301C8DB
FC2E0313
EBEEE2D4
090DEAE7
C9FC1B14
E92C1DEB
F7F6CFF8
D0FADD10
FD2200B7
2A2F310F
FCF5EE05
3B13D4F0
0D0207D1
0525D90C
F5FAF822
02E11DF0
2A0F0A1A
C91F06F0
EF0B23EA
F4F2BE10
ED0EC0DB
2508F1D9
DCF106E3
12300525
C5F2022D
0FFD09EA
1622FF0E
F727D609
F9E12753
082FEB1A
FBE0E804
213B01FB
D52B2420
C6FAE4F8
19DBF711
121AF80A
FF13FBF8
061EF1EB
D7FBE503
D8D2DEDC
23F309ED
F806FC2C
11EA38DE
05F610FE
E2FAD7DF
03D1E50B
1321112C
03F50EDA
01F609E7
FB22CDF7
2CF60A0C
0EF3F6FA
F5F70BEA
06F0EEF8
FE10F316
EAAE0BFF
2F200437
46153DCC
E0F70807
2031020E
33FA0405
E723DED1
1A0815E3
1CEF08F8
F6B3E9E6
3300F4FB
0A0B1912
B9ED11F4
EC2608EF
0801020C
0AFBF0BB
16C5F712
B83E0C0C
EBE7D627
30061702
EBF504D3
144E2602
01093C05
F4DBE00D
174CE1F7
F7F91BB9
23DE3B1E
21F7E2E9
F43552BB
CA0FF0DC
EF57DD09
EB1BC92F
09F81C3A
17F9F101
F64DF92A
FAE8F60D
E00E9B00
274FF248
14D9F805
F3C5E6F4
06F90506
11F91AFD
1ECED406
180607FD
DE1B39FF
F9273565
FADCF6D1
3E123DE1
FD0B24E9
B517FC16
48D5F30C
2BD620EF
D2ECECF2
32FE1C20
241607C9
F2C7CFEF
1B15F51B
3804283B
F1E4E825
F4C90ADE
BB2EEDE3
DC24FA1F
1BFD22FB
15DD0BCB
E2F2C30A
251B1F25
EEFDC90D
1DC4D1AD
0418F402
1F1D0C3C
3DE352CC
16C1EBCD
FF1A4710
D9CDF7F7
D7110BFD
EB021805
EA1C1BF6
08F9F32A
EA26E8FE
F21EF101
21BD3710
D406FEDA
F4210312
0408E6F6
2B2CF100
3406DE07
B031E0B5
D7C612F0
F90CE82F
16E4F324
21F933E2
114DF1BD
17F3EE1A
04D92AB7
F9510714
0A57DEAC
FD38FA31
32E7052C
FFEB2D16
02F407EE
FE1E0F0D
2401060B
003BF2E4
E700041B
DC02E9D1
E3F1CFFB
F7C319F1
DA0BEAF1
DB05E1E6
D70E36EB
3B0C090C
13F70EE1
F925FB15
FB1DEA1D
FA08D9E4
19F502FD
1F03F8FC
D3D712D4
BE4C03DE
08D1DEFC
CCED2EFE
49311D20
F7D8E1E1
030400F0
EDF419F9
DCDFE309
06F52719
190EE223
E6FD1209
16D8EC12
F1D02331
1EFB56BF
043BE2E1
CBE50415
03DFFAF1
EBC508EC
0723E408
150DF802
0C3116CB
E7E5F60E
EBFF0E23
F5F01F10
FCFE0FFA
1702F11F
FE13FE09
DF04F823
13EDFDE6
2507EED5
ED11F811
18E2F807
E118FEE3
F408E8EF
FD22E401
0E02E3D1
E1F5FEF8
02F0F2EA
13060216
F1E1EFC0
FEF81829
FEF00A18
0CD90609
D71DFCEC
EB120FF7
0E02F416
FFEFE512
24F6130A
09180B22
F5F6F12A
1204032F
14F0F002
0400EFED
04C40616
2B0908FE
0D1400FE
E503FCFF
FC07F7F8
1B08DDDA
DA0E1241
24E43504
0B01061C
F11B210A
0214F608
E1190304
FC270AE0
FBE0E6C9
0CC6D9FB
0DFB140C
3A08F11E
ECD9FAE0
0021F521
DCF3F9E8
E804EF09
291E04F2
FE2107F6
E4F3EA04
F43B17FB
DEE2FE20
FB19F709
1B32F123
11F80536
ED1601EC
0AF80B2B
D104F42B
030415EF
F8D9E8FB
171CFF14
210D140D
09AEE5F9
01C2D0DD
13281D63
EE1DCEEB
06C7D137
D936DE0E
01F4E8BB
12FC1742
FAF8EB15
E00B26FB
2DDFF1DB
EDF71C1D
D950F421
EBF105E6
25D20A1B
0BF7EE0B
0CDDF410
FAF915F2
D5F317E7
F80D2D0C
5A04CFFF
F2F32C2D
2A4CEC25
3F0FEE27
02CA2F28
06FC10F8
14FDD414
02FFFAE0
1807DC05
1C2E331F
EED6F8FF
242B040F
FE64F60A
3118E5F3
C9010412
0DF70821
B64F2F17
23D6E522
FBDFDFD1
092BF92E
0365DBB6
FC1C41E9
28271903
F36E071E
21072303
04ECCA08
122EEF27
CEB5C6D6
F1F1E2EF
2BC40800
66E005FE
F8FCF0D7
74CA55FC
F2FA03EB
25FADD1F
EBFCE9FA
440338F9
E63AF733
EBFAECDA
00D63909
F302F120
152B09BD
153BEAC4
2DF4EE21
01DB390A
043F35D0
E9111B01
4AD52833
CB1EE95E
26BD5912
0ED6DF40
E4F607EE
FBDFFAE4
271407EB
FA31E437
B32CDEF9
1716273B
F03800E7
160AECE3
4515E544
04E5CD09
FBF72FE4
39D90F25
FE0833D0
15E728F6
10EF0C04
36FD0726
3409DADC
F5EA31F9
45241A27
0505171B
D004BE12
1604274D
05DFDFAD
02F23816
65E016B8
BE1905E9
152F0C26
0E040B10
C9DF10F0
DA211CFE
212F2A1D
D5BF08E1
06F50BBC
2C2516E9
FA09092B
18FF0CF3
0C32FC25
EC141B31
14FAF096
45F9D1F9
CEDEF1F9
EFDD2A0F
FEEB0ED0
D5FC39E0
0220D300
E004F9C2
210CCE15
2138CC10
22043232
EC32D729
F21A02CF
14000321
0FD60C30
F6D5D4A0
2AFE0941
FC1008D6
F1D002F9
0FE4E90B
EDFF2B0B
F40EF7E5
1F2200E6
E2EFFE05
03F10E2C
D016E7E7
08081615
F10506F4
0EC60FEE
F1ECD429
F4F90935
DC1CFD25
0E0C0BF6
F411F438
F6D20307
ECC6ECFE
03FEE0EC
F719F3EA
FD0EE526
F4FB0819
1620FC0B
E4FFFC1E
D61FFF09
05EE18FD
ED15FB01
E41001FA
F6CAF9EE
01FF040D
2D0D18F5
002C0206
05E205ED
06ECDFE2
1E1607EE
F308EE12
F9D0FAD5
DBF81B07
D4CC0CFF
0D3749E8
ECEADAFD
F6F023D5
FD250DED
2805F055
BD49FDE2
2ED01300
05E00107
DF1510F5
1BEF4852
14B3F2B1
F5E402F7
09E809F1
F4BD2DE1
29B9D623
2A1D1305
08F228F2
F605EBFD
FA0AE716
2F1F1CFF
22DCFCD0
FCCAF803
EB02E8CC
E6C50DF9
4505E515
EDD50402
0A39DF2A
1B050000
FAEB0411
100F0412
09E108E1
E8E20913
F80DD61B
0FD9E806
0AF4FE00
F6EA9B08
0331FADA
DB14EC34
01DFDD1F
13450E1E
1DF329E8
06FC28DD
0A0831F8
EC081029
FC0803D2
2906EF17
100FF0EF
1D11E510
FEDA0E08
E4D8FBE7
19F128E6
C3E5E2ED
E702F21F
EF11E7EF
E1ECF8FC
FBF8F304
0302FBD9
190915E7
FDE9CE24
00FDE401
01FDF914
0F18E610
EC041BF7
FE2620EA
EAE0CEDD
20FF1107
0D0C0930
FC3D0DFB
31F300D6
F6B020EE
0CF03411
0CEE0C37
C603F4E5
F610E905
05EA17ED
0B183420
F8F80CE8
F0103BE3
200A17E0
F612F9D2
FD19FBF9
FFF21CFD
11DEF60E
080E010C
0406F60E
1720E5E5
0F0A1D23
E5FEFFCD
192DCAFB
DDE70E07
CD17F0F9
E9DA02E3
F62DEDEA
00F01606
0F19FE14
19E852F5
2913163C
171AF8B8
421AF90C
5C24E5F4
1DE9239E
2D041617
FC2FF234
D5F804D7
00F5EB41
D61C14DB
35C6DE2F
69BB5211
FFC5FC06
D130F6C5
FCD91F1D
F6041D01
BEDFFFBE
17FFBACC
06080CE6
031BF1E4
C6150F16
11109EFA
DB08241B
EFE833DB
DE0BEFF0
E0E8EBFF
BEFDF50D
1CD826F8
DE091DF4
24E3E7CB
FA0338E8
36FE02BF
3242F6CD
27184CEA
F817DE13
1EF4F6DB
2E34EC1E
B613111E
1ED8CE22
F1CE19DE
BEEB34EA
FC3ECE06
F4C01AC1
FAF016E7
0C44E8B7
2B1801DC
56E15A68
EA00A802
D0B325F5
F3020CB3
FBE407D7
FA02160D
CB44DDCA
1D0DD8F7
3D2CCBEF
22FE1815
DB16CF23
DDCB000F
01170F04
11F11FE6
06F6DA0A
F7FC0021
424F002F
2AD0F9DD
33E21AFD
F61B030A
1511F706
1303F6E0
1320EBD8
1906F50B
10F7FB00
0AEF1823
162DDEC9
170B000B
2202FDF3
D3F202FF
EADB1836
0A0A071D
FAFD2F40
3A31F0E2
1A2DF8FB
1605EAFC
EEDB13F9
D1ECD22E
E1F81AEB
CA1D222B
F81826DD
ED04EF11
4B4008EB
F3010413
F3010A21
F30809D7
ECFF0AC7
FDBD20F5
43070D1D
F50CE801
10DD0CD4
0908E6EA
16C30607
1FF107EA
A7E8111F
F1E6F303
191219F6
FA04E6FE
E7D00703
FBEFEEE3
FAE41011
FFF325BF
EF18FAE4
0FF423F4
EC17D4FE
FE10E2FE
EAFB04FA
084A20F2
1205F801
172E19DD
303016E2
0B11F6FA
EBCE2109
F024F7E8
0BC1E2EF
E5FC0342
251B0BC8
0CED0F23
DAF42503
31F4AF21
BEFA06F2
F80D09C7
0B31E8B6
00F3EA2A
00BACC32
12270F0B
F9EA0033
E9EDE4D4
EE1ED00B
16F6F6E3
28FEF30A
D3F526EC
D6D9DEF9
F510FD08
F40DF4E4
F8F9C823
EAEAB923
C60FC3EF
56200748
EF11E3B5
CB1102BB
10302C04
F1F0F906
1E0A1B0B
09011413
EBFB0D29
E60DE64B
0EE52100
E7E703F8
F0EA060B
C92426F4
0CE839E7
0BDADC19
0123A71F
DDEF0A3E
FB301ADF
ABE7F1B5
F60FD006
F11F0F04
0F0B0BF7
F3F22B03
EFDAE3EA
1A05F110
DE1FF4CF
3703064A
D620200D
110B00D4
1319E408
0707F402
F4F600D8
12FF0B34
1222050C
05EBF81F
EE1AE005
00EBF4E1
EAFDD618
0AE000F8

