F53BBA00
E2D10CDF
3D10D8F3
EFE7E5F4
00DBF602
0DF4D614
1AD8ECEA
F8EC110A
111E396B
11254DC0
F219D2FA
E1F5F221
FFCCEFEA
2917FCF7
ECE81A0D
EEF4FE01
FCB21702
0801DBCF
09F8EBB6
1802F8EF
A9AB3719
12D34543
2C1DCDE9
072CF4FC
FF0113EE
F8E2E5F9
4A2DD5AC
20D9FFE9
C8BC050B
FBEB093E
0CFBFDE7
F2F1DD00
202EBE1A
F1DE12BB
12D7E023
2D0C071D
F454E7F8
FF032A3E
C3EBEC2E
F8F12F9D
E8F64E0B
FDF919F8
DEEA1AF9
E2BB0B19
EE0525EE
EFEBEB00
F9BEDE15
B9D30414
09F661DF
141641D4
2311F9D4
08123AF2
CC28F7EA
F51CFFF9
E9D6BC0B
1A251207
08F9C306
31E9C8CB
E7ECE500
FFB62836
07F734F1
1213EF1D
15402EF4
260DF9F3
17E03DF3
E6470CF7
0CF847F1
13E1EC0A
29EFC3F0
02EBFBFC
3D25FBDF
1AF9F108
0DFAFCEC
09FE0927
180DFDF2
F4DBF0FE
F2FC0D0A
FFFFCBF2
F41404EC
EB1506F5
15FECE1D
F62424DC
F4FE27ED
04E237E2
08F6F803
FAD0F7F6
04F9D22F
FAD5E509
F517CE04
CFD21D08
FFF51838
FE0820F7
0206EEF7
C906DD18
1515F6FA
E10CCE26
FBF0DAFE
FD18EEF6
1219DC0E
21EEFCEC
D518EA1D
F10DEF1D
1FE5F8F4
F6D024EA
024D09F8
1D06323A
2145F719
02070B29
FC3AE9D7
EEEBE7D6
12020DFC
F7F9061D
10AF24D7
F131FEFC
18E2D408
0F22F0B7
D723F11A
E7F5F31B
E416E1EF
EAFC1ADB
FAF9DD4C
294019FB
E30C1625
0E040618
1A35E619
E70000A7
12F4F00F
F5F6F729
11F6EBD7
2B0BF2CE
1EFFDEE4
EEED28FA
FA1E08EE
09FA1CF3
F815D520
2702E5F5
FEE8F90F
44F7FFD3
CFE017DC
2DFBFCE7
06141419
03FAD4F7
33DEF4F7
FBF211F7
24FEF8F5
D81038DB
1A2AF3C5
0900FFB9
462342B6
E9041903
02C52EE6
09F442FE
21310A29
5A2F22FE
0DF800CB
DEFAF62A
0B22DBF2
EA04B53E
1F3516D2
10C40515
DD0CE541
F12E06E0
1E05DB04
3106ED0A
1E0247E1
F7F516FE
E348C218
5A1AFA26
E6ECE520
F4FDED18
02B6D105
171B4916
1A3E2A0C
F6EC210A
00D3F7EE
EAEA1CE5
CC2107D5
2DAAE4D1
F1E5F445
E6EE0719
4106DD48
2A37BF14
09C2EE2F
2F0506FF
171E022B
0F09DFE0
0DE5F3DD
42FCC4FD
DEE83B83
1DF10AE0
BC360622
25E0DE1B
11E2EB12
040FB8D3
FF0B28C6
C9FDFF2A
F9EED822
E0CB19ED
03D4A534
F20BFB14
F0E7EBEA
D2D3BDEF
151EE8F7
E1F5081B
F20D12F3
1100E22A
02F5D717
19FC0DE2
D2FD08ED
220E1AC5
3EFADDFE
F4F0FCED
3A040B02
02FC18C5
F5DFFFE5
09D60ED0
F6E043F2
F311DED6
C4130DDE
F8CF0F0B
EA0D0DF0
34FDEF06
09CEE016
E6ECF2EF
9CDAF40E
BFFF24EB
3F02FC1A
FBF2EF17
CA29E60A
2010EDCD
03D530CC
29FA2515
21F8F3EE
17170B05
FD1B15F8
14E30F1B
2200F612
16F2002B
240EF9E7
03C809C0
4BF0E918
03DD24ED
03E13731
27DD1DFA
48F103DC
F10D33FE
C1C69A3F
1F0DF2E1
1D311E25
F3EC03B3
F90809F5
26F9F4E7
0A240701
E9EEF31C
D227DDF7
E4F71BE2
5AE6E5F9
F506FB2B
F0CB0314
D20E00C2
E9F0EDF9
00FD1A0A
BCE804FF
0E12FECD
340209F7
E6E8F10A
0F3BDD03
E8ECF519
07F312F5
0C06EF39
1F28DEBF
27070211
01FB34CD
EB32E9DE
0C170EE5
0D08FADA
0B040716
FA00143A
FDD801E1
0A1C07D1
100113F2
E21904C7
E2E511E9
FD28F1F3
F2D50DF0
040100F0
12FA29BB
08E5FA0B
2AF1FB15
05F822EB
0912193D
F9DE0B13
20F3100E
EA05FD22
121AF80F
060A08FA
EBF2F8E5
02DAEE1A
08EB1DCB
F6F11F00
38F70FE0
18ED06DC
D6151419
09FF0516
FDE5F9FA
030BE502
01D92B0D
EAFFEFF8
08261A0C
0F21ED14
11F20631
09F70215
1CCF12FB
DC0807F2
062C1A0A
0823FCED
14100814
030C06FD
F8181020
FAE5E929
D800FB46
DD060F21
3FF9D644
3211EA0A
FF09FE1D
FDDC4E4D
FDFCF8FD
F50BDEE0
19C0ED06
2A0C29E7
FE0D16D3
F2E4040F
DA1218E1
16F1DD1D
EFDE0010
2CDC1012
140800F0
E922E50A
18CFF9E4
FF0D06EA
0EE3EACA
29220DE3
0109FB29
0026DF10
2610E3DB
0F531116
040CF524
DF13CAE0
15FA16CC
22EFFB2E
0DDCE021
1908FE4A
D8E60CFB
18EFFAE2
E1FB12EF
F7F034EE
14EC1C0D
D0DD1D1B
102EDBAC
11FAFD1C
27E8F404
2316010E
07FB310F
E6F5D83A
E9F3E40C
0FD31718
9BFA0435
DAF1E3E9
052F3214
23DBF8FB
12F54621
BDE2B5FE
03DA3709
D30A2A01
3FA94900
2FFF31FE
CBCA05E8
C804060A
3238EED7
B1183108
3D3DE7FB
D6FC0408
1DF9FFDB
F908F911
FB26DCEA
C006EB23
45183837
30F84FFA
F901E6F9
F81BF41E
FCFEC505
05B3D5C1
DFF6E5F2
0D423AC4
440112FF
1EFB60ED
E6D3F619
0C15FFFB
4F10FA18
ECED1E00
FFD7F11B
2BE8EBFA
111DF7C3
FCC8FAFB
3E2010E4
1B11EA63
CDEFF000
E2D4D721
E01639DD
FAE8DE15
39CEC2CA
C6E6E110
EFF3E905
CE00F0F2
D0BCEC15
EADDE5E3
FE1D1005
FF15FBFC
B11F09DF
E71900D7
16BFD622
DDE4D9DB
FA16CFF7
F4F31420
011F3EEC
1B0EE2E6
18491CDF
612D4D2A
F2D6EEE5
EAE00DEB
15D40823
FA25EBE2
27DC2905
21E5150F
F74DF2B0
182321E5
1FDC2B02
2C31F3CD
01EAED0B
10000A10
FABA140F
E8F70030
1EBC0AAF
FF1B19D8
E3F3EB22
1B01181A
DCF62BF9
02F4EB2B
02F0F8F0
140801FC
03E204E7
FB14E42F
F022B80C
120F1901
09F71701
FC0022F2
F30E0107
F6FAFF0A
0B03F2F5
FD0BF2F8
0EF2FB08
0611010F
E9F213EE
021B18DE
F019F80C
F8F8EAE1
1BE2EB0F
F9F90517
E506D833
FFE3094A
D726F108
EF13F400
F9FCE020
0BD62A21
071BE5E0
09C80011
08E6E8EE
1414E71E
221E21E9
FCF80418
06FC05F4
0AF80702
E90FF3EB
06F9EAFF
0A0BE7F6
FCF423E3
19CC69D5
F424E543
1D06EB01
FBF5EDFF
0D081406
0D410526
F408F6E0
06FD37E1
05FBECEC
FA19F448
0506F90E
20F50BF9
29B8ABE5
1FEDEA04
D80E0F2B
FBFE190A
17DF01DF
E81EF8FE
051AB6C9
EF12DE17
07FECEDC
1615E8D8
F40208F0
FBFF1625
0D110105
1438BD1C
0F3812F9
11F90CFF
E7F0F7CB
E8EADE0C
C4E909DF
0EF5E0CD
F6CC01D2
F7FB0ABF
3114260F
112D11D6
F43711EA
0B01F7DC
16FDE71C
EF11DCD7
371B3602
FDD3E4EB
FDF20C13
030AF6D3
1F1D1A2D
CD1B1E39
E0F3F415
FBF136D0
1701082A
FC300815
11F8EFED
03600AD8
04F8F6FF
EFF6DA1F
1BF3F909
F333ED12
3608F7FD
EFFE0405
BCE82F17
0A00ECD4
F7F304F7
F7EBDAFB
C71305C7
00F4D614
E2EFEEFF
0407EEFC
FC2BDF0F
0255FAE5
00EBF8D2
2426F0EA
001BA727
29FAD3E9
F7F731DD
F5140420
E7FA0900
0AED1033
F40DEDDB
03F6FBEE
EFDCE557
171D4F0C
32A90C0E
FC090901
E7E818BB
13F20EE1
F9D9E7F5
FFE4FE22
AB0D061D
FEE8F1E0
052133DD
FF01E203
265B0C04
13D6182A
ED29FAE3
FDE5EA02
5BD9DB1A
13F74314
1CD70DE8
E8010AC6
E6D957D4
06FAF3D1
FBC7F71A
1BC519F5
262BCD05
C3470C10
13066533
11E2B43E
D803B438
F7B421E2
1B04F52D
CD1318D2
3A040621
060D161C
D9EDE9FD
1AF5D42F
2605D3EA
4913E3FB
12E3F6E9
08D4F813
2D3CCEE1
CCE936D1
3234E2D6
FA9FD4EB
C32E13FD
FEEF06E1
09EBC007
3829D31A
27F001F8
1C03FE26
EBF5E227
F2340934
E5E9F623
E7ED2021
F9F02F1E
D9D6DCFD
21EE1C26
FDCCF1F7
28580502
BEFE0D4C
FFE203F0
2524BF27
F915F3DF
D428D519
07182D06
FBD2A8E0
23B9151A
DB9CC829
20CC2F39
E21309C6
C70002AD
FEF304FC
2EE6F417
5A123AD3
CD06E508
FDEA1EF9
F320040B
FEED36FE
EC27FA25
D62202E6
BC0BF0E6
23DC10F7
F010BD19
F4E83DCB
052E02E3
FBEDEF15
E0F6E1F3
10DEEE17
DFF114E7
0AF3F6FD
D3EF10E6
95FA1BEE
F81B1600
14EE15FE
00EAF4FD
E6EEFF34
14F7DBF6
ED1E160B
58D63DFB
2C28FD23
222413FB
13EE0C25
130700F7
F014FB18
EC14EB11
FC24ED2C
54F6B91D
FB0BEAC3
FE25D2FA
DEDFEEE0
0BD4FE24
F31E0831
ECD60313
021020E8
FCF611DC
10E72B10
E60B0F09
DAF73322
3A290AD6
E4F22018
0BFC123B
25F8D804
DC0DB9FC
F1042315
21CC00D7
FE08F51C
DD2BF12A
B6133603
120106F6
0816001B
DCE5CA23
00F41DEA
FA1E140E
C528FDEE
DDE2F3FA
DAF20C09
0C0EE9F7
DC310406
010101F5
2A0AFBEA
02320DE8
351B0AE2
103DE7D3
C707FAFD
C9DEFF11
082619BF
1707EDD4
2CF6F94E
CBE2BE00
E72C1A36
FF190040
F0FFEDCD
E526E6F9
22152CC9
120903FE
2AEC0FE8
04311ADA
02F81808
EAABFB1C
13003F21
0D0014DE
0B07C6FD
F403230F
EC013725
C23724E0
D81AF3CF
06F51EF6
00F64C18
00CB2A35
3024E7FA
F3D806FD
2109FAED
01121CED
082EE915
21F93CF8
15E1DCDB
E2FC11FB
26EEEA0B
381925FD
F8FC0411
F3DD012A
DFF415DC
F239BAC4
1F1936F3
DD1D27F3
F7C038F5
10285EFF
EEDBD3EC
E0090023
00061A18
FCFD2D0C
F3C9EF0F
01F74821
F03002E5
24342AF9
272CE70F
D11FC9F0
F01444D5
F7392011
F92FF603
F2EC140D
F4D0F5DF
D14FE507
BF0DEA25

