C31C22E7
19DC11F9
36C2BDF4
16DDECE1
E302039F
E31BA9A5
DA00ECCC
14F8DFFA
28FCFBD9
FACFD409
FD0DFFD3
1E0FD610
03E2FFF7
2421EB0B
1BA7E2B5
FAD2FE03
130317F6
C5E1E7AB
41DBC91D
E13B0224
07F6FD04
F909F1DA
3B051E0C
030000FA
12E0CBF1
CC0E153D
FB5304F4
F642B711
ED0D2932
370F1B08
38D9E150
F612481D
1F1FE913
100E010D
D11D2842
DD5B2B2E
1F1034F1
0EF14048
24DC19AA
DA280736
0912F8D3
2CE98FD2
02EBBAFE
0916E0E7
0524B9EC
1163E737
49E02A21
1A0EF407
D215DB24
14BC19F5
DB2BF144
C909D5DE
421B0451
CD05FD01
EDEADC00
E4B11AEB
15F01AF8
F7B2261D
1C0FE60C
01DAF2B7
EF2561E4
E5FA0319
05BA2813
E91A310A
130EE008
FBE3F618
D62D3E1F
2AEDD8DB
32411B04
0C0FD11B
E6BAEC24
D9F11AE7
2FE4FF3E
D3C314C0
F5F106F8
D12C1402
05DFE9FB
01290BF1
DCDE04DC
1A0910FA
E83CD130
1B150F15
24340CB9
E938C0FF
0BE8D30B
CF250A04
EEFDD2CC
45EF3625
450C31C2
DA0D37FA
010B0C17
CBC3FEDF
C234101A
F4B4F7E3
2B18B520
08E1C109
E6A3FAFE
0405FEE0
133B0B23
0BD01757
F425E000
0A76D438
09FD0A06
FFE8FEFB
280D3A07
BCFF2CDE
33E42018
F2620E0B
E62F042E
D52335EE
0A2CCBFC
EF1AFDF1
1CEB0E28
ED142DC5
E002FDFA
F8DEF6EF
D0DDE622
19A502FB
05DACD2F
1BFFD608
E51D09FB
F5BA0E9C
1BEDEB0C
E928FA1C
F6D4F905
FB53C839
371020DA
D42517E1
044EFBF4
47330DDA
EDFA0DF6
F01CF7EB
1704242C
EB270DFC
E62BE002
E63BBFF8
E8FA2CCD
0AFB12F0
242B13F6
ED081935
F0C51320
062B3B0F
F9DA243D
DDB94A33
B650EE20
EFE91981
101C23DC
D71AF907
00FF07E7
38FDECE6
C3FCE151
DEBFE30E
0E151421
CDFEFC05
100C2F16
F8163902
F000E71C
0E2B1916
1B01FEE3
F901CC1B
06EB2CF8
1C662A0B
00E9F9DD
17BBED26
1F2306F0
1F2A1EF5
12F90E01
12E9CCF1
1C160434
E8EBA020
1515EBBB
EE09BE00
1BF9C91D
1349CF06
07E57E14
EBF53AFE
539D07E2
07B3D3F3
DCF54E0C
27D915FF
1403F3E6
F709CD0D
ED060DE0
E3F326FD
24F6090F
12F0091A
FCF1E229
15B9E119
EDF51A3E
FA0E13C6
F22D16FB
EA0F09D8
04C226E6
E30CE2CE
10012120
AE193801
F4080B19
01D315F7
E9A81E10
EFCBC7E7
E2F219F6
2ACFD71B
5CEBD313
E3F5DA21
EE1808FD
1CFAB904
441D1501
2D297AE6
01240639
E762D6F1
E500FCFD
03A718C5
07C804F3
1FE62634
CDCC04C1
0FF0E7F8
FF360FEA
DCFE1F00
22FD0AEB
B8D0C80A
5202D819
F2DBF817
F2E20712
03220406
2D14E8DF
F145EF23
CCEA1E19
D7FA040C
FC265C03
201002E8
FD48F0E7
F5233824
192B2005
1DC01F07
39F5EDFA
CE8EFC29
D7090E10
54F2D3C9
E4C4E946
F7F7F6ED
AFF6294A
F9FE0BE5
D00F100E
BD3E2F0D
0129CCF7
1C415DFB
E8EE0320
1212FDD7
31E30907
C5DBF613
1BFBDF19
FCB21023
D731EF0D
18012D03
13FCEB21
B4C534DC
F1F7CD11
FF37FB37
EF06121F
E2EFF546
F93E1811
231D221E
F6271105
FB48201B
F7DAD301
16ED0401
E7E32CAA
10F42EEF
F5F827F3
1A16FF32
17FF0807
FF210FEA
1FF72BE5
08FC071B
FFEBE904
FCF101FF
12FD1127
02FF0DD5
073428FA
F11611E7
272E0F12
EB09EB19
F530E3EB
0EDE11F7
122AF9F4
EB24EBF4
03F1F2FE
20DA09F3
1913070F
20CB10DD
0D250ED1
0014FD30
1FE20345
F5FF260D
12C7F200
1BE7F1D7
170F0FF2
0F040527
05F4FE02
CDD110FB
D40331D7
E30EF106
13F901F9
F50B0812
DECFEBF8
DA52060C
D4ECDA1A
FDF30B15
08DFD002
DBD700F9
3CCFE8F7
E2E11CD6
0E0308E4
13F5F80D
33280253
09BE2411
1DF20E21
F4F20C06
15EC1F0F
13EFFE48
E95944F3
3DF92EF0
CEF00919
CBE2F604
E0532F2A
1CECB8D2
66440208
1BB743D5
0A160E28
14EAA809
0F290C1A
EB1BCF4E
0831EDF2
20F8E2DC
D9C85ADE
E6F3CD16
E9090CC7
CE09F2FE
36F9D2D6
0705D62D
08F309F8
F627FA05
C31D15F9
C9F3F5F9
DE0D1F12
F5EB0011
DBE119E6
21DED420
04D70C0F
03D9E7E3
0D121208
15F5D0F9
FF18F6E4
F836EDE0
E9E0FA01
1E080FF9
07121DBD
05EF04FC
17F41DFA
C7B7D307
04C800E0
F23818B5
F52318F1
E221D9EA
0DB23CE5
3600FCD9
F9321C38
D0D02D51
EDDAEC01
F8022CE5
D702DCDA
1712E31D
CCC3CFF0
E6CBBBF2
E304E81B
D14E6C3A
1DF9F5C4
FF07F4E3
0643CD0E
FBA3F6D6
1336D83C
2E2623FC
5D2EF70D
2CFB041A
EFE7F829
F6271F0E
0CE7FCEA
C2CB142B
E41AFBE7
0E0DE302
DC2624FF
02031617
1F04C00D
E92824F7
1DE61F17
00F1F1D3
EBCD38FB
E5E8C5D2
F8BD13FD
E3CEE920
D8F3FA00
3FA92BF6
0AEE2A32
29141023
F1070B06
E10018FA
33111DE8
F22AE6E7
F01122C5
F52C130A
22E6DFCD
FE1FF20F
F80A12E4
F4FD0810
D43F1DDC
E41421C9
E7FFDACB
F8F74BFB
23132617
16EC0CDF
1C2D0235
B6144C22
24200DF9
26FB3027
31C10316
A603DAEC
E9FA1DB5
0321EF1F
35F1DDD2
351811FC
0609031B
F4342CF3
F81CABEC
26EBDCC7
FA2906EA
10C9FDCE
8121D309
0226CE02
EE370E17
EB2E01F5
EB1C34C5
00EA0AC0
1ED718FC
A5F623E6
FE13EC15
E11011E1
0901204E
3FF8F70B
31FDFD08
13FE131C
0218EFD8
F10A1B1A
E6180CF7
0EFDD8B2
F9F2FAEF
01A6DBE9
25D60ADF
1905F5E8
160019E7
10110207
D21705F5
28CA03D7
F0F91FF5
02FBC503
F5F9F6F2
0707F8E1
3CE61F10
0D140F0B
F9DCF4CC
ED041400
064106F9
F808FE16
E32A19F6
312106BB
1304DCF3
09EBF6F2
0C010C08
FD13C72B
280EF7EC
1BD70B2F
130A08DE
06F6F10E
F8FA12F6
FBF0FE18
14E1F2F6
F1EFF828
090F25E5
D2620C23
04F4D6EF
B5F9E107
22E9E1F6
071BF1E4
FC1AFA2D
03DF0E18
2614F3F0
052A101C
16ED0910
0FE4E609
3B03E00C
00FE16F1
E2020BFC
29E9F921
F9660325
0C1CDC01
EC04030D
0FFD08FC
11D71CEA
11D00100
F502FE12
1DD91C0A
E9EDD308
F4D5F305
E044ECF8
3747F4E6
002CD4F4
1ABDE8FE
EEF5DCEF
F6E501F8
F6F1E904
EE081411
D93ABBF9
07F0CDD9
1E18F4E6
FACAE3D7
DBF95BF3
FE51FFC4
09FC1A1E
E602F9F3
0F57C0E4
3EBA1291
36140B34
0B21171B
2005EDF6
043203F8
D406F210
140F010E
030F0FB0
081D23EA
1C25D7C5
FE4E1E23
1A1B152B
E5521BCA
0F38EE24
FA1310FE
FA1B1D0F
21F9120B
0EFF15F5
0F291F18
D61208ED
02C7052B
12FF08EA
D432F704
FBFEECF0
191D0314
2502152F
022D13F2
EC20C42D
0EF800BF
01000B01
157EE1ED
F807EF0A
0951E62C
A415F809
FB3B11DE
FFFFFDFD
0A07FB08
121A0B54
1D03D0F4
3F1E0A28
F675F20E
21E625F4
19FEE4F4
15070C06
04EC0BF6
1C44E907
FFFA021D
E0341D0E
0D041F00
07FC30E9
2748D2C5
2829EEBB
1F04CCFC
22E0D6DC
FA12DE02
CB120304
BD400A1F
C71E080A
042EDDE2
3C1FD5E1
B937185F
2CE0011A
EEC91AD0
2615F60A
D6D1040D
F63A10F4
05DE35F4
EFFEED17
3426E8C5
14CEE1F3
DEC012E5
0907BCE1
CD051532
DFF1252F
E7012AD2
2CA0490B
DE1AEAEE
0CECEC33
C3C5F328
11F7E0F6
0E59180B
0B30E927
F71B28F6
EA27E9F5
0E84CC17
2EEC5306
FD312314
05E4C76D
D720DBDB
29EDF833
18EE3FCA
CA21CFFD
0C10E8E4
44E415CF
AFF63EFB
E6170D07
25E31D1E
1F084E20
2125D10E
2D112E09
26270C06
06F75700
FCEF0B44
0835AE0C
F5370530
D129E9B5
091BEC1F
F0190A03
AF14DC09
4DD0C909
292D2516
0A0F1FEE
D9F1BCE3
F416F518
F30DFBEF
02F41CDE
F1F61453
37E00AE6
1618B903
F6C6D905
16FF0CE5
39F9DD04
EE21EBE3
070210FB
C843FDE8
FF08FEFE
EBF214CF
F9DB0F02
D905DDED
08FC07D3
04E4E4E9
0AF7E40E
F0D73E1F
1F02ECDF
F210BCE9
09F60EEF
3514C90D
F0F9FDEC
F9EC07F8
C80C19F2
D76B030B
DDD10EEF
07F60607
E902F7F0
10F30DF8
03F00409
03F22005
D8DED820
F8FC6B2C
051506F2
2A35D7F8
E1CB3DDE
F12ECFF8
BC20E20E
2AEF16E9
F118F00B
08ED1C33
DFEF0DE9
2CFF0311
0CE0F003
04EAECFC
110AF407
03FDF3EB
CA17EFF1
4B2010F5
0A19EB17
EE3B09C8
F116F7DD
0F26EE07
03FF4326
ED21D601
24011C0E
05F906FF
FF37F505
F34B1ED8
232BC52B
C4276BE6
FF142CB3
1CD3DDE4
2F01220D
DC08101D
2615FB04
17EAAB1B
2924F515
14F6D4C5
0EF63A10
CF192123
DD050514
00231E0E
0404DBEE
DAD2E5C3
E744E70B
0D23E1FE
ECE424DF
E913020F
0604F4FF
F9E50C27
E72CEDFA
08E141DF
FC9214FA
E3C8D8F2
14EE0B05
1DE90C00
E2120001
3D23C916
101D1BFB
21EDEE25
63B00CA4
DD581F25
FA12D72E
EC0F43C8
16EC05E8
FC2BF6ED
D4E220C9
3C13B50A
DFDB2E30
F0E7CF1A
E2ED04FF
2508E200
F120FE0A
FECF030B
FCF60811
F21C28EC
F6EB50E9
DB3B0A45
DE3CE918
D8DCC6ED
CA2DE9E1
1212221B
06F11D19
EB28F4E1
D900F602
C3F32911
FAE33216
F5ADB3DF
08F1F0F4
1E10100E
DAF1FD24
EAD00832

