20FB0607
C6DDE5E2
DA412C21
E60D2C25
21073EE9
FF0B1310
E5E3C125
262AF101
14DD14F0
34091917
111B0824
FF13ECF3
E3F912DF
C004A8D3
97F01430
04F009F6
E6D2EA30
B304F9F0
DBF9ED2A
B32504E6
D62128E8
1EDE0EF7
07FC14F1
02D1DC28
FED6E81E
E9E524F0
DEEBE10D
0ACDE632
0C14D401
E0A5EEDD
E8FAF3E2
14EF1205
233212D4
E1E1F13C
3E0FA422
55F12A14
19E5DE17
F0250C18
0DC9460A
FB1AF02A
F304EF1A
1236F52B
EBD13006
EC09E920
F8FBE2DE
E3ED05D0
0100B0D3
1ED4F2EF
9FDC56E9
18EB111E
FD3BFC40
E2E8EEE4
05E34EFC
300B0308
FA06D0E0
21D0AF09
1B1AD621
2BF6F605
3229EBFF
E8FBB423
F8130AE9
1ABEF33D
EABCE710
1709FD07
F1ED2BEF
2309E6F5
EC1FB4FE
2336E908
3100FB0C
0CE5070D
DE0925FC
07F70D01
21E2E811
35E8F414
05F4F7FF
06E9E002
13FDD6CD
293DC520
E5F6E81F
E619112C
E9F3F3AA
1FDEBE38
10FBF4DF
E40F16D6
E428D519
2006FC0D
2DF7DDDB
070B291E
F35BE503
EFB01636
2617F7DD
0E04F8EF
F3E80114
FDCA21E8
083902F6
E801F502
C513DDE0
C90BE331
01F94103
F2F818F7
251AC7FE
F5E004E0
0AFAC00F
0407EA36
FBCDEFF6
F6E5EB13
FFCE0B10
F513E3F9
11EDDD0C
EF3DF90A
0F18FF03
151F160B
E9F649FC
C711D113
15FE2B2A
10E2F90E
1110F51A
EDF80BF9
2C17EC7E
07231819
2CD30302
E4DFF102
F8EDDE08
EAF1E7F8
D32D18FA
E9EE04F1
0A5DD01A
070C24ED
10DC1146
0DD9E90A
13F9F532
C81E0F2A
1F0AFF14
F102FCF1
0BF9012D
FE01120A
4809F02F
1741D82F
48FA01F7
FA0EF029
E1FD2344
4BFE26E1
F2FC1119
2233080C
D70D1524
02F0F6E9
CBE31910
E112050A
DD0D27D4
29DB22E6
32050B2A
F83D0637
24EEF71B
CAF729FB
FDD116F9
E1D70C18
500CE4AA
F3E7B8F8
F6D33DCB
FB0CE819
28220F09
DECD0FCC
0E1B0202
FAEEF915
1BF11FEA
F0F5260B
E902E933
273936EF
220F0AF8
1C0EF906
51FA23D4
34DF18F3
FFD909C4
11C4BFCA
FFBEC812
F6D422FC
FF190510
5EF9F50D
0CD9F2E4
11F7D8F5
E13E1205
F3F53726
D5F6F408
09D9099F
15F9F80E
DED5D509
2AFF1BDB
1660FDEE
F10E3108
27F31D0A
24F1E1EE
05D3F100
FFD1F329
C03E4A04
0B00C548
58D8F1FC
CDFE11F0
AEF0E9F9
29CE22D1
03064321
32F51B1B
1BFDDCF8
1D1E0E00
170D0012
E0CFF4E1
164109F3
15FED4EB
F71427FC
08E6334F
0BE309F5
30CE17E4
0FF5E31B
F4D9205A
F7FA2C25
0E360500
B7131BFA
10E9102C
3E0BE815
E6A7EE04
1A0E031C
FB12ED29
C4F2D40C
320117E8
FBEFC1E7
EDEDE52E
DEE04DF1
0320220B
124BE9F0
1E04FE0F
10EEEF13
2FDBD80A
16CAF7FF
1DF6E703
DCE70C08
19145FE9
2C01B0FA
DD1706F7
D0F7CFFC
1438E6FD
25BA0F38
F25731F7
FCFD0912
4FF60550
08F31DCD
131217C7
25F0F51D
FAE4F7CF
B21008FE
F61AF416
FB1AC5EC
0F0BEDF4
21F11909
E2FF16FE
0EF00700
BC080BE0
06F63009
D312F813
48F7E507
FC04E2E0
ECFFE2FE
FDFC01E7
132B35E1
1101E902
DD1F1F00
F43AD9D5
0E22E004
15CC0BF3
ECF31CF2
0C2912E9
110C080A
F911DDC0
11FAFA19
20E3D919
1F0EFCE0
E104E301
FCCF06EA
D9E0F703
EDECD509
0A03FD13
2221D2DA
A5221BD7
EC0EE3E8
F814EB0F
F520DA1F
E4FAE5D4
0B0223EA
060DFD1B
0526EDE9
03F2FE3E
F0F7E20E
17EADF0F
1FF1F614
20EBF9F4
F4F5C8EB
FE0502EC
F2F9CE0D
CFF504AD
04FCEDF8
F9C90B18
1014DA10
F4D10303
F0EC07FA
15F8DDCE
13F106EF
090FDC05
FB0ED509
EDFBF7E4
E906F203
34E7F318
FEEA1BFB
F80C130E
1114D60E
DD132222
0A20D7DF
F0ECEDE7
0BF118EA
F8FAEC0F
0403FCFC
0F2D3307
EC00F9D9
2AEDCCE4
0B04D9FE
35E20602
27FBDBFC
30F6171E
F8200522
ECEF0509
1513D9D9
18D62C13
D2DF11F8
1203214E
F410FBE1
F519E90A
30E3F8DF
010DFD05
EAF5D74F
2722DA23
2E19E8D8
2D26F6F1
EE040815
E70B1526
0C05F8F4
000D3E22
4632D91D
20D915E6
410DC317
322309E8
1AEFEC14
182BF91A
04FE0EF7
EE1DFFD7
13EFD7E7
0BED0035
D40F1E3A
E8D30402
F10E06D8
23FB170F
F9F22911
1A14E90B
F434D6EB
CAD8B7F2
58F8EC1D
15F11EEF
4B1FFDEB
05D1DA08
0F1F38FB
13E51113
1BEB2A54
E9061E22
D00100E7
121203FB
F604D002
1429FF1A
C2F8E825
150018A1
0100FEC6
F34FBEE1
F02205EF
112A58EF
EAFE1FF8
31E00EED
2138E0D9
FF14FB0B
22DCFCFB
0515FF0E
33C709FF
F31DBD37
C39FF5A2
FEDF12FF
253245C8
F20315EB
FA0C18D2
3606FF01
DECCC2D0
DF090705
10EE2B09
FD2F17EA
080ED700
0AAEDD36
F805FF1A
28241FEA
E82212E1
2ADCF2E6
3AD12FE5
F6FF17F0
2923EEE8
BDEDF316
06B3F5D2
D3CA4204
EFD2E8D6
2AF9F2CA
080F0AF2
15E92DDE
C61E1416
EB1D432A
08F1CA07
10FBE5E5
E02EFE23
08EB4740
E00F38B6
E2280F4E
24EC39E1
FD0BD90D
3EFB162A
0D0C43F8
FFFAF909
54E709DE
14FAF1D5
E120F409
E22CD7E3
01070402
351E02E0
241BE1D8
E8DD29E7
ABE006C3
EAFA2FD9
03EBE601
21540ED9
1733C512
502600CB
13E5CF18
EAC30F47
192C3CE5
0CD6E7F3
02E2E5CE
0EF9C8D9
0A481C0C
E1FFD1DD
F9F5F7E9
EBF004FD
F50CFCFC
DC0CE503
1B5A4CF9
DED553E7
EAF50210
EA0705F4
06F1F9F6
0300FDF4
02FDEA04
0BFEFEFE
FE060014
08E5040F
0705060B
DAF02103
081DF305
100D0C04
F30110D9
F81608FE
06E730D3
F21FECEC
100713D1
10010DEB
FC29D5FC
4325FEF7
FEFFF1EC
27E5E2E7
F50412C4
EAA4F533
1002FCF1
0946C8CF
18E82EFF
F50005FC
FF1A0329
F71514FA
18F2E7EA
EADB1A25
B1F2FDCB
0600FCD4
01F40F16
FD0AF8FA
0C3824D5
F0D4E20B
2728FDC7
E6F1F11A
E0E207F4
04EB1100
FB02040C
030811DD
31D418F4
07FA27F5
04DEFDEC
FDCE13E3
0AEEEB13
EC01061A
F7282660
23E9F327
E341D011
06DCEB17
FEF008FB
FCFC0214
C4F92659
F4161CDA
0B12E7DB
0111E4DE
CB030BFC
FB0B02C8
E706073C
F104FA25
F3071807
15EFF31F
13161306
061CEE20
1B05FDE2
2DF0F217
20FEFB19
E800F5EF
D340E659
2D19EFD7
2023DB15
FB3822DF
0DCF0300
09051FE5
DD23B5CA
08FEDF15
12E3070F
0E1207F3
0F221516
F5052304
23F9F5BD
EA00FB22
260101F8
E5EFF819
2BF4F8C1
1C030CDC
F74128EE
E8F2341F
211B0133
F8E8E406
D1071623
1CFFD020
1208ED03
DA052D29
02FBF3C6
F22121D8
F8D3E6F7
B5FFDF26
3DEDE8FE
1A16440A
F0121821
F6110EEE
0BF41012
22FE2308
F730F0E8
ECF9FDF5
22D907DF
00E8DE30
F1081BFA
01030D25
3B32E622
D20ACF0D
FB060607
FDF11E18
CCF1C02A
1907EBED
B3E0F51B
CAE5F8ED
FB0EC24C
EED5192E
E611F1F7
EAFDE6E0
160FDBAE
D1DE34D4
0AF830B4
DEE00405
FD021811
E3F609D4
37F62211
380B0610
E4E22DED
E8430411
F25442F3
F7FDB800
DBC5BBCE
2F1DE62A
DA4EED12
18FF0EDB
EE5329DC
09F6A002
01D8FDE1
11303BE2
03051210
49DFDADA
DD111E09
07120B12
2417E50B
A617EA38
0BDF09BC
BDEB1906
FFDF5142
1317E9E7
13B012D8
DF000FDD
FBFB33A6
F9073A13
15DB17DA
EED51100
D41E1E0C
D53B1848
AC46EF47
2ADD08F0
F3D6D60C
D2EF1912
F4173C8B
146A133F
DDAEEFED
E114F4D3
290A45E3
EBE70AE3
FD3FDCFE
BD30A114
1B5939EA
EBF6D2D8
D03FE340
08E79F08
FCCF28F4
C7F7DE1D
34D1DCE0
CC27F0B3
18141D43
392DB4E6
F7D9FCDA
FCF61609
0F1CE122
ECF405E6
03C7DED6
BDBEE1E9
F5D0EAB3
E0F84506
D5F2EE1A
D51F1D03
E00BEF12
EFE6FCFF
F20F0FE7
10ECE600
0D180402
00E91D12
030AE420
190A08F6
F408120A
2104EC09
1BFD22E5
CDF9E82F
2A20FE11
00EED109
0301D9EB
C3FA021A
F9121217
D7FC0206
FEF4F32C
E9D5F20B
26FB2DE6
01F909E2
99FEFA07
E1EAD818
F116CA21
0A2606FB
F6C70719
FDEAF2FC
BFD3D9CB
EB48FD34
08F2FB12
F5FA1E05
EEDFE61D
1BF7F8F0
0710DBEB
0EDFDEFE
FE1E0CD5
E93FDDF6
E6E1F4DC
EC05C8DF
200838E2
00E42C05
DD03E40A
E4081325
1EFA08D6
D72139FC
F2FC3D09
F91906EE
06F4ECD3
F9EEEDF5
EB06190F
07110EE5
06DED6DC
020B1F02
C0F0182F
F8DEFCFF
FDCF1DBC
1BFEF3DA
0008B403
FDF6D4F1
FA130399
000B32F8
ED2F1E10
0231DEDA
F8F91036
2E38E7E1
1CE93434
2E28F90F
F7F50716
EEFEF3EE
E1EC21EC
021C2459
F60700EE
C4FA1B0E
F0DDE0C9
15FDFB14
0901D936
19FC0B2F
D4183CF8
E0010D06
B85B28DA
31F7B4F7
11501F0C
45FFEE3F
E914470C
05D7B1D7
EA14F609
2104E7E5
1CF50AED
ED1DDAF7
FF13E31D
D9EAFA11
EB050011
1EEFFE08
0204CDD3
10EB202A
37DE210C
FBFBE71C
0DBC46FE
B63C1EE3
FBB6E81C
F7CB10DB
F91CD852
1E09FCF9
211CD7FE
F1F10008
FD49F9E5
0D08A3E2
CE18EDD3
230212FA
F214CA13
491027D4
01DA01F8
FCE11B1B
27B5263E
01EBF62B
5323E73E
3126CD2B

