F835E941
EE03E5D6
16BFD011
EAFECE3D
CC03F516
DDF155EA
F10F0EDB
FCD00CFB
FAF6E1FA
0DCD0F9E
F4E2FCFD
FD2A13E7
DE1FEC1D
160709E2
39E42015
0F0CDE04
05F52B02
F02B0A1E
4505EAC5
DC0DE73D
C50A1AE5
F0C01CC6
F7252A01
E7F711AB
18EF5212
15313F01
0CEF55CF
C81BD48B
FF042825
FF110016
1A03FF17
1DEF08D8
F307D4E2
FCCF0CF7
42E61F44
4A06F0B4
0AF81201
1E35213B
D423FEDB
F1FFF667
B5F737F6
FF3A1E13
D4E70FF3
DA141016
29320809
2B112866
2CE001DC
DBE10FEE
33E6F3FF
E4CBF3B3
EB254334
09D4EF3B
BB0B203D
1401E1C4
F8003022
07FB0AC7
F2EEC81A
F5DEE721
01E405F9
F1A6D8E0
E70FF243
F3DFD139
11D103C9
DC49F323
061CD5E9
E107EC13
22F5EDE3
F60FEDF8
4AF607C9
10110902
0DF30E22
1DE7F8E9
46080F40
ED18DB3E
F4130CE4
FA181B32
07F7FFD1
FDEE02D4
3ACF11F6
F9EDE1F1
24D6D645
0C1AFD11
CC0F392A
1403F8F4
2735C949
B72C0EDB
EC2413E1
010F2AFB
FCF5F82C
171CE3E3
13EB05F5
DF0E10CA
F413E7D4
F8DFF70A
29CEE612
1AC80B53
26030EF6
054000F0
E61703F1
0BE70ACF
DAE50A06
E30AEE0A
FD23DEEB
1D160F2F
171203E4
0E1936FB
06FC1E02
241AE430
E6C2CDF7
0FF5FFF8
2620160B
FD042725
0DEFF1EA
FBE21913
15EF0424
FD210B17
CB03FFE9
1BFC271F
EAD82C18
1801DE58
C91FC5E4
00FE2505
321305F5
1EF5F41B
C0F0E00D
E5171037
E80CF9D4
001DF228
351B1B05
EDFFF1FD
F510062A
10ED130D
BF040019
CEF10130
D3E7E70B
1EE8C944
05E81122
C90DF73B
38D5E310
FF1826E5
EA0B1007
20310520
27A7471F
16F91FDC
19E003DC
EB15F404
001215ED
01FC1BF2
F919F33C
0EF5F3FC
EC0ADCEB
2B644C15
180B02FE
57372224
1ED2E5FA
4EE3DDE6
FF1DFC04
2CDD08E4
F00EE5E3
41F40DE8
E0D2FDF5
2A3CFACA
15027EE1
E74BDBBC
E5180DF1
B9CDBF0B
E224FCA8
D5FEE3F1
0A19FFD9
7BE41FDB
C949FDFC
CEFFD3EE
D9E5EE1C
6FEB01D2
0AC2DD07
1A44F4DE
0EF931E0
0B11DA12
4C07E109
DF18FE05
F73409F3
2B2F0E19
00F056E2
443FF312
2FE43C01
12D728CF
FF093DE5
F042EDFC
36C4ED25
E13BDB33
DAFA33DE
FE130C23
FA062EDB
CB54D1FB
C21800FF
24D9FEE7
18EBEB35
FFEB1ADB
2E0826C7
CA00472C
EB551302
BC5CE8EC
3FF014EC
C3DBEF25
F7F51DFE
3B5617E9
11F351CD
01F6B4DC
B40AF617
EAF7FCB7
FDFFF705
FA3E0C22
0B4BEB0B
0CCF2949
FEEAE509
FDCB10AD
FE1A95F1
31304008
1AD90213
EFC8F6EC
21F90BE8
17CC0FE8
E4ED0224
2AEEEDF8
16E9F3E6
1D1EE1C8
15D0D509
359EFCFC
EF11D723
0B14220C
D3E3D927
CEFF2104
07D60141
DE0A093A
3ADC1402
36DD24C4
14340BE7
042A0B57
0C0303E0
F408FFE5
F526DCE7
F7D81934
96460F15
F217F508
F4460A2F
4EB5DE07
BB1D0CD9
EFEEF53C
0DCFC4F7
18DD0402
F9E5DC03
F151F438
F333E7DD
F1EFF917
05F605C8
010CD6DA
E11104EF
F40207D2
160EDEF5
12170A5C
F6FEEEE9
073FF519
10F30901
27F7F7E6
EDE5F4EE
FDF1DAD9
1F13E1E8
F9F4F60A
07200D08
F30B06B2
EF151DEB
03170C10
15EADE17
E10E0045
00F80506
FD09E5F8
1BBD15F2
F315043B
F6F1D6FC
EBFFE8AE
E61208EF
E0D41B3F
0BFB03D7
24F72DF2
01E8FDF7
F508F28B
10150EFC
EE24EDB7
DCF2F1F2
FF0CED03
F1F6EA3A
31EB19ED
1341F71C
EDF0F758
00FD0707
12F20DDF
FA000838
0605F3C5
26EEF806
191CD979
F3F8EC11
EAF0E6F0
E70BF5FC
0607EAD6
DD1DD313
E00DF789
E5EA17E2
161EDDD5
F8F52BE1
16CFD3FA
F9CB45B4
ECF500A1
19F61FD5
F5F800AE
DC28D5F4
24D73694
051BFD08
1F2AE672
1C122C0C
0C17F61B
BE061000
A6FCFF22
FB1EF9ED
40C82277
E22414E9
16ECB794
68F2E3FD
1DD004E8
1BF70811
0D26C8F7
E5E7EE2E
EC1917F7
D305F0F7
EEF622E7
32F74F17
ACE80360
28D8F50C
D600FBDD
E6FF16EB
23DF05ED
2221FE1D
F2EA0508
40311ADE
DC1C07B3
12EC18E3
F015263C
FE451312
E8BC171B
E93031EB
1FEFD68D
F8EB0905
F1ECEA1B
7534090D
15D6D042
D2F9EC1B
FDEB2B0D
4842C066
14C90B4B
E9EAD7E4
18F60A1E
D8DCBA2F
F11E453B
EBBF21EC
4AF42627
2D3D1518
13F616F7
133FD538
12E0076C
DE39E30E
FBDA1CE0
8DDAFDF5
D0F9941D
D51ADE0D
021B3BFB
810343FB
0FCBFEDA
F70BF63A
24130595
15F0C82E
1BF0F8DA
0E1E16F5
401E017C
074FDD16
F7E26300
F94CE830
20F4D801
02E5E0FF
1CC6F814
000DCB18
172B28C1
08FC140C
E7363000
44E5B518
EEE12B28
CEEDE7CC
F2F30519
1BF5F20B
1502FDC1
05E61508
15D6D155
E90F01F7
0BE2CE01
08C629E7
F9150ED1
C809FCC3
EFE8F729
01E72623
01CD34FA
CD3C1E08
FACDF52D
DEF4F4E4
E710FFCE
EDFC00C6
F3FF1FF7
21FEE5CD
B3FAEAB2
F3020017
0F1720A7
DC0E0BF5
2C360934
CF07D416
3510FBE3
BD111CE2
14EC23D2
032C1FDD
D121C42B
31C81BCE
410023C5
3C0319F4
B724E545
34ECF3AF
DAE12365
06CCF8B7
09FB2A2C
2414FA39
F2FA3CF5
00ED06E6
065EE11C
1A0827F9
1E1F1831
05FFF909
DF0DDD1D
E6F3DFD1
16CAF2E5
0912DFF2
07F60A29
3BEBE9A5
DC204632
340405F7
2A0520C5
F02FFAE5
0625FC11
F21CE9C1
F60131FB
16FA042C
FE010101
3B071213
FA0230DF
050C1604
FCFBF910
E1F1041B
FE253340
E81DDCB8
E9E9010F
EDDBFE17
1EE20FEC
17F5E7F8
F5CBEF02
18F6FEEF
CFEFAFF3
0FEFFC10
EB06FB07
0C0600D2
D0130324
DA03FE26
D7E0FA09
11EAE1F0
F51511F9
25E919E1
0A201625
08E2FB04
EDFAE6ED
0FF0FF07
D6FDED2B
010BF718
FEE6FAFD
DFC0F412
1091F4F8
3337DC1E
14E3F6E2
E3020AEA
F416F420
FBFF0100
0B08130D
FFE2E50B
EEB7F803
F0F701FC
09F42420
2E17CCEF
EBCAE220
EA0C04FF
FCFD230D
C1100C65
0815EC12
0119002A
1BFDFBED
ED170328
14F71BE1
1828F5E2
11040515
1B1008E9
0DE52200
FC05B4FC
12CAC674
DD093EE0
B621F027
E7F520E6
08E5090A
0AE4C3FD
F9FBECFC
1832FFAE
32ECF71B
ECE8F0FA
E9311E46
091FE920
F3B3FD9C
05F1E8E9
1910EA56
420F05F2
37F6022B
28EC10E3
D8010DDF
0D21FF29
EA05E742
0A02AB00
0ED62420
DB1222F9
0218D52A
14EF09C9
09E10259
21F2EB3B
20D2C20B
0B030B04
05F10DCC
F1FC05DF
E2ECF0F3
E0E208F4
1705D5EE
0C0C1A2D
EBE4F2C9
F803E9D9
CED31262
0E0BD7E5
02DFF39E
0D1B0FFC
05D0F6EE
10E00130
F610DB02
0CD8EFE2
FEFDF3B6
08F50017
04D5FEE3
EE0BFD13
140DFAD0
1804D6F2
1214E33B
17342015
1607F5D3
E80DD725
F1CB117D
1D03FFD9
15EEDB45
E317AEC1
FF1DF355
DFFC07E9
C90AFFDB
E2FC1541
1DF733D5
0A250F15
10212B14
12F3FA05
041EDCBA
1C410613
FCEF170A
1207E20A
F13823DB
DB2A0BEF
F908DF26
D5E8E9BD
EEC6C415
CEE8F2C3
E5E8D7EF
2320F60B
1AFD0E04
F4F2FACC
D52E30DC
06C5CF23
D9F81A00
2F0BD93A
3CF20EB8
1ED9F331
19E81DE1
E72528F2
0B51EE0A
DEE21420
FE03CBE2
D00CD838
F1D8E5FF
EF07C2E2
FEF01B00
17E8DC01
E0061206
F70901D4
132712D5
D917C83C
136408F3
00D51A20
E921F9F0
06F64BEA
08292E11
DE98CE06
CE27341E
B207D806
E2FE0524
D28110EC
EF462FF0
D14203D1
59E665E1
2303F3D7
22EF0736
B3D5E71C
FBF2D434
E736121A
DB2F30EE
35DF15D9
DB30D34E
FFD5F4F2
133EBD09
F6160B04
FDD62B31
F99BFDFD
09F8392B
04121B18
01ECF606
FAF006D5
2E1CF710
2053F2C3
FAE137E4
F70423FA
FCEFF6F0
D019FFCE
E714F230
F63ADB17
19FE13DD
EC040AFF
130108DB
001C0D23
E7E61CF5
00FFDE01
1219F51E
372E0FE1
F6F5B0D5
053407F7
F9F51520
05DDEDBA
E5094C04
FEF9FC2D
DA190BC1
080B1803
BA3EF91C
F2021AF1
ECD6DC2F
22FC0EF7
16012407
FAFBFD17
FAEE0117
DA1DD9E7
0F130010
10E016FD
FC1710EE
09F6EE04
F30E3D3B
0602142E
F8350803
FD17070E
F9F2EC13
E7F50CDE
E8E0F12B
13E80CF1
CF00E92D
E9FB2122
F81CF6EF
F73915C2
F9F4130F
F6041FCC
F6DA2748
1500E602
EC2BFCDE
FBFA0018
351729D9
F7EACD29
23DB1BFE
EF0DE301
F607E5E8
F5F8BCE3
C30FF361
08D8030B
27FF0F1F
F6EFD3ED
1A36F5FE
F0B114F6
BB3208F4
EEE910CF
07EFEAF4
01DCF505
1FC70DE3
E13611E0
0DE523E0
37144C19
1BEFD421
1A362C47
BD13E54E
1C01F90C
14EFF41F
EDD9EC13
FD22E0E8
3DEE152E
08E5D418
E404252E
2401F8EC
BF19E7FC
DBEC0743
18E010C9
E920FD10
01EBFE1F
420CFA10
18180D4C
25D53710
16D922D0
E3DD0FFA
4237041B
F4FCF2E3
ECFE0342
EE1204A6
15193DE1
1737ED11
1A2F291E
F8EBEDD9
CF3BF422
DFF121F2
D6060613
DEDBC71E
EE321643
DBF73E12
03FFC2EE
EE0CDF5B
06E6CFF8
D407102F
E9EAEADF
F3E9D1DE
11ED2FC4
C0F8FB0E
EF144827
35D312D7
F102EA09
23C01936
E617FB1B
14061B37

