D4D6EFEC
F1095A44
F6FAEDFA
16F02AF1
F5D3FDFB
DF07E238
0B140534
E8F1E417
C6F8B410
AF0409D5
D1E8F301
1FFCEFE2
03E512F2
2016E828
EF07CCF9
DDE110DD
E5174207
DCF23CF1
D60600E1
E51AA6F2
C7FF08C0
FAECF938
0119CDE0
F40A0DD6
E71EEC00
D2040526
400019E8
BEBA24DB
2E1D270A
DC25D72A
182A01D6
E4E5BAF1
E8DF1F2E
05E6F0E8
29D1050B
F83521DD
F713C2DD
FD08E514
1514EA3C
22399242
C3372114
05DFC2DF
EF3F190A
5C1F0154
3742F42D
F9EFEADB
D3E729F4
00D7D73A
2EF7A524
E31B1433
02011220
E00E11E3
39E0C736
D5E9EF04
F50806F6
D8ECC513
D4C6F4CC
0BECBD34
120CF6E8
18F8D320
EF3DCEFC
F9FDB6FE
210B01E9
DEC4E0EC
0E1905FA
1FEE052A
F52109EB
81D031CF
14F3D6ED
00231F03
D3310804
1E0FCBD4
F21001F9
CE021806
06DF080F
F3E3D103
3EBFFD2D
9C25D217
E2181901
190A1E00
C5FF2CE5
EA1205BA
D722C3F6
25DE2008
DDCAEE0D
D3F3F608
FE0010EA
E1F31612
CACFEA00
0E24C9F9
D812221B
EB272AED
11441BFC
CCEC51B8
D20BE9EE
08FB2BDB
DCED19EF
DE152908
FA0D18F2
2321B029
011E17FA
FF1F45C7
DACBC60D
DDD60308
DEE0DD14
DE16E61E
DE081B1B
2DAAD220
F80A0BC7
DA097EDC
ED040004
F800F2FC
E732F000
2812D023
0D072208
160D1C0A
08000B16
D71DE5FF
25E622EF
2E19CD10
1F270EF5
1629CFE2
06F5EDE8
05F1CAF3
E71EF1FE
FBCCDFF6
17DF5921
F1CF4FF8
1D141404
3B04F607
19CB2ADA
0DCE6BD1
0E082A08
D4F20115
F1D8F715
06C80CB0
FBDFF909
EB290923
14EFFD05
E9E2F82B
1BE8E5D5
F91A0BED
1108280D
E4FA2018
5042CFD5
C301DF00
EDFD091E
14155705
095F0319
EC20352D
D428D3F4
363DF82F
C5DE1C12
BF180714
0E1212F9
DF150509
DDBD34F1
CCD230C3
CFBF6E35
F0D41826
D3F10FFD
270BEBF4
EAEFFF22
2CD610FF
020FE3E5
082ED6EA
F3F90011
012C19BB
DAEEF210
E9D6F2E1
DF08FC05
B1D212C7
F842121E
C8D2B828
EB49FD16
2227DB02
05BF321B
0D150F04
DAFBBAE5
32F7DE3B
D2E3F903
EED53815
230E1B15
2A06FB32
031507F0
FAF3DEAE
DBCBF43C
83FC33E2
FCFFCD2B
8C05E212
FA04121A
CDF001EC
76F1180E
15CFBD0A
2304F1D0
14DEF140
08C7E4C9
36E9E34A
0602B2DB
CF163446
FE151F10
ED2EF716
370E5513
F1BEBF62
0C21EFE4
C3C8063F
F01F090E
F02413E7
E5E7F911
34FCCDE6
110B1100
D805FCEC
160302B6
18DEA71C
EAE5FDEA
230D0733
F9E5EA24
0BEFFC2A
04BBEB1E
E8DFFF2E
FD1E31EE
1CF3C5FB
F2D3E1F0
18050E00
111E19E3
FF001922
DEEFFC34
FEEFFB3F
2609F00D
F2F90829
391F1918
0C06B0FF
FAD10704
F02815D2
E9D30A04
27F14C07
1017F6E6
FBC30944
F7EA0C02
FC060EE2
EC35CB0D
E11431D2
EBEED3C1
0417EF33
23D01109
F603EE05
0CFC015D
15EA0E2A
F73420F2
270F0300
102FFEE1
4636E74B
EE01E7F9
0D06FA02
E5EDED03
06D4E3FF
061D011A
1407BB38
020A03E1
FC03DCFB
FD170BE8
FA1DFA18
251D07E5
24F8D5E4
21F40FFB
EEF6B1F9
0CDE15F0
09399D21
DC07E1F8
16EA7DF3
D91D232E
F303CAF9
E8D4AF1E
0206A1F6
221C36FC
EF05F2FC
13FA0715
D6295CF2
D5F11B02
250D0912
F419E3EC
F4E07446
05D5E4DB
CA190803
2EED0DEB
F41390BD
3AFEF2F2
DD20BF38
FD051F15
18FC03F4
CD1D081A
01D47ED9
2D0C0BD1
03EBFE04
F1F708E6
DE13A00D
021224C9
EEF01226
2C0D0CFF
EDF2B9D6
19F83437
0003CEF6
ECCDE4FE
262B43F1
CC26EF02
FC043FFD
F20D3304
F3F2361A
DFEDF8E6
4720B2DC
0520FF00
0BFB23EC
2CE2F4F1
2A02E131
F4CD120E
09F204EF
F006050C
06F5C313
FBF4EFE1
3605CFF3
1AE70E17
D6140507
FBCBE7F3
0607E70E
DFF80EE0
E02CF60E
0AFE0116
E50FFF13
E21C0B1F
CAEBE428
DF23EA1F
1DCE3D2E
BBD5B9E8
E2E902DD
0E0CF703
07FCE800
C918A6D5
0902D730
16ED00EA
09D72B2D
07132308
090D61F4
510E3C51
353A47C6
E22930FA
22F20BC8
FBD70D1A
EF390BF5
F70E08DE
E01A2612
1F04F908
13D4D3F0
D6FED9D9
BBF6D8D8
E3E0021C
111D0F41
23ED1134
CDE92DD8
143FE9F7
0410EB0E
2B040933
17BFF706
C7E1F217
F706B6E7
1703EAEF
CEEBE004
2A0D97C9
F1FF3F1F
F84248B1
BA01D9EB
FB25E0FC
1E262B4A
E01415D9
3324F60C
D820F9D2
E3651842
28CFFC1A
EDEF4308
1AC8B323
0C24CDFD
03E6FBEE
32110F1F
EDEF19E3
15DAF8FC
05240B00
F8EAD43B
F025D4F1
0303B4F8
06D90322
45E4E62B
52B7F7FB
E5001EF8
160748F7
FCFFEDB3
F719FFC0
D1F400C3
0FF130F4
1104C203
EBC621EF
2E0850B4
241CF80C
CD04D427
F2E1B01B
04DB1EFE
0D26E740
112BF806
1019FEEF
E119C4F3
BF421DEE
E3ECE5F3
22394CD4
B1D7F61F
E13CF219
2E24BACB
F91035FF
E103F403
46A6F911
B832BD2A
CE1CE4F2
00EA9BE4
21C22E25
54DC1136
17FCE4DB
FF1100F9
F42CB4FE
111DEAFC
DBD526CA
42020209
1E1A3704
4BD437DD
F7F0FF06
DCF434EA
20F00406
16FCDBE4
F010E1D5
1E1A0017
F9001600
1C05D41A
FC0702E6
FFF4E60B
100CFCEF
2BFA4AEA
E32A111A
201500AE
FD241A33
24E00C14
08FC3E00
F6F2F3EE
EB0D0DFA
F1EF170F
1BDB23F0
231C2DEC
619700F9
1724106D
08F8F3FA
F4ED110C
F5F1F8E0
20ECE7F8
E2F9E90F
DF1E0314
DD15E90C
F10116FA
E106FD05
F204F227
F21C1B1F
EB07F514
FBEFD00D
1F0E031C
FFF0C501
1C140DF9
20ED0C04
EDFC28E8
07FCE3FF
A707C757
17FB06D6
080903EF
D6042A13
EF1D0CE6
DFFC311F
19010301
FAFA0628
1EF5F909
021AD814
04E21BE1
FD2BF3A9
E2F51B0D
12BB2321
12E8E725
2BE9FD04
05EFF617
0CE1E0F0
FB2BEF06
070EF5B9
E2D315F8
E4E6D624
10FA00EE
0EF816F9
1BEDDA01
D0F3E903
E1F9F0F6
01DC26F9
F606FEF3
FD0AF7F0
FFF8FC09
E53ECF31
DA14F0FC
F0D8BBB3
FDEEEB18
F1FCF91B
F9F309FF
DFEA0033
D8DA0F20
ECF3FBF4
FC323FF0
1C0BF8E5
10240FFB
17F41A19
F7ED32B9
3513F8F5
302BFE29
CE0930F4
0EEAE115
EADDC209
2E0DCBE5
07EE54FD
B2216EA0
25E6F4C5
EDDF2CD0
E713E7F8
E602FDD6
FB0EFA07
EAFDD2E1
0C18EE14
07B4EAEF
E3F00E13
BBCD3CC0
E3C8EE04
17221122
D913E00D
1BFF3332
E7EC4BE9
2C0E6F13
13F702F8
E50023FB
CC041CC3
1ED853D3
DB19DCDD
37EDC6E1
25F8BA0F
EEFD2327
12F7CEE8
2BF6ECFD
F91E30CD
640BFDF5
E726C8E6
D5F4EB13
0D270415
2515FDE8
CFE7D6F0
24272107
EE002E1D
DAF723F5
EE3808E6
FACBFF2B
FFE80CDA
24BD0BF7
34F4120F
2306A9FB
1ADC01E4
0CEDAB05
3917E9CB
1101BC0A
430E0300
0023FD1B
321DCD0D
E30509F8
FA39AD10
1A134045
EBE4CE1B
DD63210B
D7DABDC8
F329E640
E4E77DF4
E5D4D8F3
EF0C0B25
F60B21F8
E4F906D2
36F3E95B
13042E1A
E6A13928
EB07183A
F92C08F9
23F163CA
00DA19E9
1AC22348
DEEBB832
1AD9EA02
2A2005DC
DADE2B05
F328C8FF
2B182130
FC2DC807
641AD502
F2081A01
08F0F4E7
ED210BED
541D1EE9
D21C1F38
BF070D07
C7D62407
12E035CE
EB27E4F8
F612150A
08E9D34C
DEF5FEE7
0AFACE40
38C80421
F103B7FF
E6E9100C
CEE61F1E
D92BE5E4
9D19D741
DDF5E902
EAA9F312
0512F3EC
3FFF33FF
0A26022B
16F8E4BD
10FE40DE
FB171717
E8CF02DE
070507E1
DD3C700B
4A01F294
BEDDB85A
D33736FD
0AF24D31
0721F746
E7EE3A0D
0CE52AC9
02E0010A
EB142C1A
EDEF0ADE
FA100A1B
EB060FED
27F5D933
07FE0F11
141CD555
F9FE0FF5
F61BE5F9
F224E716
0DCBDFFB
F730EF10
B7F30217
E1340E00
0C0AD5D7
12D71D02
DA361C04
E10CFF28
1318EBE9
E5FAE8DE
E7EC02EB
F2F706E1
08002CFB
F72B0F23
DDEA38EB
EF0FE903
03150B32
F90A0611
E7E9E80F
E7FDD8BC
0DF94DA7
3E2AC812
E64416F0
DBFC160E
19010EEF
FDF82C0F
F916071A
EEFDDDD8
08ED15EC
F103FFE8
F8250A06
0DCA0803
1A3217E1
24DD23E2
E7032302
24EFEAD6
0DF3D618
ED033021
022FEBFD
45EFE5EE
2404E9ED
E3F6EC09
FEEED9F5
F7E71924
C8F41ADF
2A0414F6
400FECDA
0114F217
FC29DB1E
1206F5FC
BC13531C
F6F403F6
F8F8D101
E0060F1D
FADAECF1
2BF2EB20
031809EF
E800FA1B
F04BBF1A
59F8F3D7
3416F71E
E1DF0515
ECCCC7F3
E1D522E4
F330FAD8
1700E30F
F6E90EC6
09EF29F2
F5ED56D4
CD3BF903
32F30238
22A334F7
082FF1D3
1AFD0825
D4FC71E2
EE180403
1DF024F0
12E8FFEF
FBF324D0
350924F5
730F2E8C
0C224211
E8080915
E2162AFB
11DD59CE
F72DE5D7
121AF6FC
E93D15DF
1330040B
DA1AFBFE
DD1828FF
FF1F09E9
06E70320
0FE8EEEB
FC05EFE1
D5F0D3D9
EE0A28ED
F93ED1F6
C4234A4A
E74040FB
EEE61E1E
D0230DF4
EC0425E6
4323EC1E
17FBA808
41154032
36DC18BE
3214EB05
FAE8B615
EFE426F8
0FB8C617
050D0E19
FFF018CD
BDDCC200
D6241015
16111A34
01D4F111

