FBF0AF53
F5212133
FB0E5600
F51A2EFF
642620E0
241A24DE
120B24F6
29F5E10A
EB05ECEE
16DBFDF9
F81CF7FC
F3EEF209
EA0D0452
0C470FE7
01F2DE30
2FE5EB15
C437FD17
EAEE2D28
01070214
18FD4C1E
F9F0301D
E21D120F
EDDFF606
F7D329EF
052D0AE3
CBFBF6FD
22132CA9
0E0ADC17
F5C6B7CE
06EBFCEB
FDD01C25
10F80000
06DF2844
313E0D0B
ECDD1BEE
1212B31F
F60A19ED
C9CE21D3
1E0D201C
E5CB14EA
251B0927
F90155EE
14FDA510
06CD34DF
BA12C82A
DF13EDBA
E500F6FD
061424FE
FE3735EB
CEFEF9F8
F4092508
E1270331
41DA3A05
EFAA2E09
DD13FD04
EE18D806
E5E0D3B9
2CF1FC10
D0F2E9A8
C309BF05
DBF7D0DB
0E21D72A
29083EF5
AC41D90A
0CEBDD23
200D1E10
0E1C16FD
10F429F5
1D05EF20
651E12E5
ECF3DD3F
F0101C08
12E32CC5
52D8F309
DE002C04
0D002CED
1D0DF319
E0F0E5F6
EBFC2606
1F2D1711
26BFE525
6FCA0DD3
F0EE1910
CD19C6FE
18EA5DEB
B825510F
F81A28FB
1C0211F7
E810D510
20BC1D05
B7F2CCD3
96290E05
FCE35AD3
F3D0EDE3
2D1AFCE5
12F005FE
F1FC1905
F4F90D00
BC21B9E5
3EFEE4FC
FEB5F4F8
F7FBE617
FA0B0BED
5B1E0F38
0909F6F4
DB0A291A
C2FEE003
18F9FA1B
0FCAD801
E2F016ED
15AC47E0
23E9B3BC
F520189D
27361C23
F516DAE8
2B15EF0C
1F02DDF3
DEE7F0FF
D801F8DB
2C3EF4F8
CE15482C
3E14EB01
F0D40C19
19DBF7F7
0FE1D111
E30721C0
E3EB1BFD
03FD0D15
1DDCFA21
0F0E18E2
0A11F61A
EBE4EAFA
E413DE08
DFD4BF0B
E7F7E5CA
0C0A13E7
0E1D2F2B
23FCD30D
EBFAEBF1
E8EF0709
C5E7E820
02C60235
ED01C102
F1FA500A
FF18C604
FE11D0D8
EC0E08C5
1C15364F
E42D4AB2
CE4A41D9
13FEC111
2CE4F5FE
0CE615EE
073DFB36
F90FEDFB
9EF4EF09
13E2E91F
32F8FCF8
FF05D901
DD38FE21
DFF931F3
BF0B2704
FDE83C0D
13094722
0727580D
F3DECEF6
17EE0A14
F905F0F6
09BB1C00
FB45F0EE
530AD11D
C31B14EB
CE03D519
EC0DFDCD
46F3F01E
2CF9DE34
E7BB4521
1BE31CC8
0DE2F7FA
CC10FAE5
E5D4F3CD
CD300914
153F05F3
F08A0310
DBC4200C
C3283B2D
0CB8FD17
D2DD08F2
E6E3DD10
2B11F8FD
05E31C2E
1FFEF00F
D20BF818
F739CC42
27F4DEE5
BC0B15DE
FE15D7E1
1021021F
35E31C46
8BF60205
09FDDB2C
D7D5FCE0
13B6312E
B1060A28
EE22EAEB
E418FD1E
DF1C00DC
08E84C23
05051737
F32807ED
D913D729
2FEC18ED
28FAC146
D92A100D
FC20FFFE
24E60121
F2CEFB09
FF521DEA
61D80DD0
C8EE9C44
E9ED4746
D3F9E8ED
2F00E10C
2CFECBDB
16BC05CD
DF0C670C
470525F0
BF170131
15BCEBED
282D180B
12D58EF3
3FD038D0
E81107EC
0DE73608
EFD0DCCF
58D008A9
222FF102
E7315338
2EE51E1B
CEE0D312
CA4BA80F
F701C1EC
DB0E1402
FE0E0F10
E821F126
1F06A4DB
DDEA2005
9023F936
2BD6F4C8
CCEFDCF6
E90FBA13
34CE3E34
02F2F4E4
22D707FC
64BF1C0F
C337E3DC
F8FD2F16
41DD201B
01F0071E
D8E10FE1
F8160E06
111A38E8
131ADBD9
2B0EAAFC
DD23EBFD
E1D544EC
E715CED6
DD2134F7
023237DA
D9EDBA08
0EEC0DD5
5833FAFF
22EE1105
EADAD20D
100F0C2F
06F5D92B
FBE0F3E9
D801E7E9
F01B1E0E
0D1EE213
03FCF219
12F2E9FF
EE0F08EF
E3FD0917
CBFB0C1E
35230DE1
BFF601EE
1C16F4F6
0CEBF1CD
10041E2F
0AEA09F0
10EFE4F7
07E700EF
0ED330F4
20C5ED05
D7F7F80B
F52DFF19
18F2FBF4
1D0AEE15
1522DE02
222927E7
0DFB15D6
01E30511
E5C925E2
F9E3210B
21F63ADB
E6DA0B20
BF19E7F1
261915D3
040AE507
121010FB
0204EA0C
DBE42F14
07F11CDF
DF0BEDE9
D8E6E1E5
2D0223FF
330F2E0B
3BF3011F
D81D28F7
F5E3E2FB
FB97EBBD
CFE8DA25
12CA090F
4AFFCCBE
EDDEFAD3
2A203216
C6101570
EB11FED7
222BEE09
211AE40A
EDDEF801
361020DF
0C0EFBE8
E9DA35FE
06B410F9
4513FF1A
45204FF2
23D50AE2
DD051DD3
0A15E1FC
1F0525F5
0D18DF3F
27F9C4EE
E705F9F8
FD2F3D03
FC01B30C
F41206DF
FC1D080D
B3F404EF
EDE90E2A
E8120320
23D2FD07
E9E5060A
16CEF8F2
E4E61A0E
4B340137
2C0F31E3
022E1636
F61B0CFC
FA6D2F1E
EABB1860
F71CF525
05FAE8D0
EF4EB058
E019D92B
FF25DBC6
5704D9CA
11FDEF4A
091912EC
3847055A
042CB01D
FC1DD822
0413AC03
D2EDC80A
0FECFB2E
19E8DC0B
E235F7EA
0E03EFF2
0BFA1732
24B72103
FDD33114
DDF7D422
C712F50D
4220EF28
240228E2
EF20E50B
09CB5BDE
FAFBD803
F3DB04E5
02F3DDDA
1AF1118D
2DFD4DF8
C714191E
20EAEBFA
20D9EAE2
10DDF8F0
F723081E
E7DFE90C
D5BB02FA
2EEB122A
08D2D3ED
09FF27D3
5AD1D9C3
1503FF28
FEFD0CCC
ED1BF1F5
2726FADF
DF03F836
FB02CFFB
18FEFAD8
EBFF47E5
2E14CAFE
DD0AEF02
E5ECFA35
02082111
E31CCD21
01E1C5F8
0408D04B
E2EF2306
EC00F666
F354141D
F9DE3406
ECF2F2E8
FDF4FFCD
1310C22E
E905FEF5
CDE5C8F5
EDDF2ED5
A8F5FE11
180E1195
E02B2BC1
F51C0837
313AA7CB
D728DC0B
D8E93D14
DBF5C0DF
F4E9E0B6
ECF40EEF
1EF1E80A
1423B104
CF37FB35
3DFEE509
F53B041E
03F1D325
2F0C29F6
B904BCEC
101FCB48
E5D11CBF
FC06F1EB
1FFFFF38
1FFC2DFA
FB29F412
1AF0D8CE
2A2A0AB5
1B1806EB
CD320213
FC0308E7
F0FAFEF3
F5F52105
22030B04
EE0142F6
D9F6130E
33E73BF2
060806F6
11FE08EB
F5F91FF4
E62E24F0
13F31AE4
DC1BFB0C
1C0A1CFC
0800FA0F
01450819
1EFF15FD
FC0EF703
FFE2FBFC
050D10ED
1E0DEBEA
19E8D5EA
F634FCDF
F7EDD8FC
FBFA290F
EB04F50F
D41CD1F1
07E7ECFF
E0EAEEFA
3E0402EB
2AFB0309
26D805E9
D64210F4
2111F8CC
18FA02E9
DFF91FF3
FE0CF70D
ED09F1E4
E412BB1E
D31D09D5
CCE3EF0E
01ED3222
1DE215E9
DD1504EF
0FF8FCF9
FD1FEF03
31EAEEED
FDF40EE3
FBFF02F8
FC080D0D
D7030C06
FA0BFD17
FD04C3D8
E70C1FDD
EA1A4025
D815FAD8
FAE2EBF2
F2F9562F
37D32C17
E70031DC
FDF30303
1900EC22
0BFF0B04
19F517AC
F23314FF
7EE2F3B8
0000FB0A
22E2D80E
EDE9322C
181413E8
29D7DD10
B7F40EC4
24E01010
E4060339
F7F43031
04F91AE6
F4F85FF6
FEFEF701
E2FBFCEA
F5FCFA00
4A2E0700
ECF4F6CC
E4FC2E0F
E9EB38E9
141E2326
212032D6
E1D80CFF
30D910FD
1BE1FFF8
FDE80ACE
F10BDAF5
120306E8
1C27051B
30FB4907
D2E00C0A
3DFC1FC4
DEF32AA8
0C09CFFC
DCEBFEF5
0ABADC20
D7D730DC
0CFDFC0A
CE2E0FF9
06DFD530
2D5C101C
07E00500
3EDC0EF4
F132DBDC
23DF190B
E6E1F310
FAE12BF8
EB0348D9
4A0F3328
0A0AEC0C
DFD2CDD8
0316F841
D91DE5F1
1D16F104
FBF3EE0E
0239D545
120612D3
EE18F4F8
49460627
2118021D
FCF3D1F3
2634312C
CC16DDD4
262A3E33
4C1B102D
0BBA1F1B
0AE8F3FE
F247E0AA
2E0611A9
F60B0021
EC21DAED
1DB6DEC2
DEF610E6
05C4C71A
AE150F12
0DE619DA
B0ECB137
C9F3B317
41123423
E7D6DCEB
20FAAEF3
BDD71A07
07F13821
F219E0DB
2001D81C
15FFF12C
1EFF20DF
DC3CF201
CF1739E0
E5E62EEA
14F909D6
EE23DDC3
93E0E439
EC13D420
27101A2B
DE12E39B
1B10F812
1CBAABC5
E9F4E0E1
FC4DD14B
2309CDBC
1EDA14D3
2FF4D333
F7D9D005
A9F80FE9
C8010E27
CB0A114D
C502C709
D3DA1B19
DE0CDBF8
EABF254A
E5F10AD9
31F44CB4
F12910DE
1AE0FA0A
BD10E8F4
FBD8FC01
F01801E6
020DF5DA
DD0EAF04
EB071C63
F82110F5
2AE6F7FE
DBEFFF03
EF18F431
FD0CCF32
11EAFDFB
F82BC102
DE091E0B
C3FE162B
F119BEFF
1E0312FB
121610F1
F40926E6
0205F4F2
F718F211
FFFDFD0C
2BFCFB35
08DF15FA
F3ECE001
ECEDF5A9
1FCDFDE9
2C480EE2
EEE3F9D6
DCDED802
F1F100F2
0919F103
270F121E
2CA311E3
30CFF80C
E414DEE2
0D23051F
12C7F726
2636FBE4
CFF82406
26C4F5F7
CF18CFE8
C663A7DA
9FF05517
FADBDDFE
DE08632C
FDC100EB
AE4D1D16
F01D22EE
A922F9F6
042AF7FD
DDFF2400
F3C1C9F5
0218F928
F630D5DF
EAEB380F
13C50CD9
03F1EE0D
1D0AD1EC
28E8020B
F9F020D7
22022910
C2E925F7
C335182F
039CE205
E316021D
F0D726D9
253CE615
05D519FB
1A4562F9
1021FDF7
E104E0BE
FA0F1AEF
0409063C
FCF80CD0
27FA1EDA
0106CAEE
381431C5
D8CDE101
C3DACEFA
04DBC01B
244AB901
2004ED05
BC23D807
040C51FE
3BA7FFF4
15DF00F8
F7E5DBE4
E9081414
030915E6
0DD9FE20
F1E70BDC
AD18CD23
CEF61D2C
003E0528
ECE6D518
FF25EC02
17E7FBD9
FBBEE7D2
DAE4F0F1
DEF5E122
1B192F0D
D3EDF3E7
3E0E1BCA
20F6E713
E710FDDF
E5F0F312
2AC2E725
02DF01C9
F10BCCFD
03F0CAFE
4AE6021F
DE1C16ED
300716E8
0D1024FC
1DDC0C0A
0CDEE131
2818F930
1D033505
17240FF7
ECE4C0FF
ED1EE3E8
FD17073F
02DFCF02
F3F6E208
191BD300
E7F8C700
EBFCFEF3
F1EC09FF
EFE0F9D9
2E14270F
16BB22FC

