EE0842EF
C2EB07BC
4BED15FE
CEE70B18
EDFEEBFF
F6EBF8EA
FA2E12F4
FEEA131B
FF35C7ED
F305F2D5
08F70B20
E2FD12FB
FCE3271E
04113B34
0B082CEF
12FFFA30
20E3D8F7
F10EEFEC
CE00EA01
E61731D3
D3D22A03
022908F8
F60DFB34
F1D71045
F381C2E5
3801E90F
FEDF04E5
0E2BEAD6
E2C1F306
211507DA
FDC20CEE
01FFEEEC
FB48FD47
5206F9CF
E0050A12
070AFDC9
EEDEC3F1
08C4ECFF
FC2BAB27
2004E7F0
C0C642CA
D404DEF7
3625FE3B
F60741EC
D8E1E263
FAE64B4B
28F40049
EBF316E2
07EDEFC1
0A1414DC
2E29491E
EDBE4EC4
C7EABE0B
D02819EB
0CCB08EE
CBE90610
D119F712
19EBEB17
03FFD3E0
1D05F5DD
CEA2ED22
000D1E3D
17B8B437
2D0F17D9
0534E1FE
E9141BC9
EA2515FC
1201FAF2
235532F9
07D1EBFC
E029E455
071CF0C6
09F7E305
0516FFFD
1EB903E8
F205E602
1232F301
14F8FC02
C914E2F1
12113A21
0BC07318
FED030B5
DD2ADEDE
1DEF2BFA
F03ADF26
3B07E2EA
03BB06E1
1014FAFA
E800FB0E
BEE80914
10E3BD1A
DC24F035
F2A4D2E6
E60AF312
DC222E11
25081AF1
01071CEB
01090D11
F729EC00
DE20FAF4
110AF409
03EF4D09
172322DC
FFF62010
C8E2E5DF
01F800FC
01F3EAF2
ED08F013
F44A3102
06FC0609
DCF9060E
05FD17F6
1DF617E0
14160240
FDFFF50C
F8F6FBEB
29D7ED21
13F3ED1D
FE2C53D6
001D0AD8
1801DFF0
DE39F000
1F1809C9
01F5F7EA
F50BDFE4
16DDDFE3
0722FF21
1310EE06
135E2E15
FC083FEF
0EF5020A
0AFDF912
22EA3EEC
F33814E0
CF32C916
FCFDE3D5
41063BF4
081B001C
C701F2DF
F7E5E215
0ABE0DEF
EF27DAF1
39FE07CC
ECD6E7D7
B8F8061F
F53437EB
0A2F042D
E1DA00F5
081C08E4
11FCDFE4
BEFA2633
BEEFBCEB
DEF8EDC3
07D8C3D3
F5CD012A
10FC0CF3
DC18DCFC
0926FF0F
D317E307
1D100803
E00F0C3E
F1EC06F7
E128B9FD
15E41614
63551BD4
F5FE1C0B
0801C71F
1D190B1D
DF31D1C1
28F6D1BE
011EF0E6
00EC34F1
FC0ACA03
41EFE70B
0E32F11A
04141110
FF58DC8F
09E00D0C
0713151A
0D2F02E9
BEF50FD9
E1DCCC04
E2121220
DFEF33C5
09311CF4
E0C302E4
02553C0C
F4EE17EB
F4FBF931
ED5247D6
F91008F8
0A0204FF
1015DED3
E1D4F606
EDF2E7F5
2C4BDC02
DB183A2F
F9DAFFFD
0F38DB16
00F2ED28
C2563432
12D519FD
C0D8C529
1F27D5E2
D7F20BE5
F9E60D19
EFB354F9
27DC00C9
BE1521E3
FB05E41E
071C2710
12F3EBE4
EFDD0731
C52CADDF
FCDBF43A
30FCFEF9
BA1E4CF6
2115E314
0611F0D0
02E9F836
115C041B
15F701AF
14201902
0600F7E6
19F833CD
EA21FF1B
2907D102
FEF8F60B
0C110CFA
DB3537FF
F31D6103
100C1815
0A2333CE
DED0210E
270EB012
33FD28CE
199DE8F2
0011DD34
0A1403E8
0A1B11F4
49FECB23
CF0B1F05
A134DC2A
010BAB0D
CAA81C11
EAE40E1C
C8E7E664
F9F5F811
061D23DF
39F6FF0A
C743370E
E0FAEC00
F605F6F8
EA1AF413
B83E9E41
2416F510
2EE6EDE7
DA231008
FCFEF7FE
11EF072B
F815B4CE
0F19FA07
2C29E4F4
040C14E9
00C700E6
1D1B1004
2F21FDF0
15DFE7EC
1B31F7D9
FCE814E6
25DF1BF6
FF05E7D6
22291A14
0805111E
0CFE15EA
0312FCEA
F805F4EC
DF131D0F
F90F05F6
142206E8
0A0222E5
1A1FFA01
FEF0CEE5
FE091FF1
0603162E
23F5F907
F3DBEBEA
2128F3E7
ED36F710
E5EA04F5
F91AE826
16243C0C
CD43D60E
DA10EBE1
FD13E622
042AFD17
360B0715
FAF7FB25
F1F8D520
2502FA2F
D0100FE0
05EC0FCE
FA061E03
030F083C
03FFFFFA
E917114C
01F0F723
E51636DC
12D236F8
D1F6EB08
ED0E25DC
1114E8F2
2C00E4F5
DE130327
1CDEE1FF
2F25FC44
F505FAFD
F302FBF4
F906ED03
200BF935
E7F3F91D
1AB50EE2
F7ECFFD6
FDF739ED
2419810D
45F1CC22
DEF7F110
F504CB22
1417DA11
C211061A
09DF2CE7
0E1F06E5
08F41812
FDE714CB
DB0CEB09
EBCE4215
2A211B20
1A0AE8D5
0BFC0310
E3F7FBE8
FB1D1EF5
C9E8FB14
09FD281A
D1DF18E8
12EEFBEC
3D0BD910
E2DC0329
0216BCE8
BDB8EADE
E643FC0F
DDDAE213
07F9E1FA
39F214E5
D2F341F0
DFF0E42E
F6190C1F
F8F52412
FF1A170D
120FD628
CD271DF0
BEC6E1F6
B5EF240C
E91FF3BC
EE21F8B7
2717FDD4
1114F7C9
ED1800F1
0BFF16BA
E60A29F3
EFDCE90B
19FD28F3
0D3CDADC
2BE440BD
F5D6EDDC
10EADF02
C5F10A28
F6190FF1
FAE60409
D3F8EBD3
141905FF
1AE9DE16
2806FDB5
17D5CAD9
D2C900E7
0F1A1A1B
00DBF1C8
1AF5C447
11E2322B
CFF8E3E4
410513FD
FA14E419
F6E1F814
F05C3F1F
4DED0625
FDC60328
C4F90652
FA161C11
1220FDC2
CBC4C3E1
27E03306
06224007
D3EEFCFA
0C90EAA8
030FDA1A
0ACEDDFC
3821D60C
F0FBD858
DB39D4CC
EFF5DFF0
E2E7EADD
1611160D
E70EF9D7
18CAE208
FD20E705
DD27AF24
3BE52F23
E51A1E03
FDD31231
B6CDE632
1A22C6E1
DD1AD60E
D6F6DEEF
F6ED1044
11B90C2D
6610EB41
2B9E3C0C
DF000106
06C8DE00
2EE90806
29112005
15CAECCD
E42300E6
F8233E20
1FE71C66
12D9C013
D5F40BCD
D44431E3
1E3DF600
16EB28F6
2EDDF4FD
F302E42C
E9FCDAD3
E11ED6DC
BCED3915
21F7FA09
3A12094A
E5CAE81E
0F090306
F52BF20A
EAF007F2
FB1A52E2
E927F6F7
08220827
E80A161B
24EBE81B
E31137FA
D3101E2B
02F80502
1512FC00
1513F11A
3B371637
1224FDFD
DF2803FB
D9E8E7EA
0A020606
EAF002E4
1CF2F8DF
0BF5F02E
E5F113F6
EF06010F
F2F108F7
FC152005
061EC445
DA22EC26
F9CE26EA
F1110A16
FE150524
040112F0
17021201
E4E2E0C7
07D91631
DEFC1709
02E80F0B
EA0001F3
F2FF00F6
03FEECFC
0F2D0731
D30908C2
123624F8
0C4428F5
F514E81C
FCFAF106
EE13F107
152613E0
011326EB
041B0CF0
07E9F9FD
FD19080F
11F10910
C6C71A1F
0A0902ED
060AF4EF
02C451AF
CD12DD10
1C1319F1
2213E815
EEFA060C
FB140606
0EF40539
DDFD06E0
F2E2F307
D9D9F41E
FDC5E241
DAFB3BF6
FFC21925
0312060A
0302330B
DF240BD4
100BCA25
FD21F7D2
01C45B4F
17EE11E1
1F07AE1D
03FF0AB9
E7D50B16
1B0D221D
16DB24E2
FFF130FC
42EF1E12
EA29F821
19242137
0615060E
11F5FE29
F7F806FE
F82538E2
1F11E503
24D9DAD5
E10607F1
13E942F8
EEEF092C
0CDF392B
EAFC261E
01F3F023
F2E2E420
E9F61906
06E818ED
D8040812
12040AF3
ECC8EC0F
00FA02B0
0409F1CC
1C0E02E4
07562FFA
021E2D24
D405FAF5
2805F117
FBAEF8C7
F425EC36
0E0205F6
EEF6DD2E
0901450A
06EF0BD4
F5F8FFAE
DF091218
1DEB211B
12EFFE1E
1DCAF12B
FA1CD816
37C50CF7
02042AFA
F0F2110A
0BF6FFD8
03EAA420
0E2C01FD
EAECF410
E4150BF6
EE02EFEE
4E31F604
F9320CFB
BC11080F
14E116FF
F5FCECEE
E6D8FB0A
0AC9E6FB
173A30E9
25E7073B
FAF5E5C2
11DE1CDF
2D6EEFBC
32F6D28E
2D36FAE9
F8251DFB
08F4E9D3
F4F525E9
04EC43D2
E1E9AAC9
0ADE18CF
C8E5EEB9
FC5AFBCD
F8FD1703
2DDD2BF6
0700CAEF
ECEED2D6
0D052C54
F3D30010
F439C2CA
1B0A81F9
E01EE626
CA3EF04E
2BC906DA
0CDA18ED
EDD5E5E1
218EE9E5
FC24FFE1
F2F1FC25
221706D8
E9C90D63
56F418F0
FBE607F5
50F41219
16AA240D
FDFBF62A
50C3F6F9
AC19F105
F72C0CE8
F1E439BF
D9BE1327
022A1CC1
F7F20FE9
0BEA0D10
CDAA2B15
19E0C7F4
D6E228C9
1C1B0E16
E6E025DC
EC3209F4
E9E302F9
0216E5E6
04C8F2FB
BFF6B6F9
AB060C06
3905F83E
E7E7D9F4
08F106DC
CBC9FE30
09E0D4E0
D7D91E37
FAE4E5FA
F0F1251D
26EB09DE
F5ED05EB
1EE12CC1
C95E17FD
F823EF11
F00909F5
D90D09EB
0EE71B0B
17E62C0B
BE321620
05C9F802
D0DF0110
FBFEC1E4
DAFE26F6
0F05EA19
1AE1EE36
CE2DDF1A
DD34F904
0DEF01F8
3CAD2116
E9144804
20F41928
0734F705
09B5EA0E
C9FC06EE
06FF03F7
F4F5FD10
09ADF7F7
FF0627F0
D6E114F3
08F2E204
F3F006E8
EEF4FE52
D2CAF7E3
D9C0FBF5
07FD02C9
1FE8D82E
EB282508
1BD6EA09
0CFFED00
02FFFB08
082F2EC3
06D11AE6
DBCFDE11
CD4EBB1B
FBC53EF2
0AFE1FE9
000F0200
DEF025FC
F6F52201
EEE81739
FC20F30E
2047FFFA
22CAE0E4
1F17F1FC
EBD0E9C5
00282318
051DF418
F30A14E2
2A13E4E2
05FAFE05
17E4F8FD
DB070DF9
1C4AE725
2813E2F8
19D3FF45
0BE3E8F3
340F2516
2F42FDDB
2EF004FC
07E3CF28
0D4EFA0E
F5C2DBD3
FC00E9C1
EBE410F4
04DD170E
0F3F3EE7
0A14D7D4
03011432
D169BAC7
FC041731
E4DEF0E7
0304F120
DAE1031C
30E3EFF2
EEB8D8EF
3006E7E4
C7549CD8
FA0F0233
29350309
12E606FA
10C72BC2
130725D8
E0E00AF9
1BF52013
E6B30B00
E907DA10
1B7E0D2A
EF21F5D9
EF35F918
11F82846
FC3009FB
381126E1
E11707DF
FFF03327
1EC4234C
4012DA34
E3182719
EFF52CF6
C33FE935
0FDA1B36
4C011B11
CE0F051C
F436E4D9
E0F40EE6
0B37F509
15110EE9
2BBF2BB2
12021BF1

