38E1030B
D5FE0E0E
FB1600E0
5F0CCB1F
10BDE6D1
00ED2013
DED5E5FF
302207F4
2627DE12
07C7EEFD
12EFFADD
BBEDF613
14010C05
00DEFB08
F4131EFF
D81C1DF2
D116DE3C
150A1BEA
44F0F2C8
332421E0
CDFB1FFE
F0F90BDB
111AF61A
FF0227E7
2A0D224F
7AD7040E
154019EC
47F0BC11
2BF80123
ED1ED0FA
E7CA4213
21E231CB
E304031B
22D90BFD
281B3E3B
23EC0009
E3FFE83E
0FABEF25
0F1C1EEE
5304EF21
D51F29F1
4729EF34
0DF7E937
E7230239
CE24EC23
4D30FACD
111419DC
26270007
F60E01F7
FECF0317
59B91C0F
EFDCF5C4
11EAF617
E6F81EEF
1BFF01FE
D6FDDF14
1600F818
D4EF1808
C0FAFD24
0E3E0C42
C104E7E6
42061B13
26E51EAF
0A31F8B6
E2DC48F2
F22F01EA
170EECE0
DB010C24
330FDB07
F355F5E3
FD1B2CE3
F0F50FDD
D4FB3AD2
DE06E41B
2CEAF8FA
0E03F6FA
F208EA18
F5F80B0B
F610FD30
0A14FA06
1906EB1E
1511E0FA
EFE029D0
E53018DA
30F6222A
090D02E0
F3F706DE
1FEFF7F9
DF0508F3
13FCFFC6
20FC17E6
064FF31D
FAECE909
1AFC0502
03370B2F
11FF1E3A
10F3F108
3D13061B
1005173C
EFC80EF5
E200CD03
E427D7C8
EC09120E
E839D721
E4F13218
6BF3F425
0B3C0514
E7353607
EFF9CB25
F3250EEA
E5D610F4
32DB34F6
0B21DFA5
21F6141E
0D11E610
07FB0300
1D0DD4E5
06F6183B
A4C42B10
F5EAD3F8
EEE6042E
D4B5F1C8
02EA00D7
28220B04
CDF9DCBE
1D0008D9
F1E2F2ED
2CD610E9
E5171117
072901D7
F0E1EC17
EDD927F1
E3152703
10D00AFB
340112BA
9D20ECF6
D102120A
11DF2A02
16F5DB17
E6010707
B205F614
27F1F7DC
1132C611
21D12200
C4372CA8
EFDAF70D
20FB3F19
0FF408E4
134006F6
CCF3C00D
27D415F7
F3B6F1EE
2DD7F61C
06040802
03F5D44A
35F209DA
F00819FD
010B06F4
12FCF9DE
150203EF
08D81824
2F04FDE1
2CFF38FB
17341604
BB00F223
F9C52B1B
F61806ED
2700D101
09E7CAFF
E0EBED38
4028DDE9
F1D4280D
ED0E092B
F3BE0101
E62FFB28
75EEF6E2
03F0E014
26EFE427
C82AC8F5
1C04021A
3CED19F1
35F8520C
F0FC4EB5
300FFEE7
2CE2CE39
350516FE
370AEDF0
1304C904
C72D20F5
BC22E114
00E4F130
E0EA0D0F
E836B605
1C3B0108
EE07E4DC
3FE93DE8
04DC1436
FA30F8DB
23E90CF5
E8121D0E
EFECF6F8
021FFBFA
ECE5CAF0
22C808E6
2A14CFEC
0A0025D8
E5F82CED
FA14270A
17071EFF
1327B5FC
FF0018F5
FE08E2FB
CE1F2CE9
FF15EADF
DB040207
F4FAEE0F
08CC013F
33D731C9
001001F9
F50115F4
2DF5DA0B
070009F6
D8D31B0E
CCFBFFE4
20200606
E10035E6
14F60BE5
AF3DD104
40D6FA11
CBEA1DCE
39F55122
FCEE11D4
23E01D13
CEFD2A1B
FFF6E6E6
F0FA0905
E90FF131
E616C7F0
F1E0FCF9
43D9140C
2D1B4609
F813C728
06ECF00B
DB19E2D7
C441081D
045BDD25
A5FF1AF9
C4EEA71A
B3E3F6ED
35F5171E
0FE412C5
2DBD3732
36FA32FC
E717F8DB
DEF4E6C4
CCE63BF1
E1DA07DA
F31B13FA
E72C07E6
F6F90EE7
1F0CF8F6
DF06EAEA
F0190DFD
F3EA0D14
DE12FBC1
F03721F0
EEF817D6
0412F106
DE0DF4DB
1CF81F05
FACAE9FF
48F5092E
F4C40413
2A08FCE8
EB110DE0
18140ADD
040EFED1
F501EA0C
0EDF11E1
D8FADE04
0601F807
28D3DBF7
E8FDF5FC
38F9E5E0
1E3115F9
FCCC16EE
F8FC0009
F4ED0B1E
0A02ECF0
CC12D91A
2C17EF3B
FDF1E0F6
ED27E527
F42EF412
02E01824
1626120F
0500ED0C
C90F0CF9
EB080C19
E6FBDFFE
EF012336
140FEC2C
F3110917
F4E01708
02132F0B
FB0304EF
F2020DFD
DC16211B
DCEE150A
0711E8F4
3E1BDBE8
0ED41104
33F5FAD7
FF1F1A03
24F9F6D7
0BFB59DD
F40420EC
EA0CEDF8
0813D021
FE264002
0B1FFD0E
42E13506
0CBBD126
C1D31020
D9500DE1
31C2D729
E8EDC014
BC160D51
0A39044B
E80624E8
FA041011
0F124D01
FFFDC428
FC130306
F513E604
01D4F6B5
122E2E23
11F90E10
2FFB24F0
0E0E0ED3
DF08CC07
F5FC16C1
0003E2BA
25F10000
EFD90364
60301E03
D70FD2FC
C8262C0A
0FD300F9
0517D602
0AF30906
12B60832
21115BF2
3CEFDC24
230210D8
DB04060B
CE1C171A
DDFC2C04
04F517E9
EC212EE5
4E243212
F1F01511
E5F108F9
06E9F9B5
E705A8D8
373CF064
0E0CF600
260BF2D7
FF031DF4
12F2F534
E7BC2D17
5045B8DE
0F2AEFE3
EDC7FA7E
0D0D0C05
FC0844CB
CE151F33
032800DD
0106EC18
293AF60F
F0E40324
DE11FF09
D0DA2714
EA502D1C
13E8E6F2
C2053C26
0B1802E4
E5200408
F9FD05FC
D21C0B05
B4D5DFD4
EE09DF15
53300B0D
0639F543
FE0CCA2D
1B0F1AD4
11DBFDD6
1616F3E3
040EF014
440E18EC
D2DEE2FC
12EE06FE
0F0D21F2
F6F52A0D
1AAFF2EA
0AF21CF9
FAFFFC07
15C9DAE4
F0F8F1F6
CDE5EDFE
EA20E5F6
E62C0FDE
0903E805
F2DE0B0C
F9331903
FEE33E0D
F40A0501
2C26CF02
CC01DE0A
2610ECD2
15C3EEE4
1867D0AC
F8CD0C59
2AFCF8CA
0718C738
C7F9EDF8
1CE60C0B
E52EFFE8
FE0D0AF8
E62ED40A
17ECDF38
30402FE9
01F2093B
0711D122
BBF815F7
3C3F1210
13E4163D
F43A00B7
1D3BFDE2
F50ABB0E
C8F210E1
C6D505ED
3B210B36
11470D1A
E8D912F7
EDEA0FFC
FBDF36E0
0819B10E
0426ED10
E7F909CB
00111ED0
EB0C1B09
1FFD1EEB
1207EFF6
FB03D70C
0120EEF7
D904331E
080301F1
DE12DAD2
030A0907
2BE8FD26
0FC61D12
3D1DEEE5
020E0CDF
FB03ECF9
F307F819
FD070DF8
D7310EF4
CF1EF52E
F3173306
ED0BF8FB
F215FB0A
E1E3CEE8
F2ED0A2D
F5082D00
F2EDF103
211CF6EF
F116FBEB
13FC0EE3
E61EFDFD
18F3FF2C
FDFF00D8
FA01FCF2
16E2360B
E2E406F8
F8FAF9FC
161F3800
C9EFDFE1
0101031C
E8F9E2FF
FA2507F3
250DDAE6
FFD5CA06
01FBEF05
21013E0B
27DA0734
FD073D23
DC14EE04
F4FEF6FD
191C050C
FAEC00F0
060915F9
FEBF0EDB
F9F50204
18F8F001
05F4E8E2
0C05E50C
E0030202
19110DF8
E2F607D9
F10DDFCE
0B11EFE2
1BF51AFE
02DFE009
E71610E5
13FBE201
E7FE3A09
5B07F817
021D0AB1
211BE708
22F4F032
2AB32B0F
2BED11BD
EF2DF313
3627F544
0920E6FE
3417F3DC
FC3DE1FB
F7310E24
E6D0DE03
110D3300
E1EF26EA
EB0FDC0C
E407F5F4
22E3F1FA
10011009
29D627E5
E6E9ECE4
1A041A0E
180714FF
ECEF22C3
E148EB05
47060805
EEFCE24E
40F5F2EC
0EF7BD0B
D6D9ECFD
2506F716
CAE1E0E0
0318EBE8
F61ED217
E50D0DC7
250EF502
F843F41A
F7F2142D
0BD510E3
F6FED0FF
381DE630
AB0AEEFC
DC0736DE
EA030B27
1FD7EA0A
14011526
EAFC07F3
04001825
EC02000D
01470D1E
1912C700
13162A0D
9EEE031A
000417F5
D003C31A
E5140DF6
D4E1E805
0B0BF515
FD020319
62C8D2D8
C6D6E1CE
F900F30B
BB16F507
D50001DC
FD0E13C9
06D1DF23
1F13F71C
DED1FCFC
8FDBCA0A
22030110
3A0CFEC0
FCF93D39
C9D3F61F
0DDFDBCE
ECFF2416
02C74243
3905253A
D2C74231
E508D2F6
E3DCFD1D
3BC459F4
ECE7E619
F0DAEDE9
32F20CFE
20FC0F0C
F007252E
1F1009CB
C4EF5304
E104C634
E6F42B0C
F832E7D4
F91BC625
C72C061F
0BE3D1CC
2B1ECFE6
2EF9F908
A74BAE22
39F305DE
A864E9BD
C813760F
03D305BD
1ADC03E4
D523BCEF
06ECD357
DF370321
3705E8C2
21FD2247
17DAAA16
2D16FC23
F20CFCD2
2017F53F
0CCB14D8
04F3142D
DF08E709
083023F8
C349ACD9
122116C5
EAF725F7
0515B131
00290D0B
FCABE31F
E4D2E7F8
15F5DED5
EEC325D6
D0F4C621
E301F71E
23F201F6
C6EC3518
3EF8D715
0FCA004A
E4D20B2F
EB0302DF
DCCA9504
121A1119
E1190E1C
EBE90036
05E50BF5
FEEDF617
05F50DEB
FE260B31
44F11829
1CF4FA0D
18F4E53C
CEFF0F37
20E41107
DB1CF5EC
390104E9
FB0EEC00
0300BF0F
D2FCE5FD
0211E3EF
EEEA173D
E2FD1DFC
112ACFF9
21E310F0
FAD8FAF3
0510F2E6
EB040E1D
FF1FC7DF
1E0300D1
C9041AD6
04FCED30
FE05B508
FD3D07D8
19512301
3308F029
0F26D109
BF161E1E
12F2EDCE
0AD91718
2B1F08D6
02F71AB1
F80B0F09
D305341A
EC1FFBF6
0FF0F809
C7FE00ED
DFEAF80F
31F3F0FC
06FB18EF
0500E5FC
0AE6E6F2
01D40200
0EE6E21A
EFE7F6DF
28EF19F1
D509FE08
EFC61010
320BF9A9
1246DA06
FBF004F1
17EED3E5
ECFFFE16
0D2CE4F9
BDF63219
1B01E534
E5EAE70B
30D422F6
E6DAE7FD
13DC0C2C
EEED04EE
08DC03E6
15212423
C7FA0A31
F7E1D413
1B2EE637
16CFFE24
ECCB1A01
E6FE111B
0706064F
37EDDE36
BA193340
C3C1F4F2
23E612F3
DF3803F2
19F8D9E0
2822C0FF
27CB0B19
41DAB8F9
0311231A
BF0A03E2
031DFDED
DF2905C6
02F7FADA
11F9C902
190CE51D
D731EA26
0E0A2B2A
161AF4DA
3026F3DC
DEC1E1DF
08EB35ED
E6110500
06E80A0F
1C1A0600
E5E017D5
CD20F2F2
21C205EC
24FA2BE9
061204F6
B321E630
D3E0112D
EC17FD1C
211720F8
0EE3F9F9
DDFAF63E
E5F0D7EA
F0E407EC
10E80DF6
DD00D813
C5B2B4F8

