0CB4E4F5
DA16FED5
FC1ABE16
F607DE1A
D4EE1B09
FD2BF9E3
CF09E80A
07302C25
C0F7F7D7
D63626FF
27F8CB1A
F532EA39
CC6F0EFB
D804D5FD
264B071C
FB03F5FB
BF540C0D
E63803E0
2CCBEA68
05024FF9
DE1FF6F4
30091AF1
06DAA10D
BDB334CB
F612E105
E0F4FE1A
FA32C918
07139BE6
F215262B
1FB3EF28
C1FD25FE
0F24C3FF
06FCC7B8
2DF51614
D2C3ACFF
3A1002FB
EFEE1222
2DD3F249
E22991FF
2644E402
39240226
26CB2608
040AC120
D6EC22FF
072DD9EF
FC1B1321
3AF144FE
1123CF29
F810430F
F1F52BF5
18FC11F7
F9050900
FAFA052C
0DACC911
14C6F2BD
FBFCFF1F
FE0D1B35
CC17F0C3
C400F0FC
DE2814FC
EB10E7EA
3F953FEB
F6FA68DC
DFD2D34A
051A00F9
0B38FD0C
E417FAF2
FA29EDE3
FC01DD00
22E0FF06
FBFB1ED9
E2B720C0
120DF5FB
1208E5F1
0EF0FF16
1B0B0F1C
0E0A0C0A
0915FDEF
000AF1E4
2BA0D405
22DF280F
05D91016
E1C5FBED
1EF2F83C
041214AD
FDFAFDE7
EB17EB2A
BD24EBDD
43C1DB12
49D12023
F1C2D801
233216FA
14EBEB03
D2F82215
09EBEC00
F30C020F
D047D703
17E3B327
F415D50F
F2E5031D
D3D2E5E2
CD2A23DE
06160EED
27BFF6E6
F6B6E52C
220B02DB
FF05D442
E91108DD
0EF72208
0A2DF2E8
FA2E1DF1
27C10802
9EEDC0F7
5E7E071F
12E61CF8
153E2DDE
35212AFC
FECFF713
00E6B8F2
21F51013
1D0D0302
46FFEE0C
F1F202FC
34F1DCFB
F213DE00
1239CDDB
D10C1A4B
F617E46F
18001501
ABE3F71B
32E6B508
CE142A17
DBE0F1E8
1A1013FF
3A0DEAD2
B7DED8FD
D31650DD
F703E2EB
1AEFE600
ECD0DD08
E7D102D7
251636F5
A5EFFCE1
2AE81307
4FE7E90B
F7CC2EFC
EB0ADC21
1CF522EE
21174537
F636EEBC
4D2C20EE
2ED80BA6
E1064706
FBFED3FF
2FE73706
FED9F50C
BA1CEEF3
C2F80E60
24282720
C514E714
3EE6CA09
14E5C00F
EB07CB06
E3F7EE1A
0E29F321
50F507BA
02F8B52B
0E1AF62F
351310F7
DF02D528
12DF18BA
ADBFBEF9
C50F89D3
A37B18CA
4FB947E6
F142EDEE
FFF6DD0B
2493ECB3
EB1B5706
2740102E
21FC051D
E30D0A03
D20B5EFC
3DE1D224
2F330F2F
CB28EAEB
3437D706
16A43AFF
07ED18DC
1D2C062C
1D13EFD7
DFF0F712
30AC242C
F034E2FE
41D62AC1
DF0BD6F9
14EF1503
E23616F4
17220D04
1102EEED
CE0225D1
DDF52FF9
0D1BE722
15EDF20E
F010282D
30CBFDE6
043427F7
3D12FAF2
05F4F6E0
D20EE3E1
441F25F5
0BEF35CE
1CE6DC2B
F93CEC31
16EFCCFD
E7120A56
29F6F704
10691881
FB3335F7
43D221D8
E721D31D
D31CEEB3
4C20DAE5
10121243
C6352FE3
45F6FA5D
D80F16F5
D701D7A8
F3E6BEE3
D5FC01FA
FA0C0E3B
15E9F002
E7EEDC8D
EC02FA05
D5112B0E
04DD14DC
0F32B319
E21EF8F9
0BEBF1F3
E5C63AF5
DEE8CE05
F5DBF703
E90FEB0B
2122372D
F619FDD8
0503073C
ADA3EA4D
FC4AD5DE
12C3FF2A
1DD30DFC
FF20D624
E02E23E3
181101DC
031E0931
15F6272B
002DFD07
31460CFE
48CE06EB
FE2DECE9
00EEF2D6
E3FF1301
230802ED
0815120E
D5F7FBEC
3C14F41C
D0241903
FFA22545
0A0819DF
F818F9D5
210F0124
1C120AF2
0C11FE18
E2FCF400
0ADB06E7
100DFF2D
C3E8EB1D
FC12E1FF
3419DA0B
F619E2C7
0005FB04
022DEBFA
F70DD9FA
E143060E
21EF1A1E
ED2F092E
E2FB03E3
0D250C48
310C11F1
2D0D0EF9
1FFD2C44
1DC1C026
F60124EB
1A18FFFE
FCF7EB28
D7D607E6
1911F0E3
08030408
11F6E8F1
F9150319
FCEE1121
08F1CD17
CFD60FF1
FA1F05E8
FCD708DF
F9E2F711
EBD510CA
F31F25FC
A522F1E4
F5EDE000
DACEF01D
0C05C8DB
E625FC3F
15F23EF2
254C3021
0FE1F7D2
0E10DADC
1CF206F7
19E30FE8
060B0A07
E5FEE9D9
F01A3035
2517DBD8
25F027EF
162E2BD6
DDE3F6CB
1616F1EE
E1EF0A02
09E7F318
3115D2FD
E404E9C0
E429210E
371019E6
161AE150
52E80330
D6F307F4
2103CF03
F322F901
05C8DCE9
06FE07FF
081719E3
FBFE0211
D8EA06EE
032CF20B
D41426FB
0C1217FB
F74019FB
07C719F3
061CBB46
03052AF7
0EF6112B
08050EE5
011AECEC
D0F3DBF4
05DADB19
09E6E915
DE4CEF1C
30FBE938
F0CBEB17
18D7C007
E9232714
FD1822F4
0CED0F0D
21140E06
F70925F3
FCE0ED07
D924174E
FA09F41F
0D4E3327
28F7E2F8
BC31DC0A
2519F9FD
FB1F1CE9
F302F2C1
1743D519
33DB14DB
143317AA
2844FDF0
150C14EB
0DEA272A
04DAA4FE
D3B7490C
D5B3DA0B
D6FCE40F
FC07E6F7
1B41330D
08BDE4CF
C0351129
E1E3E6C5
22700D19
E94BDC1C
36CBFFDD
C1D43929
F1150716
0804E640
22142BE1
EB2A17B9
0E022CE5
36FB08D2
FADF0721
94521303
1E0338E4
097EF712
FDE73AE4
DA27301F
030B0ACD
E91F0810
0E250718
EC00081E
1B33FAF6
FFF831EB
38B93342
A8FB3628
E41BD4E5
3134064F
0BF49EF0
C00BDCEF
FAF1140D
F819F8E8
E7F00C10
E01B1B43
16121523
AF160BAC
0506C8F4
D7092149
171BFF19
12F006F1
29E52655
1A1A02E5
F1E20D04
ED2DF313
FE1317E9
CBE81DC1
DFE924E7
F61F0811
111AE6F1
101D036D
A6E4FD2A
05E2F3FB
C70AD6FB
FEB8FDE3
DAE2FE1A
D40C13DB
2DE2D1D6
EA27E8F4
E6040C2F
0B301BDB
A63D0CFB
34340DF9
150B0EE6
F2F205EC
F3F7F4F3
E0101FF4
D9BCD025
D025E021
0DF4E7DF
F20AF40B
F909EF12
FF1007FC
FD010EF1
24FAF80A
FB02E90E
0C3406E9
06140D1E
E9F60D01
091CFB03
041107F8
D4EB2506
0826E421
E3000402
FA390D12
0C140CE7
F58716FB
F9F2F21F
E6F8FAEB
31EA130C
D5030520
1219BFDB
1DD62908
EC22222D
F4E801F4
EAF202F7
F7DAFAF4
FE0AFD10
FF09F104
0BE605E0
0818BB34
C39F3AD7
2B0CFC16
EDEFED00
0A0FF338
CB2221EA
5AD304B8
1E043AD7
0833F219
FFFAE1FE
0705FAFF
EDFA1201
0413E9F4
17CDDC00
3931D7ED
F20DEE00
F20BFA25
0D0E0502
ECD618E4
00C1F7DF
EACA2FEA
020D2E1E
FAE100DF
06060C0B
FD101BF9
1FF60A3B
D0F023FD
F1152607
2A12F0BC
1800B41A
570EFDFD
1414D508
DB070614
21EBF525
E7E00BE4
ED0E1512
10EACE07
D3CC330B
DCFB0CA7
B30940FF
DF1BD0EC
0F3DC00D
D834FBEB
DDEC1031
FEF9F5FA
07F94714
08310E19
D710B30C
D1E6F328
02D002F7
B7E400EE
DD060CF0
1E0EC603
0A2DCBF4
FDD10B25
E70C37E6
1D250625
1E321C08
D3B90AFF
E824EAEA
FAF6E801
1D0BF015
E9BF0206
121EFFE7
09D6F2E7
35030BF8
ECADED38
CBF429EF
CEB9F6CF
FBE2EA16
33FCEADF
3917D910
FDC72DFE
25E20B05
E6110B06
DB2A15D3
1305F406
D817EC40
4305F8E5
CD1ED921
0E20E730
3209DBEE
DAEE0B20
2C2EF1EC
E404ECFB
1A01EBF2
14C510DC
FE08FEDC
D6EB0601
08263AD7
BFDF0943
F001E802
0CE21710
F6124101
1A09E6BA
0FEECCF8
0807B429
AA523F1F
3368FB0B
FF0ADE09
14EC0D0F
61FB0C2C
05C4F394
0AFDEA09
DCB0263C
3F24CC23
2BFF0900
06E7E1ED
3EA4E9F0
093A242B
D528D5BC
28FB13EA
4803F7C1
061B2725
09E93305
EDEA080E
13BEC7DE
13E835D5
B341D4F6
31E906D0
0CB5C30A
3ABFE6F6
D3CE50D2
070AB92B
E30CD0FA
37C40B19
471E9655
B70A12EE
6AD7EEEB
B033EA11
DE0D01E2
4D3121F1
0AC51034
3A080D1E
0FD71910
C4FFFF0B
FFFE16FE
15DFC0FF
F6EC2B28
0E04BA2B
1D2F4218
212C020E
0917C5FE
D2EA62D7
A820CF00
4928FDE8
D226E004
3127D4FD
13F01BB0
0CE5F5F5
0F21F20E
4C1FF53D
0251C505
DD141E1A
0027D4E5
090B0F2B
F2142BE1
DE08D72F
16DF2CFA
1FEE4354
0DC8DEC3
4EFD0110
D9DBFA3D
E70F1F14
D4FB09EE
0217F3F0
0CF90104
EE2323E2
F723C1E7
1004C639
FC071204
130B0C12
C1FBF30E
FC1D29EF
181E1200
D5E7D6F3
021C1DEE
FF162FD4
A41F13FB
1C2C0EF6
06DDAC43
252005F9
E6F60CE9
002F1D0D
EFE91FF6
45CCD4DE
32292A46
D244FC0F
CCF4F21A
F1E9C321
25E6F0E7
25E224CA
42FD0704
35DCE0EA
1BFBD24E
E23EFC15
E1FDF9CE
ED031DFB
0EFD150B
FF171AF9
0C11FAEA
02E10CF3
18061322
0DE226F0
202C14FB
C11AF41E
F4260FF3
141305EB
FA370ADF
F0E2F112
33E20A0F
B83FE720
2411FEDE
F42FF80A
FF06E017
F200E60A
11421BC1
30E5FCE5
1810FFFE
FAD60A01
3EFE36CD
2909F01A
E21D070F
F00733F3
1C04B220
CDE25C01
4111EB0B
F821FA22
E215E324
4C0A0903
C11FD3EC
F30126EF
00B903D7
EFEED0F6
FECD04CE
0020ECF7
4AB003F1
0AF1F5CA
420308F9
FAF7E309
F944FB11
F208C8A4
09E704ED
3AF902EB
CE2106D8
31FE0EE0
391413FC
EDBDF5F5
F5EF38BB
F8FC1E0F
D14E2E9A
1948F8FE
FBF01B07
05E2EB14
220E0010
2F09FFE3
E631001C
0BD2C1E1
FB330903
EDE5EEF5
1717E5FB
0FCEEA0B
F0C3E8D6
CCD22903
B81DEDD4
EA35D2F2
C63F1A07
01EF9114
D33BF82B
C629FBFD
31DEEC19
291B1209
1C0123D1
271324FD
0DAD2A07
D1FCEC2A
DD0440F6
EBE7F11C
05DD0FEA
1FE4E507
00C1DE01
2915F342
32E4FE4B

