4B54EFE0
E20A0245
1EC9E5E4
DFDE08F9
28CEF72F
1EDDF5A3
07EDE81A
E5CBFA18
17040AEF
440FF222
1413FDF2
1AEC07F6
DFDAF00E
C6131CD8
000E32FB
1DC10E06
2A37FF17
1FCCCDD9
F00BF213
2EF733FA
45F10035
E6EC2513
DFEAE306
FBE0DEF1
3AFEECBF
E6EA0716
F30B2BF4
01380DAF
CE10FDE4
54341418
FAB71ABA
55E8FD03
F8FD051E
0FF64BE5
20D7D913
47FCDA09
A91B4119
F5DC07F7
11F2F3DA
E7004A12
29EFD027
074FB404
2FD61407
1220E8FD
E6330DCF
E305FD18
552613FB
F7C2DDFB
05F025EA
D9FB0C1F
E9B055B4
F4D9FDE7
CCFE00DB
EDF40CC7
31F0F5FF
E9F30D0A
CE02021B
0AE4C2D5
D52728EF
CF0C06D2
1BDE03F3
EEFC0B0E
BBC1DC16
D720EC11
03E10418
EED0F22E
FFFB0C03
15DBFB0E
16990B17
D215EDF0
21E926E9
DFF8FA11
C73AE6E9
17CBF3C0
08160E1E
FB1BDA2E
0DFBF908
0E0211F3
0DEC1D3C
07E6F4D3
D9BC080B
D735F1CC
F7B63428
1FD227F4
CEC5F7E2
164DB0BB
0200EB08
FD10F719
FFEEE601
29061314
1D1105ED
13F223EF
F80C2D07
EF640606
1940F039
CEE943E1
FF0F0D08
3AFEFBE8
04F810CF
FBF01A03
F2F9FE1C
2C5FFFE5
1BF1F6E8
3D2F02DD
27F43A2F
D4FBC6F8
0FF2DA13
160AF2DC
10EF01EF
080E33FF
04BFE23E
DC2FF32F
06041D25
1BF8E613
F1EE13EB
FCF8F309
E9E9D1E1
0E0143EB
F21E9E13
09F11B29
EF1EFDE2
F6B39CF5
F7F514CE
FB1736FE
19D00CF8
20F30803
E7F703E7
DF32CB17
0BFB0515
2A0EF8ED
0F1D140C
F51EFCF7
F910FBCD
F1F0E623
33CB0C04
FA2633F1
EE3A0904
1F0DCE35
F3F8F537
01F6E8E0
31F71114
3C09A0EA
22F61F23
E022F223
42FA18CD
F3ECDC42
26C0EBCC
08C6E31A
E5111429
F71C381C
10EE1CD1
1C04F21F
E0E83F04
1A212EF3
1703FE10
382B1D02
030D2E10
090CE91A
06D2F810
101014FB
F71113F1
11EBF3FA
2DEC063A
C8E80211
E920400C
140E0CE4
02090338
FDE8FC13
EFF30134
3FFB14E5
CD18DEF5
E9D3F22F
57F117FD
F43338CE
F9140125
0F19CAF7
EA110801
24F7EACD
FB270A54
1EEB172C
22E30EC4
02D4E3E9
25FB14E8
B4EC04F1
EAD0A238
4649260F
0532CB0D
19D2E3FF
0233E502
E0F4DB1F
EB0201F6
E9DA13FE
CEF9C6E7
11E40111
19F6F4CE
CB23F2DB
00141905
0DD7FB00
53F60AF9
0AE604F8
18DED201
EBF306E5
EF00284E
C2ECDCC8
1EC9F8E3
08119DE9
1A23A327
F4860901
01EAD6ED
FCDA0533
21151202
DF2515E5
011718F4
DB2A01E7
E5FCF7FB
C5E12B06
DD09FC5D
AB23CEFB
00D9D909
F115A3E5
282FDD1B
E2D8DC00
072FEF0F
0A12EDE1
F7BC3115
311081F3
50D5B504
1613324C
06182216
3AE643D6
34030F3A
66E6022E
3807E226
1B06040D
35F4F0FA
DFEED638
38DB0406
F83F120F
E425E717
22DAC3C0
EC4B1526
12EED62A
E2F135EB
0710211D
3344C21D
F915FBDE
DA3C250C
E205FE2A
F0141DE1
B9FFE4E5
0840FF0D
00C0F2C8
0F181C0B
1807201E
E1DD1118
CA0CEB8C
FF0EF003
0ADBF023
07F21D01
EA470009
001B2C01
D9200CE4
151F01CD
EFD909F9
1407E8F8
F9C0E015
E1291521
00D629F6
16E21C1D
D10FFDE8
020B1E0B
1EDB2934
10F7F915
16EFEA1D
D5E60E0D
0005EB58
F7CDFD00
EF06F301
11E211EC
DBFDE707
3AEEDFEF
F524DF1A
0AFA11FB
00231DFC
0CF50D24
1D030BC8
15E31013
0617EEF3
3BE2EA0A
04F507C5
1BBC030B
140EE2AA
11181EFD
2DC5CCDD
F50605D6
B61B0533
0F12DDE4
1F0C3625
15C916DB
FB0ECE21
112406EA
F9EB15F1
F50B32E6
0B180F14
FC350D21
FC071412
E31A0B1B
E72AD811
D70008F3
FCF50E00
17DD0909
08F8ED2A
CCEDEFF7
29CA14F0
2412CADD
0F1BC0F0
E20BF3D8
10071005
D6EAD906
FDFD0815
ECCFE3B9
F84AEFCC
3503AF06
0FF716D2
CAC44832
0313E92D
F3020FD7
821F1E15
152E27F9
BBD4E5F4
E510293A
E40DEE25
FE1D0CF0
1215FC01
B71C04ED
EC23362D
FC0FE0F9
1CE6F428
182D43CC
DFF4FAFE
E6F7090C
18EB05DC
D717252A
D5F70004
03F63661
D1D42BF9
DD120423
1318DA36
2AE5E94B
DEE0180C
0A100016
0B31FEC4
E8100428
0FDA3FD4
12E218F6
F9F62BEA
D8C9E913
22B9DBB6
EAF62FFB
C9EE2F08
ADD1F1FC
D0E912F8
17FBDBE7
4C02012A
15EE180A
0E22E9BA
E003EAF6
13FFCCEC
010CFC29
ECDAF7F3
DD15034A
FBFCA6BD
F520E03D
2602E731
E2DE44FE
25151C2D
C8F33DBC
0205D527
2B35E7ED
AF08101F
F7D8E527
9F08211C
20333FFC
0AF007F7
16F4313E
CEDB1BCE
F8DCDA3D
FC0712E3
C803FEF4
09210D09
CBF3E4F4
C6F4D0E4
AD07D323
213510FE
F3EC0E2B
DAFAFEFA
E31820FB
DFE4F419
F01918F1
9FFA0820
D7CE19F5
B128092D
D925F6FC
C00FCBD0
EB052840
260CF7DA
03F90672
E0073916
0EF83519
2F3AFC21
EFF608F9
EE09FD04
120A201F
180CFC1E
F31C2BDB
19BC21D8
0F03F327
EC19E821
CDF7F205
0B18F5A2
0EEEF505
E812E3FA
24AC00F1
B7DAE3DD
EFCE24EB
F5DAE4F0
E404DDE9
23D2E0D1
D7FB07B7
E8C8CEB6
FFF2F3FD
E119D0F0
DDC7D9E7
0C14E52E
1B1BDD12
0BFC0D07
DA59EA09
BFE411ED
02E903CE
D91A06F5
C31EF90E
01F4D6F9
11BFC5F8
0B341A3D
1119EFF7
0DD31932
F40E36B4
F910C2FA
E923F4D3
EDF51A14
F92FFDEE
1C2A2406
FE1507DC
3328E8FF
0F01FDED
04C203F7
E00811E1
F6D40D1F
04F015FE
EBECD2FB
00F65116
E9E4FA3D
C9192213
FD2BF914
011F2929
F0F1FA16
FAF0130C
0EF906E5
F6E11603
0BF523E3
17FBFCFB
1C0A00EC
24C51606
09EFEEC3
08FA020C
0619EBF7
103000F7
E01E1012
E404F605
F60AF3FF
E20513E0
EDF33EEE
0C0EDFEB
03E4F1FA
12FC29EB
F5F4D8E4
1A42F434
D50DE418
14EF06EE
1DF72364
0C000A08
FA0FFBD0
0F2A1EFC
03E50D06
0BF24611
37081BFD
050AF3F7
F5EB0BEE
03E2002E
182126DE
1BED16ED
DFF9131A
DCDFE6E2
BE00EF01
110317F3
03EF060D
F81017FC
E4D20F0A
D6EEF61B
F3F2FF0A
1A2718E5
09F7D5D4
FDCBEA22
EBF51937
074214EA
030C08F5
F23AFE28
C0D9E60A
D3F903F7
F7F5F408
140F09F7
201501FC
2A1100E7
F3F4EF34
F8F62A05
DA19BC38
F203D7FF
1FF7F211
10073C15
19E02851
0ADDE525
FBE3F207
00070DE4
05D3D413
F8F82F0A
F6091AE9
2007DB37
FF0D03C6
22E1222C
F2FFF73B
FF01B503
05F9C22A
1911F5C5
111E0FF0
EB11F8ED
201D0E1C
0D10EF1A
E6F7F500
0F141B20
00F4EFDC
FCFCFFFB
F44705CB
0849201F
110C2707
F9ED02FB
F115090B
F7D80D34
FFD2D1F2
11B245FD
BA350223
1501E24C
69ED1903
F8111123
F9E3E4DE
FAEED6E8
0C01F5F9
1BD003E8
1B30FF37
3097E6E9
EBDD0316
0BF800FE
231341E2
E2DED6E7
0012FA0F
EF1F0CFD
09EFF420
E503F30C
16F41ECF
EE12100A
36EFF211
09EE0806
FEE429E0
E72251F9
3EF2FC02
094217EC
EE2159EF
0CF6F2CF
4411FC06
0AF9D4DD
EE4E23DA
E0E36105
D44B01A4
EE0DF4F9
E43CBA01
42CC3109
29D7CFCE
EDF13318
33E7E501
E239D3EE
3AEC224F
2044FAE9
139C0208
F335181B
E2D5E30A
FAD3F5B7
FA46261A
0706E6F7
F7E229CC
C40E1419
4933B1F7
01D0251A
0AD6E916
F11A0C24
EC2DE531
F42506EC
D217E702
0F520D3F
0B0B0034
D537F50E
5C4E2EE1
1ADE8C2B
001CE430
480C0407
C9293AB6
F015DAEF
F2311FFF
F005C629
1310F507
F72E02B2
0D03D2C7
D7F603F9
D9062CF3
FF331B9B
3CEBE5CD
111FBC1F
FA2F0452
0ED5C927
064405EB
22FBD407
0A0D060B
F43AB8EC
4DEE0F16
F509D6E4
05EEEEEE
1611CAD2
06092D01
FC0C200E
F2DBA51C
08E1E736
E8F01C2B
16002C39
58FC0F24
F814FAFC
11F8F9D6
04EA2B08
131A141D
2BF3FEF2
EF1FC6E5
F819DF28
021E230F
FF0419CE
00080820
0D0BC0DC
1007F5F6
FD20322D
14D9371D
E908BBFE
E9121DDF
D6C30217
0BE3F9AC
FB383D00
10F61DE1
06E8F516
211B1525
0B38FB21
071AECE9
10FA4323
02E45409
1D349AED
EDF3E805
071A2712
E0F323FF
1D0281FE
CEDD24F8
EFF2DAAB
1E22B808
111918D3
E0FDF4FF
1B03C2EA
11D4FF05
1712A61B
0026E1EF
F62052E3
E9E51D17
FB20B7E2
D0FBF81F
FCEE0F19
1FDE1805
4214E1F0
D620E007
03FB080B
35EB12D2
C800D7DE
3EBF0CCC
DD00FECA
C50418F8
160E1306
0CF6050D
2000E0DD
0F050DF3
2628ECF3
06BF03DD
01EDE749
2AF4D5E1
131A27DD
CAF0E333
E100E4F5
01E30429
F6130925
F810F1FD
3C1A7ADF
2706E406
FD26CEF7
EFFC051B
4A2EC812
F60F14DF
FBFBE6F9
D52FDD0F
1153D6F0
D3CDF55A
F9ECEE19
1FE42AEE
0E310510
3E2B17E2
17D1F6F6
1345000E
0834DFFE
25F8EC3F
10D918E3
DB01ED25
D5E81332
0B20E207
08F50F0F
D813FFF4
08038DDB
B309DDF4
054A02F9
232824F7
05FFDBEA
0EF8C935
0EE7E709
FE123825
F20022CB
04D1BB12
03EFFD2D
D8F6E113
002FF6EB
0428DF11
F50DFEF9
D7EFF1D9
E90F25F3
F907F2C9
FA172AFC
51020842
F2101EEE
EDE1F7E4
B31A0810
11D7FD14

