F13119FD
00F907FE
C8DD1F50
9D4032D9
FA2319C9
D95D06CD
F4FE06C8
E8CB0320
33DBEE0E
1B18B9CA
11F0290D
2EE0FFDF
E5E210FF
E22BE6F6
EDF038C7
2319DF05
E0EDECFD
17231106
ECDEE3E6
0808E62F
F810C318
221615FD
13EFD90D
FC35EB06
E9F6AD15
F5313E11
1CDABECA
091521FF
051BD903
0BE709F4
30D745F8
F1E7F3EB
F2020452
DC4717F5
09F70DFE
5CF7AA1D
0EE6282F
F7F8ECD6
D2DFDBAA
D717FDD1
2DEE1220
C825D60F
000B1BB1
0BC3F000
DED4B720
F6FE1EE2
2D30F8CF
3A013CF4
0FE4070A
140CEBE9
DC14DBC9
25FBB3FB
B6DEC60D
EE3BF925
FD0F1102
03DA3905
CAE3EB08
E51D3108
2D0BE9F5
3AF9FC0A
C701C9CE
C724E4CB
402A81FA
122305E6
F81CE20A
2E2E050F
DDEEF309
1807FA01
1220DEEB
2A0358FA
0F19FFFB
E01CECC9
17FE1416
114E1D1B
EB0D1909
E33101F2
1BF015FB
0410FE07
E2D6CEF0
43F63AF7
F3F4BDCA
14062DE3
E32A584B
DB29C1E1
192CE604
15EFF417
0E26270D
CB43FEE2
D7021725
F61C01BF
200EE42E
2706D1CD
0FECFC16
39F6FED8
3219D3CE
C90A1102
EE010712
39F80406
10150004
0A11F2DF
E5F134E8
0FC2F31B
3F01DAEF
C23C3C21
2CF0C1F3
C5EDCD02
050B13E8
231CF203
F5FDF01B
16AEF1F8
012B25CD
1A0FCFE9
010FEA05
08DA0BF0
F315D80A
D9D71F0F
25EFE9F0
0E083504
AEF0D011
EFC8DB01
04FD13CF
EB1107F9
0001FE16
2A2501ED
13FAE011
F71C01FB
EF0805FD
12FC0F08
FD021506
352722F7
351FE9F4
FFF7F5FE
EBDF4739
26F81EFB
DE22D6F6
D612D3FB
C72D3F2D
E53CADFE
250D0A02
EC1712F3
1D3D03F7
E3EEEEFE
CF3C2B06
FE2CFAFE
08F2CE24
D44ED714
11FA13CB
DD09FBE0
F8F8D100
E6F9EF1A
E6F10B05
0FF8EACE
D22C30CD
BCF710DD
ED0BFCD6
F2D5E6F2
FE0AD6DC
130A0904
F90D04EA
00E90AFC
D7F9FFE5
E2FC021F
0AFFE6DF
13E4FE13
EA300915
32E40DFB
4C0E1CF3
D7F0DF08
C3FDC6FF
0B0DF402
16F1DD45
D2181508
F411BB10
00FEE30C
01F7D5F5
DEF1090A
B6031524
3929B4E1
0B23E800
040EEBF1
10320037
E8FAF3F9
F7F62AC9
AEF5D8E6
D0F515F5
FEF67823
1A2A1D12
F6EF3F0F
EE32FCEE
FFC54417
D7FA26F6
08FAE80A
3725CBBB
EF0E112B
133FBE2B
CE292604
2D08EFED
D5D6E7E0
5105EB1A
F82730F9
4C0EEDCA
D1ECE9EB
3B22DDDD
F8161F11
18D502E9
DBFF1829
242BDAF6
C8BE22F0
E2F50459
1AD2C9EC
070D4AFF
05FDBC0C
13EB0EE0
1307F6FB
100BE9D0
33E229EC
1411E31A
EFECDDEB
FC1F29C8
FE4F6523
18F704BF
01FD3506
DD0C27CF
19E8D5F9
E3ACFC4E
69F0F818
E0F60351
01E30829
17CDFAEC
1FD097BB
EBFC69E5
0BF21AB6
DB1A32F2
191FE6DF
1823C3FD
0852F6F0
D3F22205
34F12DF3
1901D5EB
E4FE0813
00CCF561
01B5CE39
210B0C14
C2EAF215
E3C31A41
AB04F90F
2CF0E6B4
CAF1ED1B
3204F40D
2A23D50D
CDE7C527
B7DAFB08
FCFF1C11
18DFF3F9
28DBD905
FB5A1834
D21B1911
FEE918F1
170CEDF8
16E50FFB
D912E9FE
EE390FF1
FDE6F4F2
DC343ED7
15CCEA16
3105FFFF
EB2FD112
042015ED
3412280E
FAF30B1F
0AE81C19
0200E3F1
FAFFFF43
1006F410
081D0C04
FC03F027
E3F11AE3
09D9D20B
E0FC0633
01D2E8FB
0907EAC8
D5FD32C9
EA08DF16
0AE1F006
E0D7C117
02E70304
EE24D5FF
0DF402F3
00110A21
D501E9DB
1701D8F8
08E8F900
F5E0AE26
0B132919
01F62DE5
2AF62E1A
430520F6
1AF8103D
04ECF620
FCEE2FFF
32EA0BE3
19ECF4F8
FCEAF209
212B16DB
140507D0
15E914F1
DF13442F
0DEA1221
EA0BF800
1312FA0F
DD03F7EA
2233F806
2338E5EE
00E047FD
11F8109B
19F9FA10
1911F0D9
E2E8111B
06EDF5EA
EDF0F114
F70BF248
15FCEB06
BAADBFEF
F303F907
C6A4F7C8
2D390A03
1AD70EF2
030318DF
B9412907
CCEA0AF3
68F61D02
C2400CFC
04F02BDE
E6E9020A
3F22D616
2AFA2212
1CFE0F08
0BF9E229
F902DB00
061DE015
2A081903
2E08EF00
EC03EAE0
3814DFCF
422AD102
C32121EE
3B1EBDB9
FBA4FAEE
29E60FE0
1D5DB7F4
1126FB1A
0903E6DB
C2010318
02070FFB
0021E6EF
4D18F5F1
C7241F1D
1FD901F9
14E610E0
0CEB06FB
EBEFC8C4
29FE2A09
31F8D20B
F9D906DE
F643DADC
390812DB
F4080CFE
DEC7D5ED
000202EC
032F5207
D810E6F9
3DEB3EFA
23BF0CBD
DDFC150C
183DD0C1
1FB9BA04
2AE8E91F
E339EDD8
451E15FC
3406EC0F
1FC121EE
162A1404
DBF1E4C5
F2DEF613
E610DDE1
06B1E3D3
F44555AF
202A05EF
13DA0DFE
07F8AEDC
302D2733
00303614
E404F82F
0A041416
052EDF7E
0BCAEC10
1B00DB02
DED0310A
FEDAE7F2
D5CD2C20
09003001
0DECD0E9
F5340DD4
DCDA3DD8
D71F03E3
E9FEE00E
07D6EBE0
CF1921E2
FA18DE07
F5FB00F7
F7F73E00
FD2CD514
1D0C100A
E5F530DE
D9F9FA56
DFC6F313
06E91B1D
EAFAF006
ED08E03C
D6EFF306
E8EE0E05
FBC1B5FF
F8FAE225
25AA57EE
F952F515
15CBE71A
F1F131D6
21FFC71D
EA0DDDEE
46E1C4F3
BDA750F7
F2D30BF3
EA0A0B0B
2B4D380E
F2BEFD01
E810E1E9
BAB9FA11
ECC0FDFA
EC01EE0F
E3F3302B
E11E2E27
D7FB0F04
DA05F5DF
00CC171E
1616323B
1A1CF8F4
2C1B1308
061E1DEC
03F1EA13
D1180607
F828B106
F705032B
21F508FF
DFF1D509
FF02E711
0A00170F
C4E10AE2
1921F9EF
1F1112F2
EB19FDF4
0B0FD5F3
15051F10
22EB2A03
E1E6D90D
20FE1604
1006F9FD
FF03090A
DFF62CFC
F1E90011
052B0A0D
FD0B03DA
F3E700FB
F7F31BE6
0A63FD1C
D11501F3
13F7FB11
E4EBFC1D
F9DF0FF9
E11E1EC2
2FC512E8
0A11FAF9
1706DAE7
140D0E03
F9F5FDED
060BFE14
EEFA0E0D
07EAD641
F0F906E6
D8F447D1
22CC10FE
F614101B
27EF30ED
000C7E0F
E1FC3307
D5E91BDE
F2ECCFE1
16F5061A
02F20F0D
11FD2129
2B11FE02
EB040CFD
24EC0907
D822362E
AF14CE12
090505FC
02F3F904
EFFC0414
F8FC010C
ECF7CBDC
19C4ED0B
17060134
0306F8EF
FDE031FA
05EFB3FE
00D2DDE1
ED19E921
31F90709
28E3F921
0404F7E6
FA1E3AFD
DE2308C4
EDF7E70D
F816F51A
2E0EF318
1FFC1114
03F109DE
02220FDE
2AF703E7
05C9EFEB
DEF5DD02
F7FADB41
142D2FEB
DEF303E8
F1D8EDE2
EBCC25F9
C2F72EF7
2B0EDC17
45D301FA
DFD83B2A
C8D8B2EA
E6FCFAC0
EC12EAD4
F001DBF4
E43822F2
DF2000F5
27D9F4F2
38140B23
1F0B3510
1305B1E6
EBF74316
0E04FCEE
2651F91E
32E8D212
A1264DE4
F9170512
EEF7C4F7
2508F210
012DBEEC
DC17FA06
18F11200
C1011628
15115AEA
D404F1EE
269D2C25
F1D70DFF
041CE2EA
C5EA12E2
0E21C3EB
ADD2F4FA
E21200E7
2F08221B
43081A2C
C3F3210B
20EA26F4
FAF0F7DF
E5DA20EF
EF09CFE1
D7FDE006
F0330D2A
2DF45BFC
0115D9F9
1CD933EB
28D3FC0E
26DB18F0
C5003B1B
FF28EFAA
BFF911F7
EAFE2AF9
E0E5D82A
280FE702
15264467
260CD507
CE5FE3ED
1FF1CDF3
DCCC2F12
168208E8
30E5D432
4034A6F3
3DE5F604
1F08D5DE
033FE523
1EF5D508
1EDE3DD8
1A0F1EFD
2206E5CF
E51BD8CE
1ABCDCF7
F1F40D29
2C132551
FA4920D9
D4251F21
FA283A00
2DD319EA
C7E4C4E3
FA561C25
D5FFF908
F0F4D90D
D9473CF8
0CFDD0FB
2BC11519
12D70136
F11AF005
0E6F0CE8
E610FBF3
B4E2FCE3
F810D9D9
3C4A3C0F
11FFCDDE
25F01C18
0B2514FD
EE052C0F
1FF9CDEF
FAF99F2F
DCC2E5F6
F0FD3119
F602BE10
DE39100A
27FA2C08
1E18DE08
FF02E2EF
D206EDDD
CBD6230F
F91FCF05
FDFD250B
00F7F606
C71D181B
CD032610
0C2FEE05
B61701FD
EFEEFA13
BAF01B0A
E31ABD2C
F617EE10
2002811C
F011000A
1424E2FD
F42909E5
0F04DBF9
3119EFF8
2F18F5E5
24FAE03F
EA19EF00
1318F209
273AF41F
FDFE06F4
FCE5F002
1617E2E7
05EDEEFD
07110931
E7C8CAC1
FE16F82A
DAE30903
F0F63910
16D7EE1E
23FC2A03
1AF5E70D
20020340
11EFFE10
082B0F0C
E1E0F0FF
EBFC581A
252A20F9
23F011FD
37193E14
20181FEF
E53410FB
062118BC
03132520
1C0BD7F5
24072EE8
EA2CDAF4
EF22E2F7
06E931FC
B6F70437
FE0AF10D
4705EB1A
01E0100A
1D270DF9
27F4F8DF
0120FB0E
F10501FB
171910FC
0DEEFE09
FAEBEF1C
240AEE39
C0083027
EE2E0206
DEE718FB
EB11FE12
2511EF01
61131200
CE14ECFF
FD012823
EF0F00E0
2BFF56F7
3BEDB015
0D3737EC
27C3232E
F42105C3
06DAFA27
BFEA223C
0C0B2441
0A30D81B
1FF30B11
1D2A0A22
1018C61C
1825F0C0
E52BE627
42C90F1A
183D01CE
F41AF8FE
0C07D0FD
1B01EE14
FFF6E3FF
3E16FADD
EEF6C8E9
EBF8CAFB
22E9530C
18F61018
FFE30C00
4320FE0F
E8E0DC09
0CC92925
E219C1FB
0519D8F5
C50D1E30
DDFBEAFB
E8EAE109
D300EDE3
FFFFB6AC
DF0502E1
0004EF1C
E22BD4FC
1FD55549
E4261C0D
D81D1921
03162D2C
0FE0D8EB
040C0107
21E60CE0
E41C170B
FAFDF3FD
1FF1C602
28C610F2
E907EA01
FD06FB26
E10BFE33
E63D2D02

