D925BBE4
F51CED2F
ECE0F8EF
E0082613
29E104ED
F7E8510F
C82106E9
0703172C
E713D641
2BC4F0EC
FE1F3255
0DF40D16
05F40BDF
F001EECF
0204E9FD
D73C110A
DE00C4E3
BBFEEA27
35E3EEC4
10D104E8
EEF51738
14F5F912
20D5E6EF
DBE71E44
041826F0
F9E7E7D7
27FA31CF
92000A36
201A2D0B
7EF20FE3
F02C12F9
1B19B51D
25072E3E
FDEB07F4
3436FACC
DD271022
05021508
F6F0D7ED
FDADE4AD
3C1A3218
0601E5EB
EDC2091F
FD10F934
E0D20B0B
D22EAC15
1B34E926
460AFE06
16CB133B
B80417F1
37040AD8
F1FC0F10
B1CD1B25
F0F2E71C
CE24DA2A
ED2A201D
CAE60502
DB18E905
DA3413EB
EDF80FF8
03F404D7
E0C71B0F
310717E4
120F2BB8
D4CB02BB
BEF9B9DB
0C070E09
F8FAB32F
FC121FF2
DCDA1AE6
28F3EDE3
020D0BEA
00211406
0FED0443
1923F4DA
0AF4F9FB
CC15B109
0E01E51A
BBF0A404
D8FBF21D
C707D0FD
150E1C26
FFFF0A03
15D7880B
ACEFFCF6
E5F910E1
D3D2DCE9
FFF9FF09
0617F0FC
E2CCB5FA
00FC020F
B509F41B
0909EEF1
F90DF1D8
1104EAEE
02C62DF5
4DF3401E
16F6E328
1DF2CFFB
0EF34C20
0C000EFE
E6E82BCC
B70EE5E2
30F6D8EE
1BDAE70B
D9EFEECC
FA582202
04FBD713
2313C703
F2ECBBFC
1CD3F51C
EDF026DF
E435DDEF
FCEB3BDA
D2F7730A
E2014F2E
331B25FC
D918ED08
27E90F17
B02139DE
FF473A31
E03422CA
200B34ED
DFF2C8EF
3B1B0DF7
DA050E39
27E4FE08
1E12DCC7
0D1605CE
24FFE9EA
4101760C
D101F7EB
D40E1703
12020901
140D2EF9
220C1817
330F1AF6
03DCCBC7
E1BA0B2E
1E0FF91E
EEDFD9F7
FE2CD42B
B1F822F9
2A030904
282508F0
1507FD03
04F00BBF
FF1D11F8
0A2FED13
EEE22526
2AE8BF0E
2302F935
2EECEAC5
F1E8C7D2
EFFCD4EB
310C2022
EC19C5C9
E606FC02
FFF2FAF3
F809FFF3
00FBC212
33F0F6FC
050105DD
01EDC4FA
13E3DB1E
EFC41DFD
FA0719FD
0C23F22B
F6CCD324
F40D01D7
DF0FEEF0
2C09FFEE
DD4889EA
E9012815
E5AA3108
41EF9912
FCEDD4F1
F40D01DB
9BF83029
430DF2E3
181F00FD
DCF013E3
E524E009
10110E05
19D83AE6
54FED1DF
E1F4192E
12F4F3F2
14182FF6
16F51C3D
05EFFBD9
1EEB00F2
F5FAFA07
FDD420ED
240A7EE9
FB0AF4E6
F8E45E1F
E4FA1529
28D01F0F
053801C6
E512F6FD
FDF1FFC7
06F507E0
E11D59D9
94230F16
5CDFFB07
221C4801
386DD804
5913D6F9
070618F8
AC1401FF
370B0106
030AB9F7
1B3E9BE0
D6FDFF27
FDE812A0
FB0F25EB
E9142911
12F80619
C7EFFFB0
DB341612
0DEEFDE6
E90CCDF3
F9150DF5
E1FCFCFA
E1010FCD
DD420F02
20060806
E446E0D7
9BDFC404
23DDCF35
14FAD81A
E1DEE7EA
BAD1220D
F70AB504
12EF0EAD
EFF1BEFA
352934E5
0815CEFA
FA3103F0
C40AF71A
EABB291B
DF191FF9
1C01F5DB
03E1D4F1
E9110438
1214CA0E
F620EFE4
132837ED
F3B8C7ED
072A1E02
040CDD55
C741E31E
23200815
0EC0DDF6
1411E210
1B2311F5
162F81F1
C7EEEF01
1916FAE9
00E804ED
200D70DB
FD0AFCE6
E9D49210
D1F12204
FBF96E02
15F903EE
C50CF00C
BEE50A02
250A1115
E31406FF
DB15F4F3
DFA12205
1AF31B24
DE02F4FB
E4B93FF5
AC05E402
F2E41AD1
25F52809
241C7909
131D11E1
D9F2F5FD
D40B14F1
0EF82A16
1DB2EBF8
F2E8AB3A
1108FD04
CE0D1F0D
D6F00B26
4BDB8BFF
F1C5FD0F
25E34408
CC090DFB
10051CF5
3AD501E7
17FA1005
110C0DF7
01F481DC
FB1F0403
FDF74C19
24F6FBFD
01FD7D0A
F1CE1AFC
3F111410
290CE1FB
FAF5C605
2EF8E70B
E92BB323
15EF01FD
2AFFEEFD
0D11FDEA
12F8A1FB
08F9F2F4
E8FC3323
FDE1F9CB
B503EC08
DA0CFE0B
1522C9F1
1B0303D6
C9FB5DCE
341C2A17
0CF6E5F4
C2340306
4E14B9F2
0CF6FD05
0815ED11
3618EDD0
F3DDF2CF
20C30A23
C5280C0D
DF1F1403
1FF03610
340DF217
2600ED09
0BF8050F
4126CDC2
22EE0007
0FEE9CE9
010DFB1F
E40ADD35
CAB6F9EE
FC03DE0F
E045FE0B
2710DA3E
12430AC9
17ECA11C
E308F6D8
2626BF48
0CF4F727
BFFEE8DA
3814F903
E6DA1AF9
3D17FF1B
D60C2BC4
F01810E3
F0090AF2
DE020CEA
1BF342E4
EFDC0501
ED26B92C
FD0608E7
DC2B0406
33FC020A
F12BFEED
ECF00825
2ED7B8DA
E2FDEBBF
F721D4DC
FC1E1B25
0FFF0ACC
B1DB05DE
1AF2B9EB
F9FAED10
2C1A150A
F107F3EC
D0C1E31B
B3F8F0C5
F3F5E807
E901000E
06EFEF03
F1D201F9
49D41118
C2F0FADC
42EFED11
35C80BE7
BBEE21B2
BC2F162E
3BFA4634
01E0071B
28021A2D
56E9FFEA
12221819
1FC80A05
D207F5B7
28FEEB16
F1F52618
0701FFFC
31FDFC21
F404F502
2FFEC5F7
E51CE101
F7DBFFE8
1520F201
2B0D1CF2
EF1D0804
14FAFEE6
CF5DF41F
2FEA1717
22E7FBEB
E730EDFE
D513D4FB
3200F60F
E5F40DE3
FD212B0A
C9DCEBFE
03F40D2A
822300CE
D7E9E3D2
E1F3F323
EFF0BE2A
D4BFF9FC
E405E1DD
EC27F401
36E50904
000910BF
24F03D14
EB140D0C
D1D5FA0C
15EDF9F9
00F21C2C
2ACE1F0D
C70DE636
E4E8DA0D
22DCCD2A
DE1CE01D
D106E9DB
2913090D
F524C440
C93FE3EC
FD121BF2
BBD905EC
32121EEB
C64008FC
2227E4FD
E7F9F005
00FE0CD2
E3030C28
E3BFEA09
D6E614F7
E5FEE01B
0E093E08
E51DFF1C
F0FC8100
0926D1FE
D208BEF9
ED300114
0E05A0E5
0FFFE4EF
1636A7E5
FDFDE0FF
000981F6
0006120D
09274FC6
3BFCE3FA
F1E7E3ED
0F3D11E2
0F0D560A
E2140A14
AF1E1639
FF0FF6E8
D1DFD6E0
1A060014
22F4DDFD
03F1EEFB
BAD8120F
F6F6FA0E
D00DBE09
F0F4FA06
FE04FB08
3010F600
0CF1D2EA
2CE9E4FD
FD0FAD02
D8FF05E5
F4D7D703
06EBF206
EBDC7E13
15CF2F14
180E4411
08DA0B03
0AE3FAD6
FDF1F2F2
2B0A25ED
FE08090E
33E47912
E01807EB
B2DB7EF3
DA0F23EC
EAE20CF5
18F90C04
F10A1D25
F5DD0015
1FF67E00
211206FF
E5D4B444
F9EC0700
F3221DFA
EE230000
13357E02
0FE0CC00
F727AD04
DFD9FAC0
0A044A14
30093152
36D30B10
FC06F110
EBD0F912
F903ABCE
1C06B1FC
1C071804
FF240D2D
FD3A357E
10C711F0
F901B23A
23ED15ED
490C1216
0AD3F6D7
F6CEB9F1
DFE41F16
3B2413E2
402A11FD
35090F0F
1ED20DE8
FED0B20E
40F0E1DA
F1FCD727
CE00F60B
22217EF0
FBD3FED0
0C02E02F
062105F5
2C136411
1BC841FF
FEEF4721
DF282914
DCCECC13
E1191009
D2F301CC
1418FA26
001C41EB
210AF310
FF09E130
E0100FD1
DCF62010
4329D6F4
FE23F4D3
1606F50C
F0D15B09
2C13E802
DF00D9F8
0508D707
E20EA90A
00FCE943
0D00212B
DCE5F807
180E560D
D6D7102E
EE20F927
23F4C8F8
4EEF2014
A61705F2
45332527
FCE72225
0E33E70A
D6240AF6
FA115303
14E8FF08
34FE23F2
272B1D2D
EA23392B
CBEC0B27
DBD60B3C
00F3EE2F
1A4CE553
0D2DEB37
642AF32B
F2B1E204
1902031E
DBF3F80B
DC3FDF36
AD61F3F3
E101F528
E322F846
FA1E4511
1F03FDF8
2A0FF90B
04341A1F
EF11E9E6
F71D3B14
2300DADE
31EF2328
2A552931
0804DB08
FCE5B3D7
9B20F635
EED609E1
FE2438F2
0FC61FCE
53E427F3
22F4E41C
F7EBC9D8
C9EDF346
D0FBF7F3
F2003014
57FC20C3
E4B7FC18
FCEDC808
D5AF24EB
39251A0A
1BEAF915
E415F4FC
2F1B2C19
D92B1404
3911E91A
08F6241D
3AFAF72D
FB04EEE6
FB24FEE6
22FCE719
F7E3CE04
09E62923
1211F1D0
1ADDEEE1
11FCFDF6
10CF39EA
DFFD0902
1A1BF408
18E8F51A
2F0A2F2A
040304EB
1DF71108
DD2DDE05
2F1C5EAF
FB0DED07
EDFC25F9
E7F8FFD3
F6CDE10C
F6D6EA38
A9EB32FA
E327F551
FD252709
0CF1E80D
F2F67EFF
07010A21
190D15F7
F4F21627
24FEFA0B
F308E42E
E1F20B0B
0012040B
F8C005F5
F611F405
00E610DC
211402FC
E51101C7
E6D21821
1D13EFC3
09E7E616
070BE5EA
B90CE341
1319E30C
C60AF01B
E873FB05
0DE3F33E
030CF12C
F7F91AF3
0413FFF7
06F111FF
111CFE6A
F32C0028
320015CF
E5DEFD0B
FEEAAB21
3200023E
F9C3E907
04250DED
03E0F2F2
E815130C
F8E50018
0E20FAF3
08FAEA0D
243D1401
E2C93500
F339CA00
FD113C0E
1405F0FF
FAEADB08
18FAE9FF
0AEE0C0D
35FBC4E1
C8E618F2
DAD9F0F6
230D28DE
0F10DF33
09FF1107
07F0CCF1
F3D53026
F208041D
F8002115
ED01F107
E1FD1317
FC342525
20F779AD
0D05C428
DA22F121
322F054F
0312D102
0CF23B10
B525EAE9
EBFB11F0
240E0F26
0444F731
14F06330
EA210BFB
29117ED7
E2DCCEE4
111E7E27
12DFDDBC
DC12BC2B
0809E4D7
3504F823
2FF90B08
3F1D9801
04CCEA04
360F102B
0FE20603
53021F18
2147EEAF
EBDCF002
E2F6410C
F4067E27
22F70601
0615E4FF
022914F7
ED2ADCDE
FC3050C5
07E9A911
0610DCF9
FEF9F6B7
1AF7F605
F407812D
D4D9E7E2
E8F47EFF
183C76C1
30D53422
FFCDF025
EC27F909
2015E646
20D9D801
FFF7BAE9
D0FC860A
E53121D5
9BEF5501
163A12ED
2CC9DCFA
F728C70F
1AF2FA18
E21137F9
D8D103F7

