09CF2EF6
2D24E112
FCD3150F
E5EF081F
C3DA0C45
F7CE00C9
DC0DE709
0E1CEC06
FC15CBEE
FF10FD00
F40217F4
1920E5E9
BBFDF627
F401EEE9
ECEA10CF
F1012615
E0DBD361
3AE93333
C9F00C3E
F2BEDD00
FE2609E2
1516D7FA
0DF1FEFA
17E508F9
E71505D6
BF10B1EF
BD215533
B9CE2CE4
FE1B03EA
180CFF0B
E11C86BA
F5FE0206
08EFECF5
F2DDE120
EF0F0BD9
37FE2603
1C0E18D7
06F3131C
FD10063A
F40D2B0F
A71BA22C
FEE9190F
C8E5A62C
E9BDFC28
EE1A110A
E3E4D809
104CD401
16FF42F0
F0331CE8
CDD92AEF
BD221F25
F6E00701
27241E03
1FE8181E
01DD1A08
12EA11E2
E91E00F3
27E4FD16
2B24051E
250010C2
4B15391E
E5C0501C
01FC01EE
C4FEEE1D
14DEF3E6
F707090E
25FF2802
15DAE721
B6FF0234
EC0C05D2
582540FB
FDF2DB07
E7EE0D0F
57171625
0AD9EDDC
3CEF1713
0AEFF505
04EF08F0
02DB1D08
FBE83AF6
2DBDEACD
D6F0E0F8
BF01EDE7
EF0FEEE2
0FF2A732
121E47BF
051A0603
E4004314
28EA0E12
FAE512F2
D808FE2C
1BEE3F39
FB3EC8F3
3CF6E606
05EAF021
92431CFB
04FB0A09
001D31F4
D91DDAF1
2E510416
0A01D115
B0E725D2
F8F0C636
0AFBEDF5
1518C3DB
B240B125
0E0AF91F
22D806F8
EBFFCF18
ED3DEEF3
C82B0B18
11453362
06CFFA06
FD110720
09F6140C
1B09DE0B
0DFE4A2F
3E1E2DFB
1F5E1217
0C04EDFD
213AFEE7
0CD2E310
FC23E908
01E1F5D8
12E1F23C
EA24010B
2623F91F
0ECD0919
D5DACA0F
241F15F7
02EFFCFA
1F1618F8
DCFEE069
0C02DBF8
21D80BFA
FD06E604
ECD909FF
B2022204
24ED2AFB
150B2BEE
0EEA54A8
2799E03C
0E10F7C1
9E23EE06
16DC24F4
02B3EA15
1C344500
E82A0232
08F927F3
17EC1FEA
1E27E2F1
EC1B3628
0C161BBB
F00114FF
1A32A6D4
F9F4F1FA
1B08E0DE
FCF608F3
FC3101E0
120BF211
E72D25F5
F10618DF
2D24F6CD
DF1F550E
D2E3FEDE
0214000D
1DEAECE9
2702EE07
D2580AF2
10F5D9E3
EEEC2628
3C0CD7F9
E733FBBF
0FDD050A
F61ADFCA
1B023F2B
AFF2F5CD
06DE21F3
E000E8DB
D9D0ECDA
D6212E24
CA2321F4
45F9FEE1
0BF20A12
DE0E2C15
FCEE17EE
0DA4C4FD
D602051A
160EE1F2
D9DFE6E0
FAF5ED18
F8E709EF
D117EDFB
F524E2F4
C01A15EF
153FE7FF
18E6EEFA
E8F42CE8
F9C7F941
C015DCEA
DE11D409
1CFE2EC8
4E1BC1BC
D53F0E3E
01EC0CF6
E8FF2709
E7FBDADB
FDD2FD16
E3DDD2F3
020915F2
E8E606B1
E407EAF8
4C19FE3C
0BFBF8F8
FB220F4A
F2D8180C
3816E1D9
F90AEE29
F84FEA15
021816EF
0F3CDF09
0E1DBBDA
FBF02D0E
34121818
092020CA
0021201E
E5FEF702
33DCE0A7
D2FD1EE7
1C331838
891447F4
3B04F8C1
D8F508E0
D0F2DF0A
013AF8FE
69F3C50A
07FDE744
C7F000ED
17049D20
FF180421
06122365
DE220929
FAF9DBD4
0D0635D9
D2DD4115
EA0ADB11
090A0281
E6FCEE13
DEF23650
072DDCE1
032907D9
3F18E53D
061230BC
08ED1A24
400DEDCD
0E951523
1DD90924
0AD7B70A
0AF3192D
C90E04F8
04E801D1
E40420F7
F81A08FD
F800EB0D
1415FB0A
0DF204F4
F01122E1
F5210705
16D6A9F8
15F21E09
2119C431
28E703ED
F0E6F23E
07E10FEF
E5EEF1F8
B8C3DFE8
0E00E4EC
E322EF09
FB19230B
34F7D007
1D1128E3
1006B00B
F4F036FF
E1BC00F6
D8FB1EF9
F3FC100E
111527DF
161B07F7
34141502
0008D01F
2908D40C
20E519E4
E7071617
2A02CD15
05EF0DED
37E00919
DFE420D6
E9EC04F6
0EF231E3
0CD71F17
F813CE15
1D09D100
01C7020C
06F6010D
14CD11EC
E6EF0EF9
082AE6E2
18EB1AF0
21FCFD0C
BF192710
0C3621FC
00F366EB
D6FFEDEC
0A37FDF3
0804B9B9
01E2D8DF
10F9DE20
0FFD03FB
FF20E318
EA0D0FE9
2BCA2927
E4F11903
101A20D6
15F4D811
F9DACAFD
14D41C2A
E7F8E7DB
27C60C32
E81FF53A
21DF3B8C
0F162BDB
1CE7EBF7
EE310400
1A161003
FFE9ECC5
BBD642F3
1B2D17D5
2E0AE3BD
06F75513
F9F029FF
DCF626E8
F94032EF
F4190FF0
10F3C0C4
1CE3EC24
2525DEAA
2FF8D434
4916F209
FB161C09
080614CF
DDE1280D
E5FC02FB
09DEEB14
1AFEE52A
FC38002D
F9370907
C53912FC
DEE5173A
032324BB
3F0C0429
FC2A0757
FED715D3
0E62EB29
D80FF30E
201AF3EA
CF24DB24
DB48F80E
42061544
03F3CA27
F8E2D3DA
2208ECDA
DAE11DE3
0F30341E
2D23E02E
C5B9F5FE
EB22010A
D5A4CED9
0D2FEABD
1D065A39
E5000641
FA0DE8F7
192C0200
F4D0D82C
12E9E2FD
FE195944
B9AB3F0A
27FAF503
23FEFDDE
2F09D9ED
EC2A0CE2
EFD5F006
EAED11E9
F3D4412B
A858BECD
2725E721
03082BFE
F0D1BC2A
330CDE1E
0206C432
01EC13DC
FF1A02C7
31F1DE1E
AD23030B
FFAFE42B
E21E2CF9
03F50808
093DF7DC
CDB0EAFE
1E15DBF5
F5F1F222
F501B6C2
06EC1304
D4E82AED
0C22EC26
1315ECF1
08F0E00A
1EE10EEF
FB06FB2C
1DE40DEA
392BFD10
5936C2F6
DE4029E5
D701C2DA
CF0C1B04
18FADCFE
F23EEBF5
CAE2F722
EA2EBFDD
D9002EEC
ADE40813
E7B14A1F
0FF404DB
F0DE12FD
F2FD2543
2A14241D
C2F81BC2
2A20CD25
FE391FD2
0DF8FAFB
F70F1BD0
E41BCC04
224821B0
02E1F412
EDF4ED35
DBD9E6C6
CD03D818
FBCB5534
1E16ED09
DD17ABDD
140D34F8
DD0AFAFF
01EB22F2
D8FED2EB
14F5FF08
0EEB0705
EDFCDA04
080AEDFC
02E70FFD
1FF6F20E
1315FA0E
C26927DF
F90C15DB
F9F4C3F8
F10E19E8
27252317
0C1E12F4
EE011A19
FFECF40F
1737FAF7
FD0CFFF4
1A08EDF9
150201F0
2F0DB807
0BF4E0ED
C1170BFB
F0EBFA1D
21E60110
030430E7
F5FEFC14
1F0AEF28
FB0ED011
00EE1EED
2502DF02
061B04F5
FDF9DB18
0606E1F2
16EF30ED
1AF605EF
1C1CFE20
FBE2A8F1
E0D7FD02
0BFA24EF
130D0C17
1505FED4
212229F7
F6E4022A
F914E7E3
081400EF
02DF1B1B
00C913FA
F3F90706
0AF92B18
28D34EF5
ED16FE1C
0912EFFB
02F1F0E8
C810CC07
D91BD512
CB4FE613
15AFF901
C2E733FD
36D2F8EE
1FF1D409
FBDEFEF1
1D17581D
040D3A32
14EA0E0C
2A20ED23
0633B5FC
0DF3FDF9
5A12A713
E8E3171B
F3FDBD19
14FB1A06
FEF9EEFF
EDEFE62F
D0040207
E7320BEA
EBFFD301
D2FCCE2D
0826E8FF
FD15D600
E1E6CF07
E91706F4
0C1E0A15
E01524EE
FFDFEFF2
E1E6E50E
F8021412
09FDA836
17061206
17EAE72B
F72015FF
38F30200
EB0CE3E4
D5081200
15DFF1F8
10FBF602
0A0BDEEA
42C3FF0B
F8F6191D
EA0C10F3
C827E1F5
0C5AB606
1C30D8F2
ECE727FD
E63C1F13
E7143006
EF15F30D
19E6F8FE
4C2B141F
2C1FEBF0
FA2CE712
EBE8170E
17E7E4FD
DFFF04F9
F7E7BDF7
1828ED03
C1FA17FF
49F5D0FF
E5D2F2E5
EE20D9C1
F4053D17
1CF029D7
11F8F4F6
F50227E6
32EADA0F
15EB01E4
F8C8D610
E7E2F706
22091B07
1B0C25D4
E3F6F832
08E9CC13
E2EFAD31
EC43E921
DEFFDD7E
FC0B10E1
0940C92E
FB28E5CE
D208B937
A407CF17
21D616F2
E8D820D0
DC0C4BF7
FCC4AC32
4D054025
292FE408
C105C8E5
D4F1D81E
0B1603C2
07D8050A
E8DE2E11
190D2A22
C1DB0411
1FE72C47
16F72827
2012EB2D
1BD7B219
3D27CAE5
19F8F7F4
0437F800
2E0C2EBE
4B2DD3DC
15DD290F
092B2CEE
1FB930DC
D51B1BBE
22D72AF3
040AE7E6
6210F5F0
490DCDBB
00C5EF2D
22C31B16
07F021D7
1626FF6A
C07EE0F1
140BE61F
23DA0BAD
3C50B6EA
C80726E9
0735F8BB
122742DA
07C8185E
1F1AF7C1
EAC039F5
001DFF29
130406FB
E53EF0C9
FE1EE916
1711105C
FF23CADF
14EB3AF7
2C021521
2F21E20E
1315F810
F6DE3712
2EC52AD8
FC0203F4
FDCD0B38
08F10AC5
0F0EAC00
0C32E2E8
0F050329
16EDD7CB
05FE11FE
09FE0610
090511E2
1ADC23A3
5ECB0BFB
11FBF5B2
FED4F332
18ED04D0
46ECFF01
EFF1EC12
12FC0B8F
19030C15
1D2519DF
D7BEFB14
9E130233
18291711
B1204C07
DEF2F4E8
FB0C1510
F9FAEAF0
F009F9E9
97FF2DC0
E41CCB1D
0512F50A
14EEEE00
07FDF8EC
FBF605BE
E115EE22
35131926
2810EEE1
FB1209E1
2DF002EF
B50BF6DE
0510FD11
141FD30B
2E043221
2D091F04
E1F1010D
A311ED1D
02EEFB4A
F3081AD8
00F8FDFD
011408EB
2A02FA55
241803A3
E01A0DDD
CCF42BDA
11EE2422
1BFD1A35
E42B0709
23DB1022
11EB0FF5
EE3801CE
FE08091B
2C09FA18
FE4EFB1F
F41F0EF2
1EE209E1
321DBCF9
21EECCF9
FD27093B
DE1237DD
ECFDC707
11080116
290F02E4
AB0BF625
3A151221
04130519
F3E809E8
370212D4
06FE101B
F1D81017
02C719D8
C8DBB7F4
B7BA052F
CF1545ED
FDF63206
14271AE6
02010FE5
E20A08FF
0D481417
DCC49734
ADE8EDF2
EC1418EA
0DEE10FF
0FFE01F9
290ED3EF
1EE21814
CFFC4A01
E1EEEFAE
020B5E34
C11DCEE4
B40BDB2B
07F8FE30
00FBFC0B
0DE11B11
ED1121F7
1ED8E21B
D3D5EBD8
F71A2628
04F43BE2
1F08DECE
2E45EEED
150AE154
EAF43CF8
CB0CF202
F3CCEC27
C1E9E027
C0D8F61B
15D0FCFD
1C19D40C
36D115D6
F6D81BF5

