220CF5FC
FE05F4FD
EDE5EF26
F5000721
FEBB25F5
0CF1F4E0
E2F0FFF6
FA041FD3
0E16C5E3
E9FD2318
06FFD7E3
EC001FC4
E927E709
D9F7D7F0
020A0439
DEF9D5D8
E90D1EC1
00F8E400
95BCE512
E2F808D6
0517EF1D
15FE0403
123409F0
EC0509E2
F122E746
EAEE411F
D91CE8DE
20FD09E6
FEF4150A
2B0AE6FC
0901FE07
D9051C35
17E02C2D
07FC3D49
0106F1D8
F9F908D5
38F7240C
CD0915E3
00ECDF32
D70622E1
1AF610DB
E2FDE5C1
DFB418BB
F309B822
F7E91014
0AFFF2BD
16EAD2E7
0300EB3B
D7FDF4FA
1309FDD9
FC5AD33A
B8FD2C3F
317EEDFE
12F903D8
15C1F806
E4FCF3EE
1B0CDDDF
FB00E040
B2D5003F
5F10DF13
1E06EB3B
02F9260F
E623F211
F80E2909
06F9FE10
E70E0000
0AD4FFED
EC07F3E3
3ADE0319
1BF91728
D2F4E213
F1172237
2D231723
FA0A1720
F509F4F8
F0FAD71A
0E1002FD
2DE90EE8
E11006D9
002D11F8
E552F1F8
FBF1E41D
F41301D7
CC04F823
E01E06D6
00021845
E8E8C1DE
F507F3E1
19AC071B
05F9F413
19F9E3DA
F51A09FA
162319F4
280DF210
0EDF52D1
2C1C3AFA
180B11F3
FEFF22FD
E1E3F222
F70329E9
E7F4EEB7
DFFCFCC9
E63C231C
DE0BF6DA
EE06EB13
27091AD6
02F60FF8
FC011DCE
0201F5E0
ED1016FE
0E13F614
4FEEF9D2
061E22E3
40FCDE1F
F8F4FC0B
FDFE0615
D905FECD
E412FB17
E8EFFA21
19FC21F9
E6C6DF42
EC01D7DA
040513FD
01EE11E9
2442E614
090F1BD8
FB0DDE0B
EAFBDD27
1403E4B1
F8F30AE7
E7090B06
0403F7F3
35FC0500
0104E70B
F70C1700
FF0010FC
102FE621
D709E701
EE2DF2FD
1105FA19
A40D0021
D602EC19
F72A21F5
1F1AE814
F0F7CAF1
060D95E9
1A14CAEF
F8E73626
1AE9F031
4B0BC9E7
FAE4CDDC
DCEE0A4B
BAD4F659
24FB1516
D9E113F2
10F51E16
FDD7FBE8
F00907F5
DF1007DF
F1F014EC
38FFECFB
C700242B
2B52F101
04170F05
13FAFCF2
FFEBEE19
F43036EC
D90708DC
BDA93518
20F82A1E
2311D9FB
EADEFCF7
0834E704
FDE2110C
E0101B0B
EF01D038
12B7EE3B
251424F7
EDD422E6
030BEADB
F510EA0A
EA021C2F
0B2015F2
F0F621ED
CE130AE4
3C0463F7
0B001B11
10FFFB11
2BF5F3FC
F7FAD91F
22D8F0E7
BF00F5F3
EBC31135
DD17440F
EC2118CB
01EC24F7
FFDDFE0F
2B08063D
D8E60B17
14F40506
00EAF1F2
F30EDAEA
D0EA11D7
000DFB0B
0807F314
EC1B0422
93BD050E
FDFAE301
CFEE0112
33EF08E5
17EA060E
0609F2F1
ECFAF1E6
1C0714FB
D51AE00C
FBEAF70D
0DD5FE02
2215DCF8
0916F353
13F9D716
D0F7F516
00FBCAD5
F70602F5
19F6D2E7
ED16EACA
1D09D1F6
00BEEB05
3EEA45C4
22FA1BF4
EF05F800
E6FA01D1
C803EADF
F02507F4
FB00F32B
16F9221B
C8F51219
B723F5FC
470152C0
FDF70823
EF060FFA
1116F104
FE00FC08
16F60DD7
1DE5F1D0
2DDD0905
E7EBD6D3
CFF70BCF
0AFCD1D7
2D18071F
D4110CF6
0DBB01FC
CC02D90F
F4F312F9
F8FBF411
02EC4EF0
9203FD4C
12DFDB06
021FFEEF
F0DCEDEE
0C090224
0403F10B
FC01E0E8
0B2EF8FD
0BD5F9F0
E5D4F414
F2CCD826
0D2BE103
07D1EB34
0D2B0641
D5E9EE0D
F9C0EDED
FAD8FA00
0C13FCC4
F13F0A10
1D02DC22
03561727
050907EE
39CD2233
ED07EDFA
07D7E12A
F90FFBF3
28EFE1CA
13DCF222
0249DDE7
F5EC1BF5
FCFAF620
E91AE111
D3D6F2EC
EE051504
38070408
EBC6FBF8
FD2501F6
0F5AFFFF
1FD3DBFE
E7F9F13E
EBF0FECE
CEFF0933
EBD0E521
0B0B0A1C
0FEDF508
FBFF20CF
F2DC04E5
CDD51B26
142E1113
18FB061D
E844DC00
F6FB06FD
E13833D9
05FCFAFB
11FDCBF2
0508D5F4
BD3D080C
EE2FEC0A
F824F822
14E600F3
F5E40D11
F9F8D6FA
090D1DF8
F1DEEE19
F8EB1811
CC27FA1B
FF02DAF7
D5F60FF2
1FF80866
F004CAFF
2BED20D4
16FAE9DB
BE2DF8DA
EC4BE930
CB041216
FAFE1432
0FE8EFEB
DFF011F9
380709F1
FC0CE8F1
DA1CC6E2
FFDA16E2
EF15CA22
E607FFF2
2F162907
37F00214
1C14F91C
43000DFB
050DF51A
090D05E4
E5F9D1DB
26FDE129
F8FC1451
CBEB0904
0D1EF6DD
1BE708F1
30FB3111
24F6412A
35EF080C
F4E7EEF5
0D01FDEA
D8D80BE3
0B142624
2514FD0E
C712230A
EFEFECA2
FCF915C7
2BDE07EF
F3165F3E
F943FE07
B215FDF7
0559FC37
ED162F25
F6222009
17EE250D
232E30B8
FE09DD09
BB194225
030B0802
09010B62
F1F2EC6C
0825131B
2FE339E7
E4EFCFF8
0E02DAF2
ED0A0F1D
D820313C
112013AB
16162310
11FA142E
45F9F86B
E3D4DBF3
D50BD14D
3310DE18
E6071123
F5F8FE0D
29090113
D7A1F9FB
0309FD17
0CF10634
FD044128
34EA141C
EBF8FF1F
0812F11A
FBF501B3
1EF2E91F
E70524FE
26BEFCE0
1DFB0A26
ECDD57E0
1FF9CFD4
BED6D427
67F4FE0C
DB000ED5
06FAF0F7
F80922E8
02FD23D7
0407F703
1AF1D8DF
00DCDFE4
21FFF9C8
0B06E2C8
11FCFEEF
2804F5F6
F6F53122
1EDCF8E4
2AE6F906
E9E828D0
230012EA
1A0DC31E
C411CAFC
1611E6E7
2FFCDB08
CFF70F30
E119DFF1
F1DEBD08
01040302
FD2004FD
E402DF1E
E4C0E4E8
FB00DA0A
E4F3C8CC
24F92F3A
05E5FA06
0602F035
00FFEC3A
F70601E2
E100F7F0
2CFBB43E
08303215
03FCEF1C
34EAD438
2E0CE8E9
EAF8F6F3
06E42FE8
F50FFE0F
E4EED731
E5012DF4
21DADE19
E6E311FB
F9E3180B
D2EB0D06
30CEF8C6
0206FC15
06F4E705
D7D012D4
27F80800
120CE8E5
0FE80B30
0FF2ECFF
060D24F3
0C08FDE2
EB2207E8
2DFDD30B
FD0200EB
F8EFFD09
FB20FDF7
F1D20108
FD0F043B
F9F1FD12
03FA132B
06E2050A
EBF70301
E6FC1EF6
0AD9F515
0BF824F9
CCF40CF6
001BF4F6
E500DCF8
F30A01EF
041BFE12
F605F920
FE202146
E0F01D15
45DC25E3
E4F10DE9
0D06F8D7
110E05FD
FB251CE2
0E14DEF4
E64D26B8
EDF800F8
F8F50F15
06F5121B
06F4000A
00EDFFF2
100A14F7
0C48F129
B33D12C3
15110707
FEEE0BF7
ECFB1EFA
F6E91516
1FCC3028
25B0ED39
1AF4F016
E5E6F9C5
E1DCE7F2
F6D322F8
EDF712E7
160C0A33
0516FDCB
FB202D25
02EDF7FC
0909EA27
DF10F733
42EDEF0B
0BD9EB08
FBF70626
03D2F103
0619EC08
2A20FE17
FAEC01E1
BCF31413
F3E315E5
2CDE021D
E81C1609
F912FD0A
2D10F6E7
F6D5F1F3
F5F70E32
11F012F7
DD0DF70F
DA03EF24
FBDE0F1A
F537F503
1E03F819
FB24F80A
E7E81B04
09FF050C
25FEEAF1
01F820F6
1BFC0110
CDE50902
020CD5CA
190B2000
FD04F8CA
28DB1A07
F4161DF7
210201FB
F90EEECD
1903DA09
DBFD36F5
08E9E5F4
FF000F17
CE1CF929
12F1E5F5
DAEDEBF5
0100FF04
F0E503E0
3206FBE6
0832EFF4
001913F8
F362F324
F8FBE0F8
19E30FEC
F8F00436
08C607F9
2B04D9F1
080B0403
13F0322B
442B6229
EDD618D7
F436EF19
1E270545
EFF1F302
0D0FE2F3
1911D218
0B2DF0C0
BCF8F92E
2E430006
24D30AFA
DDED3314
A4062F16
46B7F411
F21C103C
1015E9A8
0CBFFAF1
EE58E90D
160C1ED7
190037F5
0027BCDB
F221ECE5
0132180B
F3FF1C18
69FBEC02
F93F1F17
08150B3C
F610D1E4
060EDC17
F8CA1612
CB2AD500
CE4B46C4
300BF91A
0A0027F6
D4CBD9FF
F5E3FF28
D2EF3AEA
02BCF7D9
0AFCE30D
DF1E1422
050716DF
092B1832
E80C0BCC
2EF3D402
E9FDEE13
F4F3A70E
D933FADE
0CB133C3
EAE309F8
77251F1F
5A010900
334AF70D
0A00FF17
25D8D3A3
DDFAFEEE
F5F90409
0B37C055
1CB60EEA
0630FE19
F0051AF0
0B01E50B
BBDB143B
DE04CC0E
E9E539E7
D9C90214
18EBDB27
F5F1F5EF
F1FED510
DEC8DE47
32F329DF
08F20714
F10A29F1
DEE300FC
210832D3
1225143B
160CEE2A
EFCBF4EE
1005F227
04040FDD
07F4EA0C
1115ED1C
DCF7F407
F1E3F922
FEECE40C
03E617EB
060A05E3
CF131527
2807F112
1606E603
F3FD4BFA
DF0CFCF4
F501FF0B
FF220609
D5E9331C
D0C4ECC4
0503ED21
07042B06
FDFD181A
EFF30E0E
EF010D24
3AD926A2
4012F7F7
EFE31F45
E7EEDCF8
FF12E3EE
340F2DFF
E9381007
40E71A26
E709093B
12F6DA33
F0E9FC0C
FBF4F1FA
FAEB0F0C
0EE2E213
E8E31821
20F9E6E3
0EC905F1
E20DF9E3
210EE71A
18E8FE0B
E02BF608
F8FF1030
0C26F52A
25F2D5F1
011FFBE3
FEFD25E6
321A19CA
1BF1EC13
16503A22
E3A1351D
16EBE312
F3101126
13CFF72C
D692100E
ED21FF09
F1D519EC
56F31C09
2A48F935
41E7C8EB
DE321400
BA08FCEA
27BDCA29
16FF2315
FEA8F5D8
F819DFF2
1128E804
D924F414
42E1E4F2
15370702
1D361EF3
FC2D3903
1BFEE43A
E829FEED
CCFC60F9
232126D8
0505EAEB
F91A2107
16DDE6D2
EE07FB05
FCD7ED1F
0A2D02E0
F9DE1001
DE0EF505
09EDE92D
07E2DA11
FA40EBF1
EEEC16DA
DAE818FA
2F12FFFF
18470FE8
3D210137
182B5A0D
FB0703EF
E5C4F519
F0001D3C
D8F10AF8
2E19FFF6
02002543
07BC42FE
DFE1FDDF
2906FFD0
FCDC2C0F
0E2006FF
1228CE26
F40FFE25
100BB3F0
28031E42
11E30A20
F3EB07EF
02E2390E
DAF7F2F4
DCB8F329

