EAB203D9
EF6A06FE
F825FC04
E0F20AF5
27F8E7F2
1DB9EF22
FB15FD06
3E02FFEC
FB376B13
D1DD0BA9
1FEED50E
FC1504FC
BD1328FD
FE193C0B
03DEEB2E
E4E4F211
F30F4646
EB2A20D9
FDDEC5FF
D401F312
FD06CFE6
CAD7DA07
23A50FF3
E1EC04F8
0EE610F8
11FCF515
F91A97EF
B936FEEE
DCF2F7D8
C5D0F804
DB378DD1
30C80515
1DCB092A
CB3DE906
09FCF5D8
AF23E54C
0455CC1D
9E15F2FA
231BDCF8
B9CDF1D6
F6FBDB10
D710F61F
10FC1FEA
46FC1F01
FC02DEFC
D9E50A0B
0928FA17
03C8E808
05ECF6FE
37FF0FDC
170610F7
0515E2EE
110ADEF5
083A1236
091E324D
08090CF5
F405C726
ECFF2DFC
001110EE
CFEE14B7
FFE316E6
EF7305E0
00A8D706
A3A90FDC
F8090FFF
07ED34FB
FDFC2DEF
35F11021
EF04110B
340A1AEB
2DFB1FE5
162EF405
100C3602
8F02CDDD
1EF711EA
B4FF18FD
ECC629FA
0FF9F6E8
00C803EA
31E90AF5
F4C9E0DF
FDD809F8
06E1102A
4CC2312B
06CA26FC
0C0A0AEB
03433628
11FFF8F2
DFE7142C
16D5EC44
F8C40BDD
E925F5EF
1E20D253
CE4CD109
E50C1A09
0901F7F3
F6EBF7E5
06C6FE19
18C9070D
811CE813
1BE3F0F6
183B16E3
17F61437
11E40ACA
29FD2BCE
180521F6
F43AE909
F544E62A
04EEE1D9
34000BE5
FB181716
DC082903
E355E7F5
CD1215F0
1CDDF099
0D281705
09FD1116
DDBEF224
EFE8D2F4
42FBA5F5
E936DCE6
2ECB2414
050410F9
C4EF11F0
EE101517
F0ED0C07
E141E2FF
DE3108BF
EDE8E21D
F1F2F3E0
14D83AF8
31F5182F
030603EF
F53605EA
F9F5B709
0111FB25
BCD92326
3A4734DE
C4D4F1EE
CAC6F810
E6E51024
ECF70C0C
FA0106EC
DB16E317
04D3C6D1
DBEBF8E8
04141AFA
FFDF39FE
063710BF
422227CE
203F12FD
111CB8D4
DD0EEC14
CCFBF439
1623E405
181EB3E6
F0EF44EA
C109EFE1
24F7E2E9
D2F82311
DEE5AA07
282CF2ED
EF0206E6
EC0BFE11
3024DBF6
08EA0D04
D8FBF2F7
F73C1F14
E202EAF9
E0EF12EA
E207ACDD
FD08D5BF
2628C811
02151E4E
2B13F2EE
2F1CE704
D0EFEC18
2BD146F8
EBEE250D
C30B17E1
0FF705E7
E7FDD503
12112507
F3F5093E
2104051E
F421CCE2
0FD2F008
EBBFE2D2
C80E0011
2DC525E8
F722BD07
962B12D4
E4C9C3EC
1721441C
501CDB36
D31EC9D9
04E50109
3EE7D9CC
E30F2B3F
FDB133E3
12ED100F
33E8F4D1
2009003B
F0E604C8
2710F6E5
39F727E2
C3DE1F0E
1AFB21EF
D615B910
D415C90B
E10216F4
24F9F4F9
0F09DFC1
D9F447D5
E1D2DB0C
3BF2F0EC
F3E9E80B
F90116F5
340AD754
20F30608
0B100206
D611E413
2FFD0820
1709D019
F2F9D0FC
232DF7ED
0A111034
2D010316
07BE25F5
0C2E1BEA
0009FB12
F5425DF9
EC20EE06
271FEDDD
09F600EE
2BD72ADE
FA0607E8
C225DF1C
0F3EDE0E
F8291D3D
332504EA
DDFC0818
E79E2A01
F35203F6
D92213EA
14E20B0F
DA013B1E
2AF0D7EA
16E71546
B3ABDBE4
F5FB0104
2ADB0533
F31BF6FA
F91FD801
31FB13F4
0F210CF9
00ADE418
8132F219
FCC8220A
2A1C1BFA
05E7F6EC
DC01EAFF
E5A113CB
96D5D0FC
1DDCF015
4C9F001B
F6B4F10B
27DEBE33
112CDCEF
3F0D08F4
05D2B7F6
852CEDED
E8E508FA
0B01F2F4
FA483120
EBFC3CFA
F31E0EF8
1D0004F8
E5DF2DEA
BE091CFA
02283206
B90611FC
0F1F22E8
ED56FC0C
156D0CEA
2EDC0901
03F70700
E5291627
EA30DF2F
BEFBFC05
321D2805
7C173003
D42E09FC
81D902DA
EFD0F819
D2E8F0F6
23F716C6
61812008
24B1CC0E
A3BEEC0F
E3B9EED8
E0EDFFEC
323A1DFB
90020AF1
251BEFF6
3B2B1814
E529E305
E3F9FCFD
110120F9
3DCF0EF6
F6DD0E19
1508CEF4
199CEFD1
B621DF11
02C4C2F7
3E19DDFF
DF332B25
F5F8FF24
0334E203
24ED17F7
EF112007
25EDE8F8
3F0903E4
5E021E54
04E91D36
FCE62410
19050419
21FA0D03
29371F13
2B483ECB
0D27132A
D2FE193B
0ED0FB07
DAEA0235
3A501C2F
F033E4D6
39CF2C22
2CCA1DD0
ED0D08F4
32FB0226
F804200B
FEFED81C
080CE9BB
58F407F4
D5FF02ED
1B0807ED
1BD9E7D2
EE12C506
E842C306
D4F9FFF3
E43BFFD6
2CD50E0B
FEFE00EF
F10AFA27
23FBFBCA
E40F0BF3
DF4005C3
4CF6FA3C
3416E00B
1120E1F6
33381ADF
F6EDE7F9
130316CF
CEE20BD9
26C60811
FB2E0330
0E059604
28E3D2BE
F1E9C8FC
51152C14
E4FFFE0A
0748D7AD
03FEF6EA
E6CB211C
C7027ED6
272DF40B
08EE1101
37F21831
003CFD22
CFFDDBDF
0655F5D6
4EB3F203
0CB123FC
D3F7F3EF
0FEADBBD
DDF207F5
EBDEF008
F3C00853
2402EEA6
023FED1A
1535F10B
D1F6DFF4
14F02F19
070309DC
DFE93102
0FE5E420
ED0B0A0B
250619FA
0D414C23
D3CD04ED
33DBD7DB
BAD41913
2CD4E0F1
31321EA7
F72BF9EC
1C41E320
24F20EFB
25F5FAFD
2DEDF511
2BF9E71E
F10DF914
CFF9D043
F11CF6FB
0727F42C
05F9EE1A
FF120A3A
BFEA2B18
3518ECDF
2D439ECF
3C151220
16F432F8
1F2C0F07
F2CDFE01
0EFDFAEA
F2F4E8C8
235D49E2
DE0BCDD0
03F11404
1AEA0B12
0AD40FCC
FECD24EA
2ED90623
33EA2A24
29042806
2824F90D
E907BBFF
F82638EE
04241D10
EE27E5E9
B1E9F2F9
061263F4
25DABC0F
1625292C
4B515BFC
F3F0B511
EC03F722
3C08DC09
27F7CAEA
0201F8FE
1E10F9FA
F6A719FF
C9ED0AF1
E83D02F7
15551D08
F9E0DBF6
0CFC0B06
EE100714
F80BF5D4
05DCF406
0103DFE6
FB06DF03
DEE5081E
FDFD1AF7
F11B0104
08F131E7
170C1505
1FF81205
0105D7F1
C7EE011A
1F3D1DF9
EE1AE931
0015B609
053C042D
0CE323F0
F6EDEEE3
F71013E9
0AF7F4F6
15FD2510
02CC21EF
DAFC39FF
E3EEF004
06F616F6
D815EBFE
04080A0E
1002D0DC
193DD51E
CE0813E8
261CAFD1
FEEE08EC
F6110009
CE0AC41F
15C43B08
EBDBC7E7
E41DEF01
33022E01
FE200712
18FC000A
FCED171B
F2110EFA
3CE5F9F5
E9051E04
1D18EEFA
ED2B130F
F40F310E
FBC700E7
1B50DA32
F40D031A
FA0AED02
F6F4E924
0E15EC12
F92518DD
E3C303F8
F853DE00
BE223FE6
EBF20103
290A0A1A
2804E9E9
DA071106
10C0D7D5
1CD90704
F1C2E30C
03D33931
FEECFF1C
2BF4F132
DDE40017
F02B49F7
F707E8F4
1DF5E51D
ED0FCF02
2E5EF826
01DA0709
00151AEB
FB32240C
BF06C612
22BB1EF3
CAF5EEFB
EC13DFC2
1510110B
08C7F9FF
E8F5ED0C
0C13F705
FE1ADCDB
0BBE0C26
55F40918
0703FA05
C7270511
1C2139D3
10FE22F1
2EB90110
36D8FF15
08CCFC00
24F4F9E3
03B4FB33
4BC518E6
FAE5E734
9AF4CB0C
0D33F6E6
4B2C22E4
1C09F92A
F4ECB915
0C2B021A
EBE3EB00
14FB2DEC
18E3E2F6
DDC04C50
A802C719
F4F0C4F3
D9DC0DCE
F026180E
0669DE0B
11110EDF
11FA0D1E
0ABE0EF5
B3F6F0F4
01E63348
9A292AF1
2FDA171D
DAFCE6E0
F81AF728
2FEA56F6
6EFC26F8
2DFB21D2
F53EBEC5
6829BCBB
F6ECFBDB
11231526
DEE10B36
E7E4EFBA
DD0C14C8
0FDA21BC
2236F70A
F50224E1
19D5EE0F
0CCCEF08
10F22545
2552DDE6
FDDAD3F4
DA4A2395
09FD0904
0C7E1317
DCEA2500
272631F9
9704D00F
ECB114ED
1A05DA1C
A6440C0C
32CA2E14
F11907CF
450A22E1
F6162746
D23829E8
F0323C1D
302302D5
08D3D4E9
21E4BD1A
C3E72731
E70C0144
4EB9232D
CA0C1317
EAB54AEB
0BF11902
BBC5FE29
D1FD07E4
FC461A09
F1D4F6CD
07E92BEC
EBDBBEE8
DAEFF425
FBE8FBF4
4C9DDBF0
E327C9F6
182025F5
FF2C52EE
E74E44BF
20F906F1
01D311D5
E900192D
CBED0CEB
01F7D837
EEC5E0E3
0E0023FC
18ED1D21
FD11291A
FFF40E0D
EE02E212
BF7E208D
FA2BCFFD
DB11E139
02201CF3
091B04FB
0B091B0D
1EFA06E5
DDC8E130
F6082453
DFD4F213
DF4320DB
E805141A
130B0500
CE080EE2
F0E7EB1E
C00108EA
FA00DEFB
3EE7B5EB
02C4A5E1
FE19F903
F7C70E2C
0A0EF416
190EFCF7
E406DFEA
D3E00A02
674FFD16
05DBC9E0
FD0DFAD5
0C240C18
D20A17F2
08E009E5
380915F4
372CF50B
FF0902E2
FE02EE09
DF26E71C
2C4FEBD1
012FF0D8
FAF3F90D
362DE7F3
10E8E80B
0B2133C4
E55106F6
E7F00DEF
F8F3EE25
17CAE8DD
E814F6E9
B7310CFC
E40AE9E1
1F0AF7F1
1EF823F5
12DB031B
FC0406E4
C4DEFA08
100AF648
FC17F8E9
2FE72FD7
0F161E2E
F5F0D724
290C2C21
21FFF4FF
E1EBDF01
7A2616DD
F10C30D2
0F12EDDC
CC09C9DC
03D9E2C9
2A09CFE4
0BE1EFED
E6241B35
20C74319
19134247
1E3F0E00
0ABF1E12
EFC4E3F4
FAF21CE5
15D716D5
1A1D1C22
48C92B28
34DBEED0
D9D7F0EF
F8E5F6E9
D7E5DC14
D82C0922
7CF51116
E914F7DC
C1604EBF
02DE1D9C
43060AF8
BE130F04
22FB16FB
F4FF2BBF
C014FC06
22F2F6DC
F9170C25
ECBDDF12
441B170D
EA1422F3
4407FFF0
FDFEF7F8
1D3A38FD
0300EB17
F006E645
322812FF
F3B5F422
18241C81
16581D1A
280C1E1C
13FEFB23
FA00DA12
3C09FFEC
E8DB10DB
CC3420D7
21FF1DD7
144A0AEB
0807ECEF
E3050EFA
070401F0
E8D50424
16C013FE
F244EE17
3FFDF21B
B4230309

