17264B17
F714D9EC
ECE1F2D0
EDF22119
B2D1D4F1
05DF190B
110B0016
05D312FA
0D25D2EF
D91A1AFA
1419EB08
F10007FD
0007302F
11FD0112
0C07EB2A
D80102E0
FF1A100F
041604FC
13EC26F0
B50BF63F
1A1EF5FC
D5332532
401011F5
33B7F1FD
3FE6FA99
D5EFC3D5
1E14E7FC
E9CDEE35
37FC12C0
EF101AFA
EAD30A33
D92240EE
28B7F2EB
D8E426EE
F9F3F900
FD20C4F3
32F112BD
55ADBA2F
F02DDDF2
FB00E6DE
F9DAE6F0
F2173BD0
FCF3D346
1DFFC1CE
DDF667E7
0729BBEB
01B5EFFB
F5FF2BD0
ECDAF403
FB1AC10C
080E0E18
B916B0C8
190BFF07
1BD7F0EA
F51E0006
0ED91FFE
2A160891
38D8D9FC
DB2CFAF5
19FD2C32
C1ADCD10
0110FEDB
02CAC00C
09D1C8E8
F7F0E210
0E22E70D
F703F6B9
F9EDED15
02EC11EE
FCE21803
DDF7ECED
0B5C1609
09F0040C
0B16DCDD
EC0DEF02
15FC0C00
FB0FE101
0FEC050A
F8F3F1FA
DD000D03
15EBF50F
04FDECD3
F1E63C23
08E10117
0820D20B
30DB16A9
17FEE228
D0010412
081D1EEA
FAF714E9
0BF2F8EF
1EE4E6ED
1710EC0A
F3F4CEFE
F8204AC0
E61CD119
081CF909
E9010A24
2DE30709
E7FDF9E1
FAEAD96F
F9E1D4FB
280814C6
07DC3DF6
041FDC05
250ABFD7
1601F308
EB0116F4
E5F2E004
EFF8FD20
0A1F24F1
0C50E2D1
1AFF13D0
F0E5F220
1AEE06FB
F0EA0DF4
F424FCC9
F2EC0EE8
DECB1EBD
210C1907
01E71AE2
E8F7EFEA
0B1702E1
17F1DAF4
14EED9F7
1447F8D4
F3F4F162
EF111E1E
D9F1371F
04C61C12
DBF8FC0C
06F928DE
E00E1CE3
EA0CED20
FE0F060F
110737CD
010AFFE7
032313E8
10E511FA
0DF9DD17
3E21E3CA
431C00BD
1AF01E17
0F3DE148
3212111B
0D0AFDD4
4302E5D8
EC3B24FA
F2ECE1EB
EDFBFBF7
E34A0790
26DBE201
F6DFE5F7
D82BDBC3
14FC01E6
FDE9F327
FC110701
F7F6EAFF
D5300D1B
EBD1F6D9
25DEEFE7
18C2F5F6
05D80332
F92A113C
EA0FE723
EF291140
C52BFB34
08EF1803
FC0728E5
FD05F4EA
2B262227
CD1F3BEC
23DFDC45
0AF90E0F
0DE3F90B
3625DB00
F81BF029
E60AF7FD
F7FD22EB
2727B922
29142E18
093EFCDE
2E009D2F
35E80624
0D0DFD07
F907E225
D703FD02
361FE513
DF0CFBD4
26F3DF0F
1AF1E0F0
17FA020A
F20AFC2E
DF02520C
6CDB0F0A
F920CBFF
F30BD1CC
D6FE11F6
FE024016
E70DFB20
B708F8F2
FE030613
E7040245
DD0D2202
23F229FF
FAF9000E
17FE2CEB
F6BC42F8
E9F70DE7
07EAF41C
0E1EFDEE
38DD4610
051118F4
F4EFFFF2
EB0F1BF6
FF0D10EB
0AFDBF15
E0F71DDE
DBFDF9FD
1A040ADE
2427F1BC
21FFE144
2AFFF3CA
F1D9CD14
01F0F211
2C1614D7
0BED0FF0
06D60405
EAECE1E6
0025112A
F9132581
E6D90211
D7041C08
07DD0E02
191605C2
DE0AF9D1
D7110F22
05E304F3
F2E70A18
E2051AEA
E91ADFFB
F6B34F19
CFDF0B04
22060C1E
EBDEEC0E
00BB10E1
B8082007
F3DFF9E2
1DE903FC
FC26FFE2
6400FCE0
FCF4E920
1405E8C0
FE0BE718
1C22FF05
EE17F3C5
FA00140E
03101000
DD10ECFD
E6FC3703
27FA12C5
0E0DF9F6
00E913EF
05CFF8F3
00E615FF
02FBD4C8
09D6F5AF
E2D20DEE
ECFE0220
30C7100E
CFFDFB2C
16E8EDFE
0EFDF30B
0AE1070C
E8F9FB19
02070D0C
E110E3F4
2328FB0F
03E5E4BA
EE041722
FCF637EF
1C122AF9
E5EFEDE7
0BFD02F5
FF160E12
15E53505
121EE7F5
E6F322EF
17140CEE
F1FA09F6
180216E9
DE2AF2EE
1AFA2713
F3E7DD22
07E119F0
FD08DC02
071DDF0A
F3F4C3F2
DF110C03
1B0DF2EC
06FBF2C1
DC0503F8
0FDB03FD
033D210B
EF01E9FE
F5F2EF26
0DFB1FF0
FD261903
10EC1406
EA42F90B
FDEA07EE
F30227F7
2B2317F9
FE051BFF
1F1D040F
ED15FCF5
FD09E8C4
D9FDF2E5
FFE624F7
3108F0FD
FD15E8F3
E40A1243
02EEDE44
181B33F0
E0162B90
03FAFA73
E0F0D423
CB00D4E3
36F54DF9
45BBAAEE
07F24C23
01E2EDDB
D4B1E7FB
02F0FFCD
1D88F7F8
1CFFF3CD
28E3E309
FDC0F013
232FFF27
1CE30016
ECEC3DDF
EBDD12E4
BA2D01F7
F7F0ED32
F0FB0BF7
0BE52AF1
D4F51313
C9F80BF4
ED13F733
150FDAC8
D10331DB
F913C714
0D1315CB
EEEFD8E1
25C912E6
D7F301F5
4EE30C31
1E022E05
C9F8F8FC
F7E5DB0C
CD39D60F
103638CC
FC30F61B
C735F75C
542EF6FE
0E060C35
03FE1E1F
3BC6C51E
D0150F22
DCFE0312
F1090D04
B90CD9DD
D9FC2B19
38E139FA
20E640CC
E69C04D0
5C160D14
F6D0E1DB
1DED1E13
19101E12
0FD72DE6
F9FAC22E
F818F020
E9E9F402
FC120504
0828FC04
2635F4EB
F350041D
180CF200
E5181AF5
DB1BDEFA
D3FEC9F6
EBFA0BFA
953CEC11
49042404
DE1935B6
A9F00A1B
1CEB0113
0522F40C
0EF613F9
F90CE52B
E324E4DA
E111F0FE
24D305F5
D2CEF5EE
FE000605
D011F29F
51D55800
E0102214
DB2BF71A
08F8EE27
1BFC17E7
F0240D03
FD19FFFC
F0E60938
CBDF16F4
1AEDE430
FCF9F7EF
11F9033E
32ECEFD7
F70BFED9
31E117EA
3625D529
01F3FF4D
F9C89916
CA1341C0
18E110EC
35E71BFD
2ADBF5FE
1C061427
F0F219F4
D611EA12
02D6EA1B
090D33FE
CF300CBE
3613E6E1
18F4EDFA
2CD1311D
FCFE00F3
F0DCFC09
0EDCF8C6
20C61512
17F825DA
F31151DB
2FF70B18
14D8E0E6
1433BEF5
2FEFE7B1
10EE00E8
03141503
DBF3112C
3434C7FD
08EBFD48
DE131109
09F3033B
DA17F6E9
E2D3F501
2628E0B4
E5F506FA
0EE617E9
F5F2EE12
13E1FEF7
221BF8EC
DF08EEFC
09410D30
F41005FC
DE1814CD
29D8E809
29062307
E014D9FB
0C001EF4
19150B10
DA10051F
E213010E
D9E1E31F
F70B1607
E3120F20
D3F71D16
050EF902
100D0614
10160A07
00FDFEEC
E204FB0B
23FAFFEF
2102DC03
01F9D4F0
BFCB3329
22F1FFF9
F5F90B11
1B4B2EC7
EA0AFDFA
FC1D14E1
171CF0EE
E8F61F06
0A360022
15FBF10B
03F507ED
13F70600
0203D9EB
ED2FBD35
F429020D
02FDFD21
CD1D0904
35FA09F8
15071D1C
0509E0EA
0DD6FA0A
F9FDE516
CDDCF439
0216D6F1
FE0C41B0
04AC3E2F
EDF71304
E511F4EF
11FDF430
24031A03
E10322F0
0CB40B09
0913FCEA
FFEDE3E4
23E0EFEA
E337B6ED
D612FCD8
1AFE2A06
EC040CDB
25F21BEE
3DF708F1
E5360EE7
2ACA51FF
1B06E706
0DF938F8
FF051F17
42E3F413
03FBE713
00040505
DE110C06
ED04EE11
05F124FF
F018F8F0
09DEFBFC
2F1306C0
02140508
24151EF8
18E8D2E6
01FEF81B
DBE00D03
FBF9EA04
EF0200EA
26D6F0EF
DCFCECF2
EF08081C
E3CC24D2
EFE035B3
2E27041A
13F50ACC
02FAFA03
0D2E2CFC
2324FFF7
F4F63205
15EBE3F8
0F1B16D2
02C21924
170D04D4
0401F213
18F00409
EBECF8F3
FF0AF707
FFCAE212
EBF3EEF8
D60442DA
F1FBF8F2
DCF8F30B
FDE2DEFF
1506F1EB
F505F922
0FF7F70A
0FF2E812
45D0F4E5
2FF0382B
DB2AF0D6
F81403FF
1BF3EDF7
EBD8E011
FFE6E0F3
4D0499D7
F7082119
23D7ED35
EE26F5FE
BFFF01C3
E83918E5
12BB0ACE
EE7ED7E1
D4E34800
1630CA28
CECA27E7
0ECEFF2A
48ECE28F
E13462F1
16F5EAFA
1002EADB
D425C42F
C907F5FE
0013E706
FA1AEBEC
FDCD2E07
B9CCF420
EE1EECB2
DCC4F9D4
FAA8E738
07D80AB8
E4012800
04261510
F5320109
DEF4EFDE
9713E5D3
F0160FF8
EDF3DC09
D9EF1910
070A27E5
E00ACB1B
DAD8E8C0
F1CD318B
B7EC0210
B720E7F6
299B15EF
E1221203
09E1DED4
DFFF3CED
0B1AF1E5
FEFBE01E
10DEC821
092DA420
E938EC05
B512F93D
F7FE09D9
FF29E315
2918E7C5
523C2AE4
1EF8E3F7
13D3F7F7
1537E107
150FE0CD
F2F10B06
D70D2DF1
07FEF03F
032B37F4
0202F32A
04E8D5D7
F721DF1A
11F3161A
0BECC9EE
FCDCEE14
F30EBFF8
F707F22A
F5F7FA11
02EC1B06
02F0E8FB
03E3FCF3
ECE70204
FB071227
F1FB150F
E70AFF1F
F6FAFEF6
E401E4FB
3932E710
212F07EF
130911FD
FC040CFB
D501101F
E5E5CC37
880BF002
10F9C9ED
E81613E6
00FC1BFF
DBE5F5F8
15F8F9E2
BDFF2119
F8D01200
0702FA09
042E01E3
2A191912
0A0B1513
F606E833
D5022902
16F7272D
DE0A12EA
F2D9F003
041A2BD7
F6052EDF
F30F28EF
CBC2EAEA
F7E703DC
1C01E4F8
2126D2C3
21EBE531
13FCF9E2
0EECFD02
04F30306
CEFE25DD
FF0806C9
F03EC105
1510F3E6
DAF90B02
EE11F40F
30DC11DE
0DF00FCE
EC08000C
DFD7272B
DCFFDCE1
D9020709
0E1BE7F8
EC1E15D4
C9E1FADA
E4A53B00
C4260BFB
BA28D1F4
18002B0D
10F80DF6
1EF125E8
F2F0F6FB
11DA12EF
F704C450
D90C1321
202F0DE7
E1F5FAF1
1026EA0C
05E23526
13C2E1F0
15262911
35EDBDF6
F9F02F0A
FACF25F2
11ECDBE8
F32BF710
011B15E1
E0D7D10E
3110142D
F309FDC4
FEFD051E
08FB28EF
EDE92515
00161228
EDF2DC2E
F7EF0E03
29DD0C2C
0305DF08
110DEEE3
FDF5F53C
09F0093D
1DE216EA
0A1EE309
1B1CDDFE
0CF03D2F
DF0FC9EB
E4D91303
25E9FC37
E103EFE1
D22BFDE3
F5E3FAE7
08FE12D5
E5F51BE9
2504FF09
30EB0EEA
34F5F911
102225F1
DC101232
F81042FB
ECFAC12B

