17022333
0BF7FB09
F5E21820
E4112015
26190CD3
271FC61E
2B022104
0EFF5BF9
03090BF5
F9F91943
150F1FE4
F2072F1B
EDE50AFE
C922C3BD
DCE9C3FB
C9C50A0F
35012220
D2262028
F6E3D7F0
FEFE373F
AE1D470D
3DF00138
2D121553
D7DBE82A
1EF9E80C
030906ED
0D06DFCC
F7FE1D40
F4050CCB
FBDF44E0
D3C900D1
0CB30ED6
1F25F312
1007BF13
FCE405DE
1612B7F0
E0F62FFF
220A2722
F015AA20
212C150C
B90217CE
0F192D44
F6080126
DC0A23E8
100EF71D
FE02FBE6
58E939E5
08031BE5
9AF5F303
08FE22E9
22F1EE02
45391A30
D2F5CDCB
ECDFE8F0
070B2BB0
E2EADEE5
08ED1E22
0205BD1B
2CFE47E8
46F9D6ED
DE061220
1AED0725
F1012DC9
BAEBBD36
3081FEC8
FB00E9FD
1DDF1E0B
E3C5D7E4
F381F1EA
0E0DE2EB
F51CEBEA
E2161813
000409FD
CBEBA2FC
0F81090A
16FA2709
5981F42C
EFDAE208
D57ED3D7
FBFE08F5
F087DC32
1313144B
0A363BFA
1CFAE82D
317EF501
110CE1DD
4FF62427
04FDBB2E
45240155
E1E7E004
8FBF0FDA
FDEBD3E1
E46208FB
A7F11933
3637D72B
F5F4E202
364714E1
D210E314
E8DC0EE7
2AFEB117
E281EB09
F129BE07
C810EB0A
CADFE7DE
06810807
FFE9D0E8
0A3EBFD8
07FD093F
1FB9E513
05F1F921
EB1D0900
0E01FE1A
FF120DDA
E73544E7
13DBE6E4
19FD0C40
EFE3ECD1
00FB02F1
FD7218E9
1A2421EC
E58102F4
ED32D3ED
00C5E80B
2101F925
F67E1110
ECEE0AE3
FAAB1F2C
24063C4C
0018ED09
EA09D71D
EBD22402
ED2B40D8
F8F1F4D5
13FAF923
14DDD81B
1EE4FB0E
F101D504
F13DF31B
E4D50925
E110F617
FB12FB1E
C9E9F7FC
16FB131C
25ED3313
41EA22EA
E404D036
EB08D7E1
0539CB13
BDFC13DA
D31E13DA
EA160ADB
112D48F7
E3EB073D
D1E32C0B
F8000618
FC0220FC
170BF3F6
DEE5BD20
1D0A0AA4
F200070A
261003E6
15EAEF34
FBDEDE0C
E5E9F6F0
0E086716
0E23CE24
39F70DCE
CEF7EA02
07EEE6F3
BB1CDDE7
B609EB1C
D3DE0EE8
ECCE37B8
2BE53A32
ECD9F9DC
1FC7F9F8
2E00F845
25E60AD2
F022ACEE
16E9F6DE
D103ECB2
0311F7ED
DDF5154B
0D16340B
012D3013
E9DED12B
28F30B10
34012618
EBECE9F7
940BB72C
3BFBEF02
F8E10608
04D51D0D
422FCE26
5309FE13
F1010EFF
1CE42DF9
EACEEC4B
EB17F3ED
D70703C3
081B0813
1FD3FD3E
1D071624
0800C7B6
EDE53FA1
D742D1F0
9C14C711
FCCA21E4
CFE02216
15FBDD4A
CCD11EFA
F4F6E8D8
D2AB1EDB
22F8C9F5
AC0301EB
1B00370B
F11F1106
D20E10E5
394D0A0D
3B3A9913
11021422
FED21F0D
EE1CFEEA
CFBDECD4
F32720F2
3DFC02F7
F326CEE6
0DD948D9
C906F6E7
EF361214
10D603E9
32022D48
CD201B1A
0325FEEF
DBF425F5
F72A990B
F70BC443
CA313D10
ED092619
E3DDD4EE
CBEBFD05
E121B71A
FFF2EE32
4D04DF09
DB1337EA
0A36D0FD
EDF8D61B
15F509AB
F7F719ED
ECF9BFC0
13B02A1C
A6FB3507
1C0FFD08
CCF9FFD0
FB0F18CA
F9C8C6CC
130EE605
F8EEF5F8
18F2F11D
0CDB04E6
F20B04C5
130BE508
070E0A25
0FF30B3A
0301D0E1
0E0432D0
26132405
F8CCF6DE
2512E112
C40F1823
10F9C701
33F311C0
DCEF1109
0EE3C4EF
FD110E05
1D38E6F4
01F3ECE0
151DEEF8
0A14E117
2909F9D8
0397E8F8
070908BE
ECDF0A12
1C1022B7
1627F101
FF1926DD
E700DD05
E01F0201
0FF30CF0
F0013D03
2A1D1BE0
E91CF312
2506D6F5
F7F6F515
13D3F9F4
1915F609
1EFFED0C
F307EEFA
F605EAEF
27120FF3
1CD5DCE8
1413E417
EF0FED02
E9E7DC06
F706F202
0E151AFE
A5EE31E5
1EF716D4
E7AB02FE
E4F90F0C
0B1DF7EC
02F5F8DF
1EFCFB0E
09F8FFFE
05080CEC
0F0612FC
03FEEE0D
FE16E5FD
D5F91AEB
FB1200E2
1924C1FC
0929ECEB
F40B0DEB
0215F7F0
A9EBE1C2
EA3B284C
F1E8E510
D614EAC5
0F0A37E8
FEF62434
CA26C7E7
C1C2FCEE
2BF00AC9
E7121803
30EEF5EA
F80439DF
08D3DC19
01FB0F22
21FDF40B
21E5C84F
11211C2D
E235F9FB
CCDED9E8
E82D07F2
F6F147D2
0EC40555
15EAEAFA
24EA0FFF
FE1F050F
1300FF3C
09E9F108
F301F0DF
15CF030E
3201D455
0D1B1AFE
F7FA13E8
32240C1B
EAFDF221
2AF32528
0ED931E9
ECF55DE9
3BD6A3B9
2602DB12
CB583D00
081411FC
E100F3FC
DBE21FD7
F80E0CAB
2AD9E00A
FE0B1030
12F34112
651107FF
FAF91F2C
F9F112F1
2BC81A18
00F832DC
EBFA37F6
051BFFF4
FB1E26F8
2DD9D4B3
254002F0
DDCF1912
04042CF2
F435E7E9
EEE5E648
EFEB25D2
C10F2E24
69181D08
0707F6EA
F6165109
E8E4E897
F72B0CE2
2110F2F1
022213E1
01FA47E7
DC2B4623
E40DF015
05DEF82D
FBE920D6
CBD003DB
2C0A0901
17F70C2E
1F031115
3F030A25
F40DE400
25FDE8EC
2FF5E515
DBE8EEF9
FEEE0DEC
0AFBE0F7
1BEDF5E9
C4A00ACE
E31304FB
10EDF6D7
2507FC23
DB0E3CFA
EAE617C3
1113200B
E108DE1B
02E90EE6
E6E65B36
26D000B5
EA03560F
0C00DCE6
B10C0AF3
EC0EFAE9
20F90035
BA14EF33
E611E6FF
F1EAF512
02050503
08F2D21B
1FE50203
FB05FCF3
330B20DC
0CAFE2DB
3B151935
FB21FF11
03F6163C
00E80D43
BDE4C255
1B114DEF
120A0325
FF2039D5
430207E7
17F0D1FC
F4F5D609
EBFE01FB
18CAFDED
E1E609D0
FC47231D
E2D70FFE
08F8F20A
EDEDDDC4
0102081E
08EE0B09
07070107
FAFADA0C
FE110122
0EFF13F2
14021610
F010E2E5
0FE70FFF
EFFFDE13
FBDF11FC
EE0AE803
F9F7D511
1B231711
10DC0BEF
F71C2518
35C7DB1F
39E219FD
12F4DC04
F826FAD4
0DECF3FA
E3E9F408
F02B19EE
130C1001
041B04F4
D6CFCC1C
0C2602E6
F4EB0609
F6FFFE0F
EF101FE2
FDBEDF12
BDE016E9
CD44F2E1
DC18E01D
F5050704
13040315
032B34DF
1F37EC19
05070E19
0CEBE3ED
FBEF4612
0AEB0912
F40AFB15
E8F80812
F50FE3F5
FE1A06CB
CE0F0ED7
D104E507
F1DBF300
F0F9F2F1
0F5104D0
D830F104
E234A3F6
F4C9E8D0
00E1FECE
1D111006
181949E8
2703C7E1
1938281D
F302EBC7
ED0A16FF
D41E0DEB
0A01C7D6
1C26F8F2
DF0FFDD9
140B091D
F526DEC9
B41A3824
2C1F2D1C
0630DD53
AA0511CB
FDF00CE2
2D1F3AEB
DDFAC726
F9FB13F4
51F017EB
0DE512DD
19F80F09
E6F903C7
07EB06E0
0C1D1312
C907D35F
0103EF3A
2C2DF3FA
D91112FE
FC04FF46
FB15F910
FFF9E6D3
F202FE13
05FFFF20
0721050B
F4CE2CED
2BFDE104
19F2F22C
F5F6D214
1306F306
0E12FDCB
F522EC09
D5312BD2
200228FE
E3F6E3E8
C5FE1AF1
0206FFF8
09F9DA0D
C909F5C2
09FAFDE4
E1F3ECEA
E5F3DC24
DB1904F8
F7020A02
F41E37E6
083FCBE7
E1181104
30241018
FFF915DF
3413EDE3
2D14F80E
051CCBFA
201A213C
09EC20FD
C1F72F21
2DE847FD
FEDD0920
1A4515CE
2013C61C
DE2D57E8
1F5202F4
D2F504FB
FD9D2216
FF2D3C20
2E1DD51C
071F05EC
00E7FB2B
D0E9EEFE
4FE617D8
B809CF25
F28F0B05
111E4DF4
4A39F44C
4C0CD700
1633A8D7
FD12D719
CC17C912
E02803F5
94AECBEF
F2F1CCF1
EBEDD8F1
DAFCF10E
2D242C10
1BDF10FD
BAD10A24
E5D3D27A
EA1FBD13
033FC330
F41CF2DC
D7EE2A29
15E91BCE
2E1428B9
ECC8F0EA
381AD9F6
A86F0B9C
1219E2C2
57321FCC
0812AD36
0AFFA50B
0BE30A3E
132AE202
1532DC39
0A10F8EA
EBF3F349
D3331CD8
F9F506E8
FC31C91A
07F6132E
391DD319
07D8F7F7
2118DFFD
EEEB980B
F8F0EC35
BAD92C35
EFD7D0C7
43F7230F
21EBE2EF
2B10B114
2027FCF2
DF031B38
FE081EFD
16294CDB
1EFE021D
1E05F82A
4014F116
0E2A1C10
130E1730
1A230CE6
15EAF1F2
FF10D203
0CF905F0
102704EB
F5020731
03122433
FECDF9E6
02DD340F
E9FFF4F4
F6CBD802
EADCEEFF
26EEC509
22E20112
34E6FAE9
0157D3DF
10FFF0FC
E23CECE6
DED5CA3F
EDFFE7FA
F7D5F927
0A15F600
1AECEB25
F5EC23F9
F70C0145
2845ECD8
1815E529
EDFDDFC9
E9F81320
DD170100
BA3025F7
E4FF0AEB
E4110E05
32B0F218
09F3FAD7
17081008
26D8E51A
26150504
E0DA25C7
DBE3F11E
07E3F7E8
FD4AFFF8
FA240304
00D9171A
30DC191D
02B5DCE7
28FF0D08
D4F12F1E
190D3811
05ED1104
0EEA0E1E
FA021422
EE1BC717
A8361FC9
0FD60CDE
2EFAE6F2
D9DD110F
D1DE05E9
0DF81425
1AC1FAE0
46F2C0BD
11132C11
24CAED1B
0A38F2E8
2E31B8D4
1E101DC7
E70EFCFA
421C01D9
E1EE3115
097E33E7
1810E803
24DDFA23
FDF8BDFA
F6D5CF12
3E1F1400
FEFEF61F
E7EFF91F
1DE0FA15
CE110D0A
00F218FC
EFE3ED30
014FE9FC
07F9160E
DDFAE7FD
C3E14502
300BF633
FED4D74B
DBFD1BD9
DAB543E2
EAFAF813
36AED428
037EF1EF
2D120533
01B7CE1C
F60D44BC
0C7704DD
C9050CC2
FC3C0D06
372CD322
D84D0902
CDE207D3
3606BF0A
22081C06
1D0A2450
1BDA24D8
3319F30A
EBC33F11
1A000ECF
06DD2FFA
DF22E94C
CDBE2A1B
1BA3D636
C245D0FF
040F4D15
2727DEFD
1ED315B7
2CDC0826
DF11CD1D
1BE00435
E2DC3AC2
C2C30C2C

