0ADEECFC
00DC400F
1422F520
EC1F17A8
1BEAFFFD
29E4D019
F7CC0517
EEDAE6E2
14DB1901
E204E6E0
FFDEFD09
EEF5EDF4
41F83BF0
DFF8D5EA
F7081503
F7FA0C00
F2D7F5FA
0D112E1C
0016202C
443C1627
C601080D
E1FCF22F
2B430E1E
48040A32
2175232B
0BA4DFD2
EC3DE4FB
0E3A2BED
E6E32CF8
20F53E06
8C060A11
1806F2DC
162665E2
3EFBFB18
1525192A
CB01D0E7
06E2BFFC
0AD9F3F7
06F50701
03E30B1F
E555B3EA
221034EF
0EE6EDCF
413D11C1
17E41913
E72A3D07
F9142509
DCFC08C9
340CFB07
F00312F2
F81EFC12
39B82DF9
DD27201A
FBFE25DC
F910E5F9
F046FCEB
25FAD832
2506E2F0
0FDD11EA
E711141B
0D22B738
463013F2
10F5CFF0
C42ECBDD
45D3FF0A
CFEFD4ED
0BEF2DF0
1ADEF0F9
074310E1
2C21F702
E0E51BDF
E74017F2
1055C2CC
47AAE5E4
05FBDE01
FD070D12
F9080303
D61501F1
F00F04F9
1C1F05D9
53D413EB
634C02EC
F2451D0C
E9171324
1DC0D508
D4F505DB
E1323AFF
0B560A2D
F810DFF2
352D404D
24FBF2F1
F21A4B08
26F71319
DD4F2307
082ACA16
E287FFD2
F81D23DE
E2231AEE
E4E62FEB
07E3EA17
FA03E201
BFE9A62E
0113D31E
8B135306
01E43300
F3DE2FEE
FC1D08E7
E8EE31FD
1700DAF8
DFFC2812
2636ED08
FB143121
0AF43A35
1115D31F
E8EDFFFB
EEDB0221
E52635E5
20D4241A
32ECE0E9
06F1110B
DD23E2DA
19D2051F
E0F4F6E1
002005D2
1EB7E105
67F1D808
15F71EFA
D8FCED02
2113DBEC
EE0D0FA8
1C170D33
2A09F305
E8E213E2
D93CF303
1C24C140
F1F9D731
EA09FB11
15F3D818
E632EC15
0E35CC01
F4D8F6FF
0CE5F020
15C3ECC3
02ECD9D1
0112F4ED
FDE5EB27
D22BDA1B
D130EF14
1BEBCC22
DD93161B
EFDD4B13
170A31E0
EB03EF42
421F050C
07EDD0CE
00EBE2DF
EC1BF3F2
0F2D0F09
04E6EC01
EB1E10E9
F53DDB08
3AE4DE4A
FD3E643E
1AFFF523
E2F943E5
E5DB1301
10D5031A
D718E8DD
E10BEEEB
1813F710
D3051C11
BACDC0F7
F0EBD5F7
E4FF11F5
D90819E4
F3F6CE04
06F8D9FF
FEFA5203
1013FECE
114BF3EC
E420EB13
0EC51C17
EBFC462D
F3FEEB23
09F1D8E0
0F14E8C0
03F9C340
20F20BD6
0BE8EDC3
37EED6F9
0DE90BF3
DADC05E9
F513FB14
E015F136
EE452403
E1FE19E0
EAD40E1C
E21818DE
D4013AE8
F231DE0D
FF34F004
CCBC591A
F5FBEEFE
93000CA0
F7EECF38
FC1CD738
FC1AE305
261C7C0A
D41BF512
01E60806
D82823DC
29D1030D
29FC0BF5
DE022502
E919F1FD
06D70A11
FF5D1AFB
F01EFE1E
3FFEF214
D23701D1
140C140C
E407F1E3
FEEB0EEA
0728EE12
310A19FE
DFE5371A
B2E9F3E4
D71A2410
1414DF1D
FDC905F2
011AD5F2
0BD6E247
33F8F7F4
29EFFC21
06E32ADC
13F81711
CBFAD526
02B90815
FDD7FE0F
D92811BC
F4F8D3F8
B3C7ECE4
DA3043FD
0A933B1B
0FBA11FD
30020CF8
FC2A02DE
16D8520F
2FE00A02
E0462BBC
0C030A0F
03241EEC
F6D20801
129A0A05
F7FEFDEE
F6BC46FC
E9F1F0D6
F019F5F6
FA2DF31B
141DE005
15E830ED
E8350EEE
21B4EF0A
E1F10400
08DD04F7
D33EF8FD
EC13E4EC
1EE1EC10
1B33E8DC
0D21071C
44470602
1AE6F20C
1CFF2A1D
1FF5DA21
F7EAEA00
0810100C
F82D14EF
020901EF
E10F22E7
F21ECD13
ED2413FD
03F402FA
0A1502ED
F01447DA
1F36E21D
1A0B10E0
FD15F217
2209C7E0
0806281D
10C304E9
2021DC02
24D2290B
4DE5E7EC
00F3EF0E
43E5FDEE
530335DF
1CD8FC06
1DB5E00C
CB00E534
CF310C19
EDF6FF1F
140AFCE8
22082101
0E0F34E4
2A090FE8
14FA2AFC
1A160FFF
2B0F130C
190A02E4
D81AFF26
EDFD12EF
3126FB0A
0CF0FDFE
11B007FA
03D3160C
0001ED18
FCFB12FA
030803F7
062025D3
F4FC2814
E418FB0F
F7E7E7A9
1B43FA06
E8F027F2
FFF6FA09
CEF5F602
F7F73407
F132A652
DF3D2C38
16D5CFEE
1B19D616
1AEA15F4
EEE31DF5
F9D11117
FB10FC01
1B912EEA
D00B0816
FD07F7D5
EB04F6D9
05EE1BAD
390730DC
17020E1F
1E1CDEF6
0A28AA4F
FEE62C1D
0BDDDEE5
F529DE0E
BFC8F7ED
23DB06EA
E238ABF8
1A070412
DE0E1320
0036F7CE
F30E312A
26D52402
DA0108C4
FD14D3D8
04EC300B
07E4DCAF
E50F15D4
39283807
34E4E6D8
EEAB1FE1
0AD9F51B
02F0F0E5
F4F31B2E
E51EE90D
F635E707
FD0B271F
04F521F3
E92FE407
C3FBDD33
F6D2B11C
09004810
0706BA22
0F2C1A1A
20E60FD7
F0F407EC
FB09E6E2
CC14DDFE
E7D2ECFF
DDF3CAF3
EA02FCFB
27CC1E0E
5FDF29EB
1FCFDCF5
080006E3
C6F21909
3BD8DADC
1C200BF2
EDDDCAD3
E805381F
45E70898
3726F8E8
051117E8
C8040507
F1FDD8D2
0EEAE901
E207E9F5
04F80FDF
FFF111F2
DF0B0F03
E2D514ED
173FEB11
1503110A
F208FF04
1BF500D5
08F448DC
CDD6DBFE
05C00604
1214FFE9
12E640F6
E7C5CED5
E8BEF7E5
08EB3CF5
002FC219
1418B1FF
DA0FDB12
E8CE1B21
34F2E719
032FB43F
383013D5
F2DF2013
E3F91904
FAC715E0
3ADFFED4
100CFA0A
1BE5F4F4
13DAE610
D5F3D911
4F03CFCD
FC0FE724
DFC7DF14
FDD74A25
A7ED00F3
ABE80112
3AEE0103
E941F1B9
D925EFE1
0CF43310
950A08CD
C32408C4
FCE6EB2F
08F1E1EB
110B2F10
F42E28F8
C1D60DF1
1BD429F8
21E123F5
28D0FEF8
06F7170C
2402F931
FEEC0606
F713F641
0F181014
E2FFDE19
F1FEF5F3
160F5113
0DE9F503
F3FED711
C40A04DB
0DFCFE15
10DE3BD1
110A26EE
150111F1
F71AE8EC
E615C012
EFC8032D
F1141409
1BF011E8
FE050A01
F309F4F8
E2EDEC28
2FD11124
2DFECBF7
152A1213
01FB0D0A
0B00F7E7
DBFC29D5
191028F3
F9034FFE
13D90315
E913DE06
F313E3FE
E8F9EBFC
0700F6F6
F6231B46
D70806FD
1C1CC202
FE192002
24F1140E
03031102
F917010B
DC0DDAEA
E4F91210
00F3F70C
03FCFEE8
10EF1A12
E51524D8
09D31FF1
EFE705F5
EE07EFF6
08EAD516
141AFA34
0416E305
0B0A0504
CBEDF416
33F5E331
1AF0DDF4
441A0B2D
F0F110F7
1B14EFEF
FBD8FD27
F4E9DB4D
00E715F8
CFA5B7FB
34E3EEDB
0210DC48
EC04E501
F2EEE9EC
FB02170B
F1D3C507
0B1F0C0F
DCECFFFF
4F11B9F1
2EEEFDE7
2D16EB02
16100D0F
F9040A1D
312EEC28
16D62BEB
1CEF35F8
1DFA0A1A
34FCFDF6
0816EFFC
F40EF600
06DF2015
F32BFC25
22DDF8F3
1A130831
3626FF06
3301EB08
EF0EF9FC
0DF8F3EE
FA2CF117
00F10A00
DCF41B01
22E9DEF3
0B3703E2
0217F0DD
F40BFBFF
BCECDADC
15601AFD
0C0A3420
E6C4060B
F138C3AD
2B1601F4
3DBAE1D1
CE0EFFDE
0E0E2A04
EDEAF410
050246FB
242D350D
02020B26
E2E7C120
F6FEF719
B8E61905
28E022E7
1A24F023
CF141C06
241D2E2C
FCDA2CF1
C9411009
03DB0FF6
E628E5E8
D9E8FE09
08FCD1F3
D7E10F4E
D5E04903
1DB91AE7
0405FCDA
0021101B
1317E9AC
17DDD226
E9CCD24E
02DBEF60
F4F0D2F7
FD01F1DE
F0145EAA
0C061BE0
E2192E2D
36FED70F
CD19022D
FCFB0BE9
F617FFBA
F709E13A
2BB2283D
ECE4F4DC
31FE32F5
D515F209
EFE9E60C
BA1EFEDD
D6DC42EE
121BF811
EECBA71C
2A18EFEC
142406FF
08FE0B2A
16E35C17
4B3CF13E
00E8001A
CCF3060B
2BE8EFE9
FEFBE3FF
083CE42E
0CC217FA
E35F0C34
0326F0D7
16C7D2F7
2619EDDD
05E641EB
1B41E7E3
9A09F4BD
0BFDE21F
EE023E0E
1BF22003
19B7C509
CAD46034
10D71FEB
DCF928FD
FF05D334
2C2F0504
B8E5A617
1EDD34E2
D5020327
32FC00F1
F33AE50A
13F8E301
14E3F424
F5C00611
3919BD1A
DB005B06
EC143909
EA04D8F9
E3E50F15
D2141816
EE542506
173A302A
E104FBF9
1CD816EB
0904F419
301DD30D
180A2EFF
EB040A0E
FEED15FE
FD27CEF8
FBF91DE8
061DF90C
00EFD806
06E7021E
C1E90C0D
EAECE702
2B47451C
10F80339
02DA1F04
13F711FB
2A0E2609
1108F903
1C10ECE5
F8F405FE
62D23EAE
FFD61B3C
06143BF2
F7FC05CD
FE0800F3
F2F4E416
E1EDD1F0
CAEEEBC4
10F3F40D
F9020305
0A06CE09
F4D13138
EC13002B
040804FD
EA05D42E
0910EB20
E719B903
011EEEF6
1F16F412
F7101C07
F35A9E0C
0101330C
BEBAF5EA
311815FD
EBD1191D
0227F7D7
DF2EEC17
15C0DAEE
2EFC1F26
1238F7FD
2AE2330D
0D09FD01
F0093534
19061AD8
D00FE8C6
48070632
32081DD5
B8101406
082F2707
1C28DE08
C5E00A28
F5FCD60B
1FE47E15
F244F3FD
EC28E105
0734F32F
DEEC131A
0DC92618
1B1BD3EF
F8F4BC51
FEFFF002
FEFBE928
D81504F1
D7E6BEE0
EC2F011F
F824FCEC
154A012A
FB346002
ED16412E
B6139C13
FCF307E7
F2C91C1B
1004EA18
F64CDC04
F0D8B6C8
12030EEB
EEFE3010
35CE15F3
0B110DC4
DC11C1DD
2041C225
BD26EEE0
1504FE04
0E30F8F1
DE3DBB02
68CD280C
14F011F2
E414F20A
1FFBDD32
E01C04F0
EDE9EBFB
10E9F419
C013BD33
4D82FFF4
1A00C3EE
DC19EEE4
F9CC0B15
D111D7E8
EBFF340B
D1FB27F2
E7271019
D500FC13
14FF000E
F72BE6F0
1BF40C01
EEF226E3
21C2261C
E1F43707

