6418371D
06F03002
091641FE
F94EEDD4
D3F0D603
D207F22F
470A22FC
DF08F501
1310D647
DE1AE4D0
1CC6E806
AC1F212E
1E02C122
BF02E2FC
4ED82FF8
0BE1DDF5
17E7F477
410BFEA1
D82AF8C8
1A0D9DB7
411BF8FC
0EDF2816
E0E6FD1D
09EAEE10
EC0F0116
02F5EB00
344112F1
02D3CF08
270A32FE
02741243
F2F0204D
24EA14F0
02F50817
2E20F80E
E7091623
190B183F
0CD4EA26
0EE8FAFC
1B210240
17AA2FF1
0FE42BD0
5429D449
D5F010D6
D6F51E02
FE081A2E
130D1607
D4010FFA
F906D743
5D2BF5BE
0C2A1600
3EF70509
18E8F9EB
F1FDE8D5
B82AFA35
14F5002D
DDD82124
1407FC15
D104FFF9
0703E3D2
BC0C01FD
1D23F545
EB26E51B
EB111728
F4C90EF2
FE2214DD
13252F12
EF01F501
19DC09FE
E7EA06F4
20DE14E6
04F207DC
19FB1358
F713DEFB
FB0F0208
15E10E11
F700FAF9
080DCD06
FA280A0A
02000617
FF160CFB
E0FFFEF7
0002D20C
FEFC1A14
DBFF0FDF
16F003ED
02E90E09
F105DD11
32ED3BDB
FDE0F22E
E02414F2
EDF412EF
03F1CB02
EB362BE1
142DE320
EC12FBF1
0B02CE0D
2F180A16
F53305E7
0EF4EC13
CDF90D2A
EAF8E0FD
EB0C16C3
EB001536
1DF9EE06
30F407AE
E1250330
0CFDF409
F62147D8
E4051BEA
F6E528DD
EE17FDF0
01DEE0EF
06050B47
FB11B807
095128EA
F61D130B
FDF7E7FD
03E219E1
05EB190F
20F613FD
F5FF07F7
F8FF36F4
02FFF606
23EDFBFA
DF22DB0E
090A020D
1F47EFE3
D71ED528
01D506D0
0F1100F5
F83006EA
EC32F3FA
06020A15
F5131001
F711F305
F2ED24EA
D5B8162F
F91CF632
2B33C4E9
C1E607F4
D812E1F1
11DEF82B
08FB11EA
F80CED0C
3308D2F6
F8D521FD
13E03E43
1923F12F
D61F56C6
AFA52149
EE1205F4
D2071B05
F6EFF107
CEF62C1F
FC0B06E5
09C80AC7
F0C9DB02
1FC608E4
2307E4F3
13F0FEDD
11FECA02
F30434F4
0B07EDFE
0421140A
05EBB93F
05C9B7CD
FADE0FFE
3D4331FE
EA01E32A
D7FFF306
0DFC27DF
1B3405CA
280DBF08
33DEEE25
0F002ED0
D3D841F5
EEE1F420
190C0931
00131D27
E7B30028
2C1224F6
C017220F
30F82CC7
F60BF8B3
3804CD01
F8E1FFDE
2F091DE9
FF221FE9
DFE1EF1D
EAF5F750
F1DAC9E2
0A3A0EFA
D12EFA32
15C5EBD2
DF1E0314
04F01516
F01215BC
EBB8150A
F60BDEE2
FFF1E0E2
18D6FDD2
E11D15C5
4407D2F8
160E340E
D41EE41C
372242EB
0B12FB1D
D0F117A2
26F101E0
1E2FE105
060DFEF2
CB0FD610
0BDAFE04
E935FD08
07D95720
DEF1E21E
12160C16
FA1A56F7
2A09E7DB
06CB24BA
3927DB1F
EE19F534
160A160F
FB1FED08
E0FCFD1B
43BC17EA
11F8D9EE
48B10AE7
0EE6DBE1
1D032425
2B09FBE1
DB08D1FF
23FB1910
D6EBEB1D
2D06C6F0
16003ABD
F8F728FD
070104D6
25DBF410
F8FDF705
FE17E1D4
1502E0C3
FED8FAE2
D51400F5
FB20E9EE
05C0D8E0
41092C26
E2491E14
1807E9E6
EAEDE5C4
0BD30EEE
F304F31D
26F5F813
DCF4EA04
E7070DFC
0718FC15
3BF1F6D5
DF06E4EF
F116F9E0
FE01010C
080A020E
C5F7F5FC
1E02F41A
0EF4F600
E6301805
0EE2FDF2
1D11F705
194412EE
E0F9EEE7
02131214
DDDD12E1
1BFF0B15
3AFBC3F1
F7E00D2A
F1D9D6BF
FCFCE219
F803F825
E60922E3
EA1FFAFE
12FFD8F1
DB241EF1
02EDFAD8
FB181F31
01EC01F5
160413E1
29E2F419
0602F6DB
10E8052B
E30C15FF
0B0CD82F
F1FC24C3
E1F3FD01
020521F4
FB0CED24
F1F4E91E
090F2EFF
0E11E005
2A372401
0AF4FAF7
FF190E02
220CF515
2AFA1C24
0619E30C
21D924D2
FC11092A
EAE1E5E4
F516F22E
17EF1BEE
E91CFFF3
13DEECDB
24EA1213
05F3E913
0D14E401
FC251A21
4DE4D5DF
10D02AAF
E9ED0510
1017FC19
F4FD1FFC
36FD07EA
1B44F4D9
0B0E1407
C5E7078E
0D03DAB3
E4D1FADB
F6EAE8FE
17E7EFFA
02DF0016
ECD136DB
20E73814
41FACE00
470DB02F
EFC8F2DF
C1E7F705
27FDEFEC
F8FF34D8
F5E93605
1CFAE6E3
F810E913
C920F919
0313D62F
FDFC470D
0CFDE8FE
37E805E3
0F1E7EFE
170EE7DC
D8E120FD
C8EFC7E1
F42803EE
D31624C6
EDF6F308
08DB36FE
FC0E03FD
1EF4E7DA
D4DEFAFD
12F70406
22F35BE6
2AEAF7F6
FFCFA803
DD190EFF
DBE018F2
0AECE5C0
E1F3EA0C
05141704
FBEC18F9
D313160A
B696BED6
B0070D32
1D22D5E7
F958382B
F9D9E9E2
FED3251C
1DD0042C
ED09E2D2
DC25ECD6
BEE131C3
13E9EFC8
A70DCA12
2A15CEFC
D8133EF8
AE2C23E5
3601E426
F9EDE64B
0405EA1A
2FFF0507
2BFC1CE0
93F5DBB9
FE1BF1FE
31E7E60D
E2E042F2
3624EFF8
0C225705
DAE50721
3E1816EA
EDAEF0DF
D1ED25EC
1C2220F0
2DF124E9
2DFA0D02
F642CDEE
49C41C2C
27F006D4
FE0ED907
36F42EF0
DF2E16D9
A4F24EF5
051DB014
0022FE12
E4F9E7E4
E618F308
1D24FAF0
2610C4C3
A705F0F4
DCFD25C2
BC0EF008
FAF108FD
00251006
13D7DC0D
E3ACD5E2
FD4D0CD2
FF012A33
5209E6F9
F0F105F6
F40935DD
1CEF4700
B30A212F
1B26EBB1
F1113E2C
11ED2835
0BD4DC4D
1921F9F9
EA0207F4
F8DBE1B8
2805E43F
1A3303F1
E6E4E632
3024F6E5
2E12E80E
08E2D21F
E3010117
271EFCF9
E7FC27E1
DCE3BABF
F704CFDC
41470F15
26300FF7
083928E0
DF001EDE
08EC16F9
F7F40DF7
D724F5DD
D7E7FDEC
CBBF01F2
E6DA1BD3
EF110FFA
E611E807
DEFA0BEE
11F60701
F60C1919
0C050DF3
060901E5
2F01F5E6
EF02E3F4
04F3F52B
0800E5DC
02104002
0D0B0915
F21508DE
23E0EB05
F0F0D7D5
FBDE82EE
0308FD13
D0D8DC14
1DEB0C14
06EDFFFC
C10628EF
070EE9FE
E8E0EADC
1B17BD0A
C92DD10C
F80FF40D
061907F3
1407F40C
DEF91010
F4D61423
D9EBF9E6
F9FDF217
E4EEED01
FA00E713
FFEF13F7
03D5AD02
34CCEA31
7EF8D8E4
1FC2DD20
F90AD906
FDFD20FE
13F90517
FFF2F7FD
0C1539E3
FB4129DE
E00DFAFD
FDED0109
0CF5111A
22DDF909
F61BC6FA
052525F6
CF0FC603
DB07D02B
10E60211
F0E80229
D40B01EC
75FBE7BD
EC0F08FE
0A0F0107
E824E51F
46494B2D
F2DF25E9
F5232017
1CD3DFF7
04F808E2
D019F9E0
FA03D2F0
F5EDFC15
08D90CF6
2F172443
F3E3F017
19D2F12E
C21D2C24
DD180A09
F813E1E4
EE0A4ADB
F7261C22
3505F90C
0D0428E1
25322BE4
EB170F08
CFEEF40C
07102603
E60003FA
04DBE811
2D1D0BEB
FDE906EC
FC10F0FD
F5F2E12B
D709F710
16EF2620
19F2E704
D530F605
05E5D3CC
14FA25F6
FD13DE06
06EEDEEE
BDE62F1D
01EF0CF5
14FFEAEF
18F405FD
15F22319
F8E1F614
1DE80118
F9E0FFFB
22010F2B
2AF21C00
32DED618
18EE37FF
0EF73EE8
EA4B250B
F7E9001E
EE030C40
3DEA1507
B4130747
13F7F308
06E3F712
30EAF3F6
02FAFB15
0FFC11F5
BDF5F1E3
0902EB2E
E8E60CFF
1318FF1C
232CF91C
2EFE0D20
12FC0CE8
FC4D08D6
C4FAF4FA
041E0B1F
071ADE0E
CE192E02
05FEDB36
3996F6F9
043DE032
E9F62902
1DD4DCFB
0612F50E
26C6F1E1
DED6E7CE
0BB7180C
0CE308F7
FD1A2DF7
0C410E0B
1D1FF62D
09EDFCE4
B5230036
EC08E1CB
D7EDFD35
0AE81210
390EF003
A04E2301
2BD81608
1AE4F423
D30C0421
A2D9FCBB
06A400F3
C108E000
F8CDF80D
D2091C3A
1DF30FE7
EEE5BCD8
D0F01226
1723FCDF
E158D504
B7220D3C
10EBD407
F3F111CF
FFEA1121
E9FDFF56
E50E2336
0C0B65EB
05C7D6F9
CDB55FFE
EB2F0EB0
441FC522
539DC60C
5E4D2B1C
0E173AEC
01DF21E7
11650EDD
18EF4B2D
ED1FEE3A
062B2CEF
CB420305
03FF14F9
0314FFD9
EE081BD5
F920030F
DA460AF9
04F3DF19
20020CE9
FE14EA19
F5F0FEFC
1EEAFB13
0FEFFAE0
FB18FD04
F4E6DF37
F71C2024
E3F318E8
2ED4080F
1022E528
1EE0F514
00F6140E
FFE30A18
E9EF180C
F631FFF2
F020F21F
F1F614ED
E624EB56
E28AE106
13120B17
11080BF3
FE0DEE1B
F92401F2
C00CFEFC
49FE11E3
063B04C7
C0E3F706
F4140632
E52CF607
D6F4EE0E
DC110F1E
101A01D2
0DF71734
F10ACCFF
31D103E7
0B0E2323
EFC9FFF3
A913ECD0
CD14EE02
F60D43FC
F9E51E28
F41020FA
D72C000C
F5FC2607
1C24E2FD
FBF509F7
0BF6031B
E10BDE13
DEF145D3
FA0F1515
E2F509E7
45F8E9E3
F1091420
DF21110F
0C2612D1
12FDF4F3
FBEFF40D
F0FC2517
26E6FEAA
F4F2F3FF
C3100C06
E1C711DB
E51C2821
A3E104B3
EFFC29E1
08CF0901
C5EE3004
F9F604F0
E814F8F2
19DF06F5
26FB1936
EC071101
2022E6FC
0709072C
4BD2E306
101BD604
16E405F5
F8EBF903
E642E503
0D0CF63D
0100EBE2
26072501
D13209EE
64EE21E9
B7214CD1
012CE702
F5322E25
1E2A3D1B
F12D1CED
D1380106
0FFB38DB
05F501E4
FA0ACF07
08E0050F
00EE0CBC
FB16FA16
081BFDD2
FDE73002
DCFAF001
0DDC3EF8
FDDEF716
B30BDF28
0EFDEAED
1A462540
1529EFFE
1E191030
D1DC0FF1
07F509F9
DA1B0DF9
413A2BF8
35220708
0B0307CA
DECED5FC
17F3CB3E
031A0EED
F4FB1528
E8F60606
F20E0E26
E108FB12
02DE0011
F1260D07

