C6E708BC
A7F12DFE
261CF7E6
0D2A0B0C
09121023
4403E3CD
0F1F1FF5
491329E5
E20E2EE8
EFF3FFD9
35F4FC02
03F0C21A
06D31BD6
E1FCE50D
2DCFE9EE
00150EF5
9F00D4DF
36EA0C48
B13F3411
1C0302EB
9EDED1F9
BDDDFEDE
21041E04
13FB13EF
0B06110A
12121415
F655E105
141803F4
540AFF1C
04E2E701
1DD7F3F9
24F2C8D8
DF2C1D04
8F0DBC3B
18092322
1AFD35DF
C6F2DDF5
E6FFE325
D9C3FA48
CA0D15EF
0AFDBBFA
2EDBDB18
460E0ED8
05E7CD34
4F1E1305
DDE42044
E5F4D7FC
CAF818FF
04E235F7
C7BF0304
07EA24BD
DCE42B00
81EEFF02
1002CCCF
F4E3F21E
1ED6E409
DC01CCD5
09F03F06
67F8F718
2BF8DEEA
AEFB260E
151505E8
1E050FFC
E60726E8
D203E823
F1F4F520
EEDFFB10
CAED2EFE
EACAFCF6
C4F2F206
F833FD1D
1D0E01F1
E3FAF714
03FA0ADC
D70407FC
070CEC24
FBFB0320
04DE03F8
3EFA0A11
E2DF05FC
C4DE1401
D9FC1FE8
BBE40828
14C7F2C5
FADCFAF2
1CE4F2EF
710027F1
25D127DD
1E0BFBEF
C62A36C1
F5F707E8
FA0C2AE2
0A0125FA
DBFF1D20
D5D1E8E0
FDEAFBE5
01CD0407
17110CD1
20CDFBF0
F106FB0C
E6F5D412
14FAE354
460B0F2A
00F306F6
1A0CF319
EAE4F301
E60DF3F6
E61A1327
4D0917FC
1C0BF4DB
5503FA03
03FB0018
CAEB31D8
DDEBD9F3
C0E5F902
0B040BC4
05DBEC0A
FEEA101F
ECD2DEE6
CCF7F2CD
21EFDD0B
FE1AF819
1110E211
030AEE0A
153B03F4
080B080E
EDDF2B03
42121B07
F5FDC605
4912F8F0
DBDCF0C4
C628D6E5
050AE1DB
191322F3
030700D9
0F0E091B
FF12B515
F11DF4DE
951031AD
23FFF217
CDF0F310
DECCF200
00FBF1D9
2DF91425
08052619
E500FA02
F323DFFC
1F08D2EB
D1C8C5DC
03200B05
D1F3210C
E73C05D4
D81D1D2E
050DFF30
2900C1B3
2BE9FFFE
24EC2D5A
1F1FDC0A
22E5DE37
F125332D
0C0B1026
1C12E93B
1BF5FBFC
20EE25FE
0FDFFF44
292AF0DD
C4ECEDF1
26102908
19E1E901
EEDEF4F6
2A05DC0F
1624E615
E0B81C01
37D213CE
F789E0BB
2F102EFD
D706CCF7
FD2CDBF6
0BE103EB
19DE29D3
14FE20F5
ED042112
23FB07FE
DB1AC920
F30FF24A
F7110C27
E7240EEE
F7F90EF1
ECF6B0D8
FA01E9B1
1E181633
115BF707
F8CBD6E1
39F1D61B
3AF209E7
19090AED
40F5EB0E
D9FF32B3
E7BA0A28
DEFCE405
FDE612D7
00F4F9CE
FC111116
16320110
F500270F
05F3201B
2B171A56
1E2220EF
D9F3FEFC
E9EC120A
F3E5CC12
0215F6E3
0514DAE1
E0C902EF
14DE0D11
3A0BE010
4B0B16F1
FFEDD0DE
0D1720E4
13E4FAFD
090417EA
1B01E5F3
1E340E37
E02312F3
2DF3133D
FBE42503
F00611D3
09F0E91B
4AFC05DD
F4E9FDFF
F525FFBC
FBFCEF30
D3EF4027
FC0AEEF1
F3F5081C
FE343AFA
2512CCF5
F917F909
38EF02E0
CDFE05FA
EDC63914
F7FCD910
1102C8FA
1D05D6F5
06CF0823
F0E4EDD4
42E01AE4
EB1B1418
F6F03DE9
9E2F0CA2
B5F00ED8
02F5DAD3
330B1224
F5F6F22B
022B0B0B
00EDF3FE
D9FFE925
17331624
F9190FF6
F409E1F9
98EC0F05
01F4F6E7
410E060E
EE082308
BB03C909
08E51339
9EFCF4F2
0CCA07D7
091E05FD
EE1221F9
9B322713
E71E1AE5
47E6FFF6
FAF2070E
C2FD1611
CEEDF646
BA22ED17
DEF519EE
B7EC0309
16EA002D
FF2100F0
A30FCFF2
F20EF620
DBE41BE7
CE0216EE
EDE7E8E9
B9DF1932
FF06E40E
21E1131E
17FC0017
B3F2F4FA
32140E0D
C01CF52D
F5D725DF
1A03F6F5
1CE8E8F4
9532F9D3
C00EEFEE
B50E08F3
F70E1C33
7EF5F1F3
F905EF07
2D081813
F9FE1001
4102E114
F5EDE0F5
BE02F7DA
E618F8EB
2DD00C02
2B0825E9
E5F42714
E90EF30C
AFD0EF2D
07DFE92E
FA15EC13
E4E00443
441D17E5
F110EDFA
DC2417F1
FA12FE05
D0FCC3E6
F8D503DD
F5D62B9C
68CAFFE6
B1EC1AFF
17FFFCE6
1506F3EF
FF1BDBF9
F71BE034
46ECC2DB
C7F9DCD7
4D151C00
B1C32A0C
0603041F
3FF6F81A
0ABDEFCF
DBF51404
F430FA0D
072ACFF8
FEE7EF01
81EE222F
C91DF304
F2FE0E06
16FB1AF0
CED717E6
E826F30F
AB093ECF
0CEF281D
E8D7FE0D
CF0E090A
13C007D2
F20408DB
06C41A27
F40BE2DA
F70D0A0E
F714EFF0
02E62A06
2BE7060A
3EE40949
F5F9FF33
D89CD0DC
5C51F31A
080CFBFB
EB011306
E5E7062C
2CE01CF3
4507DAB1
0D1B0D3D
21F93BE1
18D927E9
F455A9FA
DBEE2007
E1D746FE
06D5EDF6
EFDBF20D
05E839DA
160B2215
21F13824
D2C1F1E8
1CCDA4D5
19F2EED7
CF141ABA
F115FF4B
0A171822
CE1021DA
0FE4F6E8
D42024CC
F50BF5F3
353026CD
0A182A09
250045FB
F9FE11F6
13E02DFB
DEF2FA28
CDFF21F0
DB1DECF7
EBEEE9E5
17FC0FFB
EA080C0E
D40EF9FC
0F0CD8D3
EBE90CEC
89FDF611
DEEEF338
E7EE05D7
152B2508
3DDBFEF0
0412F1FE
F1111703
DD0B43EC
E70513F7
46FFD5E4
0428F8DD
D4B10B11
D80C0C1F
2500FAF3
2A041828
FEFC0E2E
F1EBE316
150F03BA
F4DAD4CF
F00E2154
DDCC1408
D62B2519
A6062E20
FD2423FA
FBD30A19
5AF70160
00CB1908
DD2603FA
34EAF60D
271419D8
5DE437C6
38DFCCDB
1E062D14
03C0E9D0
D82401F1
F9EFFFC6
4E161923
04210F01
07E7BBFF
F9F94204
19DBC2C5
EA0DFCBF
DE35DA2B
FFDF302B
C40AF2EA
24E8E21C
010D1B2A
011AFA02
F3040503
0D0EFA5B
093DB51F
F80EE230
09F50403
F9030A18
DED7ECF4
221FFC14
1014FD28
0BFE06FC
0AF8FDE9
0403E8FE
DEEBED0E
F6F40609
04FA1308
001305F5
F8E5E6F3
FDEFF0F9
E5E837E2
EBE8EDE6
1CFFAD0C
E3181BEF
FBF5F500
1210C7B5
F3D02BFB
F525F027
13E922E3
030311F1
FFE91004
590E071C
D419EAEB
F8E8FD15
16F803F8
1AFD07F7
022B3119
F5142DB4
0CEAF4F3
100EF0E4
FC07E514
0810F218
29D7CBEE
1421CF1B
E721ADFA
CBF4DD1A
FBEBF211
F3ECF8DC
F9060BFA
F01A0FEF
E7DF0D13
E2F602D4
FCE1F60E
14FFCA0F
09FC08D1
030003FB
E1FE1C52
284DD515
1BCB0AEE
0DEF001C
09CE01F2
0FEEF500
1A0DF4F1
2EFFFBE8
28031B0B
09DC0E28
0DFDF229
D5DF05F1
C82B2C44
F5E90502
5005F4F8
C21F1024
D8034DDE
03261F47
3DED32FD
0BDCE812
87FFE81D
C6FB1BEE
AFE71721
DA08F409
DE200530
31E90420
DC031D00
DDE61138
17DA1D00
E60613C8
E202022F
210A1033
2C0CF400
16F50B13
811CEF09
E700FB31
D2F4F103
FBFC14F4
09C506FA
DEF0EF09
04E93611
360DEFF2
4CE327FD
262B07CB
811920D2
0C04E408
59D6F5E5
0701EDD4
5AECFF40
FB1DED65
CA38B7CF
34001F18
F00A0443
D42AEAFE
2411C91D
1DF8F223
E520FA0C
0CE8EE0D
A2E62BDD
1B0611EF
EA0EEF22
FEDBCD09
FEF32519
FED9E41A
0605D1D9
E20FE415
0D050AEB
FA041717
4CFC050A
39D7ED1B
E712FB16
020FD7FB
BF04D4F6
DEDB1026
F421C516
ED090E45
2007C3E7
ED1110DF
B10A221A
F529DB07
EB2B20E6
FAE947B5
BCE7DB2E
0B4207ED
3EDF2C1B
07E7F108
3C33E826
FBECBCF8
1C23A4FA
1422CD01
D3319F03
2F11DEDD
CEFF00F8
14B4EDCA
EAB705FB
36125A3C
15022627
F7052BFB
1007EC32
01210207
CFEECB11
95F1DF1E
6116E704
EAEC1719
F416FCE3
0014E1E5
CAEDC5AD
FF61FF21
4E1F1BD1
2E12F6D4
2C09AA20
041BE40A
E8080406
14C5DCFE
1430F60B
29C72704
F7101246
44492329
D4E5C529
D932D3FA
18DC19F1
013A23DB
3D163BC0
42D7E85D
F4F60CE3
40D30438
DBA50411
19EE1BD9
FD0903E0
F6213BFF
D21620F9
2613C5ED
EA21D2E4
BA0326CC
00F0CC4A
07FD28E4
2DE6FFF4
1816F1DB
3405E0B7
0A10FFE8
F2440A2A
F8EAE7FB
03FA0DC5
EC46E8F0
34EE151D
241E183D
0915EDF7
FCF3E909
15E4EF24
E3FE0F40
E4E3D3E8
FABE1FEA
FEF7160E
2A12FEE4
070EE5FB
CFE00011
DCEF0025
BBF90E0C
0D0100FE
05FBF321
F0D7D1CF
FCF53301
0BDCF7EB
03F4EC08
ED07FBFC
D61B2E01
EFFBE0FC
9BD3F4E8
141B1A11
0A17BFE8
1C0527E3
131617E1
1AEF391C
01E8ECE6
28E1D71C
FE26FAF9
F702F912
15162B1A
39FE18FA
35311A0B
FE1D00D6
3CEC02ED
22041FE8
DF01D617
EFF7EC0D
F92AEBF5
CAD8F9B5
02DAF713
F5F9010D
F7E02CDD
2BE11507
0C1FDBA3
F6E707FD
12DE0300
E9E0E4FB
DDD3CEEE
23F83B3C
23F82500
F51905DE
2BDD12F1
E9F40B1C
24DF0BFA
02F502E6
200CEB17
09130C1C
F7FB0423
CB151622
0209D2FC
53F420D9
4908D2DB
3813F331
38FECAEE
01E41F12
0B141FDC
CF210E21
E60E101B
0202E61E
ED0D0225
5BF119B1
2B013C0E
48092501
C9E11616
0BF2332D
FD3933AC
BBFF23FE
DB15F64C
18EBF5F7
B5DEEA18
B20123FE
02062581
B5144AFD
D6EE1803
11181DDF
E42CFDEE
EFED2401
1AFB041B
C615FBE2
46000822
EA06F211
E8E7F02C
1F10CED8
25DA2B06
DFD1EACE
03E40F00
043C0132
FB18142A
E6EB3CDC
0D331D26
20E30AE2
F1231E4C
31F3292B
14EDEA22
291616EC
12F72B24
CD232DE9
F621100C
CEEEF81E
10E7FBDE
200BFBD9
FFFBFF06
B20D0CFF
FCF7CBC9
8CE4D51D
28D5F4FE

