F4FA18B2
DEFFD93C
F70BFFD8
EC0523E9
F4291C0B
FBFBFF21
0BC11422
03F0E7F1
CF1B50E9
14F6A5F1
F4FF501A
0FFFDED9
2B1CE8E6
0202E8BC
FFFD16EC
FF041CDC
150A12D4
F807F404
DBF318F7
1407350F
1238BBEE
0AF728F0
DD1BF6F3
F201F43B
FF100302
0F021806
1DD6F51E
3D043311
1307DBE2
01F7FCE2
0103DF06
1609DEFD
C80C1504
F0FBF1EC
0DF3F3D8
BF1EBEDF
02DD15E0
F706D3C6
272023D6
150FE034
DB21E117
F7E42127
C9D2F8DC
F00B47DA
1A2B151F
24F7D90E
F41109BF
E3FF1EEE
2F3FFEC4
BEF5302D
2113F806
09F92805
03373727
0107ED1C
07F23429
04F7E40B
E9E3FE05
FF06DEC2
F040DAF8
F9111134
F330D722
E2021432
2A27FC08
F0FE5EED
EC1A05EA
CB06D7E0
1BDD10F5
F6122DD8
24ED030B
FB06FAFE
FAFAC2FD
F823FA18
01F502F6
DEF127E4
24FD03F5
250DF5FD
F2E70C0B
E21139E9
0B15FF1A
04031918
2BE0FAF7
FC04C603
FEF32002
06F31AFE
1D071CFA
000220F1
3AFE0800
0A000CEF
10EA1AE0
FE00EEFB
121AEF00
060802FA
0FFBDA15
1714DCFB
EFEF24E3
F5090F00
FC051AE9
EDF9F4C7
CD26091A
F7FAE128
F50B0EE4
000DD538
0CE407D4
FCFC08EC
19EBF0FA
F4FA07FE
CF0FD6FA
BA09B31A
EFDE2116
0E05D61D
EFF30C05
F906FADA
21FD11D6
F1091FDC
DCD7CE05
F3EF060C
03F600FD
0D1500E6
D8F203FD
08F4D50E
F009FA06
F600FA10
11FC0CFD
E1ED18E7
E7D9FBFC
00F80505
D4F8ED48
2416E0FE
E5E6F01E
0EF1F630
D00BF9FB
E8FAE849
EAD00421
F607E325
EEF4E5D8
11050F33
EFEB31E1
DC05ED04
0A49F9E0
D70BB3ED
11DFDE02
06080EF0
E627340F
1C0A16ED
0AB5CF01
03FFDACF
E3161D0C
2514F0D8
1F68E70F
25171BE7
FD5C1012
EDEAF91D
F2CB2AFC
280ECF04
0D070C01
BA08C416
03431FF1
F6F6EBC5
F7F16D22
040D2AD9
FBE8E8CD
01F6240E
0A342101
FE04FD20
DCEF31E6
07030117
201B34D7
02E75004
141AEED6
02FE12DF
CF25F9D6
EEF2DB34
48E4F31A
15EF1AF2
30D4A609
F4EFE236
F9FB3BA6
FDF92EF4
22EBCF16
D6F8CC0C
E203C20D
1A041016
AB0C3416
10F62EF4
E6E7F8DD
13EA0609
C0DDF50A
071A03F5
2FF2F933
21F515C6
1C0E0BD6
06F5171B
B2D4FD15
0C05EFDC
FBCC00EE
EF0B3308
F80BF4F7
1303F5EC
550214E1
EA061A0B
2CCFF942
F40D0E40
DE12EEDA
05F5FF14
DB13E11B
07EE0F0B
61CC34F5
DA09E5E7
161E140D
CD0F0134
14FDCFE8
03F4F3CD
F23E1A23
F00DF14F
DF30F20B
09FB203E
C9FB0CFE
16F5FC17
28241AF0
C500EAF8
2F130EDC
D80312D6
D0E700FE
0607DB23
E7A9E1EA
EAF31F0C
20FEF3DB
2AF2360D
F30A1410
E4061824
FBF1D10B
1504FBF2
2DEFF8FD
EFF2F801
19E500E1
E9FCFDF6
2A150FC8
410ED619
3C0CB211
01FDED07
E1D00718
2CF8F407
0717ECEE
F826090C
FC1C0AD8
FD05DC0D
181329E4
01F72C1E
082AF003
0510FCF6
BE20CF13
2FE4CF7E
FFEAF206
DA0E01FA
DD17FBEC
E7F4EC2E
F5E7FADC
1C370600
000C040A
F15C085C
EF0105EE
00EDFBF5
12221017
F3F4E822
E8201019
F24ECBFD
EAFDFDF7
13F22417
F30600D9
0122E9E5
18EE05E3
D52DF2F7
E60CF8F1
F0F4D4E3
F7191504
04DDEDCB
FBEC0EE2
16100E04
E7BD0608
360FFCE4
BA01E1E0
D99E02FE
0C2B0902
F7D3DBF9
1ACBFBE2
0E390325
2DFEDCE9
1C27E318
10E7EDDE
FA3FFC26
E608120C
E5270341
09DAF6FF
FF62FF1A
EBEBEBFC
FDF21405
05C7EEFC
14D005E0
E63C13F2
FDEFF709
0AFDED14
1C040EEF
E320F6F7
0FF308D4
0FFBEDD6
D8D8FA1A
0CF509E2
05140711
21000A29
01DF0819
FA28F4F4
132F2CE7
FCD334FC
F42A05DD
0512E7F4
FD181803
03D809F1
1AC300DB
DEF812EA
D4D4080F
24E5FEFC
1808F7F5
C3482619
E7FBB702
FE1C1156
D5262F07
E612D8E7
E2F93302
FFF6FE0C
3CF51009
F4E3EBDC
F0F92828
0634DCC2
18DBE4EA
1DFBF3E3
D3EB1C2A
E71622D2
17F0FDD4
DFFC0A1B
0800020C
C7DCD8E2
E70631E8
2BF1382E
0AF83610
4ADFF3F5
FAFFD20A
14074BE8
BBFD0AE2
E7F3F806
110C07DA
EEF308E5
2503C5F1
DAFA100C
20F7F12A
E0DEDBF3
2BF0F7E8
0822CDED
1404F3EE
2FCD28F3
EC29FF03
7EE3D80C
2310E5FB
FFD4EBF5
20FFFDCF
C204132C
1CFB01CF
3515F41E
02E8BE26
E6FC1529
F9F42502
424F173B
49FAD514
DFBEFD20
1DF7E7E7
1215BAFD
17F5D11C
1019F6F8
37E7FE02
301E5142
F3FAED23
08C9F3DC
2308EF14
220AFF16
0D09231E
3FFACCBA
F20213FA
0CC6F9FD
C309EE15
E90E0822
4D00F4CC
3BF1E715
29021CCA
FE0EF31F
0D01D8DC
4EDDFC25
F103DF17
1611CFF0
DC01080C
F3D70A16
F50FFADD
241EF4E4
03FEF011
FB0D20B4
0404440B
D4E403E4
22FF150C
2D071036
D110ED21
CCF235F4
F606311E
0239F612
FF0536D2
68212821
30030C11
04170DAE
01F61405
E0171F1B
17FC221C
D02B0DE0
220AB8ED
18FEEB37
C10628E0
FD06DCE1
E5041818
DD0D06F8
E0050F3F
4B19610F
3DF1DB3B
F5270529
E8FD02E6
FF1DDFFB
FFFA2430
06ED05B7
D105C2CE
04080FF8
F3FAEF03
D7CE0F2C
F9F9052B
F3DA04E3
E30A0DFD
10191728
D514FA08
0AF02702
3FFC16D9
B4EFDC19
CAFBC6E9
2806FBDE
2107D3B8
19EEF212
FDE215F0
0208FE44
FD0003FD
12031412
D407332E
12EF1BEC
0318E807
10E0F6F7
0A0CF406
020A06E3
0DF80520
F808F413
0BF2FFEA
0517010C
FAF7E6F9
270BF607
FC0BF814
060B0D0B
3A06F3E8
E4291B1B
E5FCF125
08250F0D
CD12EF17
ED39F1E5
12F9CDB2
292A090C
0F010305
0D17FC11
EEECEE03
F315F80C
EADB07D3
F81E1BFF
09FB0610
00ED0705
00FBDE19
21F904CE
2FED0613
0C09F0FD
0FEE47CD
0CF9FB0F
19F219E8
21EF0F09
00F71EEA
E93FE82D
350F0CB1
FC30F409
1D03D5EB
0CF903E0
000206E7
19EFEE4B
FF33F1F6
D1FF0AB8
DD630B15
252EF424
0DFCF3FB
EFE61F04
01F54125
D66A12DF
D83BB6F1
E7FCDD10
14FBECF6
12EDF6E7
C911E01D
091104E7
F6F71FFE
00F1F9F9
05F8E00C
DEEB14FF
02F3EBF8
D916FF14
2CFDF52A
0815F41E
2714F5F4
3EFF07DA
1D113A47
1A0219BE
11111B0A
FC0DFADC
191F05CB
13E0EDEE
ED02F3EF
F21EF10A
CAE54409
04AEF50C
15F1F0CE
F4EAE004
F4EF2415
FBEA0201
EE1404EC
0938FBCB
2313E42D
E6210E16
F0DF3EFB
16E7F8D4
14F4F918
D8FA0333
D40AFCED
0E45E5C1
050EEC15
21E70A2E
1206E83C
05E713DF
FDFF0249
FD551FA9
DF081C35
2ED918C3
180A2100
E205F4C8
DE0CE410
FFE6E108
0808241B
FB0F20FB
2AF71006
FBEC27FF
24F9334A
48F3E5DF
170843BE
1505F1F2
F706FE19
F7DBE6F1
FFF4F527
1A192BEC
1BEFE8F4
051B0929
E1FC1421
F1110C09
0E0316CE
D30504F5
160425D8
F836F5E9
F90E33C2
FFBCC938
14BD10D5
ECD5080C
0FB0E51B
CF22DD53
F60C011E
48B0F85B
06325C2F
0C240835
3CE0702F
15FCFC23
0B1D04C7
F434E8F1
BD2E1430
BB2D1AE9
1AF2E6D9
33F8050C
24E7DE25
3C30F325
EB1B0DEE
E32806DD
EB1802FC
8905E723
0200FB36
1F1428C8
0F06B1F3
BCFBFAEE
F0C4EE18
F51D2112
2819FC0B
96CFE44B
EBE8B9B3
27E5F702
0116D5FC
CA1A3315
041C1823
FBDA3208
FDF81D23
E134F33A
0B33E8ED
3728DEC4
FBD72FE1
F217FC14
F91FEA3A
D9FC3BF9
42DCE4B1
08142B07
051C1F01
2DF6CB5A
5E00CD39
AC0AFA30
096007B8
2303B403
F4111EF1
39F1E8FE
D22823ED
3204F8E0
C25B47E8
2EFF2349
25220FEB
E9F1F20D
0EFADF39
FD06ED06
FEF4F90C
0E23EC0A
DB012E15
FCFF2341
E6ECCB1C
02F80F30
16ED00F2
E500F403
0305F417
3CDE32D7
DA09D2E1
0E3AE414
C9F9E4EC
3B0407F0
F6F4E00B
010108EC
C4F9120C
DAF30121
E3EA162B
C405D5DD
0713FC15
19EC26C4
E7029FC9
DE16EEFA
1AFA031E
D416FAEF
02011016
17EBF000
E2F7DAFF
DDD3DCD6
360D4B12
EBE9F90E
00F80024
0F240BE6
19FFF4ED
12E7F8D3
C30CF7E9
10F71409
FA0802FF
F4BC1121
15FE02E5
B7ABEF1A
2F0B01C4
00B7EED7
FF0501EE
0413EAFC
D602130B
02FF1DF4
39FFEE0F
0207E407
E0F5110F
FE4AFA0A
1503FEE7
E41411E1
06F62AEA
2B280FED
070A0FE6
E7151901
FFFFFF1F
0DF01DFD
CCF40300
5119E50D
02B31A0D
17192E17
04F901F6
1417BAFA
04BEF6E5
38DC241F
3CE0BB16
F8FF1A3C
02DC15E9
0C0B0D2A
5EE612D6
E51D11EE
EEDC170C
DD27E90B
EE32EE38
091CE40E
B8D834B8
D301D4D1
07BFDAFC
FA031A11
29EFF300
0CFDB3ED
EBB5FB12
D6D3FC27
0BAE1130
12D0FD22
F3FFD0DB
F9FDDC05
DDFF0E45
17D9C4D8
EC47103E
EA2DF8D4
0FB910DE
03041F38
102D19F5
FCEE0D36
0AC21AFC
08D4D905
04F5D42C
EE15EB04
F6F4D12C
EEDF2104
E5D5E82C
11160DE0
151BFBEC
0B0CC516
0FCD08EA
FB29FA08
0706FFF3
E50C2402
3CE3BFE0
10E5BDF3
D7D43902
2A2CC930
13173C0C
E31311FA
EC99CEE7
2FFBF4DB
28CDDA0A
FA5E0301
F7EA1829
F9EF0213
E049D80D

