DF040214
EBB4D4D0
6AE7F2B8
05C10700
251410E2
E3331DFC
00D308E9
0C35E243
C2BE29AF
140C22FA
C803EB15
FAE513C0
2EF9D202
F3FAF62F
02F7E9EB
12142142
18132CDD
33FFB5E4
BFCD0335
B03A341D
2E3021EB
00B6F0EF
E82FF920
F24C25D6
EBC410ED
FBFDFBFA
32F5FBFF
E01117FF
EC0EED23
0FF137F5
27160707
D57B3C04
C724C8F2
14BDE43A
17073E38
F53DFF3C
DCF00D09
E5E8E721
2C3E1D03
0F39EBD6
E23EFAE2
D6B6EF13
DC36E9F8
DBEBE4FB
060F0AF7
1CF2E505
F7F8FE1B
04C224FB
D027DEEF
22D628E6
09052327
12240ACF
FBDFE20A
0017C41C
21F903EE
D9F3E317
FE081400
003BFBDA
231DD0E6
362142FA
14F41408
FB1FCF0D
E3E4F6FA
1433AADF
C42E20F8
1FCED8D7
ECCCE017
F1C403F6
1A0FF0E1
3FFF0125
052D15D8
00B7CB08
D5B5DC3D
FD05FA27
0904FF0F
FE280AD2
021BC40F
140E36F8
E4EC07EB
1CDB11EB
0FE5D911
E712EB2C
41D919C5
0DE302EB
1AFAFD09
24EBFE08
E6FBEB0D
1E380DE0
F34BF8EF
EE6A0F2D
26DDF1E8
F03B2F2C
BEFC0FE6
D5B82701
ED37EDEE
0ED7F707
1ADEEFDE
0FDA0030
20FFE202
FAEFCE09
0E2A251F
E712F72A
000B1E0A
120C19FE
F8002809
C01705E2
E9EF1A0E
E1DEFD04
D70EC5D4
FA152FEF
FB05F7F8
0CD70D0E
FBEBEFF8
309D0028
D32F2116
FF68D5F6
06D6F4DD
18FCEA2D
0048FAE3
E4FDF1FB
07F1F808
DD1FE5CE
28F8EE04
EE050A02
D417FC15
FE9E1305
1CE84004
08502EE2
C807F303
E9BA130F
3EFF42D1
2922F6B6
131023FC
07E512F0
DB1EE620
02F319F8
E0363302
24F7D2EF
27F20916
18220801
0220F5EE
148B1CE3
1D0AFECE
26FEF023
E7ECD13C
F7CAB8CE
E03220FC
1D50E42A
E2681912
FA63E913
D9E02FD0
F2AF0302
0620321F
09B030FF
FCF0F0F7
DD0600DA
28120414
58C237DC
E40C082A
DCDFE92C
131AD737
0D3B0505
F50E0914
09001114
24FEF1BE
E5A21305
020F4E40
3A0A2202
DF0EE808
1FD0FDED
13EEC9BE
D3972706
3DF2D3F2
D65E1A0F
F90103E3
EE4EEDDF
C4040BFB
25021326
0723F3DA
E7ED0DDD
E624F132
194DF611
2ED7FBEA
F4E4C414
08FAFA1F
07283104
D0E33AEC
0A06F0ED
C80D7C03
181A03DE
30EF2E26
F9E33453
EDC435F3
2C624C1A
28CE1CCF
363090F8
E6E93F07
E26C0DF4
3235E7ED
C5FBCAD1
DD26011F
F5FE08C1
03EEFE27
FEE5E9E0
0CCB1DE6
200319FA
EF2EF51E
E91D1E17
0CE017EF
07EF14F3
22E71409
E50A1AFE
25120CEA
F339FC17
3515E2CE
022BE80C
04D6FC00
19EF00D5
E20718DB
FEE7310B
FA5029D9
20CC0C10
F8DD42EC
F5A0C6D7
00DDC61F
F622F705
F8FD1913
37331304
06FDF206
FECEE5F8
FAF1E704
EBF8D22D
FB23271E
0D19052A
F2DF2D2C
0CC13A05
1C2CD318
FAD2DA14
F0EBF4EA
CDC2EAE2
03DD14F0
DC3CE4FD
E645FC59
A4F62813
06D91707
215D111F
EE080427
2EB70DFD
08E1F836
201FA0D1
12F8F8DA
07BD0C2A
E5FDF206
181A131F
FB100702
0E41E2FE
091903DF
F8E2F2F2
1D0D12F3
2BF707EC
F60EE2DD
FBFAF70B
E0DBF520
15EB10F4
D7270C0E
20E7E303
24030300
ED13F5E6
022C0BDF
F7DD1B22
0EE303E5
FD1C270F
FB0BF911
1BE1020E
031611F7
FBF3F50B
D1E9001A
3603F115
F6F4070F
FB04D60D
17F6E722
041E0DEF
F6EDFA10
FA031023
0F05F0EC
254EF5DA
E916FDDE
2408F0F4
4115FBE3
0631FA1E
0511FEDF
EA14FD12
E0F10628
F3CBE3CE
30021AD3
F9EFDC03
0FF01FE7
11FAFD01
051DEC3A
16EF0DE8
E008DC07
06E9E926
EB063033
F8D11029
FDF2E0D8
06BBF0E0
10180614
0B0209FC
D5060534
0204EE16
12F0F21A
0221FE29
EFD70BEB
FE0B0544
13F8F5C6
F4D01C18
E9EEEF14
EDD1FC08
163C28ED
D0EB01EF
EDECCF2B
02EB1EDE
1FE7FE3A
21DE1123
0EDA0302
F31FEDF6
09EA1524
1A0BE906
161228F9
D5020C02
FE0CE3FF
F2D12DE8
E312F302
3EFA102F
E10336C3
1B022905
47012807
492122F5
0C18F325
FE2100FB
2A2620E5
0BFDDBD2
CB0930F4
C315F5BA
19FC1814
141BC9CA
CA1AFE18
F4F00EF4
16F813ED
D0E62824
1B28050F
E52331CE
CE2900D9
E208E8DC
CB172A12
0C0DE8F8
EDF4ECD3
FCF50120
E7D208FD
171D12F9
291AF413
DC482E4F
0DD812ED
F60E09F6
14EFF5FF
DD3D3C28
443B2429
F81A11C9
1538F5F9
E0E4F412
CBF2DE1A
F8C1CF0C
F3E9D7FD
43F752E3
D8CA0B05
31CC1214
E11708B8
05FE1607
00DDF2CE
F69DF40C
FDE109D0
EFF6C308
D0EBEB32
F9FEFB07
CCE855FD
13DCC5F2
35092542
B97EF1F5
241816CB
3A320ED2
14EF2714
F4EBED04
1EF4ECEC
E91F160D
F42B28EC
16B002FD
311EEFFA
2DE7FCF3
1918130E
F4F11419
FC21D707
29CDE834
ED1E140D
0C23FDE9
E70EEAD5
F5E6C007
FFDE0FF9
E5F2FAEE
EC150A11
13DB210D
41102D39
F0E6EDF8
22F30155
4A601BD3
F5E20FFE
E3D620F7
31E3D6EB
1DE9DE0F
EFFE0630
02FA04F5
D61DFFF1
3F12F1DD
2EE8FFD2
EB4A2F03
F4FE0C12
1D06F8DC
CFAF1ED7
E9D6DA10
E7061AEB
0B1308E6
0DF0F9EB
F02105FF
35F62700
0ADCFBF7
103AF79C
FC2412BC
EFE118DC
EFCEBF9F
FB2F171F
D5E206D2
0CC7F6FC
F7F6BC22
EF42E54A
EAFA0B30
FB13E106
D120EB12
1008211A
01D9F0E6
0405FC1F
13D8F70C
0A250BEC
1F132C1D
D9F314DB
0DEDEB20
FA05FDE5
FA07F909
00F611F1
FBDAE10E
ECE9E507
080FF00D
F1120607
F0DA1EED
EE130A0C
FC16FAF2
EFEFF806
16FB00F1
E70DF807
FC08141C
FCE61303
0514F8D5
2807EA23
2028FC09
C7F5E4F7
ADCDE29E
DAE71B22
C60A0703
1BF00E04
2423E0C7
EC0E0E10
E9E90507
0AFBF8D8
FBF40BF8
F60A23FF
10EDE1F1
04FE45C9
2C0CE5FF
21FFE841
2C5816FC
F92E0D1B
0014F713
161127E4
15EF17D2
CEF0E109
EDC6191E
EEF9F61E
14F70018
04F6FE19
0EED0B0F
FEF10A16
162CF1ED
2900F308
DB26FE15
02ECFA0C
09FAEDFB
0E1BDBF0
2F0C010E
0DD9222C
E3E70AF6
15F9FA12
081412F5
F0DBE4D6
E7D8F712
0D03BDE1
05D40210
E102FFE9
FEE8F5FE
E2FC0805
3CD20D12
F30406E3
06C4F7DA
290DFFF6
0DFEDF22
3107FFF1
0F10ED1B
D8202AC9
DB691A07
D9220B32
2E94230A
F417F8F8
3405DBC7
2306FBF7
4A051ED1
D4CBCE11
F615F40A
28B104E9
F602DDE2
FB2AE519
04CB0911
12E5E4F9
00130701
FEF000D8
FFE1DA27
F2D91814
E9F3F8F9
08D8FBF1
0E0614F9
06F0F9FD
08F102E3
1E3AF2FD
1B15E817
F724171A
CED90BD1
1AC9EBDC
E3653401
191E29E5
ED271605
F3CDE119
F201DAD6
E90DF8EB
09EBFB06
FCD4DCFC
0AFB0CFB
F2C3DBF4
EDE7F711
19231321
1336E5EE
EAF8C507
F2EFFF0B
11372BD8
0422E903
0D29FB27
DEFE1B02
EBFDD236
06E8E4E3
EADE2ADE
482FCA09
FCCCC72D
FBD6E404
BCF7E00D
B3EE17E4
1BF1F423
015F0FF5
EA41F420
322615FE
09F5F50A
EE1EEAF9
C6120217
E9DCA3D9
AD5220FB
E6EAECE3
1D2AD800
4CEC260E
E20EC9D0
2B083F45
0320D9D3
0C01A767
1A44D51B
0728E9D6
1ADE23DF
292AF0EA
2907ED18
D314E6A9
F912F219
DB011F21
02F7F703
F42ABF2D
F0FD2011
08CE45CB
E7D80304
00C501DC
D6130208
08F6EADF
FE1A38E3
DF351517
3AE10EF2
DFE4E4D2
41FC48BC
E944430D
DF0CDA04
31E5E2FA
12BA15AD
E40BF631
04E226E8
1A290031
E0481A13
B6152B00
04E5CDFF
29E414F9
C6C9C60E
47EBF3B3
1A15004F
195A40B8
0720F031
2EA9FCDC
043D38F3
E607CDA4
2ED4E4DD
EC4D46CD
16E7F0C7
0927DD0A
FA0C08F2
F5EDE2CB
1FF731E5
0115FF00
0EDE11EC
FA10EE19
0BC437FD
FBE4B6F4
0A16ED2B
1004E113
04DC24DE
2409D4FF
F4041413
1BBF38E8
F0F6F4F1
1E031ED1
0C17FA0C
1A08131F
E213DAEB
27D7050C
05F50AF3
190EC516
E0C7C1E2
EE26DCC5
E2DEFB39
EAFD1AC7
E8EBE138
13060118
F5E3FF04
180A0BDB
19E2ED10
F7B9E5F4
E2EFE5FC
2BFECCB6
152C10F1
1332F9E3
50DD1D1A
D421EF0E
E8F315DF
20161702
08050309
EDFA1A08
1CEEED08
1EF31F2F
E308D907
1019EB0B
0D2B0006
1D223411
08011201
10F6DE0C
0530F105
23CF1E05
010A04FF
08E9FADF
0F341C28
FC2EDAFB
DCE9EE07
09C13013
000705F5
0DF200E5
0002D9E3
0C1B3022
0B24DC0D
CCD8FE21
1710E4D6
FDBFD302
181409D9
DA160CE5
D3FF3804
DB3D0BEC
0E2537E4
2741E42D
19F02205
1B4645EC
EAEBEE1D
DDB828E7
E00F21E9
EF08C202
06F00CDB
1D1B0800
23DC01EF
07F63F3B
5742F9D7
279C39DB
FC07181F
032417FB
F7082C28
FE1C2704
E91F271A
231DBBDA
1D3EF03E
57FB0AED
2D103426
BE3ADADC
E004CFED
13E12B08
DFFFFF03
CE11041C
031EEB24
FFD0E9D5
D411020D
1CFAECE1
15D2ED2F
28FB3FFE
481E24E8
DAFF0619
D1E5E108
E9E3EFC8
C0C906CE
0EF9EDDD
D1070AFC
00E5AD33
F6C00A15
019943F8
2CF217DA
30232517
173FE820
220BDC00
F506F3DE
4B00C8EB
F0060BFC
EDD12BF9
D7DEE7ED
460EFCE2
02C1F12B
F5FBB704
CF1C0A16
DB25BB2A

