123928E6
F2F9C111
15F821EE
01FFEDE0
3903031A
DA1A38ED
D8BE0FE4
19B4FAC8
19FA140D
EDE3ED20
32F0FD07
2CC912F2
E8DD270D
F0D51405
FA2AC2E0
340DF81E
F70BF6F8
EEE6EE48
0906FFDD
1203C53B
EF42DF1C
0A184823
116815F7
062FBF0D
EFEDEC10
1BFAF601
12DCE5F8
1CFC1446
0606E6F4
0BB628FF
0717F409
F7F6F437
FFDF01EC
032E23D1
2FFB2FF8
C340E009
FD01FC07
3BF618FA
311101EF
33C305DF
DEECEBD5
D412E8B3
E5FAC50F
3FDBFF07
E7E20B1A
3308F00F
D6F31319
0723A0D9
20EF1CD1
10DED204
02F2F833
033A0B0A
31FB0F0F
FDE4DAF0
08130602
F6DA44E7
ECEA2F04
DD140D29
2EEFDE09
40B90D26
E525160A
C6AB0815
10F5171B
2D35E6F5
F0C423F6
222BF82C
10F7DAF6
1302040F
FEFCE00C
022FFAF7
0213FB17
A3D433D5
E70B13F4
13DBFCE9
10F701EF
F50C1309
F70AD7F2
F32EF757
E1FD27E6
2FE80405
1C261324
E10EF519
D50716FE
F017EAC9
00F108F5
03F60221
D802CFFD
D8B6E0C9
08F30BF6
0B164904
E90605E7
BA19F200
51F41D20
E607F0FA
E11813F2
06FE1D0B
3704FE00
CC340503
E4091EFC
0CDA0729
1DDA0607
E9D21CDF
E50D180E
12DF0F28
F612E6FB
15F32404
0AFAEB08
20E8E02B
141CF1EB
06EF23DB
FFFCE8FB
FB0E10F9
07EED81D
F5FB6620
09190A0B
FD62F34A
E2EB0CEE
071202FA
F7E72C18
141D24EC
05F5F10D
0A09FEC6
E60805F3
06EBD028
EB160FF9
FC04FB08
E51718F8
E2020A56
00E3CA0C
FFE9C80D
F6E63CE3
2B2CDCF0
EFF9E0E9
00FC07DD
F8D6CFE6
0209DB07
01F9EADE
074432D3
C50ADD29
EAFB021E
EC0227DD
DFF007FD
20131808
15031E0D
E6DE1F0D
0017DBD0
F10E010F
F81644E8
EBDD30F6
2CCD2B16
F6D102EE
EE121E1D
450B4712
13CA3CFE
1D060231
0006B9D8
35F5C0B9
D0C3E430
F0BA0528
BBCE09E4
EFD3E5ED
2EF81E2B
2820EC0D
D9E5FAF7
00DC19FA
0526FC34
E829C319
F6ED2AC0
FBFDE8FD
0DF1E91E
04F820FA
0202F332
0C060417
CFF34A29
F9CF0E4A
360D1123
0AFDEDF8
19FCFFDD
04ECFAD6
E014E916
DBE76937
EE0D1B27
E52A1CEB
080BCB4C
11102CF8
DDE5F210
CFEBF4E1
1E120913
DF13F5B8
C4CF29EB
37F3DAD8
EEEEE111
DA3D0CF6
114CFB14
FE0E0ECC
093B040A
05F11D06
E743F7D7
140AD80C
1E0303B7
1014F0EC
E0F205ED
0BCCF307
31EFF315
DCD5D5F4
0D13E3E2
5432152B
F5D8E315
01290A2A
1CFCE9F9
2CF713E0
EE2024D4
F6D116D9
0E3F25EF
18084004
C31F2BEB
CF230C1D
224D20FE
06F1ADCB
FC08F42C
0A08FE1E
02CF0DF5
100A4FF4
BE19F9C2
1DF2E5EA
F4D425F6
E3F88D32
14FA68EF
F5EE13EC
05E91AF1
F5ED320D
E821FD12
0CEC1DFE
DED007F0
180DFB51
C309EDF8
0509E3E7
0FD5EF21
0FFB1206
FCF42507
35F92D04
EDF3FAEA
22ED1414
151AD5F7
483500F3
001406B6
ADCFD90C
1924EA00
20F62FC6
DCF1D2EF
EF162FE8
E4F91BF9
E8F219FE
F1ECF002
EDE6F1E0
023235F8
F9DAF715
E5FDF2E4
E508F5FD
FB21F8E3
FAFDE7E7
FDE7FE00
0F19F0F8
0A01D825
F108DD3F
EE23D0FA
E1E1BE0A
10E3FC00
21D136EB
D3AC1F1F
02280EEC
F8E62CFF
07F41810
23CB12EB
EF05EB0F
EDE7C20D
E7201212
32CEE4F8
1B1003F8
DB12F0F3
18E80AD7
DE00DB01
180406F0
EFD4EEDD
0114FC03
E8EE0806
12E51FFB
EBF2D3FA
FDE90FF9
1CE1FAED
D4D61A08
EEE4C6E4
F20F1DE4
17EEFFD3
ECF4DD11
26DA07E7
192EF0EA
1AEEF802
1312030E
DA0CFDFC
0C020320
D919EFEF
F9160504
18090CF2
E5F416CE
FB11DDE1
010E06F9
0C1003E7
1E27DB00
0801CED2
D7F316F1
0A3D010E
05181008
E017F7FF
F9C52100
092B01FA
09FAFDF7
CF161DF1
01E2D1FB
E3FCE309
AF23DD41
0F15D2F5
FBE0F403
12E71B01
D63AC4F3
CB15E1E5
1C0E0620
0F01D012
FBE9426B
F23A29F6
EC0917F4
D6F40765
04E208FA
3D1ED526
04D042DC
EB0BF511
FC06FC5F
37FFE803
491BD70C
26EC13F5
E829FCF4
F51CDC19
15FEFFE8
102BC613
012D062D
04DDD0E0
0A1A4A1F
2AE30CF9
D0EA2221
F01415F1
2DFB0E16
12EAFC0C
FE0637F6
EBF4F813
F0F0FD0C
F4DC17F1
EDF6FEFD
FA19D71F
13FAFAEC
46E4C4DB
FE36EB15
2DC2E8C7
F1D343C5
03FFDBCC
F7DD25F7
4ECA0CF9
C00D2EE2
0EFA0232
FAE2F534
DF7E1E2B
F522E403
0112E8C0
EA1CCEFF
F8DBF615
410221D3
C1F9DD09
2CFDE801
07471CE9
13113302
C1DE243C
EAD91D4F
B9DDB9ED
2425F6F7
F1DCE8DD
1DF6D3E1
B3083BF3
CDE3F1DA
DAFDE435
1EA607F8
42051209
2ECF28D4
171E03E2
F7F5CDEE
EDF721FB
EE30D701
EEE708AA
F209E7F0
E130EA2B
201BE5ED
D2AF43DC
110CB40C
BFEDDC29
06E9F515
DF06FBF7
0DD91E0A
F2DD2E1A
18F7F1FB
DAD03415
DD16E910
E42E15E4
2B390A0F
EA30E310
E4D6E9E5
26546F54
E309F9FE
EA40CFF5
FD010A18
1C1F02DB
C714FE0D
FCFEE12B
FDB54A02
AE6A0C1C
F001EDD8
3D2A1304
F8E100BE
16EDE736
91F1F7E5
0832FFC2
FB0BEAF3
34DF0EF0
FCFBF118
DBF61008
DCE134EF
2CC1E5F2
2A1C12DD
EA07EC2E
F90A0635
36234FE0
1509F331
FAF300DA
E5E27EF1
EA0C0D23
ED04AF36
4AC2E285
FE110426
192DEAE7
0003D231
29FC171A
0502E900
E8DE1015
D6FC05F8
18E6E7DB
1FF116DF
CF293515
1FF30EFF
0BF71014
F3EEF3E8
F702010B
DD07F0F2
06F6F5E6
EAFCF2F8
070808F3
1301DBDB
DAFF1018
14F720E8
F4F5F807
080A0BFE
04FFF92A
EDE72B34
EC45CC12
0417FC03
23FBF30F
0F7D07F2
DDE743DD
BFD81301
1F03E700
0306120E
2400BB13
2419F133
2CD8FB1A
E000F0F3
FBF2FE00
F3F512FD
EE050AFB
EFF8D233
D0C159FD
F5DBF9F3
CB20B3ED
16F8F50C
0F2903ED
1CE9F310
DAEED617
1EF6CFFF
D1FAF7DB
07F30B13
F2C505EA
040400E4
F7DA032B
F3BE1AEB
26332636
0A00FE14
01FBF902
000101FF
F80BEFFC
F11735F4
FB240DEA
1CDF1BB4
E60F4608
130BFAF9
33ECEEE8
EE15170B
484921E3
28FE0BF7
03F7FEE6
F9FDFEEE
01FA33F3
25EFF8D6
F82C03F5
F9F1E1FC
3708FFD3
02F5361E
092CEBE2
1FF916FE
D1E60B2D
231DFB18
0F2CDB08
E6EA1136
4BD4E1D8
30C70117
E91606E4
EA09DDE3
D809B5F0
E9DE1101
E91CD4E4
FC0E1D12
FFE90DC3
25E60A0E
F4E810D7
F1EAEEF4
FE23DD18
1D14F7F4
F0D3EB11
FD1EF2E2
364DD6CD
FA15221D
C6F9050B
EF09CEE7
FD090211
FDEBEBFE
F306CC00
04FCFDE1
F326F104
01DA1A22
020304FA
F5EFC6E9
1B162D35
03EBF603
162FEFF1
07FA2309
14EEC9E3
08F9E6F0
12FA3323
FCEEC512
E6E6F12D
EF033600
4B07C1E8
DED911E9
13FDE8DC
18E7E2FF
F2CEE904
DE15E225
06D5EEFF
03DC05E1
FEF9AA09
F50601E1
FB25FBF3
E8101B14
58F3F5FF
F9DCF01D
E3F10625
E6DBEA27
F9E0CFBD
EFEEB70A
B63903EF
020101CA
E506D0FF
1E54EB1C
FFEAF7D2
F4B800E5
F21AD82A
131DE51C
101800DE
FE0FF210
0017AC10
35B40DB3
33DDCDCF
14193F28
E309BA2A
10E30C13
DD1B162A
1B0A2D08
DCBEF3EC
28D3FC03
023504DB
1701CD0A
1F2FFE0A
0D11FFFF
E1DFDDD7
13DEF2D5
DFC9DAFE
0EF45C63
FDFD281A
FFDF340B
EB1D1F0D
5E16269D
9DB31B34
0F00FA1E
1314FE0B
4C300A0A
3F24F112
FDD3EB39
F80D18F8
1A2AE8F6
0E2925BD
272CED32
090ECE43
20E044F8
0904FEFB
02D91EFC
310411F5
0D2E6621
05301CB0
D4DBFCF1
C5E5CB2F
2BD00AEF
ED3405D8
19D03DD4
0412290F
D6FA0901
17E6FD1C
251D1106
13CD05E8
15021AF7
1408F41C
E223F9E1
0C13F61D
F40201CB
CE0CF2CE
0CF5E7FC
0609031D
EC18FC24
F702FE0F
3CE0E4E7
F8F208F9
0FF84209
0113CEFF
E30F10F9
F301E9EC
E9182418
F4BF09F3
0C0719FD
11FB0511
44CC0C0D
330FB717
012204EE
F50BC444
10EF1F0A
042F1806
2C060AF3
0ADAEC21
0EEB27C9
A160120E
EC315726
0E01DF02
30F1F9FD
EEF001E2
26FB3002
E1FCFAEA
EE02F60C
FE052601
001AD0D6
06EDC831
0C16D3E8
F3180000
FE02FAED
12FAAF13
0F01EBDF
FF0EBC17
2CF92905
E4080EFE
C9FCFA06
EED7CA07
03F8EBFC
D7D84C14
1409F5FC
0CEEE2F4
E23803EF
05E8EE07
E5092238
D6CA05EF
D21839F9
00F1CBF3
F7D3B908
12281328
E9FDFAFE
B7D7CD10
26F60D26
32E82327
B6D4E9F0
0E4E2C24
192B340E
233B2E07
0EFD0908
0A02FCE5
2FFDBBD5
0CDBF0F3
00DF1B0E
D404ED0A
F4F2D811
FA34FB03
E5E90DCC
05302111
034EC90E
964E243E
2FFF0AD0
0A090401
132DD602
02DE16F2
1E0ED80B
E6F7DF0A
ED1F26F0
F4F81B28
DE221CE6
B81AD8EF
F32AF6DE
B7EEEF25
152DFC09
0D14FE06
0303F234
FAF7F327
E9ED3004
2A20EDE3
0111F00A
09CA322B
FFEA03F7
F9EF2131
1D2DEED5
06C8DBF1
07B9EC2E
34E6E7F5
0AD0EBE9
15FDD203
A9D7FF1C
3AE1F713
EFD7D913
2FF3F7BF
CAD812DD
D0EEC8FC
F8FD01D1
D9D4F505
1FFCD1AB
07F7F2F5
03FD0014
360ED712
F62C1B44
FCD605F8
2511EAE5
F9200707

