F4CA0014
1752F416
0532D72D
1DEFD60E
BFE719B4
E1F707EC
25CD15E9
0F031CD1
D2E30D0B
0160EBDF
F5FF2CF2
DBF02B0E
FBFC3301
CFF6F5F1
142118EB
3B23D80D
F9C2DDEC
1037D815
18DE1EC2
E3130830
25EA0324
DFF2E720
F4D5E504
2EE5FA35
E3D436D5
15BB1DF3
DFD62EE5
E224040A
1F06F0DF
F918FF24
17B8BA04
013DFFFD
130BDEF4
09D7DE27
A91DBFFF
D303F156
F449A1E3
E2F4FDE1
CA0C32EA
FF443506
EB031200
2A7E1B26
16131AB5
F1AC20B8
B222FD0F
10DB0C15
00D1DAF3
03C705EA
08260E06
DCD512DA
FCD64FF4
07F0F923
03292A97
C714E10E
0F05D4DF
FCE41824
BE033919
FF13F821
4225E909
CCF2DF1C
2003E748
F3EFF317
13E55530
3129D708
F1FFDAFD
04CFE909
D5F9F5EC
0ADB0410
E519E400
01F0E425
17ED0C39
F4F01FF3
DD2D0AE9
3FC603FE
FB0D10FC
F20EDA0A
08F4F30A
120207FF
220A0C19
2DF316F9
FCC60B14
45E93412
FF4C3CD2
2955F71D
1CE003C9
03A21429
3CF404FF
F6E816FC
06E60C19
12D4FCFA
220EB1C2
023B1B26
F91A111D
0629E601
ED24BDDB
DF0C0416
1414CB01
0626E809
D119E6C5
D838FDF0
F12131FD
E9C20BEC
0DF6E0F3
04F0DEF7
C9EF00DA
F21BEE33
D40AF427
1716F6EC
0303E201
FA1611F5
EE1F4DF7
15F1F331
2DC8EBFF
EFE6F118
16FDF211
E6F5F105
140AC008
0C1AE3FB
06150908
FAB3040A
0E060FF8
12F8E420
1129FDDE
0AF2F4E1
0DE6E51A
ACFA46DF
2803D908
FF01EAFC
CA11E92A
F0DC24FE
09F21121
0C0E0BFB
01FCB7EF
1F4F1FE3
F3E5162C
30C5F0E0
010903E8
F70F0EF8
14E80CFF
0FD70718
10120104
C70DE6F4
F509DC13
0415DC0E
0400C2EB
0AF4FC20
E818D7C9
0EC08B1D
1BE128D5
2A1133DF
F9EAD21C
F6EBF0BF
03FCE304
EE11DF1B
F302FAF3
E1D6D025
1114EE03
E1E0ED04
001FEDE4
FCF7E8EA
04FFF20C
101209F9
182EE303
2F63EF18
19F7E4AC
FE241815
071DEFF7
DC24F20A
E820F406
F41EF7CE
FB81DC14
1804E3DB
AC16CFFE
2F2216C4
3407E02F
D850D610
EF3BFBEF
10181101
28E202EA
0EFBFC0D
E404BE04
D9E2EBD4
15264020
F91BD207
F81AE83C
08CDFE1E
010C1A10
E4D214FF
EC08F720
F3F42322
00EBE608
09EBFA05
F4F304F0
063F1E02
0406E12A
3122E4CC
3D00E4FD
133822FC
EFDF0EF7
F9D344D7
E9D20C2F
2D122A2C
FE032611
9F1F16E8
0F2CE80A
CFEFCE0F
FB0D0E1F
152414FB
E014E9EB
0DFDFEEF
030212EC
FC0EF1FF
EC143625
EEF1F508
F3C1212C
0BDC06F6
1816D919
A11AF53F
F9030EEB
F3C90FEF
B0EDFD14
EDDC2623
33E90733
E7531A12
E644EB48
01BDFBEF
1906F500
FC27E90D
FCCEFCFB
E74808F5
D8F3F248
630E00FC
09C9E218
0EFEF50A
EC3D2202
DEEBC826
DCBAC8E3
CDD90AD6
F01B050D
CAD70DD9
D8AE0100
2B3A0C13
0927E51B
F7F6ECD8
FC0BDBE8
3D28E5F3
F1434F26
A7FCFB1C
EDD70934
E1A4F0FC
EE270D05
D4069D16
EE25F0DF
F1EAF5F5
FFDEEF0C
DB0B1110
F4F70513
F61C2EED
F01DED04
14F506F1
22CDDCD7
08F6F909
06FAC7F2
F42ED7EB
0FFDEC19
F20F0F08
E0DCF5EB
2FDB1217
0CFC2702
09DFFD03
FC2124FB
24F7FF20
E8DFF3D8
09E9F9F9
0BE71E1A
D6F0F917
D6F6BFDE
0AE90A09
F5F4EFD9
02D6FCFD
E618ECF8
00FAF50E
0C1E0BF1
0DD3CB02
07EEF8F1
0913EE1A
D4E0AEDC
F3EF15D3
25290DFD
FC27F8FE
F8DDBB00
08061EF1
2B07F601
27D4CAE6
21FDD528
F12DDAF2
03EB06E4
E8F0E2F4
07EDDBF0
0CE500F6
F9D5F0EA
30D7D51B
1D3EB4EC
E72F0CF3
EA2D08FE
0A35FC03
02091F1A
1CF6D618
DCF0F8E1
0D280205
0701FA1F
E3011801
D5F7DB24
FA10101F
1BF3FD25
F326E31F
E90218E4
E720FE00
04D92F2D
E90B0D0B
2F233807
E114DC10
A0C5EB09
F9D0EAD8
4A240B05
FB0F1EEB
1FC1CE19
63E31409
FB31E30A
E0E2F917
E5E2D320
3EF3FE0A
F9F33DFB
2A180320
E30D181D
24020916
F7FF0938
F7C8D700
CF1E0CF6
492E0611
E8E8CCB7
B00C0C03
DE063349
EB02F1F7
0C1514E5
22A4E715
32EDEC06
D9C12FE3
0E25E5C6
06DBE137
DAEE003F
0B1DDBF2
312F3706
26041CE3
200AD1F7
253215F8
2D13DC03
17C7FBE1
D60DEFFC
0C0D1219
F4E29E28
0308D6F1
E9DF0BDC
EC0B2009
DDF3A813
F00C2611
1DDD0323
1924E3CD
19FFFD05
0324FCF8
FD09E2CD
E1DDFDCF
F4021CCF
073207E7
4005EEB8
E223BED5
DFFF22C4
27B4F9C8
D20A02E9
1E0504F8
07310E23
DEFE17E9
FA4C2FDC
301FA1FE
E4350520
BEEED1F1
25FD0B0E
EFB3EC08
120012DB
2208F4E2
C1344216
02080FE1
1A09174B
7115ECEA
03072B27
F7054811
4312E5E7
1620EB3F
1D270BD7
21E244E3
FA291E0B
EAF80EF3
E42117B8
17DB1CF3
00101904
DFEEFF03
E4D10F0E
E1131658
1317F512
D416F214
C12D12F1
CD1D05F5
F1042AE7
121A0F0B
1318FF02
28CC30C3
E0D0DBF2
00E007D5
F702C6CE
FB460CEF
C4262E3C
EE28C0D7
E5FE252B
A50315F9
FEB910E6
FECBCFE4
F4BED621
F6D61E0C
0FE00DDE
FFE0D0ED
C9F4DD3F
22E20CDB
D912F2E4
02D41205
EBFC2034
CD201206
D00A22F8
02F8FB08
FFF5FCFF
13FF0616
280A00C2
FCA12821
34D33AC4
CC07CBF5
F9070B1A
F3FA03EF
2C18CD38
01D8430F
D820070F
0717F115
0FC2E72A
EAD4E704
D0D914EA
FDFCF6E8
D0FB2AFC
ED2A150F
DE12E52D
0A1BF50F
FE07E515
EC04FA13
E112E5FA
FBD9DE09
041DF4FC
FCD9E9FB
04E8F807
F31BF402
15EED1F7
00E3E60F
31F615D9
14FA1509
0007E7F8
10ECFEFA
36113025
3DE6171F
05C4FAF2
0121DEF6
F20C0216
1E251802
3FFAF21A
0503EFE9
160F0BF4
1E11000F
F0F70EE7
F315F0F7
F70BFFDA
FA080920
33FBF41F
142D0D1D
F2F52F04
19BD0114
DFE017E2
EC0E0FE7
F0E3F9DD
1EEB11E8
FE0EE2DE
F2F13E17
FBF8F3F3
2A0FF6F5
0F012A13
3519E144
F8FB0814
F9F8FBEA
0926EB2B
F904D7E1
EEE51D02
20180BDD
EDFB2827
0A0C0BE8
FE192CEC
10E1EA01
FE5D0205
F20F2FE1
CECB24E5
EFFDE533
F9E6DBC9
FB1FFAF3
EA492DF6
24023B13
D9E2BD00
F8040205
03DBFD2B
1CE1A9DA
FAFD20F6
0626E1DB
11F00301
CB15AD39
0806153E
1F19FCF0
EFC2E9EC
1D2EE323
E60FE6DE
DACE0DED
27E80700
1F26F2FD
1917D1FC
0212F803
E8182EF0
FAEB1027
12EC33FB
F8DEDD0B
E82DFAF8
2612DC3E
05E60FFB
174EF40D
FF1CFA1F
0B0BF7ED
1FE60E1B
E8123BF9
30E100E8
F92517F8
2003EF1C
ED8FFAF3
0F152F30
0FFF15F4
F2111809
EFD6E0EB
C946D614
F7E9091C
FEDF10FE
DAC307E2
0D2A0217
E4FDD0A5
151BD1F2
F8F604F2
EAFF22C8
3420080D
3718E60E
18E913FB
45F62529
11D1B92C
FBF90617
13F90100
2BEA0206
FA10E2D7
1304110B
0A31CFDE
0A15050D
14BF1BBE
F8E7FCB6
E401DF02
0B62FCD7
CDD01C24
022DD3DB
CA09F64E
FF091CC6
34B4B92B
0B13F411
FE155129
CDF2A80B
23FFE632
102F230C
18DFC513
0ED607EE
4218F0D2
0D2821EB
9100E2BB
DBEF2327
0E3119E8
D6FB29CE
D610E6F6
E0290447
13C22F1B
B5F02B02
1098052E
1548C7C4
230CEFEF
E220DBF8
0D2616C7
1DF20C2F
DD07191D
FACFD705
F305E7FF
E5CC2F25
E7DA0926
4A379C2B
05662C2A
0DEF04CC
D8EE0B0E
E4114108
E028E123
1C090427
00BB5535
21F00907
02F3E630
BDC7EC14
E5F0D0FA
FCEC460E
1ED341FF
FFF514EB
EABC0716
0AE0CBB5
19E20ED2
2A49C1DB
0DF212DA
FA28033A
EE262CFF
4C103BDC
DD03FB16
1CE2B5E2
222D0814
18F319F7
E9F0E0E9
081F2316
FB0EEC1C
E400EFD8
0A0BF2E5
DC06EFF7
EE24DB26
0E2EFA01
FF2002E7
1100DDF0
0915050B
0C180503
F8301E20
09F30906
26FC01F7
FD25191B
E80DDA22
F92B17E7
F2E2091F
0226DFF0
13E9F3F2
27223E06
36F4E92E
EBEE12D4
EF3F35B7
10FD2310
18C61405
FADC2928
E2A7F10C
09CDDC05
FFC7262D
0A1F00E1
DFF91102
F404EA0F
05EBF4FC
D809EEFC
23231BFA
E503F314
01FBC4F2
9F0AE3D3
451823ED
D207F5FD
25FDDC04
23E4D2FA
F11B08E8
09D5FD18
E1FBE7EE
FDFE06ED
FC28EA02
E21009FE
03E9D6C6
3EF1C5CC
EFD5F6FB
23E4B5E2
0123E8DB
F803FD0D
2FF401F7
F5060719
1FF11F10
5511FDD8
D2210320
1DF8D9E2
1225D11A
1CE801B4
102028F9
F2BBE513
2A04E7F2
F9F2E9F9
2410E31B
EA1BF2E4
37123447
E6E50810
F8F0D618
29F20233
F9FF0F37
4705F703
28B71410
D7D1D8DE
FFD7FC18
E7ED27F9
E50A0D1A
08ED09EB
F720DFEE
EEF12016
06CFFF1F
E51DF90E
020E1A1F
DFD430EA
08C6C4CA
D81A14F7
F8E009D4
FBEAEB0B
DE1E34D4
F12439D0
FE38DCD0
24C0CCF5
173FDCF8
ECDFFBE3
0EDEC103
14052B05
1218020F
55EE2FFB
07F5DB3C
01CC0A09
F5C1D0FE
D0DE1431
DD4100F0
1426D53E
E9E902F2
EFE706ED
1B0E19FB
5F09D7BB
EC24D8B1
0E4A262F
1DBE09CA
E1D84C1C
F8D8ED0C
04F9EFF0
00E5FD32
F3EEE205
EFE53315
F2FA1221
233CDF35
E92AFEFB
01192608
E618E1FF
D3CE3CEB

