E90B10D1
E6F933EE
F51105DC
BFF3C5ED
2400FCDE
F2F6E224
D61C0FFC
F2DC520D
4E2A1AD1
FA22EB0D
1DDDFA1A
D4190016
FD382106
F4FE2BFC
0DE70EFE
0AFDF400
1514EEC8
D5E2C7F9
23CFEF04
EA0FD905
F9360D1F
120EEB16
0DE90E14
EEE12B3A
F2130503
10040701
0E021432
BCFEDEEB
0B040E14
04BD1104
25FBF0EF
00E624ED
FBF2FAD7
F91A62C7
1FE50DF2
E7E60B14
18C501F6
ED4611F4
10EC04EC
08F00003
2506EB14
FCEA010B
F701FA92
D024CC04
A40E10F9
13E40129
F6FCE325
DA213BF7
FD0CEA43
0E37A313
D32504F2
1DE8CD2E
F90CF626
17FE3620
4A0E0DCF
29073B09
C7DE05ED
EBF61BFB
BE0AEE17
0AAFEF0A
F745F9E9
001ADB01
DFE001F2
B6FBD22F
9AC006FD
F7D8FC27
131401FE
44C1100A
F3E3F607
FFD7F7FF
13160AE0
16BC20FA
04DC0E08
FA03E6F9
020804FA
03E60918
00DB1819
0CE4EA0D
E31CFBE0
F1FB040D
40F6FE17
F9FAEC46
DC0EFB3A
2FDFFC07
15FA0E02
19DEFE07
021B16FA
D70AFFF0
C70EFE06
1FD6CF1E
F9FFFAF0
141B0C05
16060417
351E210B
F51BF5FF
1C01B908
193207D4
190CDD31
F80F21B5
3615EE01
1921F214
021FE0F8
192DEF29
EB11DAE5
E808F8E3
12FD0217
183F1107
06DCDFF0
14100FE8
1A14210D
FEF4FAF7
E91BFAE6
DFDB1B16
0FF9A4F8
F00315E1
D6FA27F3
C52102E5
F637D1E8
E7D3F8ED
0F05EAED
EE19F6FB
D1F9FA0E
000112F9
E3ED20F2
0FDF02FF
F4CB212B
221613ED
D930130F
27D9FDF8
EEE7FCE8
1F1E0202
1B47CEF1
330806F7
F2E308C8
1B18F8BD
1F1403F2
181A2513
FB23180F
FE090B2E
0EDD08F4
DF0CEC16
DCF0F1EC
22FB1417
F3F404EF
0B09E2EA
ECC2DC2B
22FE1BBB
1CFE0803
385318E9
2B035ED5
13EE1804
DFAFF7F0
3A1C0919
DC15F404
090E0F39
F0FD0EF5
0721E2EA
29291C28
41091221
D7ECDC05
1602E3D6
E9ECF733
FDFFFE07
F8F021CF
1B59ECDF
151F3CD9
0BE5E72A
3F2A01F5
DBE80B11
05E2F4FC
FEB4FA00
150CE904
2DFC17DD
FE0B4103
180205EB
03D317E6
25012B02
4B34090E
B59D0E04
F8F10C00
F20809F0
D5F6EEF6
E3190F14
A32C21F1
5B22F1D4
F705F1FC
270F45DF
31170E08
F0EE26FB
0ACCFC09
39F8F6E2
1E171117
EB4111DB
4AE2163C
010F19EA
2545F1FB
1E39E4F5
502C1CB2
BDDDF501
F930A6ED
15E50E0B
F3150EFA
25E0D4F2
DAFC381E
F005F1EC
FEE6071E
D8E7F544
2BE639E6
EF1AEA1D
27ED29A7
EB0BE60F
F9E6CF03
EF2710D8
1C02DE0C
CD21F90A
D3F30303
FFD31002
0AF4D20A
02D20B02
EC541CDA
2DF209EF
19F40300
0DF7DD22
F9F616E0
FCF2EBFF
E70D13D8
DBA40BE5
07E203F0
DBF1FD04
C92313DE
1340030D
091625FB
EE29F50E
2F2318E0
E8E8FBD0
F6EE200B
301519FF
03F613EF
3441F105
F8081B02
DD13211E
F212172F
FC2EF7F2
DE3BDADA
D9ED0901
113BEAF1
0CEA1415
1DB93E29
1D2DEB1C
0C0BF3F5
31E8FEED
34B2E0D0
CCE3F4D2
212B32DD
0FE515E6
17FF280E
FF03042C
0CEA20EB
09DB0003
F7E41318
E3E204DF
12E3BFFD
FAEB0118
0A0926F3
01191722
E32C311A
EC04DDFD
1CEAFACC
ED02F5F7
1E1201FE
E91D052D
02070DF1
FEFFFE19
170D1EF5
01EB061D
041CFF14
E5F8F2FE
29ED0D13
05E9FAEF
2D1901F5
221CEA10
180B1913
132DE12F
ED01F2F1
FE3112FB
29E90D01
211DFCF7
E311EA00
0CFE0EE5
06E81504
1BCD1922
E0F502FE
0C0C1F0C
DA1DFE1F
F0D90AF1
F6FE1508
0BFDE803
10150901
140BFA10
061C0DDC
23FBF308
FDE0F516
06F0FCFF
E70B0612
05120404
4DEE0925
EE060914
26370AF9
072204FE
F7FBEAF0
FCFDFFFF
DCF8F215
CB210213
1BF709CE
FE101016
F70025E0
0319F4FB
13FBEBEA
00FC0135
CFEC25FA
EF200CFE
01CCF72D
FCFEDD39
2FD03DF7
1DE7031E
FBFDCDE7
EFBD0804
F93AF204
F9D6FEFD
02141BE6
DB172AFE
FC1207D4
352708D9
F3221C29
1726051C
0041251F
3EAF07F1
FEFA26EC
47390629
E9E9F1EC
E5E723D7
A6F113EB
40F3C533
0DFDE742
DBFD09DB
F40416EC
2AE90815
00DCCDFD
E8FFFC0E
14091714
EA2AFCEC
D0FBF0CF
F0FAFD1F
F4F2FBEF
05DB19FB
0C26C3F7
E9F703C6
193F12F5
E7FC0E09
F90E07E6
0E01ED0A
BCF6FEBB
FBF7FCFF
F8EC35F6
08050BDD
F6CD2111
140E26E0
2FC21ACF
0D48F11C
EB0BE118
F8F70FC5
27CA38E5
E020FD15
E40E4D2E
424304EC
EEEED8FB
06FD21E9
13E8E80D
58F9F7F3
D22EDAF6
15CB1622
1C1E0105
0212192E
FB0F03EF
191F0BB0
FEDA2902
3BF928FE
EE25C8D8
D9E6F810
2FC7811C
00F6F70B
03FAD5F3
0E13F8EA
EB09F81C
D607F015
320DD803
0C0C0307
D6E4D3F5
EEE11606
2D050FD8
24D70934
0FFE3A10
CDF000D1
E71AF903
0224F321
FDE5D3F9
F7FCFD27
1CF4DCFF
FF00F0C4
F7EED008
C23610D5
E7E2E3E9
E7230B04
1A2900F9
F041150E
0DE510F9
02F5DBEE
22D0ECFB
2120101A
EFC6EF0B
D228FF02
F521CCB8
30D016EF
06FFCCD0
E7281DCA
070A2005
7147CC52
07F12315
D3F50805
2C0508FC
1D1FFC0E
1FF2FC11
F8FE06C7
F7D0E7BF
DBEFE2FB
E4C31DF7
2BEBE604
E5D30642
083302E5
2A1DE8F8
A6DA05D5
E5A7220F
F31A2F18
15F7D910
1216FA2E
09470116
EA38FE2C
062615EA
F70B0604
041707EC
172203EB
FBE40402
ECE4E001
D1E5D0DC
EF03F8F7
FCF6C410
CCF10005
E6F70904
F4FEFB01
04170CFA
F0D9F60E
F3FA0414
17F609FF
1DFE1906
2900F4EA
F105F3F8
0B0205DA
F10D0CFD
37F90605
CB0CFA0A
F918F71D
D027F320
D03308BE
020F3402
2F1A0FED
C11E0704
FF200CEA
0301D400
0133040C
F9FBE6FA
E508ECD7
EA15E905
FD0B0912
FFFE160B
E7A00608
0D11E30E
17200DF2
2E170702
050204F1
EFF1FBEF
442C1D30
F610F9C0
EA0AF63A
112127E4
F3430804
141AE2E2
FD0809FE
F218020D
EB270017
2CC74BE1
1C03ECED
0612FA09
100C06E4
D6C30ADD
2C3C21F4
2AD71C43
E8D3F2E5
45EECD15
F4120EED
E6EBF7F6
D9D6E5F4
FA051C0C
FBFAF8F6
2717D5DC
22E302F1
1C07E3F7
0A1315EE
2F1C22F0
F9F901EC
1F1DF0BD
090CE8FB
0C0AE125
D0FCF9FE
F42E4119
E31E1004
0FD602F4
38E2E9E1
EDA9ADED
1C1F1332
3B10EF33
29FDF1F8
18D6182F
0F09EA33
FEE241E0
031901DC
1A03001E
F3060511
0AF40BF9
F311F2EE
E3E61713
42C7FF41
28CCEE2A
C708F4E8
09161F1E
18F71AF7
FDCC0EEE
18D010F7
0111DE0B
C60A08E0
17E50B04
E903FE2E
1FE5D034
25ECF011
E61EFCDC
ED23FEDA
F2B3F9F7
F52DF7F0
01F4F81C
E114F310
FB1EBF1D
EFEB17F9
0BF0FFFC
41E521E4
1821C8E0
2A09FA03
33DBF220
10F1E5DB
E2EBDF00
DCD2FEFF
CEFE34E6
F8F22A1B
EF13D5EC
20EA030E
F946F20B
DBF807EA
CA2658BC
00EDE615
BC3827F8
C9F9080E
0403CE39
1D21FBFD
450616D2
0C4AD7E0
DB34E4FA
0D210DDC
F5012002
181724E3
D6EB1BE1
572710F1
4209CCC7
D8BA06E8
B609A007
18051828
D9D5D7F5
06F214F0
1AE0F0DE
F6051228
FEFCD527
FB1C19B1
01DDEE14
032E0725
C8EDFEF4
C8ED0BF8
18BFE50B
CCA71EFB
071AF725
10CBD1FA
260F1399
150DF111
F3302009
F1B0F7DB
F4EBC602
0D48CFDC
02FEE1FB
282DF1F0
F2E80809
4FD6DE20
EDEDE8D3
6032E4E5
DB4016CE
F9111FE9
F901D707
F7E7F309
0731DED9
B845FF13
2DD50CF8
EA200BFA
EFD4134B
DBE904C3
2CE5DD3D
11050D3A
E3E71AFE
DD21EC3C
13EAECD2
79B60E1D
D91A512B
2AE0252C
071237DF
E2EA0209
D8D3C50B
F91FFBD9
010DF208
F70AEBEA
0BF8D929
21F81903
0F37F94A
2D1AFA95
F7220F00
331001CE
03F3F3F6
FC1306F7
F1F8F9FA
28CC06E2
EBC7F912
F802F1F5
021DE500
380F0417
E8F7F2F9
DDD80613
0722E8E7
AD11F901
12060B22
12F8E148
111B33CF
162BFC19
D526F0C9
15F9EAE6
F3FEF8F3
140901F5
E80C1B0D
40061A21
32F43715
DA5F15B4
05120817
F2F5E9E3
C2E60716
EEE902E6
1B0BF4EC
0EF810E8
DB070E1B
FB03D9D9
FB0E12FA
3118FB11
10241C09
10FD0514
1109F201
171B16E1
2C161025
0CFF01E0
2DF3FC11
03FDF7EA
0D16120E
E3DB0E20
0CF511FC
C904F7BF
F731E12C
2304FCD7
FF34F605
F2FAFADB
03FADBF8
0BF91C11
2D1AEE19
DBD10B05
FD04F8D2
F119F8BF
F70BD8E5
31FE09F7
1801BFFC
1A1181F6
31EC06D4
11D61BCA
F4E2C730
0BE40829
09E2DCF6
17D7FD32
1B1F22E1
D0F61105
1FC1E81A
06F1E6D3
D6F910D9
1226CBC7
D538F7BC
EE6AE1B7
D9B2E1EC
E9072BD7
10F401F1
07FADF2B
0929DCD6
0A2CE6EB
05F120FC
AFFAF84A
FDFFCD0B
422C1141
FEC02013
B748E01E
0807C6FC
E31400DB
10DCDDF8
CB48B1E5
22CF052B
B319CC17
F1E0CB09
FC05E7CF
022223EA
020C2603
1DDC1113
3816D21E
CB073E27
C1F60B29
2000E20B
B829020C
06F9D9F6
E3F21744
FD05241C
FF27F212
00370025
E5521705
05D2FDE6
ECFB54FF
0C02B4F9
23063611
30FC11EE
DBE76CC1
08F62D08
FC020200
0BF30FF9
33060209
F02C05EF

