06E90613
DB3CEBF6
EFFC07EB
FF1CE1F1
ED0FE1FD
001DECE9
F812F1F2
11F423F4
1E47272A
2023EF14
2FF304EA
FB5E1C13
F3150110
D65EFD07
C2F0FD0A
0FE3EEEB
1ED3A7FA
C4FD21F3
3FD74610
CCE3560F
E9D5182D
F90EFBDC
D108EE12
0BC72148
2800EB0B
F3FB03F3
9303FBC1
2F171ADF
39FA0A17
08020F0B
2BDC0CE6
E10AD8E2
F31FE3FA
10DE081C
040733F9
130BF20E
EA2DF8F9
143F021D
13ADC1D9
07EA3222
2004FF18
13F4E4DD
160019E4
60FB0D1E
0BE7DF04
EB29FFE0
DAF301E9
B1DF24D9
F923DFD2
09DFD5FA
1C4AF3CE
1AED29F7
DC2E49E1
FF550D09
E3471DE9
CC0C1602
15FA252E
CDF0C40A
E0DEFADA
1EDEE7F5
F0E2FD02
FCDEFF19
E70E1ED7
F0F23111
00FEFEE7
0AE5E22A
39F8E7E7
1EF0F60C
36EF2FF6
0E04D71D
E31CE116
F41205F1
0E09F9FB
FF17D007
001EF101
0E0BF4E7
F39F15D9
081FDC44
10F90101
FDF5F81B
18253503
101902F4
12E530DD
0606EE1F
E8E00003
F5F1001A
000305F7
0EF4BF27
1031F416
CEAD1FE3
2AC645FD
01074613
10151307
E2E0EE05
04202B0A
0A0CFAD5
DE0A1BEA
E3F53500
2103DEFB
19DA0209
B0EFFD1E
043C05C6
A0FB0DF2
E03900EB
EF10E72D
FE0F0B00
0BD0ECC5
F5001D30
19EDEC06
0A04F9EF
DEF4040E
1B05E703
46182BE5
FC10181E
BBFF2219
CC2DFBF0
0F000106
0B021402
00F327E8
F2E32517
EA4F0606
1BEBD318
E503E5FB
F1042906
E718F8F8
F201F225
D18E0A1B
E1E91900
E80BE109
F722350B
C5B3CFD8
E6F927D5
012E0CF4
DEF4F810
FAF7DB10
220623E6
2AF40A17
D9C4FDC9
F50737EF
210002DD
3D11FD10
E6F4370D
08FA06F8
D0FE0CEF
EB1BF709
10C0DF23
2B171BF1
DB13F107
BA26FFAE
233AF2FB
1CE60204
EA2701FD
040728E8
0CFC1AE4
DDFCFCE1
F135E900
23080A22
F4D00E0F
7D1A0EE7
DC0EEDEB
FA2A0C0C
12E7D3FB
DA130507
FAFF030B
FA101AF4
E8ED2F15
D522010C
35B1FF07
DBCB1923
F9F80B0A
C428E216
584313E6
BD09FA0D
2AFC2CF9
EDB30815
F3121708
14F6FCF0
160214EF
CFE9DA1A
04144AEB
F59EE1FA
1834F7E8
D8BC0DC9
F61B1C03
DA2306DD
EDF7D9F3
54E10B10
F8E5E8DE
4F110106
E3F33C20
E900170F
FFE428FD
DFDE43C4
DBE6311E
CE2B2D2E
C50219F5
D3462E25
21EC5102
1F221304
4209EFE5
0704F32D
D7EB3002
E60BCFDB
0C0FCE05
D3E11CE2
F6F8CF2D
26F0FA23
1E0EE63D
0F2111F3
D8E438FF
EB2DFA1E
2BEFF826
FB2015DD
1F0BC2F2
0E5EFC04
EFF702D6
2AFDFF0F
1FFDEABA
08DABAE1
3E2527FE
F307EBFF
1025D702
1D71F123
1AF1DEEC
E7FA07F6
0BF62BF2
E511E70E
032427D3
F4E2F9F8
F0DEE7B6
F5154EEA
03F620BC
1ED1EF11
030CBDFA
19F7F33F
0A25F51A
320904D2
18FEC112
08FC0BFB
19D809D9
B9EBF3FC
1E102BF5
D924FC1D
E8040CEA
200DFF0D
2C2B40DE
20BF0EE9
3EF9F8F8
11DD0807
22E908F6
F3110503
0D052837
1312F8F9
E40D0603
F50719EB
F1F9FB0F
19150BF4
3E184CEF
0F4608F6
FB19F4EC
18F40E08
09F40F1E
EDF41605
E3FB03F3
1BB70A09
F71B04C0
160AFC3D
0D27E514
1B093720
D7E9120D
EBB5FDF7
1DEDF9E6
0407DE0A
0F0CF824
CE1CEBFB
EEE8EA05
14D40814
E513F5E4
13070E00
07F80D02
23F0E3F2
CE1A220A
14FFF708
220DFBEA
D809DEEF
1FED0B00
532FDCD4
0DFFE914
CFE80FF3
EAE7100B
05F83403
071809F0
FA232820
FB16230C
F21926FF
FAFC250C
0F1D1514
D80D1402
EBEFFCFA
DF0710FE
F7E5D41E
04E0E91A
02111027
28140019
05030900
03FC04F9
F3180311
000D0CF9
2BE4FAFB
F0F2140E
25F8FDF2
F6160501
0E141C0E
F9074505
F20121C7
04050F01
2AFA1324
DCFBFB14
27E10916
29FBC01B
F6F609E8
D9F806C0
310035E3
D618D4C9
C7F31819
FCE2FC03
E602FE35
D1FB0AF7
10FFEAEC
C330E5F5
00EFF105
13DDAC0C
C9313608
30382B1A
2B1D06EB
F02BE2FD
3110FBEB
F398F446
2D111ADD
00342B16
32DB48F7
1EF41DDF
0C4DE7C0
0721F831
1FFAE5C5
ECFFD0E4
E9CF07E0
12E8E7D3
121BEDF3
09CFDF11
22EA1214
FAFEE4F4
FB24CD4D
46FA0621
FBFAEFE8
0514F333
E1DFF7C8
F2F902F8
3AEE02E5
0D07FCF8
022543FF
F308D6B6
F22526B8
D5F741FD
0909242F
EC4D1E12
E6D9CE47
EFFA14F6
D2F1DB2E
F7F4EFFA
2ADF0206
E3031824
2BF53D0C
E8EF19F2
19C006B7
0CA5D92F
39251AE9
EAD7B7FE
CF12E9CF
3D39F10D
DDE0FFEB
E3C8FF26
F0FF05D9
2CFA0A00
F930E814
29FF180A
471F0EF8
BF02F91D
CFDC2DFB
03190601
FBF1E834
2AB5F1EF
D0FD15D7
3303B8C2
DE19D6F7
FD0D0400
ECEFFEF6
F5BC0705
0D2EFD11
1B09E51C
DED7FB1F
F717E303
0E4D0D25
2CEDFAE6
D40803F5
1CE6D7B8
D90C10FF
040AECDD
F50E1ED2
1420133E
03040907
DBEC1BE0
2B0BF01D
4E8C17E2
2ED9D903
F3D61A11
E92A1634
EDEC23F0
0EF3CB14
FB0B503C
1324FDC4
C61F3142
BDF7EF09
FDCFF22C
21D9EA03
161E0515
3CFDCDD7
A50BFE48
14FE3402
FDCAD7F9
EFF40B08
FCD80006
320D081B
06E20BD1
16E13408
0A301F34
17161AE5
BA21E612
E5EB0A22
0CD829E5
F6022CF8
31FFAACB
0AEB21F3
F9081335
031C420F
2A1A2CFD
2CD50902
DDD81701
0DE20B19
E81316F6
3B0FEEC8
FDF5F5F3
E2D92B00
E9F82F08
12E6F904
F4FAF3FD
ECF31BEE
061305EC
F7FAFB02
F1EBF5E4
10E20FFA
22E7F6E9
F210EB0D
0D0411FC
FEEDF5FF
0605FB0E
0901F8F6
0910190A
1DDCFA12
CAEA190D
D8DE06F9
2000112B
FC121415
C4DFEB29
F8F8E7F1
DDE81BF8
25F8F522
F9DFDB15
3DF5DFD8
1C03D4CA
ECF40007
00E2F6FE
04221A09
FBF4F715
3CD42815
ADF6170B
1306F433
0FED42FC
01E1180E
DE04EB10
C50ACFF5
F60BB5D6
FB1710E3
E90CE210
151FE2D1
451AF0F1
D5FA2DFB
F00D28E8
42163320
EC0FC6EE
FF10FDF7
EFFE04F0
060907FD
FDEEFB1C
F783F5D0
F0F4BAEE
D6F6F43E
3AE52427
19E3140D
1BE6FE0F
4504C722
0C130919
00FE0AF7
08F2E8F8
F4CF100A
E51FE012
EB163BC7
1613190A
1ACBF70E
3805280F
0EF40DF2
DDF1BFF2
F5D6FECB
04DD5CFC
E61C191C
1DEA0807
2408D3FC
30F40306
E0FF24E8
FF04ED07
1D1ADA03
F7FDECFE
FEDF11C6
1204ECE6
E6F62D02
06F3F7EA
12231B21
1417E4EC
07EB22E6
F7E207EA
E0FC110E
43F60AE7
0B27F8F9
350D070D
05E0C90F
27FA0E04
D91AE109
1BFB04ED
EB00EDF2
F40D0E01
06F534D9
EB2A15FE
373808F7
C8DB26FC
F732C812
3513BFF5
05F82520
14F552DE
09EED701
1AD1320D
E2FDFC11
C50A1523
DCF3D907
1D0CB82C
15CAFEEA
30EBF9E8
19FBD3F5
F102DC17
E5E7E7F3
0809EE10
CF27010E
F804F4E7
ECC10723
F3FA0512
FFD5E1F2
0BF22700
0300F4FD
E7300C10
F71BB115
D50901E6
BFF31B18
E91CD306
0403D205
EEB70300
4106EE1B
DFF305FE
F4183913
F62C29E9
15E6D00A
03E7E4CE
DD069DFD
D7BEC2C6
1D47F0F6
1EF941FD
2EFC0D0D
2243162E
B33325D4
DBFCDBDB
351429D2
290E2611
ED151D05
2BF210F1
C5E5F8EF
DBE01CAE
E40FD203
0C42DFFC
E11617C2
241F0729
152328F2
E323500D
0B471430
0E2E2BD8
E414F2F7
F1F6F3EE
E8E9DEE9
FF0CA6F7
D10CE0FF
12212122
23F631EC
6505142B
063BCB0B
09E119FA
17E6C0FB
1915302D
6239FEF6
C824CC03
DFF2EC02
424E1917
DEE6D1E4
FD1AFDCC
2AC0F1DA
D0FE20BD
09BD341F
12A33135
594ADE02
B3131233
02F615F3
5FE7E62D
F32903F8
03F1F6AF
F227D30D
EDF402EC
24ECDC26
F9D5F51C
F7F3D4DC
A70FDCE0
033115FD
EEC319F5
060DDF0C
FDE2F108
06E803ED
190BEEDD
EEECDFD4
454F0C1B
23EF0B23
01ECE111
0AEF3A05
07FCE515
0FDF24D0
2216F615
18EB24F4
EEE7E010
0AE1EB36
E3081B93
FABC60D2
06D93F1A
09EBFC1E
0EEFE902
D8D306EE
F5E405EC
2847EC09
2AEFEBEA
12E3D9DB
10D607F7
E7F60C06
0314F7EC
00031223
EB0CF7F3
F30409EC
FB0831EE
091625F1
0405B617
26F7F404
ECF9ED35
E0FFCE28
D4FCF6F0
16DE262D
D5252620
EEF008E6
E9192A01
10140D23
05C4F545
23ED1BDB
1B011028
37FCCF04
180F3E11
1EF0F6E7
EB2805FF
F10317D5
28032F2B
230B0013
06FAB511
0306FAE8
F416EF01
CE21030D
DBEEEEFB
1F1F0CD6
CC3CB2D7
F0E6EDFD
11CBD1E8
BF39EFF7
1935CCEE
E1ECE514
F60F05FC
2B2C14D8
01461B14
E0350134
0808FC00
090FE3DA
24CBF71D
C918F3F3
09D00607
FEF403E9
C1D3CDF2
1BFADB02
E807ECE6
E5B31306
F6B6D81D
0BDAD5FB
FE0FFB0E
CBE9530D
2EE8151C
01DF0CF0
F9D90CEE
05251C3F
04CBEE1E
F2EFEAEC
01E4FFEA
E3FCF737
E7DB16F3
2C18D20F
F50A0705
20F0EEE0
2ACF0612
0CF8EE00
F019DDDE
014C2AC5
F424F434
0C10CA09
0000F1C4
51D0FEE5
0CD2E326
27E82C18
ECF638F4
F4E5EA1A
690FF9D7
F9D834F4
08CF1F0A
AD1AE210
FECA33C0
FFF71CE9
0804F733
E012F3FC
111A0323
20F20114
ED2416F3
E62C1DCE
03743031

