46F12927
5436C040
02DC02DC
1F1F092D
06DDF5EC
13112A0D
D511E807
DE040BF7
9F0DEA0D
CCFF5E20
2516E4F8
24F0DDEE
E8201CC5
DC230513
64160FBA
011517C3
9633CFC9
DF11C8E0
1604E2ED
D5D0D20B
031A1E07
E410FD14
96DBD9F0
C0C6FF58
1F42D047
020D4D45
2AF828A1
07102B0A
D8D81A69
F4111CF1
D6061130
341642DA
D444D646
FDF6CEF0
93E53032
DB0F59F5
E5E80CD5
F3EE29ED
BE0CD1D1
12D2EB1C
FB0AEFD9
1A25FBFC
C20B1823
FCDF115A
1DDABF15
1F3DD508
39E9C52A
E71F2013
C508FBEC
1A0C42C4
D715F006
7402E2F7
080D9D4A
FDFBEA23
D1E2FFD9
0B0B1E10
01D9EF00
FFF60B0D
F0ECEE59
1EC83709
EF300F01
252E0C50
3405D027
E8E1CCE2
54D140C4
48F41E34
EF37F6F3
4EEDC816
2DE510F9
EF00D0FB
BEC7DF4A
10E9E311
FE58EC1C
C920180D
44F20507
0D0527FD
0719F408
EC1519F9
AEE5FD21
99FD0D1B
8101E2EE
CBE101FD
06100D2C
0BFCD81B
F5F3F40C
1E190FD5
1F162A0D
B4FBC11B
08220008
CD00B8BB
083509E9
E2FCFBEA
81FBF344
1702E528
360A03E3
0306DB06
BD4CF705
CB0C03EB
FE230F0F
FAE836DF
CE3712EC
730D03F2
1003FF5D
21E9FC19
E214050D
4B00FD34
F5EA02EF
D3131125
20FFE9FA
D2F316E2
E3113A1B
E040B9E9
E40D131A
0B17FB26
1EFEFF21
1418FE03
04F70AF0
CE050024
D720192C
0BFB71E5
CD012E0F
3BECD4F8
FBF2FF05
F00E4304
012EE535
E1EADAF4
0B061E01
2E1EF0FA
0BE9F805
F70C1A20
0B23F905
09FFD012
154B1E30
ECF223EF
FF040D1B
2D1EAEF3
22290D20
F23D6404
EEF1E0D9
DFE31CFE
050610FC
48F920FE
E211F6C3
16FAE912
F739C4E0
482EFF28
9CF52BEC
12C8D90B
C518FA1F
02FBC705
0BBC45C7
5A19CBFB
0C0424C3
EC1E0A4A
0617E1DB
36FE19FF
F526112E
E709EAEB
25F41A1C
FDF5EDFF
D417F026
E21EF3E8
B2F7DFF3
DBF41A3B
02250E0D
E7CD5302
022E16E9
F5ECFA04
EED51AF6
EE030D04
F5ED2AD9
16FCDF19
D235F8FC
F1EAE9ED
46F62AA5
21261EC1
ED5851DC
000D172D
22EAE1E9
58FE1226
E4DAFF09
1432E9C5
C3B715CA
36FFE601
17B913F0
D233E819
E3E610C6
6833DA08
1415C5F9
60FF07F7
E9180EF3
F9ED1309
25FCE600
0D17E518
910CCB57
B125E207
B20E18ED
1EE94422
9AE7240A
D5110D22
F503F9F9
C0EB0DE6
0AFD420A
C341F240
41CFF503
0815EC21
17F5D72D
2AE0BE23
3724F407
020CFDC0
CDEEF811
2A113609
09221AF3
2BFEE7F4
E2C24B21
FAFB28F7
14D9E237
19F5EA26
03F30F36
FF343DEF
4A1AEFF7
EFC41429
56F325E6
0FDAF2ED
0B29F1D4
0819CDFD
28BEC2F3
001AEEE9
E905FFE8
0CE92600
2DFFBC35
09CF51AE
3AD50BE8
ECFD4906
DDF014EB
C1FED960
DDF3023A
4F06EC0D
D2CFF33A
DF17CC0B
1CE7FDB7
E8E72E1C
3F2D0666
2432F6D6
D12907F0
F9EFEBD7
03BF0D1C
4C1BE814
0720F4FA
87090CFB
074432F4
4BFE4F3C
E9F32114
0FF428FD
E32AF632
AC14A9FC
DEDD00FD
20F1D60B
361D1AFB
4DF50A0B
520E1C04
FA132607
DEF317DD
171FD3D9
9EF810FB
15F515F2
08301620
E3EE2015
1BCCFC0E
421C0014
06D8FBB2
DF22CB2D
C22508DB
09FC03F2
61F5DAFD
0114C8E9
D9FD0C0D
10E4EFDF
B1211928
3A06F7FE
5BF521B7
13FF0EF1
B20A1812
02180229
E1F10602
19EEECF9
2604FEEC
C4023503
57F8F0FF
030D1222
941FEEDA
2CFB1304
D6EEF135
10111231
CD07BC16
25012B05
10D5E305
39FDDBE3
E8F7F4F9
0304E1D5
4519FDDE
F51CF804
F5180105
DF04D912
471B00D8
36F01123
F602D9FB
021763F1
14DBFD11
300310F5
D8D027FF
12EDE617
FC23E1E4
24FB29D7
2DEF3ED1
3CDDE1FD
E23213E4
0216FBE6
58F9EEF2
DFFB310F
09FCF13C
43F108DB
C34009F7
86D84A0E
45F83702
1A16FD0B
BFC9103E
BFF7EDEA
EC1E1E17
361491E8
D8F3ED07
032D39C8
31E30C0B
F22AE103
27D7EFEC
12250181
81F61C24
16D12A0A
04120D09
F635EC2E
460E3A0F
E50116B3
7305E1F6
221BE1C9
0D0FFA1F
23F1E6B5
3AFC0C06
EB0C0322
5E0AE32B
F9C74BC6
27FD1DF7
E529433A
09121B05
2EEF3BFC
8112D7E9
FE050D91
BBCAE63B
F9DA813C
F629EF03
2CE5FEE3
DCE8B603
FE3CF4FD
3CC61E12
280256BF
FD5DBFDC
26D93F17
B7B714FF
DBE0C7F4
F700F9F5
2204DE1E
E5EA280D
0E07DF34
B00ED6FA
C4123D54
EA030CD1
EA3E1741
BFE70D1B
09F51635
3921F60C
220AF9E1
0929CB03
0FEE3FF8
1BF1FA0C
F90D0AE8
F7D11C34
B91C15E8
07071B0E
41141709
F0FDDF19
EB162D0F
F9F90BFE
0BE42E39
3EF6B9B8
E3DBD4FF
FBE910FF
2C2113D6
36F9D9CB
EDF6CD15
230E02AD
CA12340D
D7FDE62C
20F7F805
DB1401B9
D40FFE0F
F6BD0D0F
F71E080B
C9FB0AFB
E5011388
3CFDFC23
36121320
E70348D4
161815F5
C541210A
43FFDF2B
E632FDE6
151DD5F2
02E3DCFD
150A0A0E
C23106F7
D604FD05
27D500F9
11BD28FF
140CF926
CA16F012
FCC4FEFD
EA194C44
15E838D9
1A0C09C0
0A0D23E3
D5E90FEC
1E0AFD0C
D8D116FC
EEE2D6F6
F0C8F518
F11CF9F6
CBF1EEFB
B930F309
0D3AD805
7BF22CE4
4516CFFA
091AF610
111EB9BD
C9F705F2
06311D04
021200EC
32FFE012
EE0FEA17
06BA04F2
F6B70D0C
0BE81E18
F706E8FA
DDE6E8FA
11DAD9DE
EF190AE7
095C08D9
D8EDDF19
EDF5F7F2
681B2BF3
151716ED
231407ED
06F00BDD
FD0E2329
DD06B9F4
E51B013B
14080429
33120E14
1EEE0013
01D6F90F
EA2006FA
1D04F0F4
08031F11
1111FDE2
1ED31C32
221C32FC
F70E0212
F90A02F0
1DF31114
05EBFAFE
0E0AE516
ED1AF33B
D51CDDF7
0FF707F3
F62F10DC
FF0317EA
0FDC01FE
BD05FEE4
08DBF30B
58FACE0B
19120D19
0F0CD7F3
01080A1F
DBF2E8F3
2606FF04
EEF40220
14B51310
D0DFC923
061AF8F6
211B06FE
FA21D100
2CFDF000
0DF4FFDD
ECECEBF5
D2F4E2F5
23161A08
0B07F105
04F70913
04F8F0E8
E2FEFBFD
0A16EFC5
1410F5EC
F52E341D
22141AF9
8216240C
320E13EB
D30BF313
FA08F713
32DFDAFF
DD13BD23
01EC20FF
3AFCD6F8
A11CF6E7
E712BEE4
F215F8FC
CE11E3F3
435BFEE9
16C73240
81F018F4
D20FF4EC
D9B4FDCC
E8011C17
D32804F2
01ED081F
33000F20
E51C050B
02DB0802
2D02C412
B026F00B
FCE9050E
AEF7F3BF
D20E2ECF
35F8EEF0
E9DFDF08
11ECD8CB
E5F6FA0E
760E1AFA
F9F62729
46062927
0A1C082E
19EC150F
0E0E22FE
1401F914
F70904EE
3CFBD8D7
94D0E0F7
4CF4EED1
42260E1D
B82112ED
B8011728
04E936F1
1511C826
6AEF0AE8
0907DCCC
DBE6EF03
F31DEFE3
D6210817
230D26E8
A9D6E608
0B02EED2
94FC2FD3
B22CFC18
C030E905
1B18FBD5
2CE4210F
1901E1F0
E2FFF9CD
11FB0300
EBBB2711
EF126CDF
13FEEF22
43E3E0FD
C23400FA
01FBEC24
D6E41515
D804F6F9
132F0611
2F20E640
2FF035FD
09F0F8E5
741C12FA
063A0A38
CD13DEEC
0EE9F7E8
CDE02A0E
37FED30A
34F2FC1D
CC1CB921
B3EA0BD0
C11C30FE
CBBCE8EA
B704181E
1212FC08
ECF6DFFB
C92CF5E1
E908C2FA
07D21BDC
0EF917ED
31A1FAF6
08F76535
D6CDD51B
48FDDAF7
C4BFFF01
21062B00
99A82815
CB35CCE7
40DCDC07
FE09C808
0BF8CBD1
40FB28CB
2F20CA1D
00F7D6C0
F807D453
48DA1333
3F5DF5D2
FDC8D04A
F3EF1125
EFC8E354
F60CFA25
3ABD3011
23DEF4ED
FBFCFA03
090CF3E8
0A0BE855
10330318
9FDA10C6
F10110F3
02031511
0C562B08
F30F117E
04040813
F9F832D8
010ECCE1
14DCCEA3
171AE1F7
0BF817D5
F9E6D70D
0D00E58C
4FE7D8C5
21FEC64C
23F6E80C
1F0E13FD
E307F134
F9E02533
CA17E1CB
3F2DF7D4
BD0100FD
06F20133
F6F7D125
F2ECE320
F702EDFE
1AF72013
CF1C2A15
EC21EBF6
1851F8D7
ABD6CBC5
EBCFE1E8
C0D23544
E9F313FA
F00CF8E8
1DE73108
E1072A1F
190942FE
E73B2BD7
1BF400C9
FFEC2209
FF000BEE
03F21510
01E21F1A
64EE024A
0026CBEC
0EF3FDD3
D0FFA613
07F4EC36
0EE1C909
E60516CF
C7131926
A322F0AE
35D20800
FDFCF0EB
0E02FFFA
001AECCF
F9220A31
F8D4EAC3
0A0B38F8
F81201EE
13E5EADC
D8ED163F
20FCFAF7
D0FAF0FF
09139F2D
11FFE3E4
E811C2F9
0A1437EE
52321117
05F9EEA2
24AE4DCB
2CF7E6C5
06CBC822
08DDFC28
E7F7CCED
E9F3DCF1
492213E5
D9F9FBE5
CFF4356E
F034F3EB
272317C1
0AC41415
2810DBF9
2732C228
E102E4F9
FB1001BD
0FC20C23
19F4D0CE
FC0614DB
FFE61D1C
E947E3B3
2ADF3705
D1A30913
F3203500
0147CAEB
D5DC2D16
1D09FF37
DE0B03E8
5EDE0A40
092556FD
35B80B25
22E83F26
58DCFFD6
D0F82732
00E90926
0F18EBDB
3EE601F0
FDF022DA
12FA0D0C
00FC15F1
CCF130D1
0D101D31
5B1CE4F9
3DF40B09
0C0DCFFA
01E32AFA
E71005E6
1101D41A
45F7F407
02CD3512
64F2EF01
130FD0EA
23172A18
18DEBD0B
0EFFFDDA
3610F802
F2EE0FE6
18E2DB06
AEFDFE36
C4E80EFC
2F0F2CDD
EB04E9E9
BF06F518
00EE2607

