FDF11CF9
E3CF0BFC
0AE3FF37
FAC708ED
2A0D0AF5
F515E4FB
0335F317
FFFA25E8
D6F4B5F3
EA09D701
D2FC0AFC
D0FFF41A
E1F1EE3C
D7050C22
ED1D0714
CCFB2117
F60D4632
F9DF14DA
20FF4F16
290DD501
2AB005CB
C220FF19
E5EF1017
E8D62003
060A0502
02120003
E9D5C7E6
D71D0CE5
0C0A23F6
F7321C12
1205F9D5
DE2804E8
F3111B38
F73BC4E5
BFD913E4
08FC1DDC
0BF8EA03
F10800CB
2540E534
0D1A03FD
062009C3
EF0F0C0D
023FBF18
F9E6E356
20DF1607
E3EBEF12
05EDF631
21D5FA0D
F238F523
FCFCF10D
20FE00F5
AB171EF7
03D9FDA2
E8F8EB08
F4DF1509
DF171E05
27F551D8
D0E0EED9
0CFE4505
232718FC
00F1290E
32F961FC
F813FE38
E3042717
E311DDF9
12EE1E1F
F20F39B4
01FA1D14
E6F6FCFD
F906240D
1FE4D1D5
05E217E3
0F1EEBFC
16C82207
F10012FE
13D10706
CEF511E2
1D091511
0A1AEAEC
F61CE9FC
25DEFD0A
E2C72A0C
0125DAFD
FAFBE410
EC0013DC
FFFAFC0B
0E33F303
E01CFFC5
DB363BF1
0408251F
25E5F406
1D2DFAD4
19CAEBF5
F329D8E3
1AF632F9
DB04FAB7
15F90109
0E41EA0B
0AE04229
F33EEF0E
F8E9EE26
DD37FC21
FC0E18F5
D6F0E6FD
06071D12
FA48F3F2
1F090BF3
D33B16D5
F7D6E1F8
10ED0F11
F8EBE4FE
0D0BEF12
EB15EEE9
ECDDDB00
E121F6FE
120A4EDB
E5E3120D
0B0D03D5
EFF4F4EE
F43BF1F0
2AF13201
18E91A34
050AFE08
F91827EA
1102E1E7
021BE80F
05F50708
E3FA23F5
1610F3EE
CCFE0471
161604F8
E3FEFA22
F108FD08
0FFFE8FB
F4F62EF9
F1F7F911
F11E0FEA
EE10305C
141617F8
F1341A12
E6FFDFF9
09C227D1
17081602
0A0F15DE
E9F02EF2
1C0FCFDC
DBF42A09
E0F40901
F4C6FEF8
150A2E05
B21BD8F9
2FDB1823
390A38FD
E4D50909
23010423
232EC624
05C1FCC3
FACE523F
390D144E
270DEEC0
ED04E2F9
D30821ED
2B0BFEF1
FE04F9FB
0E32240F
AE0604DD
CC0528C6
E3CA1723
080805F2
0112002D
491C1BCA
EF110C56
E0F7E5F1
21B7D4A4
040CD6EE
23E9CE02
B90CF5EF
DDCA0B30
47E1CF15
FFE8DD5D
47F1C723
26DC10D8
333A07E2
1A3C1BC3
13DADF26
F419090B
06182A13
1208D1FA
9C1227DD
F4D8EA3E
192AEBDE
E814032C
E0DE370F
03FD08DE
1525DB03
3AAF0123
94E5E80A
21080420
EEEC0E1B
2CFEFB0A
E83D0808
FDF3C701
FB1EED08
E6FD15FD
A506E6EF
E0030DFF
1823FD10
1BDBF02E
13032611
DC03EF14
97E7EA21
CEEAB824
BABD0635
FB0DC9FD
10F508C0
F9FA07F0
E7E62FF8
16F7FAFD
DD1AF222
CC44E2FB
120028E9
DFCF2DF1
1AF1F128
08ED071A
E0EAF22A
28DC8A15
D9F6D1C8
1126E7F4
14F50002
3A0FE11A
2BF32A03
FA18DE16
4CF308EA
FC1FCEFA
E101200C
11DE122C
301ED341
1BCA0BFD
100C0325
1A051900
38F02107
EB0426F1
02D9FD00
C50117FA
E6012403
F115D013
011CD2E4
4EFDA6F1
FE0EE0F1
1BFEFB0C
F7EBEFE8
E4E808F2
2009ED17
FCF9FB0F
81DE120E
FFDDF2D3
01010C14
061205FC
0DF7E4FB
F1FEEDE6
01230DCD
F2D51E04
03F4201A
08EB17F1
05DEDA35
EAEEF20E
EFF90EFC
FDFBF0EF
FC0113ED
083E40EA
D9E02906
F10B0B26
0CEA0C0B
12CC0FFC
36F526F0
CF0CF40E
F127EC09
FE00C7D2
1CFE0BE2
F001F6E6
F50C280D
1908D107
FEF9C136
0202F90D
F90EFBE4
F5E103F5
120EDAD3
1AEB13FC
1AF11212
E703EB14
171BEE2C
D1ECE410
2F18B906
04CA0606
F4FEEAEF
E0DBE406
F2D80E22
10E0EAE1
D20E0B1D
DF11E0F5
1CF52B26
F9D9201B
32EE151B
0FE21101
23E2FAFF
2DF9F704
03F035F9
0A1FF8E0
F9F00218
231824ED
F412DC08
F4ED1CEE
EBEC2D22
ECDF21EF
280902D9
09172AE8
0103F6EE
060606F1
1D1EEB02
E91F060C
EEF111D2
DD35FD39
DA0E2A29
D112EF03
EB0520EA
DA230C1A
FD0011F4
FC2EF413
3ECFDFE0
2E4CFEBC
005C27AE
37D5E815
3895E8ED
29E6E80C
00EFD4F6
1EF61D04
10BEF812
37352EDC
1C04F9D4
DE1B0039
FB13E5F1
13F02727
E53208E1
CAFBE4C1
CBD241C3
F629390D
5C1F93D8
04DD0D08
190A0C09
CA030020
FB25C51E
0809AACC
FBD901DD
1C151AEB
0DF6012B
06FF1817
220DEC0E
1A160908
F03A02AD
FFC6D314
D1D02AF2
37F62D17
0BADBBFA
31DBE80E
03FF1630
FCFC09E0
0317DDF7
E2DC1DF9
E014D5FF
2CEC28CD
191950C6
00F9DEEF
D5E9DB05
462420F2
21DA1EDD
0BC93806
220A3530
07E7E032
310CE9F2
EFCFF42E
F105D7E3
3C2D19CF
EACA1103
1609F60E
3B10F3E0
EC2E0AE1
FD21E7EC
F7F61D18
FEE92238
E90C0E41
EE2D1017
BA5E19ED
D92FF23E
2D13F00C
21CD0102
184F0E07
E7F51AF8
200E0DD1
DE00D8FF
F7D6E016
0A07FAF8
DC091DEF
1B040FCD
EEFAF9C8
02FAD2F4
E5100101
08D428DF
14E5EFEC
D7F4E307
1C3E3AE9
DEFCF20F
FBE81AD3
0CA86139
CEEA19ED
B90732E9
061BDEE7
1A022AF5
1803ECEB
FDF0DF1E
1CF3D9EA
17E5E814
2F27030D
ECDC1D09
FD1429F4
EC012DF5
FB192D3E
F3E257AF
032C11C8
0B04EAF8
EB121CE5
04F91DF6
01060B0E
F12CE000
070B75CB
405B1DFD
3A2218EE
2DEAFB02
FAEBFB05
0FE7140D
FB1CC81B
26C42BD8
034872E3
4B220D0A
F5435313
E41CDD07
F5E15BEE
0916F4D7
D000BCE6
F9FF0901
FAFBE32A
10E312FD
E51D11E5
1E12CBC6
0309F617
E10521FF
FEF40602
FE161B03
0C2FFE04
09FCDBE7
1C20D51B
EA06F418
EA2406F3
F5FE1AF6
F4F706F7
F7030317
13F20A09
F5FA080F
F7FAE300
0EF6DC09
00DCF8D2
E923F534
04170B1C
D930CFF1
0CEB2BF4
F9D60EFA
B62F16EF
FD24FAFD
DB102A25
E325EF1F
25F4EAE8
261F100D
01FAF40F
F1EE1D0D
0002EF12
F607C420
00BECCF9
46F72443
13CEFC26
1BFBEC0D
FD1C0A08
F4011A1D
E2E5FFEB
D0F30903
CDCEB525
000ED2F6
FFE0110A
F4F50E07
01E408E6
D20EE30E
F5420A23
0EF328DD
FD07F7E3
EE0E10FC
E40D0A01
F004E2D2
E9C6E426
3932DFFD
F51C0B02
150D190D
03FDFCFD
EA17E4F2
0723F721
0E10191B
02EC0104
12F615EA
2EDA0F25
F515F1DF
E5EB1505
FE0DC703
E3DAEFEC
EDF3FB14
EB1B0BF7
E5F9ED00
FED50CF9
E7E9CCD6
D5E3F209
F500FCFB
C1B403ED
09D8F8E4
F8FC1A28
1113D711
02B3D1CC
200DCA07
C3FDFEDB
12CE1607
0F01F614
FEFD0407
2D060C26
FE1103F6
200102EB
F4EEF9CD
23270C04
FC050922
17B21FF0
24F7EBC3
133A1832
0F0E3A09
FDDBEAE5
DB250C07
FD010CD4
C4F1F5F8
1638030F
07D4CA2B
FE28E95C
F6F00804
1624B114
18050502
0E202209
FCFE0809
FFC9140F
FA0701EC
01E6FE0B
1D19DE00
0D2C00EC
2000DB21
E20AC3F2
FFF91AF4
FFC2D920
F5091233
EE3EFFFD
FBF93801
F51BCE0B
16FC0102
D9F92DF1
FDF6B318
A3F517EC
0017ED10
1F0F2A0F
F91EA6EB
E61EC915
FFE8FF11
FAD0E3E0
C7E2CCF7
C5F4D705
06D9D8DE
13F9281C
00F41808
183DE3CD
C9A3DADB
04F73FE3
1DF7C018
182AF81E
19E6120D
D8F4D3C7
41FCFE41
A60D1152
FE0BEBE1
04F41022
E9F3EDF1
18CE021C
EFE021F2
E7DD1625
02183442
E1F4F909
03C50709
BC1DE504
29EEB9DF
05F3C7F5
EFDDEAD7
FC0AFEF8
171F0F16
1E10F1AD
331FED13
100AEDF5
EAE00D0D
FC0C240E
FA3DDD1E
DA00F8FC
01E8CC56
08F00BDB
1C2C081F
201725E7
EEE002FE
29C2FF2D
1E18FFE3
2111ECCE
D701F814
E609EC4B
08D9E1CD
D94816FD
213C22FA
ED173861
901E2F13
3DDD3E0B
17341016
1AEFD2F3
C8E4BFD5
FB524AFA
24ADFC07
0103E30D
200EFFF9
DFF40FF1
DAD9DA05
EF1D03F0
FA260BFC
D502D733
C82305F4
FB51D5D9
42E1DD1D
04FBFDC0
25061914
02ED0213
FEE504F5
2CDEFE02
4C120301
DADD1B07
020531EF
0224EEC2
D9E906FC
1DF2FE00
6D00100F
FCE71405
9304151C
24F21C02
2D1F1C37
60302BF1
F2E6D703
05000A00
E6E5FFFE
01191609
E4201ED8
1D6C3C4F
70FCFB0B
EDEAF93F
F5F303EE
05031AD7
1205F7DD
F8EBEEDB
1B350AF8
19F6FD14
19F9FFF8
EF3A0CF4
ECD2E1FA
F5F508D2
B9F415E4
F1E81416
04FAC2FB
E71ADA37
DFF9FCE5
F7FD0B31
C6CDEF21
161008CB
7E1200E0
08F400F6
D1C6FB0C
F1EC0D0F
07E3DC0F
F9D9EA2F
C001FC1A
3324EE08
3BE523DF
DAF4F202
1029CFFC
0F170B21
D308CDFC
41F2E9EB
F719E3D7
E7E9F91E
FE0329EB
05001CC4
47EBCC25
EA06C9F2
F3F90C04
E5EAE60C
C4E3D90C
F71EBBF3
EFED192B
20DF00FF
E3F10E12
34EC04E8
1704E30F
2D00DFED
1A1B10E9
F302D3F0
0FD9EB0D
07E7122A
19231306
3102200A
DEF605D2
FB00E004
DADE1913
E9C4F928
F20007DF
101831EE
D1C9F2CF
2DEF1A0E
D41202E6
FEFC062A
1118D202
F6ED0601
FF11E711
34D50CE6
BD13CBEA
33032648
0004F9F0
0FF6FE0D
E5F9D6B4
C8CC38DC
33150506
00239FE0
050EECFF
0AFEDEFB
CB0818DF
CC0C17E3
F40D024D
ED01250A
D60735EC
1BDA2716
1710F7FD
05D21A0B
102512F8
0F0BF3E9
F9E406FC
0A273804
EB0518F5
FC39E9EE
F3E1E2E2
E5FEE3EC

