09081332
C8181CBE
F4F11FE5
F0E71DF6
10B418D9
F910DD0A
F31501E2
2014FDF8
11231F17
2ED8DEE8
14F714BB
10F61F08
47283219
0E14E4E8
DBEC111D
31FF064A
0DDFDF0D
E29017FB
BBF616F3
DBDE1D81
F9FDF514
3AA610FC
EC0EE4C6
F5F121ED
E7F80B23
D036B6FE
4ADF1D19
DC04091F
FC1AD020
E7DE0DFA
4BE10409
10D529FB
FFCC00FC
1B07E5E9
EAF2C6F0
42F63D26
B92FDCD5
65D72402
0703E538
293A001F
D5D25FD9
3A17161E
15F607DE
2BF80E0E
FBE5DC28
101BE35D
B221FD38
024947D3
26E416E5
05BCF211
3005E12C
07F2D4F9
111EF2F8
CFCAEF06
04F50510
F137FC2A
02E3EFDA
FB161106
ECEDF947
F30EF117
F6F11C02
FE0AE9E8
06600B19
1C1DCCF3
D0D01704
ED2DDD09
24FEFB11
F91CE90F
11DBFD3C
27F8FC22
C616F1ED
D8260B4F
33E2E701
24F8DCF4
FDF9010E
FF20DE01
10EF1EFE
FEF8F1FC
DC040F1C
F5071E1C
6909EC3B
FE0E1B48
CB1B2618
EC09D8D4
F8ECC0FB
38EDE6F0
F5FD0303
E405E5FB
38EFCB13
1DEF07F4
0FD2FA6A
D12D45EC
D4ED22DE
EECDD8E5
260CC44C
37F4111D
01F40EFA
0B0DF219
2BFCF8E8
192201FE
05FC11E7
280705E9
1C3DFE36
CC1B05EC
11F3FFE5
AD05D84A
DD21E341
F2EE0D09
FB193018
FD0B17DE
1C022A3F
E3FF38EF
1009E419
FBEC0C08
00FC20F6
27ECE1F0
F5110814
1DEA162A
D2FE08FC
D2091F4B
B7EF12D9
00EEDDFC
20FC19FF
2307D6CD
0EF11004
F9C23DCB
F5FB2FF0
F815EE06
EF310B0D
20F2142E
09F001FC
0AE40412
D72509FA
20F227F6
AA26ECEA
F6C2E7D8
041E0A11
EDDE0E03
3ADBC914
EA3011E8
DC2602D2
BC0909E3
FBDED705
F9000722
FB3D4C0E
A5130A00
130403ED
D31BEF1A
13F6D6DA
27E208ED
2608CEEE
051F2DF0
1C1F1EEF
F0FEE3EC
5925F3A8
E32ACF06
CA02161B
F3F812F7
FAE1F427
E82FE3FB
1CF71812
DA27FAEB
13CBD0E6
E72DE0FD
E90CF0D7
FE0308DD
D9CEFBED
011D0518
FB0617E8
D10FF4E7
16E930F2
F8D70E17
EDDDFA0D
A60CEF19
FD063008
103B3807
FE103B08
0811E512
33030929
08F22620
03E82611
F2E8FF0A
45F600D2
FBFCC60A
08ED0928
C907D0FB
11070D3C
2BDC09FB
141FF907
DE2B3AF5
FF080ADA
0316EB06
B7F82ED3
D406D7EA
DAFCCD30
EDD11C0D
08FBE615
E10B19E3
1D3FD208
E621F2FD
F6F50A13
480658DE
ACFA0C10
FA0CC501
C4D804D1
26C5C734
EFE6FB38
55EF15FB
05E61A3C
05040EEA
EEF62CE2
E843081A
1E341BCC
FB2E14FC
3A18EF0A
0F25FF0B
E71FDFCB
D725FCD4
F70119FE
E30CF1FA
F4EEEE0A
2D24E5E7
E61DD8E7
2AEE1607
2F200748
CDC6C7F5
28350D12
E8CB0CBC
4116F33D
13D528DF
F9FCDD16
F01AFBF8
2F10FE20
1D08330B
1705FA08
ED29FD02
C61501C5
2593F527
E5061313
010A08E9
C3E2ECA5
F6F521DE
F32EF712
01D5ECDF
09F6DC02
170AF91C
E05429ED
07F0F6D8
14EDF636
DF24FBEC
E80EE2D7
F7FAD8E5
3815F118
EFEDF722
9BDD35E8
1FE2CDD7
DCE4FC13
00620518
F11001DC
E937F109
191520E4
3210020F
EA35E9F3
10020803
0CE005FD
070DFFF4
0415E0E7
F8180B00
EA14F50A
01F8D2B1
0A05E3FC
F5F000F9
35F701FF
B8D0D8FD
0DFDFBEA
FCE2F0F3
3DEFFCE8
F7EEE5C7
1621DFE5
D5FA13FA
F91EFAF8
16E7E307
CA0C0BCA
05071C4D
F5E2ED1D
F64C0E2A
FE2C3301
EFE60AF0
11FA07FD
03F222FC
DCFEF4FF
0310F118
D00DE6D2
EFF4F815
0BE0F52E
F5E713ED
F215E005
F9E91712
AC18E8ED
D3FB14EF
2EF60E06
EC39DA12
0629E1D8
2C090B21
18EB1006
E30F280E
01FB0419
0C01E911
DBD6E1DB
0FE1F006
D0FFE5E9
21FDDBF5
E3F7FBF8
E7FD0B25
0D20EFDE
F15414EB
F006FEF0
F3F7FD13
C3E7D2FB
22FD0CF7
DE2D2D2D
04B31DF2
DD10F5EC
E2D7C709
EFF9F414
A5FE2DF9
04ED2DAC
C259FBEF
17EEEB05
2407FBF0
04F806FC
E7E5F107
EFF01F05
DD19D9EA
FC04053D
9117B9EB
560AF01E
1FD5E449
052005FF
D111F605
E6E61918
F3DDE2F9
FDF7110C
04F0F303
000EDBCE
D5E8171C
033F11DB
C20B181E
C35D150D
000DEF36
ED42FDF4
23041E19
0550FD1B
E30528DD
E943EFE6
FCF6DEF6
180E3010
FB18F81C
DF032611
2D40DBC1
F703FB14
F21EF304
E3ECF3FF
F42FE719
EAE0DF01
0EDE09ED
C5231AF9
F2F1E9E1
ED1F030D
16EDF8FA
CEF75A4D
E52FE0B7
15F5E110
F4F1C130
190C0721
06320238
EDE9FB10
EFF60C2A
17E0171F
E3B8F008
EFF2FDF8
0359DE46
A508EE11
03E1D7E1
FA0CE01A
1408ED1E
D3FE0531
0F04DD01
FA04FDF6
E92DECDD
7EBD26D3
0700B448
23CD0BC1
33CAB957
E8C9DFDF
DBD2151E
D50BDF1B
FCE83C1F
0C03CE04
DDFFE1DF
28032605
310BDFEB
1FD6F9D4
E326F5FA
D5D4E2CA
CAFF2006
C91E13F7
AA2417DC
DB1AD3F9
FB1EDE05
1F0EED22
17002C3B
1125D3E4
0812CB2A
29E62AD5
E1C044D8
1128331E
E5E1D810
1F0F26FC
2114FDF1
76D525D5
01E1F5EB
12EFDFB9
CB220227
25C70719
03D0E292
06DFEAF1
FAEBE1FB
63DCE2BD
482BEF0E
EF41191C
1E1AF63B
5D0723E1
0312FBFA
2CD20002
0607F3E6
16F51E02
101A41E9
FBECDB07
F03BE10E
13ADF7B5
F8D1020C
0A23B0ED
2317E6EB
2AC1C6ED
E718F521
E8D934C4
C0D803C6
F217FE2C
E0F4FEDF
DA25EBF5
F1ECD528
0508D5FC
DD0F04DB
162215FA
0FF415FA
D728E7F1
202CFDF5
FE001D18
0804F6D5
091CF5ED
1800E4CC
0E11ED1E
F9CDEA08
0709FA24
E0F0EB18
44E408F5
F5F236DA
1815EFEA
2BB9F4DC
01070FEE
06EBEE07
F5FAC817
01E0DBFB
0B022CEA
1E0E0606
E7FF08E9
FCFD2A00
E619DACC
ED25E7E2
05151DD5
25C9EEC6
04F0FE24
20D1EB04
150319EA
0CF404FE
C6FC07EC
D7AB2209
FFF81215
06FCFEF8
FEFC0810
FD1205F5
F0DD1DE3
F70E110C
251E3537
0205FF0C
04F000F1
E725F0EF
ED29D3CD
261A1D35
FCFF09F5
F21703DE
0000F7F8
04EC072C
1D210BF9
F804FAFA
F5F717F0
050DF2DC
15FEDB44
EFE0C608
F43BE932
F1D4FE1F
1E1DF1E4
DAE31303
111302D5
E03C39DD
F62508F2
1E463AC6
FE002209
03FF1012
04DED8F7
00E026CC
0A1F101B
FFC8F5F6
2BD4213E
F530EDE6
30DEE91C
EC030907
270306F6
071A014B
E602E4C8
F9E005FB
08FB0D0B
1CEF07E7
0400E3F3
BBFCFB09
351DECD6
0EAF1DF7
2BF6CFF2
EFAD08EB
29F2E005
FCD1132B
08F71017
1A2210EB
11E70409
DF17F3CD
EA11F5AE
F7FFF10D
FB0C30FF
2FE213F6
F60CF715
27D81208
40D7D800
202EE4E4
1000E6EF
05FE1519
0FE8FEEB
2C33F1DC
AB1DF9FC
E034D1FC
2ACEEE11
C81E38E8
E11428CC
D7D10110
DACAFEF3
FF17FC12
0A3DE50B
E0FBD8D2
09C7FC36
1AE1FC1D
B81306D8
1E3E16E2
D9E60F14
042BFB17
F7FB0D05
E9EC13FD
23080031
B1242F18
E01CE320
20270109
140202D2
1CFB360A
12C0FB19
BFF022F7
D5113421
0C11E2EF
07F4F3FD
FAF52D0B
EBD510FB
EAD023D9
020CFCF8
15042708
EEE322A3
B2ECF337
ECBBE9BA
D95C45D4
1223F723
2A531BCC
1F121218
00CAE309
0ECD272A
2BE9F9EB
E8F2DAB0
0FE40420
FE03C417
37020AEA
4419F7C2
23C7EBEB
0B19E7D8
E5FDF841
FFDCC8EC
34F3142A
37E0112D
25CFC6D2
1FCA00E1
33080719
08F4F71B
F430FC08
BE26B2E3
1811EAEA
E71D0436
CC120D2A
D514F401
430109E1
E7D6E007
D4EE17DD
DF382717
02B301E9
42D0130C
3DE6F71D
D9EAD4E9
0EE42E0A
F96B1422
B148D412
EEE5EDE9
2EECEDEB
EF400618
C326D3E7
19FDDE29
F815D7F5
210F01C5
07F8EB31
49E6F3E4
1704F5FA
C1FC3CD1
1A20F517
24BD3614
F902EA0D
C70B07FA
E3ED05EA
1403F11E
33E813C9
FA07F30A
E906D205
1417EDF6
05FA11EC
05EAD3F4
1C03D202
01F9FAFC
01EDE9EA
0EF61A31
F2E1E9F7
2905D31A
0F02EE09
143C44E9
E62AEE18
D81EFC12
1407F5F2
3A0217C1
08050EE7
1C3FB9EF
D1EAD2D7
E8FF11EF
F30514F2
ED01FD18
100D00DD
D751D014
F4F92FC8
EFECFB02
15FD122C
A904F722
FC080100
1ED5021F
EE1B270D
DEE6142D
03F3EC37
22002109
031E0810
F5F8EDEF
F9FC0610
E2D0E5FE
28F1FADD
1D5AE9C7
FAE30B2D
FA170E07
04E93823
0DFA14F1
F111FF0F
E2C7D7E8
313DF2FB
E9E9ED14
F1460FEE
65F12734
3EF3020C
0C1DF733
C502C440
0EBF2006
00FF0710
FFDF17F7
2B140BED
070F10D3
DDC71506
41FBFBDC
DC202FF1
C9ED13E1
FAF50307
F7B8C4DF
241F29F3
29E6ED0B
E619373F
EFEE0AFF
2E0E56E6
DA0DF8FF
2AD9DCDF
F5DAEFF9
1FE020D3
31F0E0B7
BEEBFF24
1B090A33
DB18DD18
31AE1407
11F1BE36
0D00E2F4
E4130402
D327F209
F9E4F9CC
EC15EC28
AC19DD2A
F20FF218
F1FE1305
1BE716FD
FD0010D3
D92DD5E2
C00A2C17
05160A1C
EC1EED43
150C1605
3FD3F1F5
18C503E0
D007E900
FCFBF30F
DCFA160A
B218DD1D
11D1C72B
3DD808DC
15FF260C
F90615E4
24DF1512
F4FE12EF
FBCA0107
E2FEF408
F8200B29
F01DFA47
CDF6EFF0
1820FF01
05FE06F6
D819DD3F
45F0F7E8

