4CD716F5
27F8D9C6
E300F306
C9E009C6
1AC3EDF0
DFF131F0
0FF7EB38
E415FB96
343B11D1
4EDFD410
04BE0817
C02115E9
FC361F13
F013AEBF
5309E7C5
FE134FDB
1D041100
8D0AD301
271DFB14
60EF2627
08EB0BFB
ECF5D1FC
D2CEDDDC
ED1AC9F1
050BF600
1DF9F206
161BC900
E8F2FF32
F41747D1
43FDFCF5
424928DE
4301FB0B
0A1419CE
35DA10FB
FB163C2B
1817A7DE
C9270AF0
D8F6DAFE
320EFE2F
181A0D6D
F401F13F
47CE0916
1011CC11
EAD1FD05
81F6172F
0B2BF209
322C282A
21F135F4
09F2D8E7
E3D7D642
1AFAF7E8
05E60906
09BDDD24
37EC151C
130027B8
E73AEEE4
11F81308
13DF1110
0820EB65
DF0A090F
F8532315
F90D02EA
E71EEEF4
BD0D3F23
07DD160D
BB0D0014
1DD91F26
EF051632
F617F5F4
01E4D601
9CC91001
122AE3EC
092A0D06
09F82912
F4EEF1DE
F50606F5
C415130C
FC0DD41F
E909E2FF
100CC5F8
B6DA180B
42F5811C
BE0310E5
2314FC1F
320E1CB8
1817F709
060EF859
07FCD9E3
CCC3F3CC
1D0CB4DD
B7C42200
5924F821
1018180A
05E0E50F
F8E604E1
F3FEFCEB
E514F203
B8FDFBD1
4CE3F8EE
F5180000
FC070B03
FCFF3C04
C20E1B22
13ED24F8
DD35FADA
F1E8C3E4
8131020B
B8CDE1E2
D317DFC4
180CFCDE
B0F0EE05
E4014B1D
38BC1318
9900DF0A
0112E438
DF20F8EE
88E8F4EE
B3172EFC
34EDFDED
1D18DD3E
2927FB03
2FF721EF
BF21160B
D0ED0AFB
0903EDEF
FCFC091F
7404E817
F7C71D18
0E24DFE9
DDDC0BF5
1401DCDD
E0F21FF3
FFFDF507
2115352C
F5E7D91E
D41519EF
18D3C8E8
F100F203
D715F539
ED06F4BB
F4F3F31A
F1075128
27FC11F2
FEDCFCFE
DDF10821
071B1C02
EFDCC8BF
EB2C0732
1B0DF400
3400BC26
08F2DDEB
320404B2
F922AE2C
1925F7E8
083FCF06
2AFB15C2
E854F8EE
11EBF2F2
F20CA905
1C2DE705
E9F62BFC
0CE4FAF7
E7F4E419
B7010AE8
D5E3EA11
F714F4CB
111C2319
D9BFF61B
DAEA042B
DFE312FA
123C3A28
F2DDF5C2
FF283B1F
F000F720
EE1203F4
37ED37F7
1FBD08BF
2019E60F
E3FBEED4
04E25744
F52322EC
B50E1C60
FD0F1100
EBD1FDD1
0F05F4F3
060F1B28
EAE31318
F816F8EB
2BB7FFC6
076EB921
1614FE6B
F8A92AD4
2239EFF9
D118F509
E1B0DAE8
DAD4F8C7
12FE0C2D
673CF401
BFDB4014
FB1AF6D9
F4D416ED
31D8F7E5
DB19E5F5
24F1E323
FFFDFE2B
071933E9
DE040209
0216F41C
0E20F4D3
23E5F7EA
FB3E12D8
F7171AE3
2CB91E0C
C73541F2
A9DF05C8
C9E923D7
0AE5041D
08FDE2F2
C625DFFE
F0DC01D4
02E1F4F8
4FDB1ADC
FEE7ECDF
04E3FEF7
7701F12C
F8E20838
DC25F413
0EF00300
0AFD05F7
F516350D
DF3CC9CC
0DEE0126
2BE90201
4F29F301
040B0704
33D50027
17EFF2F0
0DFA360A
F20FFEF3
27FE04EB
CAE4C807
1D1047C7
D24B03FE
F1E41E36
19E4F802
E9ECC0F8
EFFA4EE2
A5E73C44
2316F81D
F6EE47F5
1509FCD5
2000F3DE
04F1EEE6
15EFDA08
FCDA06F2
12FE0909
02381837
11E9CD08
81FFF108
1DFF0602
9A15FAF5
18F019D7
6817F434
245A11E6
CFD7EEF4
ECF4EBE6
4AEC010D
D2021AF0
1106C2D6
FCE1D8D6
1117F8E5
1426CF21
1A2008F6
03F81501
E5152DED
DCE6D4F7
D70EFA11
B40001F8
8B10E6DB
D1F9D0F5
2AEC46FA
34F6ECEB
22FCEA11
2B032316
6C1C1FD7
0DC4C311
6307F8DA
240AF1F3
51EAF2E3
341FF125
0DF5102C
3BD5F923
A914110A
EEE2DF04
620CDE18
2CFFF624
050102DE
C2211908
68ED111B
F8DEE40E
0FF210F3
1ECDCE09
7BD601EA
39FF40E7
770F0B03
EBF8F522
0BD7F6FB
0C04F91A
7C101C0E
E72C3EF8
EC020EF1
DDF432F1
1CDC1506
DD26D20F
81F4F400
CEFE101C
A805F0FD
220413FD
8100FE08
F804F1F1
813ABE0A
001A20FE
9BC71965
E3DD00F8
2CEA10E9
09220AF8
37FF1DEE
F1E73536
A50A1DF2
E41F3D3F
79E9FAFC
F3EA2808
CDC754C2
5709E2BD
2FF10710
E8F7FEFF
0BEDDAE5
F0340413
1EF8F5F8
4C0D0CF8
F2F7CA20
26CC1207
74F71C06
68000EF5
0CCDE4E0
010213EF
2A0B31FB
ED1CE055
F4283306
F4E7011F
24061705
1CF31D06
360A03F9
03FAF00B
D9D607F1
EC000CF6
E5D9F824
17020EE2
0C28E80B
0340FB06
51F838C8
CAF8342B
F5E8F1EE
110F1C1A
27F3F0D5
12E8E9EA
FDE9D7D5
FFF60ABF
01211CEF
11E302CA
EB330426
25E91306
12A82102
F40605B1
055ACCED
050124E4
66020909
D903F2FC
1901900E
D60220D2
D4084EDC
E3F90C23
0CD7F4DB
1822FFD3
0C9435FA
E6121B24
21B6F7EB
37303ACE
45BAFD1F
D5090BC1
193EF223
2EC720D2
110DCBD8
F4284B18
12E7361F
C23034DA
F210E4FC
E2F3180E
78FD292D
311AE1D9
DB1FF5F7
1903B733
0925EB21
0FF2F730
FDD50F11
CFFCF10B
CA1110F1
D4E70B4F
52E8F418
CFEADFD9
0E0C030E
2B0D13AE
D8D2D71E
5BC5D7F0
2AD3F8EF
E21B2C38
201B0C0E
E9E508E7
FE151CDB
D5013EEC
DCDE2AD9
D2E02521
7E48E3CE
0410C313
FAECEF3B
034708F4
D413E9B4
222ADECA
C00205F7
C1F725EE
FF09ECE5
0A002E26
EEF5481B
231BD62D
FC086A39
2BDFFC0B
13093B15
FDFF0E1F
A9F81C0B
D904E02E
1A0100E8
DCEFF116
0803B500
D1CCF513
0DD9062B
CFF31DC9
7E2F30F2
EBEB2106
11EE0EF8
38F3F002
0D0003DB
1A093D12
0338D12D
C0F517EA
0B0000F7
ECF700F4
F705FE02
010505F6
F7EEFCF3
0527F8F9
FC1C10E9
EBF41E14
EAF8F4FD
F001E8F7
0015DADF
16F1F207
DB2C0203
19F90FF8
28FD1918
E624C9EF
0B32E7FD
F60416ED
0B86D8D1
0BF2E5D8
1F1E1AF3
F2C9E709
00DB091C
19FD44AB
FDF8FBCC
14FE1901
FBD8F713
07FFFFF4
040C0601
FEEF11FE
23BC0431
190BC9F5
F01CDC2F
39E2DEED
F8F5F0D6
02EB0A31
E00BE708
C6FCFD0E
1AF723E1
0C20E404
EC03ECF1
E3061FB5
0414FBE4
FFE91203
28CE012F
F72CF3DB
1BFC05E9
D1FA0415
04F6EC0E
040806EA
253B1237
F4F04EED
03FB2300
0023BB27
09E7E0F0
3EF80DFC
26D3F9D2
F1083B17
0DE90D1C
06F0F2E6
E311E3E5
0C00FC1D
251CEAE2
E4020B0D
1C01F426
A60A0E11
8AC10E19
EAEBE503
2BCAF803
EB1BE510
2517D923
E5E5F022
3F0DDDDE
11EF0C11
FC111323
F6FD4C23
A9F4E5FB
0FFECCE6
9C1FF331
EBE80AE3
E609E6E8
720E2A0B
7EF30927
D9ECE616
32D02A03
FFED3B15
0DFF021D
25ED0FFD
8106D615
15E73BFA
1F121859
ECEF2123
0C01F420
E21F1FE8
250A040D
23E5E61C
D3DC050A
ED11ED24
08F9D9DF
A507053A
9321DE0C
0423EFF5
F0D0CE0A
CC0706F2
B02EF407
ED101C09
EF09F6E8
F4EE1A05
4E121D10
0303E1A6
DBED0019
D1FF0DEC
34ED03F6
EC0B240B
4701C6FA
E3EC0234
0EECF604
3C00E100
2DEDF6FD
6CF0DBD3
DBF4EB05
EDF7C010
55EC0CE2
1AF7E4A6
E336FAFA
FFFA0E05
EEFC0109
29F5220F
6FD908EF
36E831A3
F2E7EA2B
230C1A22
E10FFB10
2DF0C6D7
F230032E
FCEA2DD2
CD3FA824
070C6FE8
E24A41F0
06E0062E
2424FE59
21FE1F2E
F2E21CFE
DC10E4F0
1A072100
CC23F6DE
E300300C
1410EBF2
05F507DD
C6384E33
D70CDB30
F6F7E72F
C00F119D
6C3BC48F
FBBCE60E
C1151712
190DEC33
F1F97665
DCD908D0
20EFF2DE
ED66C021
B5C316CD
2DCEFBF0
E4EA2FEC
00DC0D0E
EE1423F3
C34BF3E0
D7D2441F
4CFCF2CF
6010437E
E7E10FD8
1DB8E1F5
BCCCEF64
01030B0F
00172A02
08515DEF
1D1234EC
E8E10CAA
EB292535
F21F07DD
332E01D9
E4180706
2ED10409
FAE0F810
31000412
ED191BC9
F00FCF17
EDE2D414
E913EAF8
D501D3BA
9501E301
DEE9130D
D5D9DF00
3B18FECA
D400ED0F
D105F7F0
E70B10E1
1FFFFADD
02BBC30A
150B0C2F
11081B03
7E2557CF
0DFE2AF6
1CF7DD2D
FBDB1A0A
FD08FD24
FFEDE1FB
C620F981
43541DB7
31FEE546
EB39ED1E
1B1D100C
F0FF1212
172AD8DA
EDFAF4F9
02023D11
F4F81F04
581FEC0B
0DBADBD0
C6CBEC25
F5200B36
0F05FFEB
1AEAFE1B
33E9C71E
D4DEEDE8
061B1840
32000019
10F609B8
BB060605
0418FDD2
17ED07EE
19040531
E215EFB4
2AFC31D0
FFD7E0F9
06F9E750
20FF18D9
EF31DE9E
F8F9021E
F823F2A4
D8F9FAE9
FD2530DC
0CE9E2EF
F410DCFF
0CD5DC09
21F4041A
FBCBF40E
F6E8192D
00080814
3B0EDD02
F41DF604
EA185AE6
5B0815EF
18BFC70E
FB283911
F916F400
02FE00D7
4AE1D4F5
F9E8CF2F
F00F21E6
EEBFDACD
A7356EDF
ECE31329
D4FA1006
3619CC1D
21EFE40A
B2DFE8E3
DDF7E6C4
AE18F60A
B5F92BF5
3C461301
281CDFB5
45060CAF
0315DA1D
12C2F40B
E7FE2307
1304240F
D622F3FF
1938F6C5
481210F1
3B0F25F3
DAFA4000
2CF4E9F5
CBE63AFA
02BAF4F2
1D1622D5
3F1F2603
27E6EBE2
3FFEFCE7
D91EFCC8
05110519
35FEF0CB
DB051001
EEE8DA12
D810ECDA
24F41BF0
0A261712
6615F61C
15FDFE13
B90FED05
E32B0EEC
22F207BD
A627223B
F0020B25
DA35F005
12260DC2
26D2D0FC
2E07F108
D2C6130D
FE250A0B
F5E3E918
021A230A
FDE91AFC
B90FCA0C

