C7E2FD0B
5E05C1E9
FA1FE4DA
0228020E
F2E70DF9
0E1C8CE4
BB072BF7
0BBDDFFE
3552F726
060BE014
1003350B
EEE1FAC3
F6EBF50E
F1E80006
C3052F35
43FA0C12
FA0C01E9
46241D77
242F2108
DE1CD42A
ED091008
EEFD420C
D3CBDFFC
0A2A5181
18EDEF2D
111CDE05
131FE0D5
CEE65B0A
FA3B0513
2DEA05E1
E41F0A22
E6D513E3
D528F7E5
DDDAC63C
C3EEF9FA
FC0021A5
0A0D14F6
F3D61604
19363621
FF0B26FD
D3293718
16EC1DDC
F5DC1209
D736D816
E9FB16E0
C9EB1DFA
3BE322CE
E1F5CCD3
290202FE
C9FC23E3
231DBED8
29BFF7FE
D3DF340F
0CEB0A0E
20E6320F
F4091FFB
EF2EDD1F
25E027F7
C1C61500
3C02B71F
452DF8EC
20252018
F3312B01
F8E9EB46
0DF015E9
DFF8C911
14F43606
06FED012
D0EDD90D
01FCED13
171CD1E2
EDD828D5
C92F11F3
15F901F4
1BEFF7ED
170C0226
EBC1FE17
F00D1611
DD02E304
0EF91FFA
3E5EE803
31CCEC0D
BEEDE0BB
3B0A5401
D030D1F3
16E7C837
1801E6EF
29AEEBB4
ECBE1C14
0D2927FE
D476F913
034537EE
C729F5EB
05F51749
EC4244D6
E91DCF2A
DFFF19E4
07EC08FC
00D122E9
0A2A2427
F60FE008
31E90305
0414ECDE
C61AEE21
3AF90DCF
F5E933C7
E3D9D802
F01D15F8
E51E16E7
CD33F7E4
0BC955EB
EE08BD10
DA0B1606
4E33E2E8
0A1DFA13
FEFBF2F6
243DE307
F010EAF5
E5262F24
DE2719D1
1AF6EFED
C8E804F6
0DA1EE14
05FFE612
D8E7F02E
0C33D612
FDFE1706
03FFE91D
15022CEE
BCFF1F0C
030B02EC
D3E9033A
340F150D
E7FFE2D2
EC0E1EDF
574FD2C7
0B03F304
F5E623CF
D9EAF0EE
FEF3E97E
EFD5FEE4
09E9F83A
C5CF1E0A
F8F5271B
15EE1CFE
17FD29ED
CB06B9DF
D4EA27E3
E2051334
110A17AE
06D82723
CA012419
16DEEE0C
06DFE4D9
EFD817F1
013107FD
FEFB02F3
FE16FC0B
F10C04ED
0C1CE40A
EFE513F8
17FCEAEF
1BF2D1CC
03D7ABED
F8ED1F03
F306119A
3731FF0A
352F0564
0517EED9
1D2BE706
D1CBF301
070CE3EF
ECECF9DF
122F01EF
D61D400D
FBD9F17B
C4E316F7
D00409C2
FB25F1E2
D11FD425
FE112D39
400BF005
FCF4ECE2
19DA0DFC
03C90E4A
0823FE18
34010ADC
FB4FED17
F10B28F0
1F050DEB
1100F60F
0A18E8C3
C3E9040F
171BF9B0
DB1CFCDE
F50DFFEE
E310F802
FBEAFBE1
4D05EAF4
D401A5DA
3ED51927
D24BE59F
0EFFF7F9
EED21222
F81FFD12
19C2F7DF
77267341
252EF9A7
A44713DE
0E0410F2
2510FAF7
E0DDEF2D
9C1CC1BD
FBC3F3F2
18FA08FE
F9D4E912
FF1217F3
1EDF4146
EAB5DBC7
02E6E6E1
070A1301
FB25F8EE
FB61DE0E
D8C6F5D9
FFEAF0F1
0419F0D2
DDA7FBC4
04F8B91F
1EB0EBF1
0C111EDC
F6B9E3B7
FF43C7E8
0AF8F6B4
FDF0BF13
DDC50AF7
0F34243F
2CE3DF35
E909E925
E10C1AF8
071D0F08
E5191304
E50AEDC4
FC1AEA1A
E002FAE3
C0BF14FD
01251E0C
D40DE6DE
0FEEE713
06E9F9CC
33010C2C
2006D4F9
1AC5035E
00D6F1F0
10E41431
29B3D1B0
2DDF0DFD
0E61F30F
3A10FE1F
0F4FF7EF
E22206F7
29731AF1
F8DED8E1
10042EF4
E9F91AF4
1EB60DF2
09F2E515
20EC0AF0
12E513ED
F71AE21A
DFB70705
DF17F71A
040F3ED3
2C11EFE0
10EF09FA
12A61312
08040AE7
FD26D5FE
E602CAF5
04250B12
E4E4E7CF
299922E9
D9F9DFE6
1D3BDA08
0705CD08
13D1F30C
E8241B12
EF1020E9
1AFFEBE9
E2CA16D2
12EC0FFC
293F3405
1A02E139
EE6EF9FA
144DFFDE
FCFF0625
FA03100C
0CECF3DE
EB05F411
0CF00603
EDF3E90C
ED1209F9
23F41007
E3B10CEE
D2B70CFC
34541921
E206101A
E62D01EC
1241180C
083C2201
0BE2D9E3
DABBDB11
FA07151E
227EDAEC
CFFDFE19
E95C32FC
E70A140D
FA93F815
EA170C14
02D7EA2D
D50DF4F9
ED0D1006
03D03CF4
FFE4F00D
080218C3
31D8FCF9
EC210AF9
06CFE806
25373734
22E01100
28E9FC14
FC1A24E4
16D729C2
D23108EC
08F5D91D
D115122B
41EC304B
4517EBF5
CEF82943
0AFEDF2B
F9FCF209
F2DE0FE5
3F0242F6
F63CE80C
54F3E2D3
D01F12F0
1AD6CF1A
CC2DE915
D620F80E
3E4F253E
03D32CD3
0AEEEDDE
F72F02FB
0B15ECD9
16DB5DF4
0EB81EE9
FDEFEE24
0DCB04F7
FDFD0CC5
E21AE90A
04F0E132
F84BE8F7
E327272C
FADAE5ED
B7EFF63E
2599F4F9
F6EA2D0F
0528EAD4
0720F9E6
D2FE02E9
081722ED
F4BFEDF3
3AF90714
C24516C8
E8102320
F07C001C
21FF0E02
1C04DE07
1710D6F7
20AFF11C
AF08321F
29AA392A
FE1CC0DC
0B5CE9EF
01F0D1DE
4B00F381
0CDBBB2D
B62DD4F2
1035171A
39470520
F6040BE4
2DBF02D5
F941D709
29601C0A
4400EA0D
E9FBFA1D
23010736
D1031B02
CFE1EA0A
0BD4CE18
EC003316
081B25F2
F6D50BC5
4A0DD4F5
EC03E49E
E10606E7
1BFAC302
26F1EC46
012519CD
0839FC0E
F4AE0114
CE1C29D3
23CCC3E4
20062201
18D9311D
10E7F0DD
F2E8F1F4
1EFB4A08
F2260EF8
3715AFDB
4709FFEF
1FDDF9D6
31F257EA
1BAAB90C
EFF7C634
F3530620
C5023102
B7FC2018
B7F745EB
3313EAA4
23DEE0F9
F87EEA0E
EF0CEA00
161C13DA
CC0EF302
DFF32802
22F20323
DEED0A0D
23FDD81F
F63304FF
18D45DED
38CC0F15
D2D01C26
32E1E2C6
BA35F81A
F2E614F6
EE1218E3
27E4E71D
FC04380C
F71EFFC2
0028F303
16100310
F2DDF4FF
F6340002
0301F30C
062B002C
E007F2FD
FFE41520
EE100BF0
FAFC0603
F0F50E1A
110D07E7
0EFDEF25
3DCFC900
04FB17DE
12F3120E
EF11F90F
F3BF31F4
F7F2F0E2
FDDDCCD8
1D1D0024
FCF719F7
0E10F505
03CF2610
CE331EFB
14EBF901
D01426F6
03010515
F1E5E0CD
E84BE7F5
E4FE1507
F309F0B9
E529F2F9
1B02001C
E10639F5
0BF5D801
0606F509
2F0C0233
E6F5E1F1
0E1BCCED
CFD9C806
0625ECE7
FCF819F5
FD060003
14FA01EF
EF091C2B
05F8C7E0
F403EDFA
F6E9F80C
F30416F5
DA390026
02ECF5FD
0F04E922
CD3FE7F5
34F81EFD
FA021909
ED1CED11
FCF3F8E4
340FF511
011B1CEA
0BD9EB16
E5F2E5FF
28B5F826
152BFFB7
14D2EEFA
18CD112F
F8EC25F4
E138F70B
1A1548E6
E8FF1FFB
F311D1EC
BD55E107
C9F1DFFD
1AE2F619
EE672828
E0D0FAB3
EDB815D9
AF03F6F5
30120C01
04CFDA37
21EDD5D2
D92FEAEF
1EF3F4F8
FED10409
0C13FEF2
FB270901
1D010811
1734FE13
EC06F21F
F0440323
27EAA9C0
F8E3DBF4
E9081509
06082915
0D02130F
E5030413
F1F8C1E3
09E51B08
19DA1B22
3E1833E6
F9103539
0AA4F308
1D1AFDFE
A7FF4427
2A08D8FF
FC0FD1C7
DCFC2F06
30EFD1EA
E9C9C835
06642903
DD130309
F23827FE
CD0406C3
C9D9D3D7
131EFA1B
0111DDF5
09C2D306
EF0ED511
0F1627EF
FF7DD318
3CD7E52B
FAE60A07
F0F6FB11
2D33111E
F1D2270C
02B1FF0E
FF00CDDD
233BA7ED
302ADDF7
493AE745
DBEE49E4
CCFF13CA
13E901F0
26EC01D1
FD17ECD1
F5EC1BBE
4CFD9C61
082711E7
11DDEF1F
D0D59629
F2E9D816
FEF3E949
F50CEFCE
0F24ED21
2B0BFD1D
D60F08DA
FADBE2E9
E429091A
E4C819EF
3FF22B37
E12DDBCE
20F1D100
E5FCBDD3
B1BCE00B
EF111CFC
F11B01E9
E6A6F5E4
C6E4CD1E
4B32E80C
281F1AF0
EBF0BCE8
2F58CCF7
C108AF42
1E44EC44
E8E0F8F0
0B082C25
05EFEFD8
32FE17FD
09E8CBF1
EF55120C
0308FCEA
074041D3
EA170A28
020F30FE
190F56D6
DFF7D42D
02FB2BE1
DE46EB3E
E2B91DF5
26EDB7F7
B901E704
4E3A0016
1422F9E1
3218AF25
0914BEEE
050D42D7
CBC0C9E8
FA00D617
2A0E1A25
E8FA0217
31FAF4E5
971EBE05
1B4C0C1C
D126D51B
FFE917B3
FECC0326
5201F9D4
1712E219
E10BE04C
E211FB12
6320E400
0EE7F807
EF1B2D04
FBC71516
03ECE2DC
EF0C13FC
1CF61804
F125031D
DAF8EC11
E7D5DEF9
EA10F1CA
18FBD6F1
00160CB7
DA1312F0
F63005C6
170BECDE
0027095C
D005E7F6
F80BFD0C
23D60203
0C25F2D5
03E6FAFA
20F4E2F4
0B0125FB
F415CC35
2BF311DD
0805FB24
310BF402
23B8F713
22EFD1D6
0803FE25
E3D8D5E7
F201E12E
23E33D11
3AF4FFFA
D40E20FC
1AF90FD7
11FDFA06
41F4D6E4
FD180308
010FF1D4
F503F6FE
0929FCF4
06E5E601
05E2E303
D6050637
E0E01219
F91505E9
270D0D0B
27FF082F
93F4F2DC
E8FAEAF3
15EAF00E
10F4422A
F81335C5
042E9D6F
FB202AFD
0123DC06
F0F5332D
EFF2EE1A
1BFCF6D0
30B417FE
07EC0031
D90ACDF2
0E22BBEE
5EFA1EE6
D815D4EC
F6F313DE
D4F709F7
F709F204
1BF7F62C
0D1AF1E6
0BDF2E06
2AEBF3C0
02FBED04
D6EE1515
ED06D1CA
040302DD
351250FA
1ABBEB15
F31A3E3D
FC2B30F0
E0F4E328
F84B22E3
2803EEFB
0E4CC512
EC31FEEF
5BF2E157
002D1134
FE0EEEEB
09E919F3
0CE3E408
F3F9391C
F2121723
F1CF1B06
1DD902FC
B5006505
2E1B1A31
11F60B0C
00FD0303
E413DD09
CF23EAF0
EAE20C01
05FACD1C
BEE823D7
CEFB1CFA
03FCB45A
03581B21
0BB7CBD6
BED511E9
29D91009
D71707D0
013134BE
1A250E28
FD241D5C
2AF0D806
D637D50F
D91C14EA
ED18191C

