1FA903EB
C6C25302
050537F7
E3E92E04
150AF538
CC0907ED
0303E14A
F6EDD2ED
241B1320
0002EC40
08111753
FC9E0807
1EADF112
D808F30E
D8FED5F0
14E3D001
C014E90E
F3D1ED15
E80F1A0F
03E22CFB
09D4DB2A
20C8F733
E32BD718
09012122
16F3F504
0DF2FF03
1139D93F
0631D404
E3CA011D
120A09C7
DDE91115
1DEB1802
4589FEFC
D71A04D4
D91118B8
D4CE3721
00E509DD
0CC707E5
FBDF2145
E0BDD7EB
DDF2CA0C
122BCA2A
00C52ECC
F6400DE4
E8ED1D06
ECEAF827
3FF3061C
EC08FC3A
F2F0E9EB
EC04471E
D61314FB
F7F8AC23
060905D7
0C2018CB
DA6A4904
ECAB16F3
E9C9FC19
2BEEF7D3
E636031E
2D15A3ED
E508FDD3
05F41104
0E0108BF
02EF06F0
F427EAD3
07C8E512
F3170E14
08E7E41E
01E2EFF0
330A09DF
FFEBDEF0
3BBB1C2B
F91FE809
F9E8FAF3
F6170204
F509FE11
D11917D6
00000520
F81DEA07
F0FF1832
3BF2F512
2AF7FA19
06E80812
1602470F
020A1809
00FCEB13
F209FAEC
0907E6FC
F6EA364A
1E19C11D
35FA0F6D
28CEF6FE
02DF14E0
2E1209BC
E7F504C7
0DFF1733
2511BC08
11EA1EE7
BD1BF2D4
0309F317
EF18F6D0
F81707DB
CB39F00C
E0EDE9FA
E7210BDE
FFFE33F7
F92A072B
E714F554
D82105D6
FDD727E1
05F90304
02F5FCDE
0FD8F10C
0BE3C1EA
FEEFDCF1
ECEF1CF8
F11D161E
18F51A0E
F20D1609
12E8F7D0
0DD20D26
18121F05
F500000A
EAFD07F9
23FAF12A
EDC83A1E
2E49F1C1
271246EC
F330FAD4
DC0FF8F2
C532D8FB
D703FA1B
E7031604
DBF905DF
EF10F7E5
1B042BF2
0EE94DFB
E6B908FF
35E426E8
F3F4030A
0AF80A1D
F3FFF514
ED00F601
EF1AFDCF
0DDECC04
FC16F004
13220F1D
C2BCED0A
E0DBAC2C
F4CDB0E9
02A219EA
F121EACA
E1E32317
D4F6E9E1
0929D912
2EEC14ED
DB6914DE
DA1114EC
16182024
C4E7D126
F3DEE9FF
040BEAEF
1C20F3F6
F21005F0
0713FB3E
E90320FA
209BF4D8
E1F5EE46
191417D2
0B01FAE9
D4F302F2
251717F3
D8FED6F0
EE530112
F415D708
240FF1C0
F11B11FD
139D0375
042DEBEA
550810D4
F100ED26
19F41007
20070838
1217D815
EB23F93A
02F70C29
E93701E1
A8F0EFDA
F9CA05B7
2A95D510
C2ED00F0
02170EDF
E4103AE7
0537471D
051308E5
F90CFEF1
1FF91946
12222AF4
ECE6F32F
F3CCD8F7
E510E908
EC0AFD24
D718FDF5
010103E2
B5C711EF
33F811E1
3D0109F7
F4DDFC0A
16BA290D
3BC810F1
04141240
39DBDC08
B613EBDD
E3221AB9
191CD742
41F54042
1F1B0905
00EDFA2B
96F910DA
FA27F3F6
D7EC1810
D327130A
33EE0DFB
E8C620E9
E42ADF2B
DAFB16FF
F21F1EF9
F128F613
F92616EA
DA10FAD3
C7F80C5F
10F1DEC7
CCDAF40A
E4D314E5
17FC0432
1DDD3D05
17EBFFF9
17FF0BF3
F0E7D8FD
2424432B
020ADE13
F7C702FA
C551E907
ED11B6F1
FDFDE920
33ED115E
3E51EC10
03BE0862
0B0A1812
1828CD24
20DD181D
DF32F1DF
F0D51DC5
12EA0A15
310510FC
261FEDF7
0D24F114
08E8D017
020CF40B
3AF42936
F3F1FDAE
E60DF3EE
0D040321
DB0B0F20
1817F41A
0E3F150E
21FF161E
1FEB00F0
BA4D2EC5
32EAFD00
0ACABE13
DE310B12
EC2210AE
1713F52C
ECF61742
05CE10FD
F8E6E560
FBF4EB1E
07EE08E8
1A0120F7
0CB827E9
F00F1BDE
06F60C23
0913FBFA
FBE5FAFC
D10441E9
CC00E601
EB0DD701
DE3AF126
04DA4AD4
FF28E9E1
24FFF5E0
08E5F91F
1AF2E7F1
DEE5F315
1A160301
3303DF18
E61E3902
05151001
F8F70CF9
F830EF26
FB041108
F918F55A
F6EDF407
FEE5FCDA
EB01E2FB
E12B0599
262FF5CE
F5F0240B
10F7F3F7
C40807F3
09F91CF8
2CFCECD0
F0FAD5A9
F8F2F34B
FB0C02F3
031AFAF3
00040DE8
E62A2BD9
04ED10B6
F70CF9F1
0A1BCE17
40D23C13
F3D9E6F0
CC0DE3E0
DD37FBFE
08E401FF
05E4150B
39F32CF8
03DDD5B2
E61BAF03
E3D81AB3
100E0218
59E2FE51
122705D5
AAECD2DE
CE1EE305
E805D412
0E02F5FF
1318E8EA
E9B5F900
2018EA1C
D14CD6D5
DAC7DF0A
AC15241E
DD09D5EF
4BFB1601
24EFE8E6
070D3710
030214F5
0006323F
2104E30C
EF2C1A0E
B3F0C5EF
F605FC31
2EEDFC0D
06EE02EB
EAD0DEFF
15E21940
E4DD07E2
1A2BFFE2
0FC9CFE3
DE11EE11
0A16EE06
300822D6
091D2511
A0D2E73F
2A4826DD
0CFF2B07
D8CDDD0A
E1FA2FEB
1A19DAC5
FAE7F620
13E8EE32
4607E8ED
091542FA
F419F02B
BB2DD703
3614F711
B3B6DFD3
05F12F1B
07E3790E
D10FF40A
0B05F025
36DF0AEF
151225EA
FDF219F7
00CA132A
24B909CC
0AFBDD32
18F01217
00D939FE
E7FC100B
E8C83300
1030F202
27F30C08
E5F7DDD0
1B030C2E
22F73116
0002C28F
1ADFC63C
D8CCE600
28C9EC1D
EEB5ED5F
C4201910
F2E50FCF
03171039
F3F9023E
033F09DE
FBE481D2
C317EB08
36F2E7D6
E2F8D1FD
E53DC252
D7DDED10
FFF8442E
01FFEAEB
07F6F0D7
E531380E
0D16FD2A
1537F3EF
DE0049CF
FD251AFC
0A072619
0A170C16
07D816D3
06E59D34
F9F3F1EC
F70ADA0B
F7241414
013CF312
D41DF9F0
F022FF1F
391E52F5
014BE307
170EE0C9
0FE908F3
3CD429EC
E132F02F
E208FC08
0EE127CB
07DE0E07
081341CF
0149481D
252B2103
0B0ADF4B
EE1FE2EE
F5EC250B
17F6F607
070CEC14
1B0AEC06
0CEC0A31
2E16C3E5
0322E7C7
FB050210
080FFB27
ECD2FDF8
0AF1101C
0BF310F0
EB220A21
FEF0270D
0A0E04F4
E8010A0F
240BD814
F61BE219
F2FDF60E
CDFD251C
0827F304
CE111224
FC17D9E6
EE0A08F7
325307EE
2D15DEFF
EA44040D
0E1B37DC
37180108
2F0C1902
0A15E202
E8FE0FBC
0BE6EED3
1C050401
FEEA07FF
EB19F2FE
27310BEE
01B107DD
EAE4ECDD
FB19FAD5
FE3A20DB
F5E4120A
1C0B06FF
F6062145
F20B351C
DEE8FA00
D4E2C1F9
12BBF0DD
01DC21EC
F5F9F008
14F6E80E
2FDC1902
09E5FDE4
EEF51603
F2E90FF8
EA0618FA
0CFCDB03
F63EF6D9
0226DDEF
EBFA3505
E3E922B0
0712FF14
E61702F9
C808B5DE
FEEBFEF9
EB2BC57E
F327F0E6
14F0F4E3
FFDFFFE2
FF08FE0C
11191C0C
0C0126DC
5130354F
3008EDD5
E354CDA0
EFD1E013
C010F5F9
08D8012E
27CD1CD4
DDECF317
EE1DFE10
1C0AFD01
1E0AF0E7
071C11F4
BB0F2E1D
10325781
F74ECC25
DC30EED3
1CF50803
D10EDE05
170AED03
05E8EE54
1B10D53D
FDF7EA81
05C6F6EE
FA0BF631
EBF3EF36
FDFB0D10
05FEE4FF
D312FA0E
D60905E9
E0F904DD
E2EFFAD9
1AFC1924
ECFDDED7
5C28F4C3
12E5E524
0ADAFE55
24A6021B
FB1FE3D5
0A03ED06
FDF8F733
16EFD122
26F41ADE
100A49D5
3C44FC09
FC2509CD
E2E1EAE2
CBE1F22E
0AE10751
D6F9F4EC
C4FA015C
1BBDED0D
FBF1F7BE
09F4F30F
32BCE331
011CEF12
C8240BD2
EED0EE23
44F6D8BD
F5F9FAE6
E900F706
E5DAD822
ECF52013
02EA2709
F2FE0C21
201BD1F3
DEE6E007
FE040E3D
33D105BE
0D12E7EA
0EDEECD2
C3260CC8
093324E7
EA14FC08
D0CBE901
2E680130
EAD4F2C2
D101C6E7
E5311519
E81A0310
36181CFC
0F1E451F
1834EC0B
EA2CE5E8
F9FA140F
EA06DFC3
E70CE4F0
D8C417FF
DDAF1CFA
FA46153B
04E1322C
FFD62CF5
EF20F2B2
2DE7EBD2
0CDF131E
C326061F
DDEEC7D7
42D6F008
462DF80F
C41E1DF6
1EFFCDF5
D4DEBCF9
34F1D3E2
F30901D2
031F09F6
FB033DF6
21CCC53D
27032753
CD0D2523
F9EBE92B
290AE335
31C627D2
F33DF80B
E14EE420
E703F9FD
F4F508F4
E7B873AD
2E2E1506
08513B2B
0CE2B4E7
0A24FD33
E04CF120
F805F60E
FB18C302
0902DC12
0FAE281E
F408FC12
0EB61326
15F7C934
F707CAF7
EBDD04E6
FB04E6FE
FDF01E0A
F6F2FD39
DC1904E7
13303418
070FCDE1
11241E2F
EC1AF112
D40EEFFC
0BE9F816
0CE407EB
0FC81611
F7090233
20D32629
0843D912
E509CB22
35E31EFE
15EB0017
03491EE7
02FB0D09
03092226
2128DE0D
175D121A
F3E0F12A
0457073E
1CE11B0F
0A0A0404
08EDF3F3
142FCFD6
3ED11517
26D0F2EC
2A250D10
E647F3ED
E403EBE6
E51D0110
1911FC0E
E8FEE11C
FEF7F6F2
13251801
2FC215FD
2B0713F2
E417E7CF
D60729F5
DCB5F607
09D61C1F
1AE6EEFE
0726DF02
FC03FCEF
E8FFFECD
FAFFE4FC
0CE602EE
2A33F8E6
D8F626E9
F9CB20E6
0CFFEBDF
12F106DF
E1094709
FD150A02
E3F7071E
FA3C4939
17EEDE01
FC3C1915
A954EA2D
13EB0745
0DEAE7F3
030EF52A
26C8EFE6
20F0F9CE
08033828
3BE0EFD2
EE352813
F1D5E744
1BFF2720
17DEFE05
F718220E
FB064220
002F2419
DAF5000F
FC2F02EC
F9F0F624
F504F301
C837F01C
ED08D433
DE0CC71E
FB39F5E0
E92FDC16
FFF629F6
1945F51F
09EFF8F9
FAE5E4FE
F102F712
FCF4C731
EAFCF538
08231918
0909E441
B90AFAFF
07F71600
FBF11B31
F8FD6D01
3CC4E403
DCFB20DE
2AE5E5D9
F4D71ED4
22F6F242
0AD329F4
250DF3D8
FEF5060D
CE0804EF
1F1F0734
E327DA86
1FFA06EF
240F1D3C
F1DD0414
1614100F
050BFCF0
05BB18F0
24DE3417
0BF4EE29
16BEF3FB

