67F80511
30C322DB
131D281C
133AFC14
181FFE34
01C70626
08EBF3FA
160039DA
03FCD00D
03FBE623
1729380F
F9180BDA
1AF61E30
DD1C0DD7
0617E6E9
0DE3040B
FCEA0524
E60C08F4
1E24D330
0F252220
2FE00EDF
29ED0505
F9C13711
F42DFD1A
F4383220
1CEE0D06
124FBDC7
09001BEA
D5F4C913
05000002
18BFACDF
13582E23
FDDDF23E
33E01F1D
2D2801EA
CD041C07
1E24DFF0
F2EEE412
13C241DD
120DE4CC
131D0B0F
DDFB401E
26EB0C39
F3DFFB07
2A4BC840
D6E21FF0
ED0A0F0F
0FB7E0AD
00B71F06
F928F9F8
EA1628D6
081D1625
1DDD03C2
D7ED032C
4034140D
06C61BE4
333306F1
184A19EB
DBD51EEA
33101DF7
E6D6451A
4633ED10
0E11E155
421B020B
FFE9E846
DE040136
355420F7
EF26E126
1A3904F9
31135106
E8B5F318
FB46FD06
1493E7E0
E506491D
0614EE27
00290FF0
39FF15D9
F409F8F4
060E52EB
08F40A09
CE2DA200
36F7B52F
D907F7EF
B009D405
E5E4EDD4
19F7F2BB
0AC21625
0603E3FC
C8360711
EE081618
F91D48F6
0B13F1CD
EF10BBBF
3E471323
E207C540
170E2DED
1E0E2FD9
17D92BFC
03C4E356
E9F639F5
31DBD914
05D602F2
DA101039
F5F9E407
02BAF1E2
105D31EA
2BD70524
F4D5FD11
F4CF330B
EA02EE22
F812BFEE
E23609D3
10040524
15EDF7C3
FE29E912
01050100
1BF6FB0B
03CB0B46
FB40F82F
240709CF
1111CCCE
083E1C30
2C170B25
0EF9FEE3
0927D50B
F9F9D641
000BC800
F1F0F02F
21F513F8
3FDA17E2
F3DAEEC6
FD0A10DD
21F10EF8
D6E0CE1E
1A0237F1
DDD6E80B
1FEA12CD
0D132C0D
E2D0020B
01F31CDE
E04E2044
EDFBE0FE
18081109
35DBE7FB
EEF5F504
3B05F2FF
EC1EFEF2
ED0E1504
EDBCE413
FCFD06FB
B1F3F4F3
07172711
EA0DE22E
EBF3F304
0DF5E415
CBE7EECE
FD00F3DD
EF0EFF20
FD13FFEB
DEFA0ADD
F4F21942
12D403FC
A4AFDED8
FFFF47FF
0AF301FA
3318D916
1ED70CCC
D21BEF0A
06EDFB43
120EE90A
3029F8E0
E3D3F0DA
EFAF05DF
0A06EE06
2AF601B9
2AEEF5D1
3BF41B01
1D390E39
2302E125
E6FE1900
FF13200A
05E82404
D636EE32
0AE77407
513D072A
10F1DDFD
ED07E62D
4911F2DF
010B0129
15F14EE0
06F90DE9
30000115
1615D13D
F2C20101
F8EBCE8F
0015DF9E
E8F4F5EA
ED1C181B
00EDC6E0
0E15FE17
F325CAE8
F308E4FF
0034EFD7
0DE709D1
30A7F94D
02C3E423
BBF1E6FD
03160803
09A0EFE1
07FA021D
072D1226
E9101D10
E64F16F7
07322A13
0AF7FAF8
143407FF
03F8F8CA
E72FF0F3
E321E8C0
0FF43ED6
B7093DB0
2DE557B4
FACEF4FF
0AD037FF
FF16DA0C
1523DD2F
18020421
EF241811
D3191ED3
E8C71FF8
F01C12D7
FC0C20CB
E0EDD2FC
FD0F2215
31ECEC46
14F208E5
53E70C0D
D507D24A
09470BEB
FDF3E8FB
EAF3FFDD
0B3A2C30
3C1EE1F2
D8F51405
E93CFC24
121D28E0
100CF900
C60CFE0D
D7F72A0F
01E8F9F3
DA0916CC
F196061A
FEF514F0
D31AF034
06532EC8
F5F7E036
43DBC426
EDE2E31E
1393F902
1308E9F0
0987DEF4
0335F5E7
F879FAC8
CED41103
436006F9
FEE8FAE3
F1043344
EEEA0708
F47ED4C3
F04526DA
D632F211
F42D240F
FBDACE2A
ED1806F5
0C01C64E
0E44EC32
ED06902F
120EF0DE
0B312D26
DF32E7FB
D31EF81C
020A0707
09D988EB
2129CEE7
1281DDC5
E9DC01ED
1137B6E6
F6FEFDD0
D949E805
0C051BEA
EE0B0EE2
20DFFB06
E3C01C2A
E2F2F600
057DA9EB
13CDD706
F40EA935
1113DCF6
38900116
091FF8FD
F13218E5
00F21FF2
F44517F5
0324F7F6
06C903E8
FDEBF714
F3B0EDD3
01EC14F2
04D21F46
E9F20100
F80749F5
050B1728
0809BFFA
1B150DF7
F8F1CDFC
04EFF80A
1274CE09
EFD7E90A
F228D92D
170DFF29
112B062C
5F2A29FC
09E83BDB
D2080429
17000914
4115C9F0
C12DECD6
26E5F816
070AB10F
ECFF0DDD
EA17EEB2
10E7C3D4
EBECEB3E
0D2E09FF
D90E10C3
21F33043
0CA62816
150700E1
1B2041E6
05F82514
28E8BCF4
BE1AE716
19D04BE4
45E11D0A
0CF20428
EAE59E0E
188D0EB1
13E114D6
D75420F3
D937E7F6
F9EC0513
0EC6F82C
BFD2ADDF
00FEFCEC
DBF9D7F7
B4E61811
F2E623EF
E4D610FA
EB3F38C0
E33F49DE
273DD8F9
12B8C84F
2ACD1102
0729EEBF
04E60B14
F92C1BD3
B803E738
111B23BB
F7A20407
FFFD06EC
B90D41E9
0B0BEAED
F2D19E08
0D3F0D0E
5D05B7F0
04FAEA1A
412122F7
DAF6E410
491EC7D5
16F017E5
165D0904
251211D9
312F2EE2
2EE2D4E8
3D3AC339
FD3CF3E1
0C080530
184C0F0C
E712F1FE
30ED1226
1FEEE7FA
17FEE430
D2E904DA
31FE1B14
C92D0DC7
FFFAF8DB
0E4316DB
FDCA0924
181FFBFB
1058E71A
03913AEB
F41DF22A
DDF91B14
14D50215
18F1FF1B
06030319
FED63EE3
3C0F0FF7
214E07ED
120DDED1
F402D4F6
F8D40C0D
1F68D21A
1817DF0F
39BF1100
2C31E0D0
F8E7FDEB
07EB0EE2
DDE2F4E4
DA1A1E2B
DF390AC5
F9FACC97
0DFD41F8
1DEEF313
3C0822BF
25F00C17
F6CAF7E9
10E314E2
170C29D3
17111AF4
EA2B3A05
4DE31132
0538BB30
10F707E7
FCD1D0B9
D71F3308
FC190E10
FAD5050B
F914F001
01060AF6
B315E4D0
B70B1E38
1DB0190F
0FE01FF3
0FC42B1A
F40203E1
FC14E905
D93131EE
18E04022
E8CDEEF1
FD081206
130BDBE3
26D313D7
CE100129
12FC17EC
F902EDE8
290A0C1D
F92ADCFC
FB031F1B
15EDE903
54F62311
F0FBCED9
FED8F90D
2F030E24
10F10213
FBEAFBF7
00021EE9
0E23EEFF
02FA1003
22CFF11F
D9F61317
F720E7F2
F9EF10DA
25121BEE
04FC0512
F800EBFC
1BFB28D4
051C16F8
FDF2F2F5
F9F0FF06
F9D71B08
1BDED102
0805F029
F905F2EA
DE09F0FF
0EFF02D8
ED3BE2F3
F1E2EC16
0BF735D7
0736BEB7
EF06FB17
14CE29E9
D012FF1A
FA2A2AEC
E7002AB8
D341D6F1
F3081FE7
00FADEEF
F8E319D0
D4F4DEE2
F1060A0D
E80BFCF6
D5F7F5DC
FFC52831
DBEC050F
0D02E304
100812EC
001AD5F8
250305F6
015DB5F8
27FEE515
F4ECC3EB
0FEA1A00
05321DF0
F833D217
F604FDD7
B6E430F2
174427A1
F8180BFF
E607F2E6
F4B2A71E
FE12F9BC
EF1E0FEA
F6F63728
CD4B001A
0B3D1AE2
C82A44E4
30C707E5
CB4F1AEE
2410FA21
E7A33EF7
0AF32D10
0AF917FE
15E000DA
2AF3DBFB
F40B0B15
FB02BC0C
0008010F
EEB8C918
F02BF60F
10FFE6BD
1BFF30E3
09CAFC0C
0CE703ED
E8F9FD09
F1F0001A
DED00401
160B02D5
00D7E0E3
07C5FFE0
00D62AD2
09F1F509
B30AAF1C
E004D4A7
28CE2125
0A1908DF
29EB2017
E7020AE6
1004D92F
10F111F4
E7F1E10C
C71EE0D4
E8004D1F
FE12F519
EBDDC1E1
242500F6
1F27ED24
153301F7
1F0D3207
09DEFEEB
F91B3DFE
36F30023
0AD339DB
D708C6B3
070005EC
E1E1F703
F4FDCA25
0FDDD458
F91AB4E7
0FE4D0F7
2CC60BEA
CFEF16F2
18D5D007
31D02712
251A0829
45DCDFE7
0444DA09
212CC92E
FAF8EC2B
1C1BCAE5
140618E4
F602F8E7
D42BFACA
07F8F315
EDF25D2B
EC08CFD0
E2DCF5ED
40F9A303
DBC50001
08DBD026
D5F730F8
28FE6924
D6F82DFA
F134B6DB
3223DFDE
07EBF0FA
0B4108EA
0F0B25CD
10A91008
DAF1F127
13F62CF2
0DFDFF27
B2471B29
1F23F103
08F7F129
211DFF10
DE0CC506
0C1CDAC6
F5161B39
E30F27D2
474132F0
67C8F9A9
1107DD3D
E7E8380F
D3FAF7E5
E91A06DF
EBF81F39
E9F922D6
16EF02D2
14E5D813
DF3117FB
29C7F7B8
5529E1DB
17DAF920
1BD7F4DC
4B28DE2B
DEF3F01A
00BD3D12
22F014FF
04F80101
1A0610EE
FD06F10E
E31E00FA
04E6F000
3504F301
1B09CFF0
25F8150D
F8442C19
1E0E0C08
F00AFC10
DBDB19E7
BA0323D4
F20510F2
010DEFE6
09E5E5EA
011828DF
0319FF1F
072FFAF2
0BF10708
E9DB1235
D11503DE
16D7F603
97FA18DE
FAE91ADE
E3EDD205
FC1922CF
F6F5F6F0
E5F6F7FA
D24A101B
3DC31559
15EDD9C1
0F27F7C3
2206FFF2
F40F00EC
FE15E803
FE101C0D
0DFD051E
FAF4F4D3
00E02AC3
DA2227F2
F1F7EDFC
EFF11D08
17B200B1
15CB1A3A
F1FD0FFF
1812FB10
5A10F311
E2CB180F
0708F7E6
E4EF2008
191A212C
FA163D1A
07F5FA25
EB17F8F9
0210E5FC
21E1D806
F811FC14
DD071DF1
EF1C28F5
F31020FE
D3E1FA44
091AE7D4
F2FFEFDB
F8000F16
EFEA1ADF
1A22D539
3E09022D
BD231908
1EFB1D0A
01FC1FF4
0E4ACCDD
28E6F404
20FDD12D
02FEFB2C
D44B4719
1CF706FC
B303F2EE
2E000DDD
F54CCE36
03220829
F9E2F135
FDEAE8FD
E0C5FEFC
E9DEEFF2
01C9FA35
FC34D5E4
0FE0AA02
EB0D3327
F52D21C4
070CE6DA
443615F3
F519F521
F13EC130
E7EE2E01
011EEA1F
090BEB18
07FAC1BB
19B9E6E1
F6D51722
2D0DE6E1
191E0DD1
0E28C6EC
D3E547D6
E114EBD9
0A4F0B1D
DE44220D
FBE6FF09
E101F607
3EF7F238
EEE9FC03
FB07D1F8
09F4DCEF
CB1FEFC4
2DD3E1BF
195E2428
EEF7090C
F7232C25
0923E4FE
1D1DE1CC
C104F5E6
10083DFA
D3E81AEE
103FCADD
F8D3FEFA
27FAF6F2
EBF62311
2A07D600
3C2E06E9

