08E4D70F
243136EE
E1AAE0E6
E831E0E2
23F423D6
F8F2E9F3
391D15EF
2618FFE9
DCFECFEA
42E5E4E7
DD4706F2
082B1AFA
DD2607D8
09F326DD
CF17F5F3
33DC0BFB
0D5B3810
DBC9FC07
16CA410C
11F6FE02
EE010932
1AF2EF1B
EEFA15FA
F7261941
1A1403DF
00BD2E50
B00AEDDC
060215C7
F6CF13F7
00E215F8
00D6E71F
24162233
E4F2E107
E9CFB3FC
0121C9E3
20FCDEE2
EFFEDC25
11EFD235
D5000404
FAB7E5BD
1D03CB20
0B52271B
ED15DFEF
2E15D2D2
DBD80700
FC561C9D
0214FFEC
00D5140B
001CE833
E1B90DE2
20DEDE6F
13FDFAFD
1916BBF2
25FFEF12
1D163EF3
28EE10F4
180E11F6
1106152D
E60020FE
FB48EA2E
E818FF0B
F21FD911
26E80800
E0D14AE8
EEEB07E3
FFFD55F9
F2E314F9
26CC0DE5
DBDBF4FE
17E0E306
500F0901
1347D7D2
372806E3
F641F3E2
0103FC16
120EBBF1
F40FFE07
F7ECDC1B
FA0AED24
031B9600
060AD6E5
1413A6E2
D5D3F7DF
1E0CEA03
1DD9F7F5
E0EDCE11
2A0BE3FF
0E21F703
FA15F1DE
EC34E43C
EDEB0F46
2DFB4956
0EEDFA1F
2D10E713
4522D14C
E2223020
EAF1F8F1
00E1FB01
E32EF3F8
1CD210FA
03F045D9
DF3D54E0
EC3BE93D
CC3138FB
1712210D
2B114D12
EEEFFA28
07FADF03
E2CBEF06
1B16F8FA
141C032E
11201144
08C03107
01F75922
111009E4
E702091D
E2F9F7EA
F5DAEC08
06F80EF1
090E2714
0D01F6EE
0AF80308
0FD50815
DFF500C9
D31BF5E1
ED1CEBD1
EEEAE8E4
F7EA0E2F
E20C1D00
12F0EF01
F9280602
15E80012
ED092D18
E5F61730
C811C3E4
03DE292E
ED12EA0D
D309E503
D9D1040C
EB29EAAD
C725EBE2
01D3FFF2
42D3DA03
00DFB4E5
0A50E21F
F9DE2434
F5EEF5F8
1F1810EF
E9EE0821
36153FF2
FB192CF4
130FF4C5
16C2FD1B
FBFA2000
E8F914CC
F6F25A3A
FB09FCCB
F73116FB
E7E60DFD
F50E18F2
F4E3FAE6
E21801EA
3BE5E3FF
2218FDB7
1020DB0A
08135D01
D21B23DD
130F39C6
0AD9DF1A
F6011207
71FFF244
1EFFEBF1
DE2407F1
090B3D03
9CC8F71F
E34B10C9
E00BF5EF
03E93D03
1616021F
D949FE21
EDE0E216
F52AC10F
2202D518
5CD812F1
36AB2406
ECD8F4EC
1800BA24
0B3F2007
121DF9F5
F305F10D
040101FF
F70401F7
00D24DD9
00ED2F0F
E9FB041A
F7FE1B11
ECED0B12
18EC970D
36DAD4FF
B38E6508
F5A9C90F
3CE3F217
0EDCE0D4
EA1812DF
07E5F3EC
EA4047EB
0CFBF612
16E9F531
DA1916E8
141EA8ED
FD38C806
0FDE2428
1518360C
D30331CB
1DDBD606
CBE4F32A
FA1CE62A
08E3042D
07DA04F5
E1E344DA
02F91BC5
D1F821B5
201CFBF1
F4040C2B
2EBF27FC
011CEE46
14F612F1
D00A160E
16250608
F8CEE3F0
EE32D442
EDEBBB1E
F71E03FC
F400D912
03D0DC08
F9E652FA
6204EBE9
06A0614E
E27E0FE9
CEA633FF
5C289B3E
FCB5972A
DDFDE6FF
0CF8130F
F31B1018
1D0C0A23
E82EEC1E
2130FCE9
CC14E3C9
D9D5241A
E12C21FB
27E5EEEF
EE1CD91A
EFF62106
05C3DDB1
C8C3ABE1
F01500FF
F137E301
2DEF15DB
10F5240A
F417DBF6
F4EC2CF5
FA07E7F5
E9ED38CB
02E413FE
DD0F0EF4
E61ADE1A
043E0441
0CD50820
EADA0D05
D605F8EA
1322DAD2
01102C2C
F2E2FFF6
D12AFFDB
F1D4EBFE
F2E6E9DE
E71802F6
FDF90EF5
F41106F9
000AF40E
CA10EC08
F2EBFB08
09DB45EE
041BF8ED
F4FC2D0F
15D7F012
D426F423
EDE80DFA
13DEE917
FBF80D0B
31031FEC
1634D1FB
E1CC0502
ED010BE8
EEFE5A00
05C8E4F3
00F00825
FE01DE1E
F3F557E2
0B0CE7F9
0C31DBD1
15023BD1
FC05C203
E2200C1C
F20A1600
F301D8F7
EB02E7E8
CF0ED820
D9202E07
F704FFDD
00CB1104
F1162503
E8FE19F3
FC1124FD
0E00E8F6
0F16FE1B
FAF61EDE
16D2EDCC
D898F619
130BD029
FF16E715
F4FCD1E8
02F7F337
20C51331
BBC1BA32
EA3F0920
05F51909
1D37D5E4
09EF1E17
07DF2B3B
DCE70101
260805D5
D2230CFD
090AFA1C
D9F726DE
B70FFF39
010CEC42
16DDF41C
15CEEBFA
29F42003
1029010C
092BEF26
F6F20817
F61E070C
DEB6CB0C
1622224F
06282F1E
F8EED745
E20DEAF4
F7FB04F9
1A1AFF05
DFE2E3F6
FDB3E70F
2A1C02FD
0FDA351B
D8E801DB
0519F5DC
C5DDC820
F41C16D5
1E4B9616
DF280CB2
6DE61820
F027F4F6
E30ED406
0908FEF7
12ECE1DF
0CDE2E11
25160003
F6160FD8
1E1357DB
2F3DF8C5
F906FB08
C1F20AFC
2343F621
5019C10C
E9D71832
F7D112D7
18D10C14
03FC0DE6
F4DB33F3
0BF8DC07
C9170B0D
0B1A31C2
2822F1B7
FA213F10
772027ED
D7C2F81C
E71B1202
103819EA
11F81F22
D4D41104
F72C40CD
224E422E
FF040E60
1F3C22EE
BAC8FBCD
10201ECF
0A07D011
06D342EA
15FD0110
F9F90FE6
FC3813EC
16EEF427
06953CFD
E6E7EF32
26ECF7EE
020E245B
E90F01DA
0F0EE600
1BEE1908
F60BF817
FA2E23FE
33F0CB09
F5134C0F
CE18D1E5
DF105205
14D4233C
F833060F
C81CDB15
2930F0D4
02300426
ED60D8FC
14E2F8D7
E4EFABB1
02E966F4
1728F6E6
FBDA2100
FDE02508
E20F46F3
12C12C1A
16C6DA0B
06201132
DB12C9EB
CD42100F
36DA103E
F9331702
2A026FB2
F54311D4
2D2EF4D5
A3EFA4FE
DCC7993C
E10FE426
1CB6BD01
E502170F
E83AE1DC
0D07E227
E155FB0C
24D70913
1407F101
4A232128
E8E2EF2C
0EDBE4F1
EBE6F8EE
E802E312
D7F0E916
11EAFCE4
DEDF09EB
17FB0EE7
00F2F017
26190234
D100E100
FC19C30B
FAF51207
1301FB26
120AFF16
EADE04F8
05F00227
E1F5DFF9
EEF7DE13
E8E1EB04
012CDAF9
F528FC0F
0B053723
010803EE
E30CFDFD
FC01F603
DAF724FD
F715F20B
2A051C1F
E302E8C3
D90F18CF
031102FF
19FBFDFC
F710FCDB
FDCF28E4
DCE8FAFF
E7DF13DA
17EB3420
012524EC
DFF9E9FE
F2F3220E
0B11F706
DEF5C921
E9DBB8D8
E5D1161A
F2E1F90D
0FFA1B10
16FE2A0A
13F8000E
F2230EF7
0A1CFCFC
0ACDF2BE
BACDF1CC
EA0DFC25
11F4E21E
001A23EE
09F803DD
1644EE06
00E5ECF9
F1013EF0
1DA90424
E402EC22
001F2848
070A0203
1ADE3AFD
EAF5D401
E20CF1D9
FC06C8F7
0116EA00
02D52B1F
DA2CABD5
D5D03427
05FF0BF5
17FB4EC7
2C01282E
DB0A03F5
04192B08
EE3D0712
FA391E17
4FE9D204
001CF3D9
FA1AF014
FBCAE611
FC0CF5F5
07EB20EE
15EBF404
010AF11A
23E00711
0306102C
15D10621
092A2635
F6F9DF08
231DFEEE
131BDAF7
280542EE
09F7DC06
F9E221FA
0A1608FB
0AE2B2FB
FFF6CD15
F814F9EE
F7250C09
F00F18E0
F9F01BC3
13F4220E
F3180021
0F97F4C8
F0A81BFC
FC17010F
FEEADED0
FA25F0F4
19FDECF3
02B3DCBC
FDF2BCD8
0C3716F9
02F81D22
E020DEFE
253D0415
0F2ED2F8
F5EF11F8
0716CEDA
FF092A01
1B13E5EC
FC13F110
E4F2FC01
26B82A1D
CCBBBE42
BE1FE91B
2C5F1DE4
1C4DE701
411B042D
E1DB29EB
0C2001DB
E42935CF
42CAF772
322F0E35
FB020606
4B9AC812
1803A2ED
C80E4218
E7D009EC
F001F715
EEC7F0F9
FDFEE214
202B3301
ED49D311
E6CD4131
D7F0FB1F
2604FE0D
F9ECB40E
FDC927A6
F1EA08C4
DDED4B1A
CBFE272D
F5C90BBA
C9394EE1
5F081C28
FEB4F3E7
F912C7BE
181F2611
1908D8F6
E5BED1CC
18544E0D
D5252FF2
C709C001
1FD6ED1E
F80A1DED
F19A09EA
250BEBF4
C5BA19D6
26532504
0C8CB339
DCFA0AE2
28F8D6FD
33021A18
30ED2ECA
BB0CD1EF
1B1D20D8
3B2BD2EC
D113280F
32D8EDEE
C352D504
E3E58E35
DDF4B20B
05FED6E1
C9A30ABC
F70229FB
1BE90FF6
E109FE0A
27001D9F
E801063E
03F401F1
FACEE0DC
0C4301FA
F61110E0
47E9D1CE
2CDCC9FD
C9231648
E127CC2A
42EB17E6
0EEEC2D8
E9E4D9DF
DD0EFC12
EFE7F621
28DD1D17
F1F2F008
08E809F2
ED130A09
0FEA20F2
E6FC092B
E1FFF0F8
44E518D5
2D0D1638
064FDAE8
5127E4FF
F8EBFEEC
071618F7
E2D032FD
C6D84723
99E1FAF9
D626C930
F61A04FC
F61E04E7
ECCDE3EE
090CFD11
E71E2265
F1331413
0EF0E0FA
FE23F30C
352605FA
20ED3F0B
2B32FD1B
2BA9F7D6
34E5F8EE
0DF211EF
E6FBE9E8
E2141AC5
1AF3DDF3
D6E00226
3811A60B
F7F80615
F0EEECF1
E609E3C5
FBE31F1A
0901B3EA
00F30E24
0DF4F5F8
4DDBDC0F
ED14CDC9
19F7DFDF
1EEE2839
E8F90F3C
0A0707F4
1A923232
D21CCA19
1C19F1D2
F61AD227
F839E118
0C3905FE
3218022B
EDE91F3B
C5D7E4DB
CDF5C6FF
CED8E61C
271207E7
C5292EDC
E81109B9
D1FF3015
F4FEF2EA
14FAF128
E60D03F4
0A13BE17
EFF813F7
F7EB15FC
EB19C101
20003FF5
D7DDFBFE
040AF642
B4EB24F0
F5D71C38
C10307F4
29F005CF
0214EE1F
05DADF00
1D43EDE5
E212EB18
463411F3
03FBFB1E
0D22F5F4
E2F320C7
F52334F5
D8FBEA3B
E40017FE
09EAD411
1AD15435
F0382308
1CF9CAD9
FBFFFAF2
FA17D11D
CBD9F708
0603CFFE
E6F71228
F35D2D07
E834FB0C
E2CCEA1E
DF13F1D9
EBFA04ED
080D05FC
FF05FBCE
211DF4E0
2254F5F1
F8E903F1
18DEF8ED
0932FA1A
16F8F7F4
1AC7D6EF
D5C3EC17

