FBF2ECF1
CADBC2DB
01EF15D8
12EA2502
EE0E3AE9
FF0326D6
D00137F0
FCF64B24
13F4CE31
34CFE524
0DEEEC16
07CE30FF
F6C122BE
E0E2E7F1
070A042B
341A5B42
FDC916D7
44357E1D
E507F4B7
F523F2F8
E5E5D1E8
E0F273F1
C0299B43
43354FA9
0914FC24
F4E2DF21
083CFE09
AF05172F
1DD1F214
070A610B
E81F09DB
E5071402
EC07B21D
22D4742A
1A12F52C
21F211FA
03E60718
0D0FE8ED
F213EBA4
0DE8DB1A
1617FC19
3C140630
20E841D6
0309F9FA
F919FB1B
E800CA16
1EE407C1
1024E00E
FFE11AF0
E82AE6F6
0201D018
CEA7F824
02473406
CF0ED42C
FB100213
84E7831F
0320B91C
FB7904FA
AC1326E2
05DAACF9
E4FAD915
8AD9BE4D
D2F5F0FA
30006110
DEECEF51
ECF1E8E5
DE290EF5
01F9EAEC
F9CC0AFB
FB1A1BDB
2A07ACF5
E2C9052D
03F11408
D7270CF0
130CB8E9
10F417EF
13F81CDD
4E14EDBD
19F6FACA
281D6608
D14C08DD
12F7FC12
09132CEF
00E4C214
0CF81C0F
EAFF271A
D70163F2
751A11BA
21F2E5B8
3CF57707
0D3DDCDE
E12AE449
FFE913D8
AAF4BC17
05DE15DD
E7F5EEF4
05141CE8
12F2310C
06C8E855
DEC61228
FB10D3E7
24FACC03
E112FA31
972110F6
F1CED1E8
24E3EC1F
E7ECE5D6
030FCDBD
04055D0A
191703E6
0EE604F9
DDE6AF01
0FE0D5E8
F502381B
FE5402F7
F6F42CE8
F9E446E8
202608DE
DEF3E3F9
00EE30DF
18F8F6C5
CBDCC827
FA1CF5F2
422235F2
0AF505B5
EAFA0A02
CE1A24E4
F4815D1E
FDE906E7
010F284D
C9EF16FD
1FD3E7DF
EBFD04FD
ED14E9E6
F302EDEF
E8F7DAE1
0912FF0E
241503C6
AC0EED0E
DE00EBE5
D528DC04
0213F205
E7D8EFDE
0ECD1C1A
08F20300
CEB3321C
FDE7040E
0C0BD50E
0611DDCD
610BEE4B
0CCED9CE
FCF114B6
D41915F0
C3D10BBA
F4FF1CF3
2BFD3D17
5950E008
30061B2C
FC3F01F8
1177DCD2
2516F410
2229E1FC
0909FFEE
05EEEEEE
09FAE7FC
F5F6EF00
37E0E414
25E60D0E
050D09E8
DC020B03
ECCBE102
ECCEE600
1521C42F
020CFD07
0AB524BB
3DBEBEED
3C10BA16
336C0CFA
DB19C60E
E5C5342E
C90A1CCD
05DB19FE
0B0AE72C
1428E63B
13350222
031C09E8
C607251B
FB140214
F4183907
1B03FFF4
38FFDD3E
F91E2311
DD2A9D15
5E138905
1F372EE8
C70BE8FD
F1ECADC7
3725F914
0524EFCB
2BCEDCF7
0ADD103D
5D0E181C
DF0BD72B
4A1EE5CD
18D9ED11
016EE8DC
0802071E
0604F3C7
17199DEC
DBC222E4
3C09181A
FBF7BE17
F831F337
45AE360F
18D0E1D2
2BEF2619
0703E7C8
F92CFA25
DED5E404
0D3AF0E3
E6142B12
15CC171A
0C08C8FD
103AFA16
C3244C5A
D00E1D02
06EE0011
DF2BECBA
040103F3
3ADDCB0A
0DE1E600
1E46FAD0
E5E50712
B1020CE4
E80843E7
FADCFEE0
22073724
C2A61BC5
04D0FEE5
EAEDFFEA
0EB9C804
09BAF7D5
6408ED0A
42D002FF
EA16E981
10EEE6F5
42620924
E214FB12
EC091A1A
671BE6E5
D4163741
36E3BA32
2A0DF645
12DA03F0
2CF9F52D
F0002C38
14F50307
C03AA3FF
120ECFEA
7E15EBE7
0BE233F2
0F122702
E20F411B
EF17DACF
E9D9030D
0911F308
18C861BE
3D16E1C5
22DF2DFE
D82507FF
1311C4E6
43D8D7F7
0C17121A
26264D18
0D07D61E
F70A14EE
0E0943FD
F6F5E12C
2FE67EED
EEC4AB04
19D42DF8
20EA4125
00222A15
862323FC
FE062622
3F15DC1F
F6F00B18
661508FF
F1F03F08
F6FA05FB
22D9E53D
C8ED1930
2F2EC419
A206F0DB
F6130FFB
B9091CF5
EF18DDEF
83370616
19DD94F3
6BE24408
F618E2F5
F418C504
C7C3750C
AD12E8D3
E5FFE200
F81278F0
110508EB
371C2A10
EB0CDF0E
4018FA0E
2608AC11
07F9FCE7
FEE603E9
09232701
32F0FF08
A825F23F
1601DA07
510F04E4
EA02653E
C1F61001
F82BD20A
21EFBCF4
072755ED
C2E71000
0AD62234
CDFCF22F
460AFEF3
C9FFC514
B72BBAAC
22D4F4F2
AC28D6D8
EC02321E
F04FE110
0D153401
CEE5E9D3
2D0C19FD
05D013E9
D1FDCE0F
D2FEFFF5
E2180EB9
F1FF0FC0
1A16E0F7
F1E73AED
A60B4418
E21FD403
FCCF40FA
3A0ECFC4
D2D73ACB
03FC7E35
ACF3E303
CCC7F1E2
08190523
FA02E508
D7E0E420
1A1A2E01
0D12FE1D
1DF3E119
D1DBFB16
14F2D825
251E1600
C9BBA114
E4F2032F
EEF5FA12
D9DFCF05
16FEF016
12E5F8FB
DF09EBF0
1026BAC2
EB26180A
47C9CDED
18F802F0
0C25E808
31EA291C
EEFB2DDD
5149270E
E7F41A0C
F7F2FF08
EFEBCFBD
DFE90601
D30DEF38
062F25FE
5C570B00
0B0011FD
CFEBF716
E50E03D5
1DDA37F0
F9EE1730
E7F2D6EB
0A3F314D
FE0B07EE
09FBFCAD
DFFD05DD
2703DEE5
FA0BF0F0
FAE73AE2
01DDF8E7
03EF08E4
E42FEAC8
F90F180A
25C9F5DA
0414F5F4
04FC18CE
33D9431F
F80A3EEE
F704141B
14161208
F3E82613
FE3E8138
E4CF1DF2
F1331A2C
1F1D0BF0
EAC7E30F
C93A1D38
D4AB05D1
0B1DB810
650F74EC
23F7F7C8
F0EBF317
E049204D
CF2FC5B7
D0E81E2A
06450728
1400D618
2C17421D
08142DFE
B1EAC213
A92BE66D
11391EDB
1BD104F2
0B10192A
E0F02802
F6D9EF0D
F23730FC
C7C2F4DF
FD121220
16550726
DDF70DFD
D2F1D506
EEF61AD8
26E919EE
E5CF05E7
00E424C6
0AF3D7E4
0B0AD0E6
CA1AEAE4
E00901D7
F4FD15FD
E8D10618
04F4E72B
ED210CF8
1B040D21
16120904
EC16153C
191C200D
1A02F709
000001F2
E312090B
F9FAE200
0BF4F8F5
EE070609
0618EC0F
15090D21
F802F2F5
F720E614
F20316F9
E9EA1FFB
22FBFA03
FEE7FC38
FCFFED54
FABC171D
F0EE24DB
19F111C8
27DD2E2D
1419EFCE
04DDE542
F2F02A01
101CFDF2
DECF012D
01370EF2
0CEF0741
0D0505E8
FAD61D0E
FCFC300B
0A2116EB
DBED05DE
102A14DC
FCE0F934
F01FF10B
FE03F9FA
0907F904
1B183B09
EB09E1F6
EB23EA1C
DBD6EEC9
5EFB0407
F5D5FDFD
FB1106F9
ED12F1FF
E4A710D6
01F82901
EF0E24F7
2708FBF2
F7FE14F7
111F070A
EB0DE305
E1B617D6
030BD4ED
DEEC122F
FF030B12
F111F80B
1EE332EC
2EE2F6D1
05FF1AF2
0012C7F1
021CE310
21F10459
0DD1E501
D4BF343A
0C200B50
E22DDE9F
2114DA06
FA1FE3E7
F6102FD1
3B0905EE
0409902A
2A390C10
C2EBE4F9
D012B9E5
01040FE9
1FFC8110
0402F334
14B311DB
06E2D61C
08C50BD3
0C0C4FFC
19F12AE4
FF1A02CE
EEEA0017
EF10D227
23F836D1
EC01C31A
FE260332
2EF4FAFD
DFF5EEF3
CDE9B2FE
0DEADA02
F508D619
241C19F4
2606B4E1
E58FF7FD
27F90121
26E3CA07
D7151417
A4F4FF32
E44D56E5
F2ECC513
D70BE826
D82DDBDF
CCE9E826
143B3626
19111113
EC361D23
F7FE1606
F01D0513
36013BF7
55D4C6CD
FF09CDF4
3EF4F72D
09DFF2EE
81D104DF
1614E0E9
E3C9360F
EC17D8EC
DCFCEDF5
299B0A27
BB04C9EF
FFFBD056
381C7E13
F32C0286
EE0EEC32
11E7FBC0
E005FAF3
EBBE67E8
C1F9EEC2
0C0BE1E7
1E24470C
36FCF0C5
E8F1241C
342A062F
FF48F1FA
4F2E3026
39D2CB1F
5D39D1FE
4DFF2AD3
11207E14
DBF9BA04
EAFD05CC
EE15E909
1C0CEAE8
E1ECF6E5
D319F528
C6E6DE52
D3551D07
0AFB48BB
DCDE04EB
06094F28
CEEB120E
78046919
4CF8F834
FAC40CF4
1BFBF3E0
19BCC425
05F633E6
DA1B20F0
E328E706
06DF1F15
E9ED02D5
E02C1B01
F7E10BF7
05EA2C2C
EE06DF22
E0D7DE06
FE1CEA1D
19F63721
F2150D0B
2D146FB5
0412D704
3DF64EF0
E807020D
25064347
1806B8E5
05D4D832
D7ECD5F7
1AB73012
F235EFDC
1F2C2881
FF05EE26
2E0A14DC
15FBFB14
2EAE3719
F6F12D0A
0A059F16
040CF2EE
E6E7D3EA
C7E217FA
30F7F205
F310BF0F
1B29E607
0EE81014
E913BC0D
F5FD3F59
BEDCB4EB
162D1712
082C11CB
F40031CC
433841DD
EB0AFDCE
3D172520
03E701ED
DD18F1EF
28EBF808
E5FA0CF0
FC0D31EC
F9E9C3ED
1A1017F5
1C3104E3
0C10DAEB
12440FFA
15DFF101
010E24D6
E91516F6
F436326B
DEABF2FD
15A7F116
F60B2ED6
F6FAFCE4
F306DA04
151F6CE8
A102E114
07FC5CFA
E6042BCE
2AF41106
081FE8E8
D4EFBBE3
FF051605
D4E03A16
0DEEE9EC
130621F7
02F2FC01
EA07FFE2
1BFFF602
28D3532C
0DF20D0C
E719E514
DEE0DFF6
FCC6FA23
FFF6F9FA
24060AF9
0CFEE0E9
E6F7D9E9
F2C6E812
F81AD729
E9312B10
FF1E252D
04DADD12
D7EFDAC3
F3F82D35
AEC0B82C
ECD9F5D9
D9C8C32A
0DE84ABF
0455C6D9
2FFA340D
25D9E7DF
0BDB3101
EAE2BFE1
D8011DF0
E2FEAF19
2E050303
38F05A10
39E5BFE4
1CE15E28
E74853F1
F82EDD04
E7FDDCFF
5D1D7EF6
07E9BE4B
45EF53D0
140627EC
DB1C04D5
14F7E9DF
1F1E381F
0009ADE4
FB1D45F7
DF0E09FA
0AB945F2
09FC3214
1CED37F8
EAE5CEED
1D0735FB
ED261716
1E404213
E3FF2120
DDD1CA2F
DEEC3827
02F9DBE7
0D3AE414
07DD08C3
104C531E
54EF1BD4
D2FE1413
FFF3CC29
28F9C43A
07890814
25CBEF28
B5E59A24
1B09DF00
FC0DBD23
23170B4B
B3DBB705
E708EF0C
D312D6F4
EAF5E828
17F13D13
03EFE0E1
08E94848
501A3412
ECDDF4F0

