E4DCF9E2
06FDCD31
F31C4831
FD0F2200
3FD8EBD3
3B00E0DC
1E27D7F1
A60ED403
101E471F
410E1638
CEFDE600
EBFBFED6
01EB30AF
1DF5F837
0EF70020
0B11E8F5
093259F5
08EFEC3D
E408F93F
F10932DB
102819EE
6B14C7F3
F5F73F01
D1EC09F8
F307F1F1
FB0216FD
24C418D3
E9DA5C21
00E6F413
08F0DEEB
F2C9E2F4
F2F0FC1D
08E4E40F
EBF7E8DE
38CFF4DA
E4E5BE01
150FFEF7
0BF5281E
D1A4D503
E92917D9
F41BE12A
1AEF0025
B14210B6
1EF55C03
E51B13F7
EB0E0B34
1024E4F9
39083D13
673BEE29
28F6D2E5
0FF93501
33F2621A
27E2DC23
E9F20E00
F4240D20
F1DA1B09
E2FC4708
13EB33C8
D8B9D418
07E7C311
E9E5130E
05EB1D2D
09B1E6DD
2402EB02
38F007EA
26F9E523
C9191A06
27060B05
06C11B09
F7E5E8F2
F912F2F4
F9D7D7FC
3FDCE604
F11424F7
1AFAF811
0815181B
210C0614
09E90B17
0BDA02F3
150921FD
2AC4EFD0
1CFC2ED6
0EFB26FF
32D939F0
F724FE0C
24DBCF01
06EED530
FD08D920
2912E4F7
E0FFFBC8
2AEF35D2
FF13EAE6
0009E007
A514F302
FADFFB17
2C23E90F
2E06DA31
2813D3F9
04D9EE10
37E9FD4E
23F00403
E90224E8
FB14EF24
F70DEEDC
35E20A4F
D8FBFF04
D0CBEE01
DDF6E71E
17EC090A
0CD12E12
E634EB16
0CF4CA1D
360300FC
581114E4
BA84EDFA
26CCFF3A
08262EF0
EDC80905
F4F9EDED
D9E32F15
120706F4
1D26F51B
E4001015
1E102AFC
ECF9FC03
F41CF003
24FDDA2D
1E11291D
6622E908
0BEEC8C3
BF35F42A
E612D83E
DBD2EE13
11D52702
E40E0907
FC0116F7
5410BBD1
271ED4E5
DEECF7F1
28E512E8
4E0E2C10
12E522DE
F416E11E
180905F5
E9EC2AFB
010A3D0C
3E0DE218
2509D11A
FDDBD325
F30954F3
8106C80B
EC24C72B
02FCBCEB
0721B129
ED1DE926
E82005D6
341517F1
F21FF809
06BFF604
15F623DB
CDFB42F3
CCD5F7F4
0AF0F4F6
0612000B
CD6513E6
F53E28FE
01115E06
F2E30421
F0FE16E1
EB0D07F8
CD22F903
53FEF71D
250D2A06
45DCD8F5
9A21A939
F0FFFD43
D70CEC45
EF060519
E500C6ED
F705AF18
EEC4E8E1
47DDE21D
E52614CD
16FEF1E0
F0F6FFFD
D716F9F3
F0E3F023
F7F832F2
51B9ADEC
EE11F016
E5120914
01F71C21
1C0000DA
071BAE30
C7E7E928
F8CD15D8
1ACC0521
D91E42E7
FD2FF0F2
3C12D4DF
EAEAD0EF
BE07D728
4F1DE6FD
22E9F008
0E15E418
02FAEEFE
0D16CB15
062A29F6
0915150A
F117FC19
B155FEE6
030E452A
28131329
C705F16A
051EFFE2
0117A5E9
C8F9FBBF
14F2C518
8822130E
F6BB29ED
D7BB1013
FAC93F0A
CBE100CB
373CD801
E6F2FC16
1EF819FE
0D02E115
DEF4ABFA
B1D6FF56
DDF4F30F
D3340109
0C054B02
8137D4F4
28021AF7
0C050810
00F8AB05
2245DC00
12EF381F
360BF6C6
CFF80CDF
FE1FF02B
ECFFEFF2
ED0E45F0
E819FB18
08E4E9F7
BE0ECA25
12EC2404
F6EECE28
E6F73BB5
E0285BFA
12F2101B
0B1A3445
C8DA0109
06F7C1FA
37E70309
1AFA23D5
3309F70A
0825DE06
FAE9E910
30EE27F6
331D1D2C
12FEF507
F0092223
FF1BF7E7
04D900DA
E001F5DC
E72A234D
31E40B47
08D90373
1202CBF2
E0CAEEDF
0117EB2C
F229FA13
03FEB92F
322009FE
0D09D316
BDF8E7F9
2A18ED0A
0CCEEEDC
160C0C0E
11162EE8
31D835CC
F0FAF225
1BFAB4E6
26D60707
ED1CE5D7
FBE106F1
CDF036F5
10E10C04
2407E0FD
1716F7F4
FE201BFF
0ECDF5E5
1508013F
FBFC10FC
DDE1CF1B
FF091605
08EF10E3
0021ED04
FE04DA11
E408F42B
CCEF0400
DA2A240D
E2F801FF
EEF226FF
0BF626E0
E712FB18
F103E105
15DE14F2
1AEB0DF4
FDFB171C
0D0021E4
240518CC
40EAF908
FB29E82D
FEF03817
F106FD01
07F91D09
FC272BE5
F6ED1424
F5E92AD7
061A2821
26FD93D2
20E7C8D9
000B0CFD
DFC5E0F4
110BF4EC
CEE9F539
E3E7FD38
F911001B
50251FB8
CDEA2E2F
FA02DF08
F90D171D
FB1B1EF9
18E3D826
E1401D1E
F4FD1436
28FB13ED
0836F411
041A201E
C1DC012B
24FB1044
14F4C5F7
DB22F800
FD1744DF
2AB7491A
40EC1253
2F2CF1FE
1D08AF10
FD19E2FA
03D0B908
EBE5262D
DFF4162A
08DC2900
EDFB060A
D8A6FB20
F70C09FE
0E3DC424
D3EB34C7
1F18D0E0
0EF60BEB
0A3FFC24
12F02613
DA06BC24
0D1C0909
E24357EC
11A6B243
F6EEF1FB
FF1E2DFC
DB0AD30F
20182C01
DB02F339
EE24E605
29EF123F
0BFDE61A
ED3724DA
DA2D14E3
20094610
08F237F4
2F1CADDC
EAF435C5
1EF84807
D9C8FDEF
041AF512
08061EC1
09FA10C8
EE0CEF06
E12F26FA
45F1DDFF
082DE1E8
131810FE
1FF9E322
001AF2E9
FA4C0117
56FBCB20
12E904DD
02F403EF
C8D9F562
F21BCAFA
21CBD502
FA06AE1F
CDF831D9
E607160C
0842CB1F
201EEAE6
0BFB010A
E9F90F0C
140D0208
09181604
C0DB0218
BEECEB37
F1B211F3
2DEE1C18
EF02ECBF
A3F72610
E60C14FE
FF0012F5
D93308D4
08371723
E81CD744
F4FEB710
FCE60CFD
37F5D0F3
DFFCFDF6
390601D8
04CEF30D
342B2C76
FBD9CECF
06E9CC11
F62E02E8
FCF4E4F1
62B1101D
E6FE0DB6
18049DDD
0DCB211F
203E1428
FEF41AFF
D2291222
09FCBA2E
0B0600FB
F0070ECA
ED0704F5
FA22A235
F1253D0A
EEDBF7ED
DBFAFFEA
E8F80D16
0323F509
F00CCD0D
0C2011E6
07DE27FC
22CD292A
E5FBD021
031B0D21
EFE40907
1214EC00
F510F32A
E20105F9
FEFB19E6
0DED081A
12F1250A
07DBFD27
01121FEE
EBE603D9
0C12FA0A
FFEC0AFD
20F0F704
DBF8F113
25E3D708
04130BF4
C6BF0C23
FB06F8D5
E241DAC9
E014FAF0
E3E7E5CE
1120D8E7
17FBCA0B
ED4414ED
EC16E611
EDE500FD
FDF71806
1005F2F5
FE0CFD13
261D3516
24170B10
BE1DEFF2
0C080A05
FE1C08F4
0CDE06F4
F7000725
34EB30E9
66F31A3A
FDD6BB18
0A140809
3BFE0227
FCE2FF00
04091FF5
FF27DCFA
E7E3BBED
F4B701F5
08EA2A13
03EEEFF6
1704F105
EED8F314
D20BB410
3417D5DF
28BAFEF2
F2F90CFE
EA010BE4
5624ED10
08EDE215
0C2AF41C
020BFF00
13E5DC0A
DC0BD203
21270206
EDD3331B
22F11FF5
E9E9E612
1B1AFF51
3C090D25
2B17EA34
C112FDE1
260916D6
1B0CB8DF
02FD13F5
F7E8E8EF
1C3BEB06
0526DCFA
0008D3E4
F7FFED02
FF27F22F
D8D01FF9
C0C20A08
E30AF1CA
F200001B
F50833E4
54BD05E6
1B09E6DE
D4281BF8
FC0F1D09
220BFBF0
F4D32CF8
393E16F5
EEFB1902
1110FBF1
E5F2DE32
D8FED81D
ECE96154
0C42F315
1C25C20A
08142AEA
4952F0FA
D22BF8FF
1314DB0D
CAE0FE5A
F31B20F6
DD101FEF
3523F4F8
D0070BE2
EC014DFA
0C02F765
A5E51401
475C2F2E
1407E3E4
EB4309E4
B01C05BB
DFE620E3
C1B83903
F5221FE4
E3FD061B
1EDAC913
110E47FF
1AF520E3
0BE41730
01E40AFF
11E4E60F
E6151CF6
2BF73117
EE152EE0
18071DC4
1B131C09
1C0157DF
EBEC0804
F5EC35F6
CAC01EEE
03022C30
0F0A0B32
D4CF2BEF
F6024021
F30FFD43
30B504F5
21351C0C
C6FF1341
61F8EFC2
EFF10407
151EC60D
1324E233
AC30310F
08B7E6EE
15DFE819
1007373A
E7F40B26
F9FDFE34
DAF50CFA
DEDE940E
4511B713
EF17E80A
B42022EE
2A3500E7
F7D6D724
2F0F10EA
37ECFA1C
594E3CF2
210BE92F
D5D20231
FCC800E6
1335D9BE
12FFD6FB
27FDE1F3
F6083A04
15F213E7
F6E74AF3
ED5ABE10
CFE3F82D
ECD657FB
1E27F1F5
E3FED107
E9AED340
930FF324
D6F9D676
9FFBF443
C0E8DF05
11B315EA
E22AEAE8
F2FD2C06
F7E13218
111BEF01
0B0417F5
102C18F9
DF021800
0DFE051C
EAFEE128
FCC2F216
02072219
07F0F3F0
0F0A1710
08FF0102
F005EA04
EF060727
EA06F6F4
1AF80229
0CE03401
42F3FDD9
13204E3C
08BA0509
1F0115DC
0004E51A
0CF5BC03
05F1E4E9
FF2422E9
08FA3CF3
FFF4F5FE
07EE332A
C90F17EC
0F0604F9
250405EC
EFECF4E9
F7FFEA05
BE11E718
2A14191E
F5061CDC
AC014FBA
13F400FB
DEF61B05
DD2BFEEF
04151FF2
110C12EE
02FC04F7
12E6DEF9
00EAF4D0
1BD3F114
E2EC0613
FAF406F4
DDFC2526
AB14C10C
E700FC2A
17FB32F1
ED1A06F2
10F4E21F
D9F7FC05
F335C5F4
FD18E917
ED1F3AE5
FBF3CBF8
F408CD10
F7E6EFE8
34FBFF1B
F7F6FFF2
EF3F251D
F51426D9
FC001413
F801D720
D936F124
E1F1FE08
FAC2D0F2
2EB1F801
F4ECE22B
F313ECE8
44E13702
39C1E718
F31F01F5
17E010F0
C424E710
B7FAEBD6
EF27FEDE
04C4E812
03C7DF00
F424FACD
1D33EDF7
5B082511
3B08AEE4
29EF22D7
082D1E01
17E7F9FD
0FFD14D8
F98EE2D9
FF46F9DF
DF22D2E5
CE174A33
F10CDD16
34D70406
D0E3F1FD
F6170205
DAE54011
222F0002
13DDCB11
E41015D9
E8E2120E
E51E1512
E318022B
D52E0302
0432150A
FAF7E4F3
1CD3E3FB
D7B8210A
E322140F
1F1FDEE0
CEE80BF7
061AF8EA
0BC529EB
B839E703
E4CB2411
FEF7EC17
DCFB1FE2
D6FB024B
A738D926
E8E95D0A
1820DF19
0442DF0B
FFEBF9F7
10F8E0F4
0BEF180B
DDE0D0EF
06102BEF
19CFD1BC
D81F460D

