F1F8032C
002AEE03
2EFCFB23
49E01E35
100227CE
10F8FC27
D9FC19F6
FC0E0A14
F819CECD
C33AEAD9
35EAD3E2
FB3E092E
09D10C09
D3D20CC2
F026F802
05B523EA
11EC29B7
0DD5F929
F1CD0F0D
E510F32F
D9F8BF18
FBE5F01F
040B2700
89ABF802
0D1517EF
04F80E02
0F1E23F0
BECBFF3C
E04BE104
F541F5D5
11FCF7DD
10BCFC25
09B5E70E
F12B1AF7
DF093375
DE150831
0A281B15
0E2FF808
E6E200B9
18DFFA3C
24161BF9
1BFEFC01
62F83CF7
D6051D3D
E4CEE5E2
CC21E114
EF281418
CF06FB06
270B41BD
01300D02
F1ED0C51
1E15F6F0
05012409
0229E948
DD0A11A5
663BF712
EA16FEE3
0207FA09
E8F31823
B89BFFF4
ED1126AA
0CC8F7DF
0FE7C2DA
4D9CFD17
D221B6E6
F8C8BA1F
09FFEFE7
11E9FE3D
15FB1420
11EBD900
26FDC8E9
CB1AF80C
FD24E40B
CEF3EDFD
FDEB192B
D6FADC1E
FD15F430
EBF1E921
FDF3FDC7
23FF1708
C62E001D
B125E8FA
D7FA052C
3BF0FC0A
07F31919
2CE51A22
22EFB43C
A8E7D918
DCEAC519
43B101F3
F5F54516
F52CEDE0
36EF27ED
21357508
0CF0F507
4C08F8EC
F1EB34DA
121CFF27
FEDDF00A
DB3E0B02
EA31C3E3
C3F1E3F9
17100CF9
17D7FEFF
1F181AE5
DC21E239
DA062FD4
C7E500EC
EE0DFA1A
E533F704
F0FBDBE0
26102310
2C1924F5
2EE507EF
F3FE1110
23EADD2B
04EF2106
5909FBFC
F00B18F2
DC12251A
F2E5EF1F
DA11EB04
FAEC080B
F8FEE8FE
DEFAE9FB
1FEE1CEB
4DFDC6DE
D4FAF4EF
F915D72A
10D417F6
03F9C5D9
11063408
13230E0A
0602B9EE
37E4DFED
D61DF216
281606ED
ECC9EEF8
3D25E320
F0F849FE
1D040D0B
32E9D112
E309E6FD
BB091114
E2F42BE7
152F9E00
0BE226F7
0F17EFD9
A6E9C34F
C8F3E8D2
3018FFEC
F8F71C18
06403831
CFE038F1
FDF31B19
051509E5
A732EA36
06071FF7
383F452F
EDB237CE
F9EEFF43
2130F601
032BE1F4
C60E17FE
1023CE0D
2EDA5012
DE17D0FE
0EEF5DED
3C0A340E
19050800
3B11DD26
C9E00911
DA012BE5
CAEB52E1
29F139D0
CC2FD036
4F21E4F1
0D25450F
30B8C8FA
07F96202
D0FC0115
13D741FE
F50C2F12
F5E6FE04
EA08DB04
D61C9CE5
282CEBF9
E0091208
12ECED14
66E6F705
0C1AC90F
BA07380A
D1080DF6
1123F714
EC0D091A
F90FC0E2
DF14FCB6
219A13F4
02F90FD6
18F2F8DB
43D001FD
0E143017
1B073E04
DF18EAEF
1EF4EA07
100210F7
03FE532F
0C06D401
04E3FA37
16330015
190DDDE3
64E74807
D3E35409
F3082ECB
F827F918
7EF8CDF2
190B57B4
09FB0329
E5F61744
3C1EC3FA
F107EF29
3AECF6CC
01E431E3
FAF5C91D
31220924
FE0402F8
0EF009B7
EFD4FD22
3D250AF3
7E0CEC11
E300CA01
15002D29
F0FC1404
0201E508
D72427C0
F704FD08
3B02E30A
FBF1F5F4
C9EE15EA
04F104FB
140EA410
EF3E0BF9
35E98511
D8F213F6
B91029D4
FCF1C30C
65ACF336
78B38CFA
250AE926
F1DE14E1
090DB8F1
AAE5330C
F1150C3F
220DA0F1
E1EA38FC
132119F7
06F79DB5
3DEBEEC9
FF3BF919
0E10FF1B
F507CCEE
EE081512
C7FD4C11
D1EFFAFB
27101102
0C16FBDC
1FD97606
09E10FEF
E3E5311B
F82BFCFF
F8242CE0
E0F9F002
D9F113FB
3B2D130B
2B12FAC7
370B0C00
D511E929
100A0B08
FCFF5C14
D022F5ED
22F9AFEC
49103915
B71B7EC9
D30E07E7
00EDFF0B
AB0BE3E6
26EC1B06
36F30DEE
F4E659DB
05D3E3FA
0CED68F2
25D6F910
F4DAB417
E417B8FE
13ECE023
1504190A
1A29B50A
21E407F5
0BD769F3
06F2F1F1
24127C17
C42EF300
2418AEFF
21EB161E
CCFFF509
55E80BFE
06F82B05
1EDE082F
0AF22A1D
F2213202
EE2FDB17
FDFAE705
2D162ED7
0ABE1217
20FA41F4
0C481AE0
E1EE2201
DCF90301
ECEB3AD7
1AE2F9D5
EAFDDA06
00FCF6F6
F4FF1025
FD2D113E
23CCF0EB
F530120A
1DF8F4F8
EA1400EC
29DB37EE
124800CD
55F81B13
D422F809
3BD5C1CD
DB25E41A
32D6C0E3
0DD3FFEA
FEF72704
2906F9F4
171B2DDF
17060C05
F51B0EFE
1F1003F4
CB01D2C4
EDFE06E7
043BD9B4
D431EDF4
11EE10F6
E9FAFFC8
F011FBD0
16F9FAC9
CAE6E0F1
D62A1B23
21EFF707
C940FA12
F90111ED
F2020510
FF2CEA28
EF20F9FA
41EB5529
BE4A0518
E62ADBF1
FE170805
0E260A21
E807FE29
FC22E212
BA28F31C
3E7EEBD3
372711F4
2ED93DD3
F4F30D0E
1AEC28D1
E9FBF4C5
F91433EF
E1070420
DEE825F8
24DD13ED
F82CF73C
FB00FEE1
DEFE0D03
27F60613
85E12E11
A3DDE438
33ADDD0E
E5FDFCFC
D05BE429
D31FF8B9
C30F2A04
941C0AF0
53D5EC3A
081F0E1A
02EFF0FE
0AE53018
090504E8
12F4EBE2
142106CE
25F50810
E5DDE81A
21E1F8D6
F117CA1D
09EF0B00
15D12D21
C1F405DF
FC02411A
40220DF3
160D04EE
CB080C11
EF28F703
E5F10ED5
FA00EDE3
132802F5
C048FE2E
FE20FE5B
B31E0413
B952EBC0
1E2BFFE3
F30507DC
16E41120
EFF5E8E0
3617FD0F
B927E2F9
F7E340FD
D8F32EF5
0F02DF20
DD11F6E1
16E016BA
E812F306
F63BBCB6
16F10C14
0CF2E8E2
D5E4F1FF
F20CE0EB
D6F2F9FC
08200E20
E31C1457
280FD81E
F9FDFF08
D3232B2F
0130F5F4
A212100E
D2E21305
22BD1C3C
FBFDE50F
034C28F1
ECE3E201
17E6FFDD
F118F21C
EE2D28E5
E4C90DF7
FCE61EF0
21F57E15
E3FEE80C
E60E53D6
DF071CF9
02111933
F4000B0F
DBEAE4E9
ECFE090B
FB0ECD07
F800FFFF
24047E07
E7DCE505
F2FDEA03
06FAEAD8
0BFC81F8
E0FF1AF5
D7F3F40B
15E11118
CAEC6EF4
F5C01407
EACEFF3B
F31E0314
39F88108
06C9E7F6
E1E2E809
52E600EA
D6138109
CAD901F1
F533BB2E
EAD00D2F
2119B2EC
1BF2F3EB
143177EC
EF0B2100
0D1130F0
071922EC
2BE3CA1B
FBC30C0C
FCF68110
EAFCF602
EC26FE10
F51E050C
F21BCA15
1DE9F921
BFB02311
071202FD
D90A81F6
FD02F7F5
0FF5F41B
F4E2231F
14FD7E11
16EB09E9
0D067E0D
FA120817
1E0CB2F9
F921ED00
48F87EBD
E60FEFF8
FEE443F4
F00A06F6
FC191DEA
35F5F232
2CC6982A
09160605
C5F4FEFE
C5F6F1E3
3005FEFE
ECD7F62B
3AE40033
EDDA1DEF
37F8FCF7
3918291C
D6E9F6CB
F1E42E34
0014180D
CB02E717
090D070D
D2008A11
15F103DA
B1E1261C
12F12003
F907FEF4
FFDFFCCC
F9F6F960
F70C2CEF
F7ED09EA
E323C7E4
DD04D41E
3B093E1B
37F1BBFA
EAE4E701
00F645CF
D4F513EC
2FFF8915
061E02E8
E9F3BD16
28D8F0FA
CFFE2306
EC0A0A13
F2E6CB34
EFF611F9
1BEE0C03
DB0A0009
0BEF0A2C
D8E7F1F7
F4DF0BD6
FAFD1427
0F0FADE1
CA1C12FD
12F5FFDF
FAE9EDFE
2215C6EC
180A1E27
1416AC16
CE5202E5
1DD5EE0E
0654D4E2
EAFC1CF7
1FFD06DF
00F01E22
D10B0615
F306EC04
F3F2FAD2
F9F51E26
EDDDE7E9
0901F603
3E13F5D3
0D28FF0F
2F2B18F4
07161BF4
D9F6FB0F
FAEA29E0
C11E40C5
E6043BE9
16E2152F
17071E03
27F507F1
F5CE1EFF
F4F9DFFA
FCF43121
F80122D8
27D0E8C8
40A9BEBA
F2112461
04E900E6
EBFB1C20
F1042427
FBE3CACC
BAFBE3FE
0AF7E125
5524CDB8
F5F71DE7
14B20321
EF15F0FC
CFF0EEDE
D8D8F0F1
0B0AF5F6
CC02C705
FB0D3807
2100C6E2
FC16E623
25C8FB0F
1DF8E018
B10D2FF2
35D81E0C
FA65F0B8
CAD5EE00
0D11FD5D
7E3015E9
CDD3F5D0
E823F0EF
022E02FA
06C4CD00
F20113F1
E9FD022A
00A911C5
EAD62B11
1ED9F7E7
1221DC13
D6F5EFBE
FD2F3AD1
FFEE1C2D
96FE9FD6
F0E5B441
10D905BE
4EEBF708
2C05EE24
F100E0F4
BCCBC6D9
DF21F9FB
2C1CFB08
13EFED07
11E9ECE9
F5E5FDEE
0C231DDC
D3F2D4F3
34DB0012
FAFA17AD
0D232DF5
0925FEFF
DCD22601
FAF2EF0A
DA1300FB
01F6040D
14B72BE9
0BED06ED
2033B2D9
090A00B8
1CE3E84C
EFF303F2
0BF5181B
140CE101
2AF3F8CA
CFFEF61D
E9EBF4A7
0AECE63B
3D2B32CC
FC0625E6
23E81D1B
F5D70603
15EEE7DF
C4FEEBD3
160FF9FE
340AFB2F
045BD4E5
36ED0EE4
15ED06CA
0FE215D8
00050308
E80C1CFF
0AEF1CF6
FC32110A
25EF7E04
F0F21BF1
2DE40407
CF000637
241CFF28
FDE3FB11
7E44F6E8
0FC51119
E4ECFDD5
2B1D170C
FD02EE0D
181EE720
02E20C09
D3E006FF
F0F9EDE9
31F113F5
C60FB831
11FF150A
0A2A0200
F8EA3FEC
E315DE07
043CDB10
F6153DFC
ECF5EFDD
2DF612E1
17170FDE
DB03BF24
1BD3F7EF
C51B2E02
DD0C50FB
F618F605
3DD9F904
143C2125
27FBC713
69015B0B
E0F81C0E
21BF2329
0FD52604
EEDD81DE
EDEAE8E2
4CCDFFE0
DB0C1615
3107E8E4
0EE4FDE6
BA3FCAE0
CE2BDEEF
EE087EED
05D81BC0
232C45E9
E8E193F6
DB41FEC2
BEEC3027
14C00B01
011CF6B8
F8B5FAE5
DBF8E614
00C515F6
13FEF9F1
EA3F17E0
F61516E3
30F05725
16140FF5
E9FC7D20
08E42C41
E820CCDE
2711EFD1
E81F1142
E2431133
C934F030
DEFC2131
94EC2E40
220AC41F
CC0DF2E8
F4F6F2DF
3709E1C6
F8DFB834
E1D1F3D8
38191717
201BD30B
E12C0108
02F27E0A
22F441E6
F32676F0
3616E206
FB2518E4
5908FDE9
2D36F22B

