E520FC28
23E528FB
C2280515
42120B07
DEE270AC
F202343A
1EE2F117
E608DE1D
F3EAFDDA
171F0829
0EEEFEF9
03F310DE
E00A1003
021903F1
0501F0F8
294105AF
4036920D
FEDC2B09
CDE70CBD
0F9EBFC9
CB1E21ED
E7E32A48
2CF6F7E2
CBFB10E8
3C300128
010DEAC8
3B2DC522
18301A45
DC1BCD0E
E8DCDFE9
040B01B1
CBED3D17
FF0FF512
FFC8E265
E7FE020F
D5EF293A
0D15FB02
FAF7F2ED
05FCD6DD
27C9F820
EFE71ED6
2CE5F2B9
119B3644
DC1AD14A
D5D603BD
2825FB02
1DFDBA0A
0BB2FA10
D5F9FFF0
2139F9EC
19F742AC
C3FA297E
E0B50820
03E22542
19F10FF4
EBF5FDF2
11341DF3
FCCC3B14
0EE8DFDB
040A14FA
2DF727F4
07DDC381
240AFED9
FD07F401
1B1CF332
23082AE6
11FDEA08
06F8FB1B
D9F101EC
0CF703EC
E610EBE8
15012609
DE41240D
0A020EFE
101010EC
06081226
F404F61E
02FCF230
230B3812
E7EA1A49
1021F11E
F1CFEDB9
5F0509D1
DE0ADF0F
C801FC03
16F70029
3CC4B8C6
EBF507DD
122E39F3
DAFDEA17
2C101FF0
F1261ED4
FACDEE09
FEFBF8D2
FD1D45F7
030CFAB9
F21DEFFD
EC0C0A18
F91401AB
0A173608
161C2CEA
ED18D012
01380105
DCCA054C
1B01F5FD
311308FA
CAF924B5
F5E5EE08
1FEA39EC
F4001E10
D544F8E5
F00DE91F
E8131FE3
D8C80006
F2E81C17
07DEFD0F
05E6E41A
00FDFA03
FE0555EC
EA1C1223
ECCBC8E2
1F510EFB
D9DFEE05
180502FD
F1051A1D
D5DA15E3
1CFAFC07
151DFEF4
F0EF020E
D024D303
E3F2F918
1107F3F3
23F1F603
CA01D4C0
344EF4F1
28E3F4F2
D71202EC
1E071523
F6D0E913
2802C2FA
CA02456B
F2280316
1CFA2A25
E32A363B
14E12D12
350C0B00
1FFDD7DF
FF0D1A5F
FCD61EE1
03D203BD
DBEBEE25
0CE81A11
0DE3FAF3
220F39CB
0B3810F2
F12704EE
F908F60B
FDF00700
39FAEDDB
FD1BE1E0
E6340A0C
290EF112
2BF2D5DA
0FE8190E
140C1FFD
D9100C36
FFEDEB0B
F824EE33
10F7EBD6
0DEB0501
0B32D0E7
C5F54918
F72A10E1
0A09C12D
F5241232
14342411
22C3FC1C
E7EB0122
E3D6FB31
FC2A2301
56F718C5
11FAE514
E026F01A
22341825
ED1FF80D
0105ED14
2DD506EF
15F4D4E1
0DE33222
0A04E5EF
E9F910FF
1FCB0EFC
F6E5F5FB
E6F5151E
1F08A2DB
FF28EFCB
B9ECE5F8
05F020F2
EA0AF6EC
DED90BF7
1BEAF7C0
0020E565
ECD9EF26
242C103B
072F1403
1E041372
E9DE73B5
05CFFAFB
EEEA1521
06191F06
4CF8F7F9
1FEFFB0B
E714ED34
2E27FB2F
CDD31FEA
11DAEE25
EB06E2FD
37F81C23
FECBFFF8
D00A0A27
03072A1A
172E0D02
26D80AD9
0F030E2B
EACB031C
17FA0CEA
FB481E09
260BD2F4
F829E4E4
0F1C12FD
F70A29E0
ECE0F6DB
110405E2
D23200CE
F007F2E4
E6F907FB
21F2FBEA
45BC5013
DD082BF7
05F6DD07
E121F2DC
12DCF139
40DCE0F6
360407F2
5A39130B
1D06D436
0F23F323
E1F8F61A
18D3F5EE
F80BFB0E
EED45E18
D225FD11
D91504BC
02E20DE0
C0DFBC05
02FC153A
09F0E7E0
290E15FF
0CD7F01B
FC22DD2F
ECFC1D1F
22FAE40B
EDF3C700
EC1D0FC4
00FC23CF
F600AED5
FCDC07E8
FBEDC702
E2190605
27F4042F
FC030649
27F917F5
F0E62C20
1E41120B
F3CDDCE5
F1F015EB
E0D305F0
F4DDE5D9
E9D929EE
1C24F9F8
13171C08
FCEC0630
03061FF3
1BD8EDF0
2ED1E5D6
F9DCD0D2
CEE1F1E9
010FEAE5
E2FDD0F9
0406FE33
E3ECF812
F327161E
23321F21
FC140618
EE0B2BF4
E8FBD5D4
06ED0CEA
142C0117
FAE7F30F
0418EFE8
DCEA25EB
ED0625F8
0F18E727
FCF01DFD
011508ED
1DEA00E6
D8ECD2DD
FD05F5D0
BE0DE12B
071BFD00
EDE6DA00
FCD80728
15FA4723
FA1ADBD7
F7FEC40D
25200301
E10FF6FE
F6F801F6
5323CB2B
FDDEE9E0
FACE022D
F41E0629
42D2ED1F
F70212C6
12F2DFA4
F44FEFFF
373DE44E
15F60E07
04ECDD3A
1DFCF0BF
EA390A15
002615EC
0A2D08F3
FE0216E3
28D3E90E
141E4BCD
09E6030C
19DDE8EC
050CE2D8
F8250AE8
10110C25
01D10FF8
FED10339
34340E06
E8EFE6D1
C9E05601
383AF503
D21DF2F1
FC11DF32
2A0C02E4
D929B3FD
03CDFCC9
DE08CC11
06F4FC0C
DEF7C4CC
FFDF30D6
CEDDD4F6
CA08F7B6
FE0BD406
0AC1F628
F80BE5E8
2EE40B17
0C1CF0F0
10F3185F
34FCD20F
1213FBF9
CE010641
1B05ED3A
0A42F119
F7111522
D3E53434
43FF25C8
05262C20
E43E0DEA
DB204814
D9DBCF06
F1CBC1D2
D117D50E
C82A0C0E
16200C13
13F507BA
3E342EDC
FE2C26F3
C2C11714
F73D1162
FDDA1A48
1003F1F7
19B9EEF9
C2F52E00
0FD10905
FA130111
30F41D46
28ECC0FC
F990AD10
23F82DF6
F715362A
E5FF0307
E607DAC8
FAC70EF9
1CFC13E0
0807EB0A
F8F8BF35
31CFBD15
DF2307F9
F6F606D5
CDEFCD25
F602F82D
F4F1C9E1
231CE1E3
FAF7BE34
0D1AF44D
F7E8FDC4
FE0215D9
EC0302EC
C6E1C906
E91D162E
121BF533
09DB21E9
38BCE72D
EC1801DD
0725FD0A
F1FCEB28
EC25EA59
02164716
62D4E6DF
20FE122A
1DFEDA1F
244D2327
DF110504
0EF61205
F1E12314
01D90B57
2B061B13
08EA07F5
FABDF9EA
FFE01C33
254A39FF
21EB155C
EF163DEE
0E113325
E4E208F4
D7DB2212
DC3D110E
1F17FC60
E2F00901
FE101E1A
0BEAD133
AFDFBA71
C6E8E3E3
F3030DFF
FB0F10EE
FC160B24
B705ECDF
E823EF45
2A28EDE8
02FA241C
D315E0E2
E018210E
FD011700
0107F3F8
2E15C0D8
041C25F8
251414EA
DD0AF803
040C0910
0FF9DCEC
EF09F1F4
F13A07DA
0C0C31E4
F2DA13F5
FFFB0808
F6F2FCE1
24CFEBC9
14F50CF5
050F32F0
F001CBFD
160E1CEE
010F0ECD
002402F5
0DF6FB2B
ED01E5F3
E22D2303
040B0919
1719FAFE
F014FBE1
DD19110B
0B0204DE
1518DADE
2A0A08ED
D8370E2D
0CF42307
FEF1EAF7
3417F035
F9FDFCE0
20DCC6F7
D20945CC
ED10F7EB
0205E407
06D6E1F7
E613FF16
0BF208EE
08F306E9
4C32EC1D
37041308
F9EAFCFF
060E0E0F
01010BF9
F51BF62B
EBCF02F0
09FF2306
07111009
40FFFE46
DA160F25
3F0C1841
F5DCC40C
E216E4DD
E400ED55
30FE19CA
FAFBF004
E503070D
161013F3
FB02C707
E20AECE3
E9E8E4B6
CABC0803
D9F8FBDA
0D1107EF
DE04F1CD
F10E1FE3
214CB361
AC020D16
06E209FB
13080523
09FAEE04
2B02F100
2CEF05FD
D6E213E7
F1F6F5E7
4ED50856
FAF9DED9
4DEB56BC
DAEC0C14
E7F7E805
04E018C3
DD04F2FD
040907CC
1935020F
F71C0A12
0632FB0F
0AE107AC
DCF7C711
14E3E4E5
DDAE0FC7
9AE9BB17
2826D418
FCE63219
09DFEF1B
F1F5EF60
852E15EC
F61005DF
A2F10BF9
EB1AEEF4
F40DDE31
05EED6E7
E00D03EC
261615F9
210300D1
FEDE1D15
26071014
DEF1FF12
E00F08CF
18F1E6FC
1DDAD20B
E504F0D2
E23DE309
E0FB12D6
FBF8DDF1
03C20D0D
6110D6FA
3EF5DD4C
F60408E0
09DF1CF4
DA11F60A
00DAF2B2
10E4D001
0FA5D3E7
F91C3EDD
DDD80F38
4AD5F821
36EFBA29
1011D1BF
0F19E604
05D3D206
013CFD16
1418940F
5CF2F221
C8DD55F5
1511FD04
40DBDC2A
FA12F91C
2C06C6FB
B016EB19
40DC1519
F8071FC4
13EEF4EB
F758F610
172BF00E
18350419
FCB8DF31
04FFDDFD
06C6510D
22CF2E54
E6FF1A07
BB19BEB4
F9D0FCF4
16D5D7E4
F7E0E131
381241D9
1C29EFE3
EE20D45B
E8E720E6
0E0138BC
F3AB24E1
F11222FB
06001022
043A2EFC
D7C86B0A
1F0F0209
1C2712F7
132FFE25
10FCFD1A
E4C60900
26EFFBE2
29123989
FDC5CF18
140705F6
38F9E1E3
EEFC0CBA
EFC62B0D
180E06CA
0CC9FC19
1C2A35FB
011610FF
09F5101A
430F0DF1
18210C19
90DFE9FC
50F6CDF2
41130B03
FF0CD2F8
EC1201DE
10FDE3D8
3502F104
0DF230DC
FF0AFF20
EBFBE1D2
001F1A06
0AE7E318
C1EEFDFE
2ED7FDDC
2128EE13
0EFA1732
F711FFEE
2AF7D935
EEC7CF16
F6210347
FBFFF810
F411EAF6
035C43CB
E6D6050C
3EE00105
E2F5F4ED
0D1915F6
0D04FFC6
050FE32A
1AF6FA2A
25F5EDF8
BEBED6A8
F8ED112C
1E131523
C9E0F5EA
0DEBE615
3DE7CFF9
1B2DCF1F
D4D0F2DD
E609F148
080303FB
17DEF339
05DD05DF
F91DFB11
E4271B0E
2123F040
29E104F1
07FC16F5
1BCEE9FA
DB0513ED
EEFF1AEE
07F9F8ED
E5C2C7E2
4BF604F5
C40FE0EA
DE4C20D5
DCF71CD8
E8DEE706
EC17E635
24EDE62E
EEF102E5
271C0742
09BD09EA
F30B2418
253BF3EB
E2FC30B2
F015E1F5
01050B1E
D92F08C0
0D184FDE
EA3CCB07
DCD93AF6
04F5E60D
0CC63005
1832D3BF
5B0AFC51
FDF1EB1E
3EF4C8ED
0CF9F40F
080A04E4
EA1FF214
EB26E844
43BABD24
2C1314D9
FB230114
060AD922
C9DF17F4
EED323DF
B10BE3B2
0444BA35
710BAD13
1126F115
09130310
3FD9E634
EAF2DC24
011511EC
F709BC38
11E006B8
C437E40B
D7341AB3
3C37CF26
0919E84A
20133EE6
F90704C4
E8F8FBEC
F204FB06
3D58F312
1BDDDB1B
BE0142FB
FA100F27
F2F7DBDF
FEFFE437
0304C1F7
D80DDA07
FF110309
FB273305
30F8DC07
0E19EE08
0BF6280A
02250E18
36D707F2
051CF912

