08C8E3F3
FDDC1D25
E903361D
D4DFBF0F
0A15FC03
F1BFEAE1
12E0DF23
EDE503DF
081522F7
56F2D424
F8061319
0305EF3E
002ECAC0
BB3317CA
FBE41DD2
ED071025
D637F1E3
51021FE0
03D8D80A
26D5F94A
D01325F2
1B08F8F4
DAE2DCBB
3A25B009
F6FB12FB
08E61817
05E7EA12
FB121906
E61CC42A
ED36EB20
18110712
2ECA2C35
C61A0EF0
DEDDFEF7
CDF502F6
121E8EE0
08F807DD
E003FA31
E6DABA41
F4F63D68
05F72B09
F5FFF633
0BE90701
253B20C4
2C29FEF2
D52A35C6
F3FA14EE
06F81013
F405F718
1F230C35
E9E50124
D1024EEC
D21508F8
B204DEEA
5D0C03FA
143BD9FD
084942ED
0500EF2B
36FEFEAD
DA06182C
FB01EDDF
22240132
F4CABF30
13FB7BCF
F5F5FDF4
D91AF9BA
E8FB2423
FDEEE81A
E2FA09FF
0503E911
BD13D708
02F8D0FE
DBE7FEFE
0900C7FA
EF05F028
1307100F
05F103F2
CD1A2C13
C5F31CF3
F1FFF5C6
FAD046FB
E4F8FBE4
11E6FBE8
F0FCE515
F417E6F7
E4EED62A
EFF205CD
D90ABDD1
E922E3F6
13150FEB
2507F9DA
0381C9FF
09FEF6F3
160A0F07
EBFB021A
D6EBEB08
1727EBD7
F01514EE
0F28C216
EAFE0BFD
19DBE125
1AEE142F
02D103E6
2205D3E7
4218F8DB
0DED2B30
F62412CE
EAAAE808
10DEC008
3C35201E
53ED0E06
F5100C00
A0D0111A
13E40D11
E5C3FEF9
040906FD
E3FFEE29
EC20F415
131B11CA
DDEE1011
0CDAF7F3
17E7F2C9
C009FDF2
0EF8F100
12DB0B0A
0B18E4D7
EAEC1DEC
F4E30ED4
50E51AFC
F802DCF8
310CEEB2
090E1B05
F1EADD05
FDEDEF19
D703F213
1CFEECF7
C5D0FBD1
19F91426
76E9F718
0C2404F6
A03FCAE8
113330C8
5925F415
CAC5162E
7EFEEA1D
1919DFB6
5211FFDD
F8FCEC0F
EEEEFE1B
D84E0567
DC1329D1
0A071703
BE13FEC3
D2DF26F5
3EBF2315
F20C0F06
23FDD1FD
E8321AA5
E4CCE102
F83A264D
A80815FA
07E711EC
30F00B02
D8DBE50D
210AF1DD
062908C2
FB37EFF9
13DA25D0
E7F5F60E
F505EEED
E2041C35
EA49FC03
0E2FAC15
FF2AF6FE
9C0616F6
ECC5C229
532DEDB5
BFF4FE1D
F8C71B14
EA26E4F4
AA0F0C0F
FFEB1615
33F662E5
DADB6917
9DEC0AE0
200C0301
7EFECDFB
1C08FE47
E3FA08F7
E7D6C2EC
252AE216
1920FB12
403410E3
E8FE3669
22E6B802
EEFBE7D6
2DB5E529
11B0C4D4
D8FC05E3
1021E527
CC05F70D
0B1224F9
0FFC260D
F633EB3F
37BFFEF5
FC10DEE2
FED40EED
EE1111DD
02F6EDFC
11D5000A
18E214FD
F50CEBA6
1FE2EE06
FBEFD312
040D1815
DA34290C
EED3EDFE
D306E61D
302204F1
BF1709F8
FE1CD5DD
0317F9EE
D2BFDEDB
F00DF6E8
F5EF48ED
3EEA03C8
1402E704
D41716FF
1A05C0F2
F4D30D35
E4320C2F
EBE8F727
FFF3FDC7
FE1615F8
0C061EF1
F5C91E50
DDF2142E
FDE202FF
E51CFAD8
EF3314EC
FAFA191B
201AE1BC
3C1CFE04
FC340205
17D5101B
07DAE307
0BFB37F6
CBF7D6E4
EC16EE21
EAE8FFC7
480AD107
D3E8EE04
EDF1011C
FD01D228
FF0E1504
EDD00226
23F4F8F6
390BFE4D
08F50522
E8063A30
EFE9F409
082C003E
FD11FD07
19190698
3FFE1B25
E82EE20F
221C46BB
D61900CF
F1E0101E
1D35FFFB
0815CC1B
311A05F8
08E416E4
DE2EFE77
EAFEBCCC
03DF1B7D
EDE6F114
E131DA69
2AE6F4F5
FEE91BCC
0C40E8DE
0FD60C0F
0C310C19
0F1A0F44
1CF00018
FAECD816
24DAF70F
15F62500
032FCC03
EE1928C2
0F091BD3
01F0EBFA
FD0FDEF9
DA1DCE47
0114FDE1
FA0CF604
F2EE2DED
EBF2F4FC
D00E0701
F9E80FEB
10DE14FB
FB06F25D
ED1FE1F4
FFF0FAF6
DEC4FE0C
0AE6EFD0
F31401F8
1428F76B
FFDCD9FE
24E9E8E5
0BFC0B05
23D00BD3
CFE50AF8
BDF0ED21
ED3841DD
320CFB20
F5FAE512
FB04EF06
FB13F3DE
F6F1D306
0E312003
E2CD3D18
020E1233
EFEA0DD4
FE270BEE
F2EB02C4
300CF1EB
02D82D9D
FC04F6F7
0C20052A
D4F81C13
F71669D6
CCD3D609
DE2E1A1D
F6F325C2
2ED7BF12
1E0D4324
ECCEE409
FEF6D818
10EF1AE4
D1A9E4F0
0C071C27
F6092208
E6EF0C0F
F4F812FF
1026F198
FAF4D402
EC09FEBF
19152426
ED061B48
F6F02F36
13FAE624
050308E7
D1FC1CF6
000001CF
DBCA2CC0
FC0FD9EB
F21A48F0
FDEA15DD
F4D416F4
071302D5
FAEDD6C8
0D09FEB6
DCD416AD
0E0239D9
0107CE0A
41FACCE8
F2D4E4FA
13E2DF15
FF0D016F
ECED0CE1
1906FE24
D7FDF60F
F3110A7E
1EDC23EE
2837F3C9
061BE706
F21EFFDC
FBEA0318
0B06CB0B
FFCB06FB
0F17FBB6
13FC18E5
F706F522
F707D506
2246F1E8
0BE22227
F5D91531
20EB2914
CB0C31EC
0229EB2A
21E37EF7
0AF3D7DD
E7F9E7EB
F51FE5B6
0A270EF1
19F7FC2D
FA32F1E5
E6F848CD
52E6DFFF
00281DD9
F0B10FD8
E75AF504
F30BF9DF
FEE7FAF9
0D0F0DE9
32F20F17
DB131D15
FE2811F7
1215260F
2009E7FE
113D2052
FF2AE6B8
4F26E4ED
E0DC022C
06D62721
FD42CD07
00111FF4
FEDCAD02
F2C7EB13
F0DAED07
56013D39
F305F441
19FD0322
F405D82C
FAF527E9
17E9C6F3
FD44FC21
06E509F6
EF4209D2
0B0EF314
F9FFFACA
020A1F2C
0FE4DDEF
0210DC13
28F909EE
F14BFFE5
E901E5F8
EBE7FF02
F6E83CF9
E3F1F516
140335F7
03EBDBB3
B81C2316
EB0827F6
B2FCBA01
12DA0316
06FF32FC
0CEEED08
17EAFAF5
71DA0BD7
F90EF6E9
FEE125F4
DB2D1C1A
04FA0008
E40506FF
E5F2FC18
D9F3FB01
2EFDFAEB
FE000003
EFE7FDD2
092F0511
CDF40606
F524F60C
ECE30FF9
F602CD17
0608F506
F4FE030A
1BC30C34
EE0826F6
BDFA0BE3
FC071A11
D0E8D806
D42C2A36
0B252922
F2F112F0
0A01E22C
F33612BE
F0DE0503
C711E514
23001405
17F600D7
F7DB0309
ECE70705
0AED4C18
19D40701
0F0EF6D7
0C0F47DE
170304F8
0504F902
11D50618
EFFBDB2C
F4D5E4FA
050A02F8
BAF010E6
FA03ECFB
11E908EB
11F00C18
F5F4FFF9
03FDC923
3B19FD00
1AFB0C12
C6010F05
13F1021C
71E71621
1106C7E2
0E17FED4
405D19FA
1200F9CD
ECF20502
D8EEF610
C6E7EDF1
1CE71519
F6F7073C
F5DD2E0A
E323FBFB
F00F26F3
21F0145E
F6DAE7D7
FF2DF2C1
E2F4061F
4B05F3FB
00EDCD30
1640ECD8
BC1EEEF9
10AD1EC7
4B3ADAEE
0661EFF1
0A051503
FBDAD8D0
240F0B44
FCDAD4D3
FD060AD6
1C2EDFF4
FFCA0F0F
EAF8CBC4
15E4E9EB
FBD1F30D
F2F5E529
B0FD00F6
F303F226
EBEDFBED
2AF5151B
E5CA00FA
080E040B
1C1DEC1A
EEF42AE0
4018E2DA
0C17F9CD
08F6F60E
1D1501DA
F8D206EC
01F43D18
C9AB04A3
F501ECFC
07E0FD35
F714ED0A
040001F7
E80CF71A
18FFECBB
0B09E608
EC3BE621
F3FBFC2D
33FFB610
12F919F8
210AC8DF
E5001224
021315DA
05DB051B
F7F63A20
EBFDF111
0CF606DF
1B04E517
1AF90FF0
03F944CF
1A140EC6
C2EB2700
02F7F72C
1227EAEB
10EB3BFA
00180039
EC312109
D103EACE
2ED51B39
CBDC1600
1034E4E6
EA19ECD5
3DFFEAF1
1C07C2DB
1223BBE6
28D5FCEA
F95839DD
D70CF5ED
52F8FFE0
F02EF80B
1C0949BF
FB0AF91F
F138F3BB
28B50BEC
08F42109
011BCD07
0AFEDD16
F3D7E704
04252BF4
D2D8F60F
492C05EB
0C03DFF0
373222CD
0DCC3CF9
03F11623
FFFC47CB
4016DD13
E313EFF8
EECCFD03
231B09BC
2200CC13
F3FA063A
1C0FD714
EB0E0840
FA042407
05FF06FF
08D01E12
DFFDF445
F5CAEFF7
D800BCDC
7E105FDA
FB021606
101439B4
10FFEA30
CF04F0FF
DB1AFA01
E4F5E7E7
F0E30D09
26421818
E718FFEA
C8F8C801
05F802E3
294BFF05
F30209FB
BEF1E2F9
81F9EFDF
CD1C0C0E
E1FDD6CA
EDEEE20C
5BDB1D0C
16231BFA
C40527D2
F119110D
9400090B
EB03E117
81D3F90A
18E42C0F
0302EC11
DBCAEF05
6D1AFAF3
ED51062F
7E25D8C3
13FDF60B
4D060E17
04FB000E
3AAFF315
323439FC
81E80A47
EAF32600
08F2ED22
1449F635
7E01FAF6
EEF2EC21
7EE5FC13
0CFB131C
1FFAFB1C
09F6E1FA
03BCFEE6
063EFE0A
7EEFF9E0
F1DBF109
7A1714F3
CCC50FEB
7EFD0321
11FD03EA
1EEC31E1
135C043C
8114D7F8
EA00F213
75D10DF4
4036FFCF
3FCB12DE
36DC0E05
BFF0EAE0
F2DF0AED
1FCFEADB
2204EE01
5CDDF1FA
28071F2A
7710E0C4
EC20F3E6
FADAE5FA
2008E401
81250518
1203FC0B
860197DE
1A35E7FD
1F2435F4
0B00E5F3
CAFCF7FC
320DDE1C
1F40F428
FC1DF7FE
FC1F1EF0
ECEAF9F3
2127C8FE
FDEE06A8
FD112A1B
EEEDF2DF
1CF10402
0210041F
EB08E830
F11CD3F1
FB030719
0E0FF6D2
E511E318
2D02FACB
320AF8FE
2016E8F4
CFD9C91C
010140D1
0EDB33FB
0F0CAD0D
E9F3F50A
0BF62EF0
E0F50711
1973FFD8
B925E22A
32CEEA05
06B8E6DF
36FD290F
ECE5F6D7
02EF11F8
C3F4270B
E529F207
D80CF608
10151C35
D2013A0C
D3FC1B27
080701F1
1416EBFA
ECCFD8F2
2509D631
0DDA40E3
DDA518D2
E31A06F2
F1AF5028
14F25403
FFEF0F4A
03D4F612
FA27051B
2CFADF14
FE443EE0
161413C2
FFFCF8DB
18E8E704
EECAF53B
02F310F9
07EE12DD
CDF221FC
2CE3F119
162E1106
EECCD511

