F520F110
3110FEEC
FFD8CB12
F4F21930
11201701
FCFE0FDC
FF19E6F5
F3C42706
E0DDDCE9
EA18F726
EBDFF5F1
0C0733CD
FE06FDEB
150216DF
06531BF9
20011301
FE27F2FE
EA24E414
370224E2
470F38E9
FF6309ED
4EFDBE0B
00211046
B05DC9E1
272620FE
F70710FF
06D024CE
D819ECD1
E10EF20F
050906F6
E0B71201
E71319F5
DEF71BEB
0ABCC10B
07E210FB
C1FECD2B
06EA0819
0420DBE6
F6DED924
DD0419E5
F3F4F0EF
0529E0C9
F90CC2D2
E5E4DF10
F4510D06
0BDAFFF2
37F60228
F1C027FC
FD7D11E0
DFC1212C
1BDEF4E6
F20708C9
F414DA16
482C53E8
F1290343
0CE9C512
EF1121DB
F30944FB
D209F611
1115F503
F3E00C29
FDFA722A
2A3D2AE5
1FE1E9E5
1E00F8EB
21FCC401
ED3119DD
EBE91A2A
F5F916FA
03F7060A
0D3F031C
3A08B3F0
DE0FE6F9
FCF5E4FF
00D20D10
F1F6FA0C
FBE1F10C
DFFD1F0C
0910F22C
DDFC1903
1DCAF2F3
C0E1D4E3
18CA1519
F3D8FEF3
0BFA0B14
D7040704
0A0B010D
DDFC3CF2
16DA280F
10C36317
0B0731FF
0A05C01C
F0300418
302CDD0A
F6EA1219
C6F7CC12
FF120117
08121FF1
FFE7041E
FDF8E215
0004140A
E805FBFC
0E0C0B2C
15032C17
03EE19FE
EE041C21
1717020A
03E15414
1D40F716
FF17C30B
E30010F2
01FEED06
FFBC1D14
06045017
CFC9D424
03F42CE6
FB21050B
FDFD000B
0BF5F212
EE23E81B
0612F5FD
1FF60F01
EBFB0AFC
210511FC
F80CD61C
F1F0D6D5
F7D0D708
1BDB4BF4
1931C1E3
250DE4DE
3BE40FF6
104C27FB
EB28F40C
FE07F8FD
21F7E906
F205C0FF
DCF0F42B
01E6040C
F832C0E4
E5E8C621
F6CF1E0C
F0E64CF5
01FE31E1
07F104F9
222EDEC5
C924EAF5
D818FE28
FFEBF6EF
2102EB59
3EF1ECDE
F015E4E8
0636DFFD
BB3EF6E6
ECBB26C9
0A25DF12
260825DD
25E603C8
0E41410C
F7D5202F
EAD4E534
F928C930
FB0BFE0A
2BF211E4
091D1A1E
1F03F8DD
F61B31F2
FD170A00
9FE33313
04F6FC07
C910E814
50F209F9
F21C05D3
B0070BAF
DBE40602
F34AD7E8
22ED0A0F
15DC0CE8
1808DA0B
D7E0EEE6
1EE1E3E7
DEF91E55
DFD1F7E8
0C5309BB
151723D3
FFFFC25D
0C1CF4FA
10D61215
E4EFFAF8
B9F8D8F9
2DC31FDD
0CE907D7
EC2CDEEF
35EF2920
1327E230
D7BEF60A
4FD3D1E0
DDB42B51
3B520E04
F4D912C1
FA04EFF9
1B0F15E9
E3DA4109
B72811C6
CE102915
FA0BD6E9
0729EDFD
26121ED9
0BE327F3
3316E1EE
030E2E0A
F70FFE06
FD301CF4
D9E63E3C
0F69F214
F6DED812
EB24E90C
FA1AFFEB
C8053307
DC15E10E
FA0A09D5
FF15DE01
08FAD5D1
D8E81D01
3BD4E2F9
DFE43718
33531F01
0ADECBD2
0CF6240E
BF2D0AF6
EC0129FC
E5102507
35F713F2
F7C63B24
4B29FD1B
F40C0506
1B04D24F
EF260006
1312EC15
EA152C08
0714FDEF
E0070FFA
20061FC1
A6D9D20A
10259F04
17E64E27
F919E612
36D2CAE5
C8320E46
D329D3C1
48E23CF4
DB00F2D5
EDE125E9
0927EC07
EA04E7DD
EFD1E805
000904F1
FF2DF404
BADE1519
E139FD19
0FE506E2
1711FE08
F0F828DD
19ECE7F1
0FEA13E2
10F51535
E60E0FF4
0E0406EC
04070AE0
E30FEE0E
E8D7410B
ECC7F7F6
0DFB29ED
13CDFB04
E80FB209
FFDBD1F4
F51E2517
0B0D08EB
00EDF0ED
0FF1DD02
1C3A33E5
F5F5E4E3
29164FF9
EDDF10EE
ECE8F9F7
0219F90A
D6F544DD
F9E11307
DEFBE5E3
0B0D0417
00FDFA00
FFE0FC0A
F6188B16
DBE1ED3A
10FEE912
FD09010C
F50515F5
0918E8FC
F3F99EBA
0D0B0019
D70337CF
FA1415F8
15040E01
130505EA
E3F739EC
080B1607
171510FB
EE01071C
24E81EE4
0C100605
06162907
07F3E821
D9166E00
E4E2FEE6
0600BF14
01E5E400
D12448F1
DD23F4EF
0A15E9FB
3A080327
F1F93018
16D82AFB
0D12F1DE
D207F629
0E330BB8
F8DD280C
F91F1FF0
1CF5010E
03F8DEEA
1C1025B3
E50EAF0F
F8C34C37
3121EF0C
E51B2F3A
F915FBC6
F0102F13
04FAD8F7
FE232631
28FEC5C7
EA373BE7
EC240FF1
01F6CC0F
11EB20E4
FBE2EFA1
1D1AD32E
ED4CF8BB
1F063DDE
13FD010E
00F20CE9
09150F30
351C0BFA
D1A4F326
20F82E06
1CED0A4C
EA0DA6E0
1BED2223
EFF6FB1B
FCFF0CEF
1F090FFA
2B18D62A
1F00F1B0
CDF7B9E9
07050309
2533BFF9
E8D6023F
F2B2F896
1AE91BEB
EBED46A3
DF01111A
C840E1A6
D1E9260C
11F32333
0090DD07
071E2ED3
E4CE2BC3
0529F9C1
1BCD1AE5
031FC825
14E30AE4
F920D13E
33D4F8BA
ED31FE31
D41911FB
0EFAE109
E111FBE9
EF20482E
E5F421D3
E0F608F6
D0CEC2E0
E224E3EB
0618C0EB
18D000D9
12ACE0F4
2833E908
EC02F2E2
E50DE6B8
FD2D26CF
F309F3FF
DBD5DA21
DCCAE4ED
1519DD20
41E9C243
AC04DD46
DC201657
143501FA
1AFDFF12
21E10AEA
DC0008F8
D00432FB
F61DE82E
F4C004DE
F616D8EA
26B117ED
0B4408F1
29FFFE14
18F90414
DAECE604
08CB0D1D
1F150DE1
B1BE09A8
02F6F2DF
F60510CF
88E5DBEC
F4F500FC
B3FED40F
F6E010F9
0B0A51FC
DAE5D6D8
FB0F01FA
CCDE17FC
FDFB030D
0E370C01
08F60F22
F7FED437
D8E800CD
F00A61F3
2FCB13E8
274B1A8D
3CF0F020
10F83805
F918050E
071927C1
0B04E90A
34271F21
6AECE635
19FCFBF4
3429C3DE
272E1AC2
CBF31A12
0C090DF8
0500F501
F7FBDC05
E0FEE1F6
2B270420
0AE1FE15
E5E4FDF6
E6162203
FD0016EB
01FCF2FA
1610CD11
EE00FCE9
010F05EF
F400F005
DDE0F000
F520EBF8
FF23FEE8
FFFA2F03
202BFFFC
00FDF307
26F6ED02
1D02141B
F0FEF3E0
32B81A21
09FF1015
ECE535D1
FC14050D
0CFEFFF2
1CFC15F7
01091A02
0D06EA14
3924CBCF
062CF723
E5DFD8FC
FBF9FA08
02F629EB
19DA372B
27BD250F
EAD5F6F3
112FE722
05E2EDE7
040CF713
DE141800
CF033AFB
E80804FE
0C8ED8F3
1C050CE3
E9010EE2
08EA04E4
15F0010B
FAC315B2
340949D9
DFFE15F4
1B1A0AFE
06041502
F6051C0E
EB20EDE5
F5DCEF07
F7EE01EA
E823CE10
F9F90CF2
FD07FEE5
E527F40F
A32C2216
1B1AFAF1
2105E11A
1CF321FF
FA21E7ED
19FFF2F3
0E1DB9ED
F61409F9
15180A13
E9E42802
022CF0FD
F8C11C0D
C4F341F1
FAF4454C
0AF82512
E732E1FA
DEF24CF9
0DE2FA0D
11EFF90B
1700E8ED
20CAC5E0
F823D0F4
0B31BCDE
04FBE116
130015FF
1EFD0309
F807F5F4
0811B807
0DEFC71F
173136FD
28E815E1
02F60E24
D9DED721
24E5EA0F
342809D8
FAFF0411
0FF4DEFB
0B0DE30C
ED02FDDF
FA1C03EC
F2F02B29
17F8E224
DAD9190B
161308ED
E20F120F
17FE07EF
24DFB930
01DF25E5
11E5F802
FDF9EBF0
F002E5F8
01F6C4EA
170EDBD3
FEF1F014
DDD759F2
F816FC03
F1F7AADA
04BF08ED
4802D2BE
F402F21A
E3EFE0F5
2809101A
D8E418E7
1925E10F
2F04F0E9
12134500
FC40F312
DF0CDD3B
F434F70D
0B33FCB0
22170B1C
FF0B5223
FA3B36E8
213C0116
F4EE22F4
D20FD1D3
4904E239
1ADE2826
E627D90D
FE0B0020
F6042134
C381EEEF
E772C52B
0502E624
F806E308
CBDBFDFE
1D473705
0A13E7EE
28C3F104
25F21615
17153EE4
1D0233CD
11073111
2B181503
1613FDBA
02F312DD
1CB6CDE3
0FDB01EA
293757E5
04FAE659
CF10F3BD
FC161FFE
082B21FA
9AD003F0
05F21600
04E70809
32BF12FA
FCE6173C
27F00120
2A1F410E
F520F101
ADF0E034
02D61AF3
F41BCE37
11B51902
19E30AF2
061707DC
E5063ED7
E9F7FF03
B9C926D0
E9CE15E2
E1DFD51B
F0EDCD5D
A6FCF6D1
2907D4E4
FEBDBB81
E6080F2C
FAFFEB2F
0EEBFB28
BAE411ED
FAF502F9
E4C90E0A
F409320A
AB313416
23C6E6EC
C78117DE
FF36E805
28FD15F7
010D0CFD
F405FEF5
03FA090D
1214B9EE
DF0E0C03
DCDAFF1D
D9F716EA
09E943F0
17EB020B
EAEF21F7
FCF5F345
21DB21FD
E2F31805
082E9C1B
06D003E4
41C4A935
3F182FF4
1710E2FD
FBECFD08
F503C337
0AFEE820
1FC205BF
FD2803D4
CB2DC039
03D63EFF
23E0FB45
F90D1E29
19B10EDF
E91F00E9
F7D0FD0B
22D009DF
FD1AFFFD
070CFDE7
160B0815
F107E002
B82B0809
10DC1AEE
03C7DF02
F6050BFD
FBDF04FE
F103E406
0B03E91C
F4121B02
2CEE28D5
D72D0FFA
EFD0E925
03E915B9
E01405FA
2104ECE2
0AE1E6F2
FF2B0A1E
FB0D042F
DCE1FCDD
DEE30CB2
0209F8E6
080113E3
01E90DF8
ECDEFDCE
001A4504
3A053AE1
0EF4CF1F
031B0A31
1625E7EA
09E9FAF9
00EBFBDF
F607C632
1BFD2303
0B231113
0CE81405
1F30D926
E2F2DD0F
14172511
F6CF0B4B
3005FB2F
F0FEEE64
DE3708DA
0608300B
F5E704FE
CE1AE10F
1DF81E03
282936EB
B5A3B90D
30EC3445
05D51001
E5011001
05E4FE1B
F7D95040
E427272F
08F93935
0BF4182D
2AFF170A
B419F7F3
F7F71D0F
08F81615
19EB1B01
E8E427F8
FF2ED444
2F25D6E9
E0E213E1
35331A16
D20BC5E0
41FAFD17
B920EB25
3D140B1B
BF03F4E6
FDE42929
F9090BF2
BDEACFD0
EED6C022
18172425
0EF51C08
1CCDF52C
E20A0609
39FC04FD
0929F913
F221FEFD
31251306
EEF40B21
0300F1D7

