C0D2E5D9
D828DFDE
0DE13E25
00E7F019
08012712
DB32061C
06FA37C7
D0C1F62A
FFF71222
F31DFA04
0A1BCE02
EFF915F1
21EE1C02
470A4AF2
00DF1503
EB314317
E8E9D41C
2E1821F8
17E42336
EAE91BF5
BE11F6E7
2428CAF1
0B0EF3D5
29F13AFE
16461021
A60324F0
D1342705
C6CAB6DE
EF172B09
13F11BD1
DFE9EDF3
3AD82801
2AEE1DF8
E1260D0A
1E08F92A
18E600EF
2CFB1A12
0FE6EBF2
0A03FBE8
DD0BD312
071DF01C
3C09FF35
D3D5212F
5B06B2E1
E2D61EDC
2CE3BDFE
FC144130
0DD93CA7
DF1E0F24
CBD9EE05
0D1A13D2
5C02F2D9
0202D828
10DFBFE9
F41E1710
F70A0DE4
EAFAEEBF
F43C2D22
13F62706
FADE2F13
431103F6
011FDEEE
1D01F2BE
41D8CF1E
1517FE1E
1BE8E5FA
110C0810
12162A1A
14DFF413
C40930B1
14E8001A
EBF8F8FC
18FAB811
07DA0008
0601071C
1513FC1F
FEFFEF0A
F800F9FC
0B222402
EAFFE404
FF1C01CC
16BE0FE9
1005C212
01F8EC1E
0F251734
A313E3F6
CEBE29F0
FCE5DCF5
0716DCFD
0AF50117
E51D0CC2
1FFE182A
FCED0B25
EDE6FCEA
F7F2E503
EDFEE410
F9E30019
11F90803
0BEBF9D2
041E18E1
04E62BBC
F5BAE0F4
B2F0CD02
E513EFD2
D2E11230
0AE0FDE1
F1EEEEFD
F925F906
010CD6E0
F42DEF10
EEF03669
D4D614BE
08E0CC01
1705F20E
082303F2
E60EF119
12E6012A
041A1AF1
07EC1FF7
F613DAE7
12DC6406
2E56091F
FAB808EA
EA1F25FC
11E2B70E
D928D52E
F4E802F5
1CFC2FD3
11E30AF2
EFF6D906
E71002ED
D2DDF0EF
F830F803
2E2EFF28
DD05061F
F9460FE9
FA09FDF7
5AF30AF9
06030CEB
09FB01F9
220421CF
0106DCC9
1FD8D6D6
3BFF420A
DD0E62CF
17E90550
0DF20016
25CB27FD
212BC508
16C12311
E5FAFDEF
02DCECED
C02E0FCC
F1DE28ED
EFDE36F6
62120C03
110835FD
001ED814
30040513
05460701
2DFCE0EB
CBE8CE30
0DF7FDDE
0331FE2C
19F8D2FA
03E1E5F9
151314EF
0225DE31
382F1D15
EE0A0502
FF162842
EDF516BF
FD190007
EC38F122
2C0EDADB
F1063B1A
123EDED7
1ADB1225
0102EFDC
F91EE729
130B1729
182B34F1
D0F1FFF1
EDECCD1A
2304CB0A
22191B21
F103D6FD
32FFE406
3FEF19EF
E9E6F107
51E5031B
0415ED1F
FB4225DE
CAF9EBF2
EFAEFB18
0334EF1B
FD380137
16D816C3
E41C0B05
5045DB0F
FBE9D24E
D41F0537
1EC811D2
04060008
FF16F60C
D1DB0D17
BCDB484F
4A120139
ECF9E430
FD3DF204
EC27FBEB
0FCE7E27
6532FBE3
BC5BCF2B
F6F7071D
18D702E9
E5EF0FE9
F2EE2906
47D0F21B
EFE30FCE
45F3F5C0
EC18F003
00F311F3
0CDDF114
2908CB18
E30E180B
300FF624
FBCFF602
3301E600
2B06E0F5
05F6CC1D
240216E1
09F2E7FC
D80CF3E4
E316F416
1B1943F8
FA210FE0
50F0CC11
07016D0F
EEEC0CFC
36052F3C
15DC16F7
F4D5DCF1
08DA160A
00ECF6FA
07FACC02
CE15E439
EDFF5519
2AD6F960
C4F7F602
D1230DF9
15FA1BD5
FB070C28
2D0035E3
22C8FBC9
F2092EFC
0F100606
0434E40A
18090CD2
0F031E16
CEE94559
F2080003
15E4FAEF
0DFD000F
DE174020
041CF5F8
FA23B71C
1C051EEA
DBECF9FA
FA200708
19F5E5D7
240E0F09
EFD6EFD0
2AE6FD14
EC0BC322
F5F7FE06
221C1510
0F0F0002
D2F70325
22FB18F1
CA0F082F
1ACC2436
E7FDF814
D014140E
0605E3F4
DCBFD40A
FAFE1B0F
19F3FE00
1C010829
D308F7DC
FB5D1DC2
2609DEF1
E302DDEE
E4DB1A3E
E8250AB4
2AEE11F1
E1210A09
F8050803
EF260918
46EEF01C
F026F81C
1BC8D909
0E3EC6DA
FD1C07E3
FC4FEF08
EC0AF3F3
284BFE0D
080AFFE9
DD210D14
FF100100
15041AD4
EA260AF0
E526FD17
161B27F1
FEE8FEF6
FD1BAF0D
04FF0E1F
E90001F7
CF0612FF
CFF3E8F7
E7E0EEFF
FF1602EB
EC27152C
283E4EED
F8092B0C
02E8F604
C1FDE6D2
EEABED26
4A1EEA00
EEB70349
BDDD1A0D
0810D329
05FC1FED
00181009
B7B5FAFA
FFC4F613
0B92FFF5
0BE7D1F0
0A1D1307
151FEF00
05E9E733
202BB4EF
DF18D7F8
CECFDCFC
0607D0E8
D70AC939
FFD32304
F9C30FED
F2F103FC
0CCC2911
F8FFF603
0DEDBC22
F307EDEE
D52423B0
F010E812
2538CA03
2B0AFF1C
F30F0EE4
F7FA091C
FA21D42D
ED0B1331
EECFF306
2C202907
C1F6F004
1C2EF71A
E7F0F904
E5D72330
282CFFC2
DAEDFD00
1600E601
CCF83546
DE35FFED
E2F2E614
233DD9EA
FB04F522
D5E53510
FF03F63C
CE24D2FB
FEDE12D3
EBE7E63B
3D01F7F0
EB0BCC6B
2D35FF07
DD4BFD0F
6317C3D4
DB090CB6
05EF4162
AA310050
033E4516
C8C010F8
1C0EF527
36ECE5C7
E01712B7
F6E6D9FF
05E5E200
1DF102DF
301C1929
2B1700F6
EA2A2B32
D9DEEF06
E5EFE0F7
F8362FD5
283EE589
E55AFFFD
061D1304
2748DD08
F1141409
0617BE61
0CD1F505
FE14FBEE
E4D80EE1
CFF73D09
161DDB2D
12EEFEFA
0FE922CE
A9C51B09
FB0D05F3
0EC5FBE5
2F151A23
96CD21C7
F807DE02
B5381F43
35B9DA28
09F50E06
06D130FA
3A0D1DE6
EA21DB16
E8EBE546
1212F815
F0E53C35
EB1EE93A
08FBCF04
12EC28CA
0126E10E
E1CA19E1
23D6E1C6
3353C50A
E2E5A8CE
DC0034D1
F6B8FDDD
52B9C20F
141A1D63
30E6E62C
02B9FF1B
0A22ECEF
10E306DB
0305090E
DCD1D824
11C8F9EE
FEF30EF2
DFDA0906
E8F2F7ED
D32F0819
0AEFABF5
E7F1E3F2
0905D617
C417FAE1
2534CD11
0419F2E2
FD08020A
F62C1F10
280908A1
F704222E
DBC4F0FB
020E071A
12F60F13
C909DEDC
E119EA10
0DFFDEF0
CAD03524
2017F8EC
000A1AF2
35F61309
CFD2B2EB
0DDF062F
EB1F160E
E0E1FDDD
F6E20D01
1CF5F900
07D3D5E7
E3FE1007
F7F7EFE9
FBE4EF00
FECB1005
F70C250A
DA0BE2EE
08FE0852
BE12102A
0302DC16
04CE1F27
F61EEF0E
FDE91F13
FEE91518
07EA04FA
0C04DAD3
E204E9CE
EA031DFE
02FBE60A
FD09160B
32D706B5
FC1705EB
F31CF5EF
45E20F06
13EB47E7
D719F40A
FBFD0B1B
E0F60904
040716EB
CC09041A
1C0B040A
E5283F2A
BD270181
C911FBC9
23D843E2
E7E4EDE8
240A10F2
D614EC10
C9E01403
F3CC2CD0
BFF701F3
04F7131F
03104D2D
090D1B1F
FBEC1625
3BEBD01F
1EBD45E7
EDFC0734
1A092D37
275E1607
273BDA04
F64519FB
24083AD5
F208E3EE
25F60BF1
F2F0D32A
180AF6D8
02F4F2F3
1E2CEC05
E24EEC0D
39C50C0B
19F50C06
4EE90802
F1321BEF
19211F1E
26F7FF0D
EBE731FC
12F0E806
FBEBF50D
0721C528
F615E6D8
E109162B
F9DE13F5
2DD1D330
F6EE0333
EC1A08FF
DEF2F9FE
02D0160D
D73DFB14
E6DEF9E9
1AE307E7
21E8E5ED
57C515F3
0E3015F2
D7131918
EF12FDF3
F0EBE7D0
29D7F4D7
38CBFD1C
26F22EF4
43C54439
F7160930
07D41C17
F41D170F
F50B0D06
F0132EC5
192D1002
EC29F205
19FD0214
17D4DF21
C1DB2406
E612E8EC
E009F23E
F6CFFFF3
0FF6F202
25DBCC17
1820C095
25C817F1
0412F4FA
1639639D
1E04130C
FB411B03
CA1DF8F4
D92B08F5
CF0706C5
261904FB
2D59020C
3D08CD3A
2227FCDE
1AEF0F40
FF13061E
D4E4E951
0FF82723
3511D9E3
E3EF1122
F1FABE50
D32A2BE9
0815281A
D8EB0D1E
4DE7E0F0
BB1504EA
200FF645
001AF42D
FB5302F9
0414D003
E81A22E7
55FF23FC
4BCE2DFA
321BF5F3
FC3C0EBD
C9CC17E9
3CFAF51D
F11DE230
D316C64D
65C82D1D
E0E8CF07
1739DE16
54D74FF5
C8F150EC
F6221410
1E18FC19
E8F12F60
E7E82419
02DE4614
C719DDC5
BEDFEDCF
1925FF3E
222B1A20
1C13DA74
09F609F5
0DDCE2FA
03EBCAE3
D7E513F1
FA1CE415
06FC1DF2
F1FBD5F2
EBF0F10D
0807F040
D0FEDBEF
FFDCC0C4
45E0C308
1EFDEA1F
DC120CE9
FEE6EAB3
10F5302A
F0130E06
FAECEDF1
FC02EC0D
FA000018
3A043711
09CFF9EF
1203E616
0EE40400
1C0A11F0
21EF0D11
C8F628DA
E6E0CFF2
EDEB03F2
DA150411
07EE28FE
E4EC143E
26130F1D
D8C8D310
0717F221
F9CFE3FD
06F5DE1D
210CF8ED
0C11DA07
18EBFEEA
04EED8DC
F305F0D9
54FE3AF5
20EE04EF
024F130C
1EDF110E
06DE37FD
3FD1FEE6
F9EF06E6
22F10CE3
0D15F5FE
0A1C01F6
06FCD8F8
1F022609
0C06F4E5
F920E7EB
D4EDD1CA
0612DCFA
04200C15
FF0D06FE
0DCECF05
F9F9ED08
0E1CD4D0
EC0FED1D
326EFBF0
E2030922
0601520D
420DC4EE
1BC303DF
23D7D71C
04F606D9
07FC2B20
F0FC1AF6
2918EFFD
0814F801
E3F3E427
03CBF2F3
3311E926
18FEEBF4
0DFD2400
1022E50D
FF220EF4
28F607F5
0AE64EC9
DAF32E20
E514FF45
EC011BDF
F1010806
B80A1BFA
01FFFFE6
D4C2DE3C
D5BF27FD
01C6DB15
FE1AEE16
D61047EE
05F0FB08
DBFA590E
27FB14F8
0EBFF031
10EF2703
2EDA1207
FBF3FBF8
1622171A
D72BFF21
FF090905
EFFBF302
EF01351E
48F6F5DD
CAFFED14
2D0E06D2
2FEF02ED
12EE1310
EB040914
F8FC18ED
06F134D5
CEE14BF2
0418160D
FD1DE00B
1A07C817
EE31F8F3
34BBF9F2
E827E4FF
EE2716ED
1F30F2F7
25F6142F
FA0413DE
0FF2D10A
08F902F7
0BF4DD27
2AF829D0

