D9DB2A46
23ED20B7
F2E30CF7
1C1DE6DE
49D719F8
28000F1F
F407E50C
0DD60C01
0AE8E8EC
9726BB3F
12EBEE2A
EB1AE70B
9E11CBD4
E6ED3DF1
FA06F708
C9130C27
BD1EEF0E
FB170FF7
1411E6CB
C2131FE8
06D0D5DA
1AFDFF13
3FBD021C
0424F010
0DECDF00
100517F7
C2313615
1903CEBB
FAD81DE1
F508E0FA
D2FB01EB
1D0B010B
2A04400C
FD13FE27
EED72803
9EFEF64C
0200160E
E8F0EEEA
F8EF08AF
1B0206E0
3E2EBECF
25EF1CD6
3302CECB
1E29FBF5
150AFFE4
11F01AFC
0ED010F3
C00D0801
1D020CF1
2AFC07E1
C2D0E9ED
E729190F
FB1EF0F2
FB000B0B
03FC3CD7
2B202B47
01F43636
0BA1EFE5
09CA4500
1F0504EC
FAD5FEF7
F40506E0
1CF1E6E7
170847F1
04EDF204
08014E0F
CB0B1807
F501DF17
02FAE0F3
EBF1F6DD
FE01E90C
FEE7EC14
DBD0E31E
E1FBFD2E
EEF7D814
15DEDDE9
F7F5EDF0
20BF1809
D20126E3
1B3B22FF
F62C161A
D9FE1CC2
F9172DC6
07E9C82A
05F5FD08
DEFEEC21
14E2EBEA
230E2618
29CB0623
ECECD4F5
020FDFF4
CAE6D0E5
2BD32207
3A3BECFE
F1C6FA20
D7EBE51B
D1D9261F
F81AF238
EF0201FC
D0F7EB04
F30E10E2
DBFC0FE3
E0E618FE
43194E08
0C161E02
28ECF132
D9C636DF
94051BE8
0BDAF021
03D305F6
15F8200F
0CF617EA
D7F3120A
E211E90B
203E050A
17110ADC
02011715
F4E8DAFF
FBF442FD
2B12F10E
BF15F00A
2105FDD5
19F00FDE
F8051203
171630C0
0F101916
084BD4E2
271A31F9
0315E810
33FB1CDA
F2F0D00B
FEF9E2F8
2730240E
0DF2FD03
EADB0512
D9FA0C16
412BCE1C
EAF63029
2C0DD21B
1DECF01F
1343C114
1317162A
0017130B
0106E926
D9CB260B
DE091003
D4060615
080F4102
87E70218
FB36F8D7
4604F2D7
C81A1502
0EE6C003
D62112FD
EDDA2722
0514FC0D
CCE9F817
02C93003
E943CDF2
13F4DB1F
F9F00BE7
06E7F018
C9060AD5
F5F101DD
0208EACA
DDF5C700
3E51BFF5
F317DC1B
12EBFB09
F90E06FC
F6F80928
0838F83B
B834DE09
E902F8EC
EA1DE1F3
1CF417F5
F6EAEBFD
051113F5
1720FB0B
0508DDF8
310A0AEA
F4E6EDF5
ED253809
D2FBE20C
E9C4D805
05D1F1F4
1CF5E019
2CEED9F0
3B05FC36
F72832CB
BB2DE913
F905F1D5
D74AF0E0
07F0D544
F6FBE8F5
4126EBF7
2710E70D
D014CBEE
EFF90A10
02FCFC17
EBD8EF45
12F9CF0B
1A37B2D7
0A045CE0
FEFC18DA
ED0826E4
37302401
D4F1D7E3
E4ADF81E
E6F6C608
DF03080F
360AEF0C
26092A0C
02E2A8FC
E4FB1C07
EC0A05E2
01D4E82F
AAD60EFE
1D0019C3
1B052D3E
ED0FEE0E
ECC7EC2D
F91FC92A
EFD8062E
32D9170D
272EFF1A
E710FD30
38D72118
E205BB10
07100E0F
34FCCCC9
ECDFF7DD
EA2BFD0D
57E7E80D
1400E321
E1DEF710
1D4314D4
2BF035C7
070B0406
F72B09E8
F3F7FF1D
E515DB00
1A002ACD
17F728F7
1808C53C
DA08F522
432D27B9
FD2CC891
2810FB0D
070BFDDB
EF09FAFB
F5B1ED33
C41B090C
4F20F6F4
16024705
1241EA13
2309144D
EE0CD4FE
02E838F1
F9F209F5
13EA101A
FAE40B1B
FDC7F511
1DBEED06
03111CF6
17F6191B
202D1900
E9F729FD
1F071213
EB0514F3
2142BD0E
FA0D23F3
04D3EAF2
F0CE0EF3
CAB94FE6
2E041126
DE05541A
1908F517
1CE72500
1720E4C5
E7D41DF9
1502F3EE
F9FE1025
0B1CFEDA
1045FFF9
F412040C
F3121503
26E4ED5A
F21FDEF8
ECE4F7F4
F7FBD6F1
11EDF7D8
08F61B10
F41305C3
EC2BD6E7
BDF8FEFC
EFF2E5EE
F1DF0CD9
20D4DC01
24F908FB
0416FADC
1B08E71F
E6D33828
13021B0C
F1091AF8
26F5F200
020508DC
EFFAF9E7
03FA4C09
F5FD2229
092EF406
0BCAF701
2AD24415
0CC7FB12
011ACA30
FEFFEBDB
F8F8FCF4
19F306F8
24292403
DCFA1812
E914FCDC
1DF5EAFE
05C5D9E6
39E71CE3
2DF5D5ED
122EEFEA
1BF7FB03
07D7011A
31FC10EE
FF2DF406
AC12D1EB
ECEBD0DC
1C29EA05
14080EBA
FFED070E
E10CE735
FAFCE2F3
3F20E609
EB0ACB20
D1FAE030
B51A00E1
E219E421
00164DEF
53E5732B
13390A4D
D71F102B
0B15081B
D029D9D9
DF1910B9
FEEBE0F3
ECEB2210
15DB1DD6
E119FE07
01F6CDE5
2709000D
201DE9EE
38EFC52C
1341F811
0CE4E718
E64B1F0A
C915C923
1E67E9F5
D315E9E2
0024FE1B
0914FDEC
0906FD06
CE311930
2521D818
C715B40E
F947F41C
0721E308
1827DE14
11F4100A
30FB30F8
0B04E5AA
12CA0CF2
F7BC05EB
09FD11E7
20162826
EE080620
4B8701D8
083C1AD4
F71F05EA
03400823
F230D7D6
29AC5C2B
17E8F01C
6C350AFD
242FDFE5
FAF307F4
E85E20F2
21ED2E16
1B06CCFD
FCFBFCEE
07BD07FF
D40CE7E3
E933ECBC
1BE70116
BFE5F501
B02AB3F3
0314F6CC
05EA2002
F4F2CCDF
1EE358E8
F21613EB
1AFE3EF3
D208F3F4
0EE41125
C4FADBE9
D310EB00
C4BF4855
18F948C7
FC1EBD07
CCF4EB03
2D01DDFA
14E3C90E
2F1603F3
1302FA0F
BBF50F09
41FFACFB
BDEAE904
5BCBC82A
E90EEE11
FCDED10B
301708EC
FA3408EE
3E12C4D7
20E8AD4E
121417E9
2EFF0DD2
EAFDEB15
00FA153C
46B6E6C7
23296836
EC21E823
C5FE37D7
48DB01E3
269FB70D
FEF9E95D
CFF9F012
2D0AC922
E92D43DB
313FB30A
FD080AB4
102BFA2B
FDF0341B
D040E608
F61A0D1A
030B06FA
0705F514
17E5EA09
14150E2C
00001713
C2D21EDE
F7D906FA
0AFCEFE0
1AF402F5
140B0214
F0E90EF8
2102EBF9
F8F0EF04
E7FFF8FD
F32211FE
FD0FFD1F
1408E80C
06FA1A13
0A051103
0D0A050E
2BE1004A
3F3B1836
2BEAD524
441030F2
E82E05DC
F95CFEE7
2DE5CBFD
18032FF9
FD143CF2
F7240300
BD1927F9
0DF53DD0
090A00F2
16F701FA
F6FCD5FD
E202F4FD
E7F5FB17
0E44EBE5
0637F6FE
0A04F535
F61B0F12
1AD4F816
F9F81D04
FCC11603
B41EEA35
1E0327DA
121FD9CD
F40A1AD4
FEF519F6
06F7F507
152C1DD9
EA02FD4A
21061809
23F6E906
FFF9FF06
FD0DFB27
EDAC1123
FCF21526
078F0C2B
E2FDBEDF
F6F00601
10F2EC02
F6EBF30A
34010A29
0EE2BBE6
090EF0FF
DFF7E20E
EFFB1B37
1323E7FB
E4F3031C
F41DEFE7
2110F2FE
D2F5FF10
F7CDEFE7
580135F8
20F608F5
E6BCD906
CA30B136
1DF4EC3C
1F0BF110
D5EFB53B
190FD120
0E0C140D
0613FC2D
E6ECE022
18ED17F4
D60E0DDC
DE2626EC
FDF61808
020D34F3
F6F0EFE8
2903EA1E
DFE8DC01
07FC2908
EFFFEA02
090BF6EB
380C1A0F
3A21DFF1
29C2F3F0
C308F3F8
1CF509EC
00EAFCE4
EFF8FB02
2108E1ED
C70BF3F1
F555D2B0
C8F2D70F
0353F140
DB1135D8
DA2F04EB
DF38F403
1EFD10FE
1DF7F7DB
05FB080E
CA231CAC
F838FF0C
B0B62905
D7E40039
09DA07FB
0EFEF503
F30519F1
E6EDF203
09EFE82C
20EEFD02
C830EA06
240E19F5
FC260F16
16FFF0DE
F1D3DAF6
C90AF1F8
F8302010
F818B7F4
EF194E16
013F3719
36671CF1
09025B11
14150EE6
0317F4F0
1501DBF3
23D3FC02
1B041A0D
27DED9FD
F2B00223
16F5E5B7
00D5CE06
79C108F1
4625CFFA
F80B04F2
D0243E12
12DBF5E9
F730F60B
07D65218
C4DFF803
B60F4825
3134D6FE
0039ECC9
EF0B0D01
C9121BFC
E03A1F34
21F2FC11
E9E5B5F8
F213DC15
F8EB40DA
0905D224
17C4510A
0B081B11
D1F602F7
D610281D
1608F321
1D44F138
1CF705F1
F6032909
21C3DBDA
2BE901E9
3AD039FD
2B27D624
FCF0EF28
2710E2F6
1622E510
F80A3DE7
A5E9F61E
1D101129
F1F7D7EA
923DCEF3
A505B8DC
D132BB19
E0BEED18
F2F3FFE0
D5DADF44
EA234F1C
00061CF3
0500200B
F1F7F107
E109EF0B
17ED1611
FCF6FDEB
19CBF1E2
E51DB5E0
090C07DB
2715E2EE
0B0CFB10
22FB1613
DE081404
02EEE535
E341500E
EDF12BC9
DF300B07
E50BDCD6
FEFDF3F1
FBF13302
00EAF919
CD031B13
E2B8E715
2D02C30F
2CE8F9EB
E51BE9ED
F9DEECD4
F83424CC
0CF9F3DE
FAF315FD
04050200
02FBEDDE
E9352B2F
D44F2EF8
0A17F700
49F1E618
0AEBFAFB
2AFC1904
FE21EFD9
FC1B11DB
0C0A5C1B
AA1CE717
F6D11CF5
25EBFBFB
05F61DD3
00DF29F3
070E46D9
ECDC0DFD
09E557FC
E1E934E7
1208F5EF
FD0CD2F3
07F1F9F2
EDF50EFA
ECF3F418
14F2F31C
1DFC5110
E1FFE2F6
0FCD13E7
0B093AFE
0A08FCF5
061CF1E6
04DEEE21
12060720
EAEB09EE
BFF1F216
EDF4F912
1E14F2C3
EF0DE1FF
23E81B1A
FB063C1F
CBEF221B
2F4D631C
2EF134ED
EF0FF3FE
F314E42B
E133E6F6
032EC71A
1AFF38F6
01F3FA15
2E051CDB
24080105
C2F81526
231214D9
DA1115F6
18D74615
01103B19
BB0303DD
17E1F519
F5FB180C
0B1C0718
2F0BFBE5
B6472918
B606E9E7
D8EFE9C6
FEE00B45
D010DDFE
F810C300
E0F4090D
FCFDFDFC
2DD63BF8
0DF9E7FD
E100E3FF
F1C72FBD
E8F012FF
F0E40F10
D805D012
E713E4F5
03E4C917
E8150AEE
19C314AD
42D42B0E
E8DCD215
033B3713
CF0FBC05
C323D819
2D16E8DC
071F150F
D7180ED8
F0D908F8
E72AE1FF
2A2B21DD
DD02DB0C
F50B1634
F5BFF9F3
E2F4E520
FD00BE02
F926F208
17F62E08
E7C11CFD

