220BF7DD
0CBBF910
E008C71F
EEF8D4F7
F91E2A17
F30FAC11
D3242201
E014F502
FDEBEDE9
EDCBB816
350026F8
0A15D421
FC1D0330
F6E5ECFB
E2FBBF35
0DF81119
FC04DCDA
F7CBEE05
13022E3A
1E1F16BB
17BEEF15
01E3FC09
12F520DE
FB9A1E0A
ACF15CC3
F50CFDFF
1619C0CD
BA5AB5F5
57FCD204
2DBD1721
171DFEF3
2B00F0CE
C40012F6
0CC100FC
16DF000B
DF0008ED
F80A0818
31BAFE21
01F928EE
F3CB4A15
313EDA0B
FB2E04E7
E3E742E6
2C2BD216
20EBEC16
11FDFB0B
F7EF12F6
F53FEB8B
0015C7C8
04F3FDB7
1B07D772
1526BBBB
E516F4FD
134A2806
32010124
F6D5F128
FEE4DC17
F613E148
E903EF40
0F2281FD
FCF4D706
1D4BF41B
0A15C7E9
02F3F30E
23FCE2E7
CBDEF8C1
07D5F64C
023D1327
3EF2EE1D
3C0C0916
FCEC16E2
1BBFEA5A
D2D99DD8
22EFEDB6
29082B12
0812ECFF
FF060FF5
F2AEEBF5
D704DA03
0109EB06
BA100309
03E24906
D6FD2C09
3F6ABAF8
03E00E1F
2F81008B
C3F956FF
121320CD
B40DFEE3
22ED16DC
B1F4551B
25B7FFAE
DC0E1025
01C5EBFD
0433C1E6
0953DBCB
FC121212
19E5FF17
D924D0D4
E5FF2109
29D6DA01
DEEBA61B
13370009
FCF8E412
1A0D38CB
E0FA5F43
F403240F
00DF0603
B516FC25
FE3B39EA
F0261EE6
FC11E7E7
39140FE7
00F6190A
0610DC0F
E51800F0
1FF2381B
F302DF06
C8ECBB34
FD0E04F9
F0E62BC6
F40115FA
4204061F
2232F8E8
04F527D2
E8F6A205
E31038F6
F0CBE011
32FCF102
1F31EF2D
F60A0312
08330DE0
1BD8231A
0D070612
24FBF616
B517EC02
E3EF0213
D03E2E27
17D30110
FB090723
1EDE1F0A
FEE303B5
DCF24AEB
FD02FA15
EC2AF0B9
D1E121E1
1E132AE6
FFF535D4
120D3412
DB01FBE0
450B11FB
035260D3
220D0D24
F50117E6
F71635FD
1CF3AE34
F811D6FE
F814FE26
DD04FAEE
0EFE050E
11EF0522
D3322BDE
D4D323EF
F1E81D38
E30EC81B
F624E9D8
E1D62B1C
FDD03002
ED0C0317
E8F40A1E
C2F3F2F0
1AE52D11
E4F216EC
E7DFF93C
10B7E632
1410E6F4
01EAD203
37F7CDF7
E8FA00F9
F64317F6
15D8380D
0B201CBB
1BF1EBE1
C60A39F6
D4CD4030
08FBD118
44F6CB1B
451AED04
1A21E111
C8081005
00F30628
E1EBF80C
E9051DE4
040515C2
3323361D
2DFF31FD
F0BFCF16
2EFBD410
E4EF1C16
EEEAFEF7
1B12E9E9
14033937
16FB37CF
080CF8CF
BD1803F9
F8D8F3F2
13030ADE
374BEEF7
E113114C
E8023FD3
360300FF
100AF808
07F43813
D42E1100
F700120D
14E0E5F1
051FC526
E7FDB8D0
2525FCDA
DFC4051F
E70B03C0
FD2B30F7
0BFDFBDD
105E1F2B
CBFB26D9
F911F1C9
CB1E47E6
F9FB3337
39F8EEB9
06EAEE17
E00AEC1C
20FB12E3
93E6F500
08E6ED09
700D2138
E0050D17
2E0406D7
CC971A1B
3002F8F1
F1C107FB
1E1101E7
E01711E2
D0FB2506
2C1221DA
5E3BE71E
F1E7FE03
40B130C2
FA33E9D7
0C4FCBFA
E7D3EBE0
C201070D
ED2916FC
E70A0AF9
203AEE1F
1B3B20E4
0C0FF11C
88120FD7
F686F629
4CE2E929
E307DF2D
5A090709
D1F00229
4901F435
12F91612
B5EDEE01
FBCEF903
0E00EA4B
0D7EEEF1
D200F6F4
D6D4F7F8
7EDBC134
DF6DF222
59E7E6D9
EEF8040A
430228E6
0141F309
35FBE6F8
14EA1900
81D5E8EF
0A2AFAED
19F6D7FB
11501B16
D8F507F1
21BA01BD
AC05FC9E
0FD2FD11
C4FA0EEE
0F8AF5E5
8511FC25
FE57F125
83EE0AEC
24FD29B9
19FEE0DE
2C400AC3
2F101FF7
0BFBEBDF
1DEF51ED
F5D6FF01
25D211F6
2AB90CFB
93FAF7C2
E445EF32
2A252812
DA812504
FBDBC4EA
164A0BF9
750C0806
EAE101FC
E7F50900
DF9A0CE1
3C09F20C
023FDF09
3AEF27F4
24FD08F6
E1E01CEB
0A10EDE7
6CDF0C1A
0F931110
87D93400
1C44F8E1
EB2CF9E0
F5C5061C
02F614EC
FDE31CFF
1DF80C3B
E1FFF510
1610DD31
E8FEE733
F0DAD4D9
F8DF9EE9
D71EF3F8
D9030DDC
FF2BEFEA
DB030B21
C904F4EA
DEE5E518
0116C0F4
D9160725
CDFD00DF
0B081901
29140CD1
00DFFBE6
BFEED9F0
1306281A
FC0B1F0F
D515DC1D
AC191640
0D5CD61D
5324C909
1B4C20AD
81CBE5F7
050D12F1
4B33FA40
0CCBF1FD
201A01ED
F6DBFAED
590E0D10
083FF424
4F021A11
F8262EA3
00579AF1
131AF242
C0D2D9D1
CE81DC9E
702E031E
0D5F31D3
273617FB
D3F54D07
090D19FA
0A133318
7EFECCEB
1564F4FC
1F04FFD9
4587CD3A
E3FB2528
D5FFFF4F
24F5EFCA
26D81529
58F5EED9
FFECF5CC
350528D6
4DCD20D8
D62BFA1E
022EF03C
57221D3C
E91EC6A7
C9331853
02F5F5D5
1CF41032
0E01DEF9
DF0815E6
F50C09E4
F83D2103
FF06FFDB
14E9EB44
EA15FEFE
15CFDA2D
FD1F18FE
EE0B131F
CE1F00D7
E00CB03F
061416EC
DA2F293F
12D806CE
150D0619
2D3A0EEB
F630F801
27C328F8
E531FB05
0E7EEB06
22E727EC
07F003F7
730C1B22
0E039904
E1ED0204
B9D227DB
20ED10FF
26D80C11
DF1EE620
E5D212DD
095CD0FD
D13ECF10
FA3B3606
DF1CE8EC
0226A813
38EAF708
D5F3E741
182BEBDD
2FEDBCF8
DAD312F0
26DFAE1B
2E1309DE
D5F3D61C
36FAAAEE
DB0A04EF
F066EB31
C3DAF249
E723FB14
FD06F304
E85B1314
F6E0C016
06170D17
DFD8EF15
23E0E752
0B0215FC
FD0021F6
28F2C3DD
072BFBF7
EB30F5DC
E3EFFB20
18F816D4
200908E6
D71E28FF
D51FDD28
0301F5F0
0C0EE61D
0B340AC3
1110CEF3
FD0E0534
EB0B0209
F83F00E4
EB09EEED
C2F62718
F9E80926
01F9EC0B
190F0C07
00E316E6
FF1A0C13
F805EEFF
1EF1FBFC
E61D1014
0518110E
D1D820ED
DEFAE8DF
18DB3E0F
E4FD04D6
D90F2CEE
0304FEFB
28FC0CF9
F212D5FC
0001FB15
FC02FBF3
1E00E20B
FF2DFE06
0609E92A
F3FDF51F
F03AE00E
CD12FA08
CB243338
02D4F207
09EB001A
10150216
19011A09
0D100C0D
27E8DF1C
01E51C46
09F3EAF2
0A08F900
F512E617
CC21F334
13FF10E2
ECF824F5
3B22D653
180D0B05
FCE80525
ED07F717
051717E3
E2F8E8E9
0D002A22
09DE051F
FD2736DC
D309EBD8
B6E450B5
EB4D1248
CFF5420C
0145E404
33FE0EDC
1325ED31
DB00FDEA
E7E712DC
DC2020DE
CBD6ED2C
B5EFE9DF
070F1CBE
4505E523
28CFFC0C
1AF321FF
1C4F13F0
11FCD836
F8FF1318
EDE7E506
F802D11B
33F3FEFD
293E04F0
1F0BF1DE
EC1C1D04
F5E1A1EE
06FE06E8
F6250533
FCA819E7
0DFC0B1C
1758E1E0
1DD8251C
1F61EEC5
BCE6D418
0FD31401
E8E4EC10
D7ECF022
021AFC32
E6F5E4E3
0EF3F225
DECCD511
3B36C7CD
26542D9F
DFE7EDFB
E1040526
2408A8E5
01E0D7DB
B3DF1505
19C0EB23
2AFDF3FE
0157D8F3
13EEE015
16320AB5
1D000F0E
D813D601
EBE4D6D5
1E07F91B
2CFB052E
231B9FE2
2ADCD4D8
1920FFD3
EAD6F810
F10A2E0B
F7EBE32E
07F7DE1A
351AED03
46AA2403
DFEAE500
0B14C71F
033EFEF6
E9D3E2D4
1921CDF8
050CF7FE
2D164BF7
F7281241
04F7E62D
FF1CB354
BFEF13CC
D605BDA7
3400C829
34D11C38
0EF4F6F9
E70DE4D7
175F39FF
F7494556
22DC5401
008F2534
ECE206E9
D7E11D1F
F3C7DDF3
2B242CD2
09E735FD
1181480A
262CE637
DB0EFBDC
E21D5C15
161C07C4
B9F117FC
001D2C10
0009FE11
11CE18FF
44EDD6EA
F422B0C9
FB2F0C31
120B2C2B
09F0F7EC
4EC1F9F4
FA11A4F3
10313204
3BF6060A
230DBED8
13DDD510
D50515E9
F5093981
00CEEADA
D0EECF03
05E91838
042A161A
2E0AE6DE
0FD0EAC9
E118F80A
11C37DF6
EC29E153
DE3C0D15
F32FDDEE
F305E604
25FA3306
F606DCDC
13FF250E
1B003800
111BB433
FF050509
2208E6FC
0FE8162C
0026F310
0101FB25
B7F53DF1
CFC8F508
D8D6F967
E815F9FC
D31BD9E6
031DB10B
E4F5F90C
0414F5E7
08D218F1
0B17F4EC
F5EF2401
FC0306E7
E53AE51F
24012FE3
26CA27D7
FF051EEC
364204B8
06E2F2F8
F1F10FE1
F2E70DE9
1DCCFEF6
010EEC2C
033202DF
EBFE182B
FC053FB4
25E4FCF3
D8DE151D
0A13F80B
EB181906
0414922C
09C116F9
EF18EA1F
E88DDFFA
ECECDA14
00104CD8
F8DD084F
18120CD5
38E1D8EE
45F916C0
EBE20B02
09152839
FE010DF7
142AF6FF
E81210FC
10E2DB06
D4022910
09B82021
13E9D7EC
F928031B
D1E5F417
040C1ADE
16041DBA
0E01FD20
F4F4F205
F803E107
F9C51334
0CFD171F
14D310D1
BEE6721E
DD14C4DA
D309F313
0FF4F800
E8EF16F4
160713DE
F0358111
19120CCC
2EC10726
ECF1F315
4FF63210
E6EB0BD2
F71FCD05
21F5FA02
FB0FD600
071FF81A
4F2BF60E
F01211F8
1AD90E1E
13E12FE3
DCDF17F0
03F9A9F9
04DF4427
D2F514D9
DFD6CEF4
0405FF4D
1C30DA09
2AF72707
145FC105
3EFAB200
0A37B72B
B5EC0EEE
F4F707ED
091ADD02
01F2EF24
0CEBEF01
FB0EE3F9
20FE361D
ECE415FA
480D1BE2
0CDEE4EA
B5D6C922
DE32124A
01E0F115
09EAF51D
1610FE06
D2FFFE1E
CF1EE52A
193C09DA
32FDEF19
007BD3F0
1BD0DB38
F246102B
C4F5E522
DF45C0DF
00C4F717
F1FE3A16
24DFD0E8
0BC3B620
D5F62A1A
F431FFF3
16D7092F
25DCC6F0

