3F1CFE17
19FCDAAD
D1F0D607
F722EFC9
4600EA5A
04E00157
20FDF707
D032E000
1A2915F2
FCA31F15
F70A0B08
0337FD0F
EDFC19F5
DB4C14E8
052DEEF9
CEEFEED5
210A4808
12161D00
F4F5FCD5
0C46F7F3
0381DF20
E120F3D3
1615EE14
CC18F3FA
51F4F839
F419E600
F09AF64B
BD2CF218
F4B406FF
DCDDF2CB
BD12DAFE
D51E22E7
2211EB2C
F90A28F8
C2212D49
D7F025EF
D501D133
F821DCF2
FA0900FB
E3E02110
E4D2F756
DBEE1F17
E17CB60F
EED8CB28
CC2CCC4D
05030AD6
1D4E2F07
1FCE18E7
EE29FCDF
02F3CD1E
C723E835
B036E5CE
34C0FDFB
0404FA11
FE06FBF6
F325E800
0FCE3002
CFFFF5FB
FFEA16AB
2D2311CD
0BE6F3EB
4FB6E3CC
183DF2FF
23F6002B
4D0B193A
00D2F2E7
F402F519
EF00FB03
D501F03D
C22EDA2A
0EF54012
C8EF0B0E
07B00445
160AFCF8
16D802EC
19FB08FD
111EE3E3
1EEE1111
FAF4E4E1
640AE0E0
090BFD27
1609D0FC
ECF30303
CC0D07EC
CCFF1CED
04C41BDD
FAD704FC
FAEF2B01
13C10742
00ED0F10
E6E6F340
F5AFED05
12E31EE4
38FBF5EB
21011EFE
1543F718
22E10DE4
1A23DEFD
0799150C
FDDFF206
D40629E7
09F60DEF
D60C18C1
164D07F5
4131180C
FD50160B
1BDD0EF6
0618EC17
051017D3
F11303EE
1E4620E0
08260ADF
CDEAFCC7
18DF0901
1E09E7E5
FC0E0EEE
0081D8FC
D503F5E1
C90A381E
2B04DFF0
0EEB17CE
07D919CF
FB2ED8C5
0E07F9F4
02D62E29
0EE909E0
F4171856
F5FA0318
D4E622F9
2A1346FD
08F5F2F0
0E000FEB
A0C1FC21
DF1FF322
F1091AD8
06E50112
FAC2FED2
EFFAEA10
04E210FE
1809D1EE
4D260CF0
0D0DF5C3
F3D5F3C7
311D1026
1AEF3603
E6E02FD2
1FE0F300
FD2A1A02
212622D7
2EF8EF13
0507E1BE
02FA1915
FC20C9EA
0010C20B
1748F9E3
09AE0B0A
42F50FF9
05DBF9E8
0610051E
0205F2FF
110815E1
131022F9
C7A9EE28
0521E9DD
11070BF3
FB1820C7
29EE0AF0
F7DA02E9
E113F5DE
1AF1C23B
DA03F617
980405D9
30FB37E6
F6DE1C28
0CD71109
0C03E315
D7B943CE
1B01CB3A
08F5E3B8
27D8CDFD
E9CD163B
15F1E130
2A09ECFF
3038F2EB
E6E8080C
3F20F3E6
EA39F2DE
112002D1
1E2513C2
17D915CB
E1FD27FA
0314F0FF
E7F205FA
E9CFFF06
12B291D9
C335FDBC
29DFE3F2
20CEF8E8
FFF40803
0C073323
001310F7
EAFEEE02
E71203C4
253AFFE9
00DD0739
08E0EB34
CB05BD16
FBEBD6F0
F4F81311
ECCA30F3
0E0603F8
2DF1001F
E8EC0DF6
42E718E7
11330017
0FDA040C
FC160615
D7F9FFCE
B5282DFB
EA36F7F5
1300F809
2110F0FD
DFFCE01E
EFD61AF9
CED43470
00DCEFE1
1E33EE25
0211FA20
EBBFF923
11F40EF9
FBDB2317
E04808D9
19153941
E222ED1F
F0C00906
ED63991B
0E3C0298
15F55222
280F0DE9
382F25E4
4647C831
FAB91AF9
28E4DDDC
16DA12DB
13060046
EAC0F7D6
F53FFA4A
0C2400E6
23C621D8
11FCC105
6865DA00
CD81E225
FDE1FDFE
00ECF71B
EAF1FD18
D401EDC5
05CFF51C
FF16F8F1
CBFFFBE3
FBFF070C
F50B09E6
FAD813EE
321CF2C5
F81223FF
26E62318
0E02DBFD
E6240EE8
AFD61BF6
F309E9B1
E4BB011F
F7E1EF0C
180E06DE
D1F2F915
22E0F1EC
2BD0F849
FCEF0ADD
2D2CF834
030E111A
C9FCE426
D7F5101C
0600EB3C
E4F22B0B
3ECFF801
C9F80DE8
F71109C8
D6330813
FEFB1F1C
04101D0F
D7060102
FA240205
02E5EEE9
081213F3
E408DE15
D0FD0102
E20CF3C8
04FF33EF
FB0AF5C7
100501E6
0E51EFF6
09E5B2F5
FDDF192E
EEFF22F4
EFE2F3FE
081B0A03
10F208EF
0D280C05
F80DF915
F3F1EB0C
060AF533
FEF50202
0FC5FB12
00F8F6EB
0AE1D80E
FFC0010C
0FF9D168
F0D9EBF0
0EFAFDFC
0947E8E1
CB38E73A
DDF7FAF2
BCF4F207
100BD1BB
EE07BB2F
360FE212
F80404FB
E1F6F72F
151119FC
B5231831
112F35F5
A442D7E0
F7F30A0B
E5C8FAED
E2FF0F06
000AF9FA
E101CC04
D204B3DA
FE1D0E27
26E8FDF0
071101EA
F600E2FA
1DCEDE16
FAF9022E
0E61FE11
FEF90607
0FDC0D41
E9E319D9
F6E8251D
29F7390E
05F2DFDD
EE0B1DE7
E718ED17
371B12ED
F8D63C01
F3DA0213
1112FE1C
EAE81315
15FCF0E9
F4471AF9
0741D3ED
102EC4C9
0EF00A0D
F7D1EFF4
F518F71A
3BE70C3A
D4D2CCF4
0CF0BBB6
FCFE1C1B
FAD30805
F52AEAEE
FBEE28E8
F0F434FD
EBF1E5EF
CA2E2A0A
1FFD39C9
3FE83ABD
15D1F118
FF0D1E11
150D12EE
0B0C13B5
F5253AAE
0B360146
E45D33E8
12EB2C1E
D3F604CA
F32E4700
F9F6D0D8
CD0EE407
C3E31D23
EE00200A
09D6F6D3
0D322744
DA28CB07
07C82A0F
EEF40850
F6EC0010
EBCFE82A
051B0000
051102F6
2A051203
0138D5FE
D5EA00DA
0C2205FC
F3E92913
C9E3D4E1
07D3DE34
F9BEF620
10400331
B3E6E41B
1BEF11D4
EEC0FA01
EAF00FD7
15E90905
1BC91309
00160718
193C12CB
F724DBE6
F1FBDF20
FDF70AEE
1D0002C3
ED0F0209
F01B182B
2633280C
1AA33BF6
02AF2CA1
3C023C08
FBDBF317
11E60A04
FCFF12D7
0A2FF8D0
BCEDF00C
B8CCF8ED
BB16A112
23E7DD17
2BEDFC11
FA1307DB
ECEA02FD
00FFFBE3
B0370C03
E1CD1CD7
DDDBE2E7
AFD4492C
3D0C34C7
F9051711
C50EEE03
34FFECF8
36011BF9
F8FA195C
643EFE08
1411F1F0
0EE4F5F2
0B36F81D
E3FD1F1A
16160CEB
04D90C08
371DDF0D
EFD1FC0D
DB390A12
11152504
EA10F4DD
F0FBF216
F211FEC2
FE15D0DD
AD0725E4
F7EFC3BD
011312E9
FE0418FE
0025F0CE
0901FF3B
0A161507
EF06E218
E316FE0D
DFDFF903
E10C0E53
E8DFE914
10FEECF2
1FE8FFF1
08151BE9
1200FAEA
EA16EE06
F70612F5
E61037C7
1D152401
15EEF2FB
E0F700F3
1018F8F9
0F16E4FB
1DFFF913
33D1110F
2F0EFFB5
F9163BD0
E8120607
FA0D02FD
2FE1DF24
FDF0F51C
2404201E
E836102E
FE1DF9E4
010806EA
331E0CF2
13D9EB0C
0BECFCE4
ED0DEC0D
01CF0728
33B11505
0315FEFF
F4F7EAF6
F4F2121C
070705FD
D83B1119
22E900DA
15D9361D
EF0B00E2
6F18261E
003030EF
ECFC09DA
FDF0331F
BDE3F32B
C9D610DC
E432F50B
1F07070D
DEF80B0A
FAE3E32D
1D0300FA
0557DD28
0F1B1AF4
D4C91807
EDE6EEFB
0510DD27
1BDB02FA
0C02113A
13100ECD
DFEB02DC
FBF6DE07
04E0FC26
10E503CA
EE0D0101
0F2614FA
ECC81008
32CC0BFA
E9FEFA11
1F1AFBF0
DEF6FC1A
D5FCFFFC
FB2DEE31
E8F20FEE
F00BFBEF
ED09F406
13E7F905
042915BB
03ED110A
04F4060B
1612F4F4
1BE507C9
00CD0515
192415FB
DA0103F0
2CD4F7E7
1EE5E423
09F412E3
FBF8F912
1F1215D2
17E8FFE1
E024F2E0
D2C20F07
08FE130E
38FF0C0C
DA13EAF1
CDFDE8F9
07F41BEC
C21AF7E5
DFEE0005
0B170D26
F331FB08
18F1E907
0FCAF81D
1921EEF3
02C1C609
FA0B230B
F0E835DE
DBE410EA
2CEAE0EE
E5E609F9
3706D1D0
0D17E7E1
B3EF253C
14CCA4E9
1300EE1E
2F1E0D1E
0E2407BD
51FA5C13
DE123506
191BFDB9
27D30A16
FF141201
3F0931CB
FC1A121F
B7E006EF
26E9D8DA
0806EF03
11CC31DA
FA21C919
DD1739E6
ED22D307
0622273D
33E504F8
EE0E09F0
6251E50B
F98E41D1
05E3E91A
3C0E1FE8
0FD91F23
FB101717
F410DDF2
132122CA
11D2FFD8
FD1E0E02
FD00F734
FBCFFFF0
D1FD28DF
D399F8FF
CF36E316
FFFBFCF2
14682B41
3AC00C1E
FDC1DA54
0CF7F8C5
1DFDCAE2
13292EDB
28F2CA05
D504E7ED
C6F7F9F3
261D19F4
4E4911F3
FE5124F0
FCD8F5EA
2EFF1C1F
EC11F8F4
ED144AE0
1DEFF0D1
0010F309
232AF9F9
E7B9C620
0218E228
CFFD13F8
151C2301
DFFCF500
0ECAF93D
25FCEE13
F81E09FB
D21EEA03
D8171113
D1F8E3E4
19F40322
DEFB0DFE
F7150FE5
D90621FB
0EE6D51C
E90F08F9
364809F1
0417E312
192AEC13
040A25D6
19E7FAF5
1FF218DC
FFE7004F
E037CBF5
E8FCF5EC
110ADD0B
142E09E8
0BDF1D00
E4DF2A06
25FB04C8
13F01CF0
050BEE00
DE09FFFD
1203DAFD
D30E0E11
2C2A2DB9
0CAAE031
FD10B010
F7E903D3
F5F918E0
2BD4F221
E93EE431
FEEEF2F1
FD001507
FEFB1CE0
F5240C3A
010610F9
0FF8FF26
EB0DF903
B6F8F03C
12EC330C
5AF7E3EC
BFFA0820
2A0B2A03
260E2102
FAF41800
0406040E
ED100BF8
07F3F7F7
5AB422EF
16251BDF
01D326F9
2AA9A722
39AF0330
F6FBC509
EFD124F7
F5F001D1
0C0038DF
2609F62A
0E0722FF
13E1FFE7
D9F5F527
4E28441B
303A1CC7
BDD7EA01
E418FCEB
E8BDE20E
0118FDD2
F89FFE04
E20433EF
2FFE2FFE
1828FDF2
0A0EDD02
06F6E5FD
26B2F2FD
C2F1E007
F61AFEE1
14503DCE
FAC70CC1
1B3206CE
D9D7FE30
F6C9E508
1BE525FA
08C11601
F7D808F8
3DE10BDE
09292BD9
EB0B0309
FD22EBCC
F603D9DB
03E01C49
15FD194F
E603E73F
EF57E1E4
F9E5DD22
E3D82FB3
CAEFF202
0621E204
F2EE1DFF
11CE0B10
EF18251F
0101FFB5
5320FA2E
053A1A21
ECE5F1CF
F629FBF6
0E040FE4
E819EDF5
B406EA19
CF04D1F2
D9DFEAF5
EDEFF90E
161EF307
0DF7EC35
E504E41D
E7F0FDCB

