30C32A43
03F0F312
3B1C2207
F51B150B
DA44E835
1E0EAE42
F51B1216
31FC09FD
07E41C28
FD2FE760
F50D2410
E6C806ED
ECFF06C3
FA073AF2
16EEE81D
05F314FF
10D238F7
3B25DF0E
18B61772
CE1BD31D
DB34D817
16E2DC08
FB33C3DB
FF262E65
DB355530
D01EF1DD
38ECF032
BBFCCED7
1AE5E1F6
22240066
0BF7FAF7
DA1C1FE7
DCDC2203
18DABF07
DE1FBFFD
0316C6F4
1A1E0C38
050B090C
25DC12EC
EF091F16
FCE0071B
EB19103A
F50E2744
3DE8080D
02D0FB04
20280613
2A2AFAFE
D6D425F2
E9072D32
2927277E
AE1931C6
3214D2DF
EE16F11C
EF09170A
FB05E2F8
2F0AFA3B
D8FBFDD8
CFF51514
32FB0213
EBFC0BB8
B439E1CD
FCF739D5
B5EEEF14
C8F00732
E52BE3F2
45F00127
C20A30F8
1AFEF93D
C5EAD4D6
15FAC3FA
1DF309E6
F2C7E301
1A0AE2CB
0E0D240D
16FE2BC8
033DBEBE
EEF5150C
F70DF1FA
0AF92419
EABB0905
1D0EE011
F7092235
34560FC6
0BC1D495
152219FE
14CFF1E3
161603FF
3D8A1599
2018EEF1
1340F308
FDF1FEFA
D215FE1D
E32B06F2
1107BCF4
12BF191F
A120EE35
EE10EDEE
2CF017E7
F4273ED0
DA1CE12E
292F0401
FFF4F37E
DFF7D914
0910F57D
0FE840F0
17D9F6D1
EFFCDD08
0D270433
0CF3E0EC
0311B5FA
C83FC8FF
EC96D2C9
2AD6173C
1B0E0224
05F5D915
0A0D23F7
33E5E700
FD1F14C7
F8BF0B11
00130608
E95AFBEA
D9320EFE
DF2213E5
FD050FCB
F7DD0616
D507FC26
2527E70E
F4DCC5FD
EEF201F8
FCC40BF3
1BFC15FD
20E91CF0
DCF1E5F6
F02106CE
1452C617
FA081B10
04E6F70C
DE152BFF
03EFF7A5
09031202
FA031809
0D0621D6
EFE803CB
27F9DAFD
2CDDD923
E2D9EBE7
F50FEDE0
26D9FE07
CFE10114
16FA3010
254BEABC
F63013EC
EBED04F1
120EF104
1EE6DB22
78E8F40F
0C100511
02F80BFF
F62712FE
E0FE0AF4
0C0615F6
1CED3E12
201CE1BC
36CAFE15
24FEF4EF
C8F8F3FF
F841F320
B2FD2325
EB2B04FD
2E011021
2A0605EA
E9DFF9EA
254229FD
30E847E7
E1F911D9
EC342102
F7161418
1105DD09
E8C9CDD9
091FCD04
BD26EAC6
BD2205FC
EE2F24FD
ECF08112
0AE201C9
2BDCFE3C
FBDFB41F
0FD9E451
09DFF41B
E2F9F5EA
FC020F06
F1FF1E26
DB051044
E7F325EE
28D400C5
1E06F3D8
FB0ADC17
2C2F0C12
392525E5
0F1C03A0
00D3F0FF
32210CFF
F60056D1
C7FD14EE
D0FDEC19
0B14FF06
E3D1EDE7
180EF9D5
0F27F3D1
E3B3DD20
F2E50CCC
EF22F102
3E0D43DE
AF05E5E4
DF091E31
E8E81027
0CCEF79E
F9FE1508
F20430E5
EFF6F6F8
DD2029FC
CCD6084C
061106E0
23BED90E
F23B2612
07DFBA3B
DFF719EE
1D41F4DD
0B3115BD
CFDBCEBC
F9E634BE
2306EB08
E310CA1D
1C15FAC9
D7E8FFDB
0ADF0202
F860F012
DD12150B
D2051B25
F9FC1822
09122FF2
D92EE71F
FCE2CD21
1039CFE9
5024010A
D20324E0
F7DEC31F
15E71D0B
B2F1302A
0AD222C6
C5F6DF9E
3C2FFCCE
0810F1E6
1304E7C6
E311FFE2
D9F554E8
0BF3F617
10CB00C3
16E804DF
1EE2FDEF
0E0BE50E
D125E70E
102EE615
FDE4E5B9
28DBC8FC
33DEE8FA
12DF1BE7
E73FF73C
1FFD0536
DA5227E4
FD24F2EA
11C8C737
110ADE00
3E19F951
1CDEFF30
DEF4D892
020DE832
0D24FD37
E503FFF5
03F40E58
F0C603E1
FEF8D561
08CB23FC
05F725EB
F001F713
0090EF3A
DEF4ED0E
CBFE0B42
33EBCFE3
DE2B0081
0F0D0B2F
F50116FA
FCE942E8
C4130FFC
0600060A
2633118A
ECF60428
E940045B
26E01A10
EF141E72
E7150A10
CB2BF279
0FF30121
0D002235
FAF6ECD9
16FCCC6B
2CFE2227
33021A5E
E617F2F5
D23546B9
16E71005
081CF046
2632F613
F1ED08A7
FCE20C1C
D2D1079E
33F6FA06
141DFA9F
2B1300EE
2FF6E42B
E914390B
25260DE9
D50918E2
25251828
18A91A2F
E80DD917
F40F0A43
B2D3DB2E
BE00E0CF
CF0E3D3B
133A0C0B
DBEC030F
0117F2E6
26EE0009
F2472720
254F064E
C5EBFD06
F8D63CF9
FFEED9F5
16E5F297
EE0913E4
FEF7F6E5
B9CFE6FA
ECDB2D0E
0601FDE1
FBE10843
F1D0F22F
AB000102
FDD6B923
EDFF23DF
20FBFBE3
EF1DF8D8
11D0EE21
FC01EEED
31E6FCE5
FBD52A73
042E0F1C
D80522E9
0800CDE4
14190738
10FB020E
E71D5433
000310F8
2C04383F
F617222A
EAE0C015
1F10EE26
0E550C0A
EAF7E120
28F105FC
EC0EFD43
0BC81825
020CE6F9
FAF9FD6B
1314DCB0
3DDD27D7
F91219FD
0F302EE8
CF13F509
DFE6BBEF
E8DB09FB
C6071A05
DCF4E7F9
F926D724
EC27C737
1B05DCDF
01DE11D6
44D031C6
30F92B27
FB150D1B
05CD503A
C52A3432
B6161101
DEE637CC
EDC9A7C8
E200091D
10FCE623
34F807DB
27FBFBFA
F8232114
F62028D7
20F415DB
351FDFD3
BEF628E0
13150FD1
1AFEC80E
292F1C47
02FD380F
FB294421
0115CF8F
FDE1E116
11ECE919
2F2132FE
BDF2EF1E
F900ED1E
04E8D2F4
2318D42C
10FE0220
5A1E39F0
1C121CAE
E93714E1
D418DCFA
F92C08B0
FD001F12
28E60708
DAD9B041
0C01E1F1
3E0C0234
1FC7ECCC
CCD819F9
4BEA4005
0D0CF8CA
03FD55D4
E4F1500D
133E1131
08E9221A
DB090CDF
CAADCDC8
E2F7CAE1
16D8199E
CECCF598
CA0E12F9
2305DFFC
0D171F0A
11EE130F
1EE0E3B3
1ED9F008
D204F7DA
040620E2
EBCF1403
00040D12
1F151F03
161004FA
3F48F2E1
DFEAF817
E616FA1B
1BF5DCEC
0A060D09
20FF1DEB
FD08F9E0
F9E40531
0DE40DF8
F604EACD
270104F5
EB2027EC
F9FE1BEA
33F7E1C8
F6E83703
F2ED0809
11FEE5FF
050C08F5
D9140400
F6D810FC
10170CF3
41F8F0EE
060AFDF5
F809EC03
ECD9FFFC
2321FCFE
0D030EFF
080418FA
12F326DE
D51D0410
F42AFFE7
FE1D0E1A
0DE013F0
12D50837
E8231BF1
D144DCDE
07F33A10
F906F606
040FFD16
DAFF000C
EFD6DDF6
33F330F7
DAF71734
1602DE02
EAFFE519
FD28FFDA
FF0C1DFC
000A0F01
0BFF080D
13CAD8D1
1B319EF0
062C0AFD
1DF8E3EC
34FD131C
05EBE80F
0804C0E9
F80F1BFD
380010BA
36122DF1
3115DD1F
FBED1BD3
031FEF0F
EE01254D
D11AF5C1
A4E01BF3
3FEAEEF9
FAFA0AFF
2B1A0AD8
31B335F4
EFFDD60E
18F3D3E8
45FAF9DD
43E407FF
FEE8EC1D
3103CE4F
1DF3522A
C93F1EF3
E214F7E6
ED2A01FF
06F7EBF7
F5C6DD18
0022E614
251F2BBD
2FF609E1
B90906C4
2603F1C8
F8383A57
16FDD905
04160420
1E11F3EF
0A07F512
FB13EE20
321BF508
27E205FF
DB080036
13F7E1F0
0FF20881
EA21F831
D6110E35
E5E523C8
E5EEFB3E
35F323DB
06BF013C
24B276E4
F90F055F
DB1D67ED
E8E401B3
EEFD0FB2
E0FAF85B
080C0604
F0DB1001
FC33F725
11F8EA7E
0DEBF505
1229284D
F219F0F2
DAF81483
D3FFD4DE
E10FE8E0
FEFBF513
FA050428
F3E808A9
303501B5
119FD3E9
1C260147
DE0A302C
EE45EBBE
FEDFF8ED
06CB003B
372F1FD0
D91F1418
F4ECE051
C4E6D704
F0F8F3FE
C8F411D2
144A31DE
05F533F8
D7431B0E
4F1A1F4C
F2B12441
FD14122A
E4F2D6DE
000054B5
DA1B0D38
AE21D617
27EE1E32
16FAF303
FCFC0A1A
1FDDFFA0
1D06E815
DFE20E0C
250F08F9
B01D03ED
05CED047
FF06FF08
15F200D4
13E636F3
F0E7F8EC
0538122B
E51501FB
01292C5A
F2EF2702
D9F90FC3
CD00F9EF
CF0E2A45
02134003
5BF5C1E8
0918BBE2
E9F30306
00D706F4
E61FD421
09F8C3B8
F6223F29
DC1DFAFC
EC0A2FF3
430DD9E4
9803FCE7
3A250557
0C240804
FCC22EF6
C2084C30
BB1EFEF0
4D1208DF
E73CF6FF
240C04DC
0415F504
FC32F72B
08C9DF28
DCC5ECFC
011BFBFD
2D0BE5E9
2DFF0319
05E3EECC
DA1216DF
CA50DBEF
24F7F722
183CEF2C
FDEFF20F
CC020F25
FD342EC9
EEE6ECF9
0A24F3FA
E7080D4F
1AFE01D4
0524F528
F108FC28
FCEE100E
0C170E30
ED35E939
2541C8B0
01DBEF09
EB02F2E9
FAF0F91D
FD0BEB17
1AF3241A
09014E5A
35D2C9E8
10D84024
03100916
090D01FD
2A0EF61B
FC17F02F
07F7F2FA
0DEA2338
02381516
F5F1D7E5
F81CE411
CE13D303
AA3227EF
BBF7BBD7
0AE305EF
F80304F9
D40CF4F9
D316F8F9
E5FC14C2
1EE62301
EFFFF7D4
30FDCF14
F110F624
08F00037
E8F2FBCB
EF0AF82A
F4CEE5A9
F6FA0D00
FAF202F4
F4D6DC0D
DBE2FC07
44D80511
0CC22119
E6D8BC07
0CE1BFCD
1403920D
08FDEBC5
F921FA00
144CDCD5
0CFD1412
09BF0FCD
1B0BD623
B9F1E03E
0F0218DD
13FD1621
F7002229
E01A3AD4
CD09FBE2
DEDAC6F8
EFD9E0F2
E343EF32
051B0934
1DF6E39A
190825E9
F5F9FE1E
EE1427E5
14C1DBE7
23D4FBF4
4F1D0C09
F6140E11
DA5BF904
ED072720
EA46250F
1ED6EAFB
EBCA01DD
003627F1
4808EFED
1B01114F
0039F5CE
00FA04E7
2D9907C0
F6F4CA07
E6BB0BCC
08E3DC1E
F7D125F7
1107D9D6
E3490831
06D1F7F6
E1CB05AF
15F6D60D
00CB03CE
1600020D
FD420A50
0436034D
DB43EE13
E6EF1602
09B5FBA6
FAE210FD
E801C3C1
1313FDE4
14DFD4F3
D2D8CAC1
082E1A16
F2050E36
2609EB58
1BE800F3
E4EB03E4
DD1433ED
E108DA28

