FAEE14D8
C3040838
E4B40F04
B26829CD
FDEBF5FA
1224FD7E
1D06E31D
32F6E411
F9FEE201
D9332817
D9EB05EE
0B02FB01
1710F1EE
E8611017
19D6FBE3
FC0141C3
F20DDDF5
5FD001FF
FBDF1006
0D38FE0E
F4E6DC1C
032819FE
214FE62C
E1DFE2DF
22F8B8E0
FB2CB217
07FA4720
0A082CEC
C3472A02
090B29D7
071FC01A
3D1526E4
07D1DC03
EE2401E8
F0B1DCDB
0FB70E56
22E20838
DFFBED08
DBF9EFF2
D041C63B
26071DE7
110C0C41
26E4A61D
E92812B7
E8CFD9E9
E7C9CC17
FC0C0A19
D908150F
27E92CDE
2E1BF80A
0AE11D37
31204ADE
3CDF14ED
F50719C6
1A221C03
E4F51F05
2FE61014
A9C1FBD2
002E13BB
2602CC23
04FC12D9
19D738F8
1C09B3DB
DED30CF0
421B3EFA
1E0CDA07
D9F831F9
D213FBEB
09113705
FA073607
21EBED18
120122DC
26E7F805
F2D6E502
06F70AF9
032D1C12
1008F51B
E7F4070B
EC0B020C
03BD08EF
1B3B16FC
050A0AD3
1E25BDF3
E92BE706
3C204EE7
19B51A3A
D6E0CDF4
F4EEE9EF
ED17F22C
E41615E7
F90B6209
DFC20C00
0D140F07
E6DC1DD0
02CAB4E7
3328EDF0
13EEF3ED
FDF70A2D
20D1F422
FBE4EE0B
2518FCCA
C3FF5EF7
22CA2CD4
F8EA0949
F2E8170E
E4F710E9
B2F4A0FB
E20E0E09
0A0A0410
0219E504
FF29E827
30F51622
E306D01F
EB0AF5E3
FBF5060D
0D0EFE00
FEFAEF12
24FD04F6
FBF60F0B
F1DEDCE2
FB23AF1B
49CDF810
1408270B
FC20F03E
0729F31B
050FE00B
08E50FF4
F1BF1814
0C33F617
02F0F4E5
040B0D11
07FEF1F6
FB0F21CF
0FB4F6CB
360A23FC
FD03FD1B
1B0808A4
21D0D92C
B10D0E03
E9ED13FF
E4F3CD11
05220D38
0A1A04E9
E44B06F5
E1DAFD20
E7373B03
04FB1427
32DF02FA
241F1FBE
EE882EFE
DB442428
2329BD22
B420D3F2
F804EBF0
E40730FB
C30C1BD2
FBF1E61C
10EFF805
0A1D00DC
E3FAEFEF
1F42F1F7
BEFDDE2E
2DD6E92F
0814E0CA
1E0B0FF0
18C7D80A
2F13D904
141BFB21
E240EABA
19E2A21E
FCDD36E9
FFFF040E
5B182DF0
D6271507
D8E5310B
FB35210A
03193205
1CD70F1E
10E0DFF0
F7E0FBFE
E84FF8BE
1C0FE7F2
4995AF56
FC3712E5
020534BD
CF05E4A4
FCFCEBD3
F71B1E28
C8D4BB0E
0DC5002E
03ED0CC4
0407F21E
EC04FCDB
D9F8F706
42E420D3
21091E0A
A600E2F4
02172D04
070CCDDE
2B43E513
EEF1E302
07FC0213
0807CF00
E7280FE6
15E9DD07
D80D0DE5
F3F9D912
A863ED96
19E4E90A
0419E020
FED2DFE3
E7E7201F
31E4C6E4
E4B0EEFA
1616EF1F
0A151CF6
35E8FAAF
01EB130D
32A64418
EAC9D7D3
E10EC4FC
F4DAD9CF
0BE2C501
0F10EEF9
F812EB36
0B36D5F2
1301C802
1124F109
EC4127FE
1312E50B
D717151B
013FFBD7
EAD9F80F
04F709E0
15DE3224
FEE0DFE9
10060FF0
EDF8EE13
2CEEF508
0721FE0F
ECE920F7
28028653
F8FC270D
43DA2C12
34321CAF
CDFE03ED
F80632FE
1B213EED
FDDE00FA
10CCDD05
2A02DA0A
0ACA27CA
F5F11937
1A3F0928
EF23F71B
FBC800DA
0801E302
E8E3F806
ED20F208
0508EC14
F50F34EF
0320EC11
040DC2D5
030724DC
DFFAE000
06EA18E8
0918BE18
F521E044
EBE2DF03
2C0A1618
E2EEC1E0
0C2C0904
CBDD28FD
F204FE01
EC0FE2FA
17FE1F2C
E210FFEE
08F1F3DB
F406F8FE
F30B2607
1ED91211
00EA11FA
02D2EA03
0F23FFF6
F0281DFD
07E6EE05
0C13071F
E836F407
3513D4F4
E6E2C1F1
131E34D8
02DDE009
DF4AF106
E0F4FDD5
FA0415ED
09D12003
02FFF0C6
E647EE20
43183707
04DD12FA
FDCAD008
21F0DAF8
220B0801
020A1618
0EE3FDE5
140D1409
39F20DBB
DA2C16D8
FEFBD83E
F4120004
1610DA21
052EF725
F7050FDF
1817D9F1
1B02C6DE
17EC08DE
F02EE1E6
F80D1AE4
E115CBC7
F9FC251F
F12C2EFF
D5F33DD4
07EC120B
19E3133C
2FEEF2D1
EE2413BB
0C37BE2D
B71A2725
541ACD2F
26E1E909
E3EC10F3
DAD109F7
C9FC2412
1402E322
CA1E2A18
101A0345
141C381C
E41EE333
F5FC2CF6
F406F816
1F11C710
CEE60D22
05C3DBEA
D112F741
FDCC22F4
EEC4F142
D40ADC21
FF0CFBE2
472404EE
DB180A4A
201823EB
FA021CF2
ED29EB39
D3F43F27
F0102416
292C1C3D
F3C33614
0A4B13C9
F72C19F7
2433E549
F30BF1F3
0916EF10
1314E5C6
2FF9F812
D4D0D8DF
1FE9200D
D2F6080C
02EF4FD6
160B06EF
F3F4E906
FCCDFD1D
0AE211FC
FA0201F6
EAF424FF
1D1C29F3
17EF334B
0DDB29FF
C5EDEEE2
2912F74A
EFE029D1
2720263B
142ED820
F8DE31CD
B6BC063F
28110AE5
181B9DEB
EBC5C7D7
19041D45
CFFFE21B
1415FDE9
08EE100A
F414EC00
DEE0A7C0
AAFDD2F2
22DE06E7
16D90F19
1EF4EF1F
FEE2EEE7
2EEDD80E
12FB0E19
0C0B30D7
F951E403
FC15DBCB
0AF8E4D7
F8EB23D3
F3E30023
12F7F70D
E1AE2333
F41753F1
DE24180C
08DBDBF5
1009E22B
0E091C0A
D348F2F1
04F300CE
1EF4E8FF
1A160CEA
13F102F2
F62AE61A
EBADE4F8
D9294000
D31104FE
D138B8E6
FFF4082C
CE0DB80B
EA18062F
D00B1ACA
3CCBC70F
E829F0DE
F354A7E8
C935030C
FB1EE529
F141180C
2F00F7E6
09DD31CF
F438C3B7
12CE0508
26A5E7F0
081605FD
160933D5
D4F4F0F2
EBC8D63B
FDF913FF
18C7DEDC
19F4170A
001CCDEF
F80318D4
FFEA054F
19120ADC
F2DAE4EB
F6A415D4
E82F15FE
34D61903
35EE0805
4E0220DF
E3DD0A24
2DF40A34
F30DFBE9
0F0AEC0B
F2130918
FB133214
172AFEF6
F220B7E1
03E8FAEB
0917FFF7
F029F601
2928010D
0BE201EA
FED9DEE0
10070504
F010F206
E5F703FE
233AF8D5
2A0AE813
1B06FD22
EA1BFAFD
24071AEC
0AF6FAE0
0B1BE709
00160D16
F212F2F6
FAF4C10B
0604E824
121033E2
FA0907E3
EC1100EB
E51F111F
2F0A18A3
ED0C4911
2FBD03EC
140A011B
1AE414FE
0418ECBC
EAF71AE8
C1324805
EF340A07
01FB02E4
130DFE07
1107DD05
C51DFEA8
011FE4EB
28ED2BED
1DFEFEDF
243D18FF
16FEF417
F722F5F9
05EEE118
16FA08FD
0AEAE118
DAD8D8D3
1C14DF5E
E60FFA18
FCCDCBFD
0DCFBB21
0AC30201
FAF3DCF0
D70F03FD
02FBEF07
EAE5E722
F7DA0AEA
EC0BF7CE
11312BFF
D30DD727
F70209D9
B7F612F6
DCC50346
EA05080C
EBF2DB41
FDCF1D38
FB14BDF8
0DF700F0
DC16EEE5
1CFD1819
01D3B707
CCF6FAE9
FB14EFEE
2AE6DA22
F90C0817
E0FD47EF
F60B0DDA
E9EDF6F5
22EB0B1F
C9E11DE6
F01EF613
E0FFF903
E922010C
F516F4DB
0E06080D
FE1302E0
03F43495
12E733FE
EA0D3105
01162AFF
F358E0D2
CF25EEFA
14E81E03
27D749F1
EA113424
220918DF
04122A33
410643B9
013CB9FC
EFE3F5D6
291A390D
F8F206F4
1D24BD03
ECD32CEB
EAF30AEA
CF292209
07660C01
C9E2CBF0
FAEFEE3F
1607EBEB
E8D9D5E0
2FE8CA04
1C110A12
D014E336
E70010C6
0A3B2423
E8E30B02
27EDEAFB
E4E4040D
09E03002
23B1247E
CDF7EEB1
E3F65EDC
16152D09
0D212BFF
FFB4452A
E540BB32
FF012ACC
48F1FECA
D90B081B
A9F716FE
AD0BD8CB
232A1707
E41F120E
60E7E8F1
17E9EBF7
B0D814FA
0501EF1B
2CEDF71E
48E50231
DCEC009C
D6310AEC
1211060B
1F228E1F
D24AE518
16FAF3EC
11D80D00
F4C61EE7
DE231723
08131F1C
E42DF92B
0029FE2C
D91AF40B
06352F2A
3715F040
A2353DF3
001712F9
73484B27
F2D7F4C8
12F933EE
C939E639
A3E0271E
13CF0010
FBA820D7
0F31D60D
36DCC6D4
E80717E6
2AE720E6
2A044005
A7E5D7D1
26A20F8E
0C0F3705
062AC1E3
D21112FA
26F825DA
0822320D
E2101849
DF1E0FC6
ED0C340D
CEF70D04
E3F7EFF5
4AC846F9
CD3704F8
CD0EF332
1720DD37
0A10EFD8
EDBBF4FF
DD1CF01B
F9FF1329
BD0E0CFC
F10324E5
06080210
F23AF60B
00E7FC1D
E8042604
E7FDF92F
200AF903
15F12614
F81614FB
F413EF19
5024EF0D
FC13E70E
E4EDE20C
E8091EE4
FCFB0BE9
2BF5010A
EAF530E9
E2EDEBDF
0CC523ED
FBF20EE8
FCD7F9FA
E7F5FCF6
08E0FD0B
EA23F3B3
1304CEF2
36E9F3F8
1DE91E16
FF241C05
317E1401
F2DC0B06
FA0CFEEB
11ED2E47
0408E0F7
03E6E50D
CBE10B29
1007FB13
2D0500FD
1FE5EFE9
303AD133
3CF2FBDA
EABEFA02
23FDFEE6
E5E705FE
FAFF0704
0C0FF912
10381BE3
24080945
331E39F4
FDECF40E
100C1909
CC05D8C3
4A2AAB33
21440A44
0AE0DB0B
00F22434
E720CE2A
EF0600F5
F430E415
FA1DD8F7
EF14D74A
E4FAF8F1
11FAD7AC
FF03EA0A
24262DEC
04F0FACD
D7BA16EC
D9FEFE44
D9FCEBEB
11C521F2
14EBFF17
24FB12D1
14E7F11B
F8F0DF03
1B711B26
BFF505EA
55FEE734
BCDAD714
03082B16
031019CA
B71CF5DF
1C22F011
E51930EE
2E2428F4
ED272411
D3E821FD
FCF91CCE
E53EECEC
FA15F024
F9F4F115
1301EAFA
060921D1
3B6627EC
1CF71FB4
D42BD6DD
C3EC03E7
EC27F905
FA1ED01D
0807EA09
010CF7EB
40E8140B
44F6D8C5
12BF0916
15EA0A02
E0DA3600
F112FFFB
23E2142B
17CC19EE
12EAFE0E
320ED5EE
EB341734
E2142EF7
09EBCAFB
F019E21B
E4D930FB
131B23F4

