E7B70AF3
0726CC0A
14CDD4F4
F609BDEE
E92DCDFF
D7E9DF0A
FA21E308
ED18FF18
E2F0F929
04030A0C
1DF11736
1007E7B5
FB10E4EF
0A06F50D
010FE8D9
0302FC17
1DE734CD
4C180911
49200504
FAEC0E21
B51AFA21
2E2F1408
42E6F902
E60BFC35
F5E2010D
E11000F2
EEDEF8A9
1317AAF3
B9E928DC
D505DD1B
03F038F3
3916E411
1318F044
F58118E5
27D332F6
131AD708
F1045A0F
DF0F0AD0
0EF52311
10DFFEC7
F208DDE6
E1DCE3EF
01F606CB
1D080F4F
12EB0B15
122014E6
F7E52FC5
201AE400
2620FD0E
D21534EF
CCE42EF5
E309FAD2
13131046
09EFE5FF
C9F2E6ED
F0182109
E03305D2
4BDCF215
10102FCD
F9DB0B0F
EC0EDE20
F0D4C0F3
F8300CC4
0F434C28
EE3B162E
A5FD00DC
0DC5FF33
3134DCEB
04F804FB
17FCD613
EA1A1530
24EF3CE0
FC171F29
C6FFF3F2
0CEB20F4
FBFCECE8
E305E615
E704C200
021FE6F1
E70EEFF0
E4E8F2DA
0FFC3C4E
00D53301
0FF7C63B
F3CDF3DD
D604BF01
FCFB0303
752143FD
2ECEF002
DB14DB24
0505F719
0EDFFF05
3317F0E3
09F5C80B
09F30AF7
092112F8
0CB1E9D5
F309EA13
08F6EB47
EEFF1FC9
D7E6DFDA
F0CF5119
09E7F138
051C100B
142EF0F9
E12AD3FD
1E021BEC
1CEB2819
E70AEFD5
FEF71DF7
FBE7E101
080E02F1
292AEBD8
2011C8DB
010622F8
EBEA4DDC
F8DF0C18
DAEF0610
F420FC0A
A00202DC
3B0F0027
EF0A07F9
0601E427
220FEB09
FF0C17F9
ECE424D6
F71E035A
E4FDFAC8
1ADFF4DA
D2E91635
E7F7FBF2
180731FA
FEF60129
DA25FD00
0AEADEFF
03FAFDF5
04EAF5EF
F42B0508
F707FC06
F4F10007
3341D0FA
EF0B13E9
DF08EC05
E01B020C
0E432BF6
D0E514DA
E50AFCFB
1C0FE3E7
CBD218D0
4F33EAF7
02E72C1F
D701CE09
02419321
EB14E5C6
D70E11FA
1FF2EB0B
2FD1E310
00CC00DC
F0DCE501
38EF0BFD
122CD7F8
F6C1F5FF
00EAF430
FB0712FD
FCFE00FC
FBE9002C
0117FDD8
E8FF0CF5
16040C09
F9EDDCFD
FE0D0129
1CDACFEB
0D24BE17
07E0101A
F4003E09
12F101D3
F5B9FAEB
FAB3DBE8
DCE54540
0F06DFFB
D4FDF626
FB1E43F1
FDEBFA09
1EF8E026
FDE8D10F
1DE04413
081DF8ED
3B10F4FD
090FE4F1
F51AEB08
220409E3
07E80BEA
270EE0E6
1A3CCAEE
C83CB923
F52B3CAF
28083446
EFFB3309
1CF5EED7
EBE8F10B
C10BF7F2
D8EA0F2A
12E5E5F2
FD041AF9
0406F50D
1BF5F050
FCD2EC29
CAF4DD40
FF00FAEB
D217000A
590AF804
F81CE757
D5D912F5
0018EDF0
061F3508
05115EE9
E42F2CEC
E2FF1AE1
06DAE005
DDDDFC5C
DE07D1CB
0AF50212
62EFA6BB
0A04F5E2
06DA072A
D2D7F820
0B2D05EA
BD040836
F8E8C3CC
00D21F08
12F70502
FC06FDC6
F8FA14EA
FDFEF6FC
0C08011A
08FDF1C2
0FD9FBF9
CDDEF7D0
07F6EF15
19F70EDE
0B1C01FE
EDDD01E5
02120603
49FA03B4
4A071622
FFFD00F7
094F7BC2
13D1D51A
44D61CDA
F90B001C
FD2EFA28
301D1122
F9FD0C04
F9F7FBF3
F4F1F81A
030428EC
11F8BE22
F3FE09BF
1DD9F201
EEDEF51B
F0CA10F9
F9EFF0F3
1901FBED
E4F7031A
E90DFE16
0807FF05
0EC72BE0
BDFA1CE8
13F3F0F7
EE080EEE
F218BAF1
31FADCF9
E10D0005
EAF90931
0BF40C11
C6F707D9
E0082304
EB08E1FB
0F161EE0
13162703
02EB2104
C5FBEE2B
071600E4
0CE8F62C
F7EBEF0B
020A1B10
F4F12ACF
FDF50A26
02ED22E0
E5E3FDF4
E6DFF6E7
3521EBCA
272FEC18
12D10F2C
EA09001A
EAD73204
0C1626FF
2F2B19FD
1DF203E4
E4F8FC1A
06F72308
F11820CB
C60AFC2C
0AF0F6E4
03E4FFDD
0101F406
FF21D31A
F3F1E4C5
C6FE33E6
FFFD1FE9
13EEFEF9
D4090E29
2FDEFB24
14D80B0B
FE160AD5
FCDD10FF
010D140E
1F1E11E8
063A1611
3B02121E
F600181A
09F1E352
0D55F202
27AAE6FC
13320410
E7F70DF1
041C05E4
140F2709
363826FD
12EECB2C
ED06FAD6
25E0B801
EEA20FDA
F0EDEEF6
0B0121CE
0F29EF0B
050403BA
CD26CBD2
15FCF8FB
E2262109
24EAEEEC
E90BFDF2
D9062CF4
EC1AF1EE
EB2EF2F9
D8120E28
E3E8D10C
0D09D5ED
151E0403
E0BEBD07
0AE310EA
F0ECE2E3
00B4FAFE
C3F818FD
06FC0310
FB041BDC
3BFE1042
FF0B33D6
100604F3
FEDB02B6
1213D73A
FEFE06DA
CC09D5E9
E6EFF40C
FBEA09FD
FEE90408
20CDE2B6
0BA2E3C9
F2E118D9
0BFF1FC2
1DFC1319
FA13DEF5
ECDC4AC2
03FD03D9
9A0CE600
11DDF225
25FB1F0F
F81F08ED
131CEF67
0B18C8B9
1FF531E9
1FFFCE11
FBF826FD
131CF3EF
43F3E035
3FF70F0B
5C0BECE6
DD0115C2
F72DBB23
14E6190D
07F013F6
10DF1201
EB0AC62E
3116131A
11EB11FA
F41EEC09
002ED5D8
1516072B
1FD52C0F
FDEFF71A
E6CD02F4
C0C703C7
07F81F22
07CF224D
E92EFDDE
D9FCB8F9
1F021D11
F7FFFA0E
D7EEEAF1
C2F0EB1F
F47E3222
1E00F9F2
24F1F622
CDEBDD1B
EFE404FB
10152EF9
F20614B4
FB2E18EC
1ECE052C
E411F6DD
103CB81C
344432E7
FC100DEF
3E0F0ED1
1E10D32A
22FCC6C4
BF98CD4D
1CDD08E8
EE0CFCDD
E7C33F0B
FB0ACFEA
FBECF633
F2130028
15C0FF27
EBF01EFB
23E83139
1C1CFD1A
9F0EF435
F5500763
F0F82C16
F1342F13
261B37E5
0C9C2405
DEE3090C
1BCC2E03
EBE52225
F73D0A21
FAF20DB4
0EFB0818
0703FEFA
0912DD18
F0CAF5E4
34B40FC8
E03E0C0D
02E404FF
0915F403
0D0D1AF3
02DFFE09
F4E5FDDD
1305EE0D
EE1FF4F5
FB14FCF6
10E70013
FB0CF6F5
FB06F0FD
0722FA07
DD140A1D
FEFD19E4
D106E0C8
EF19050F
0DBE0D42
D41411F9
D8084B5A
33D4CFFB
16CD0722
FA06F3F2
FDEAE7F2
FF22E9FE
AC0306E4
30C62C08
210E00FE
EAF304F0
03060CF1
E706F9ED
E415F7E1
0D18081E
D43318E7
FE12D0F9
F5E002E6
0D0A03F2
FAEFF918
3302E30E
EFC02FFC
F2FCDE1F
F7083506
14150BFA
E31412FC
05F1FCF8
F14821D4
F6F0D40E
F0DA00DF
01010FE9
0F0EF6F3
F1191A0C
D10EE6F7
F8211523
E834E5F5
F6270B72
FCE70DF9
E5031909
F10A2427
14F908AE
3AF70CE5
0D0BE304
1CD3F10C
DE30EDDE
EAE9EF0E
11F3CDDC
F64BFAF9
CE08E6DD
3F27EFFB
E3F40FD7
190F14C5
DB06E07E
270401FA
2DEAF9FD
CC05CB0F
9605D505
1A27F125
F610E6DA
2B16F41E
2A06F2F4
ACE00F03
E8189545
D2F511E8
01FE5516
10181318
4E15FDBF
1216F4F1
F9EE0D11
182006F4
0412F51D
01D9D4F1
ABD41100
D0B2EF2B
DA0F07DF
01EBFAE1
DA1FDBDB
03FD0409
F229F9FB
F70CCEF0
F41AECFC
1DD41CF4
FDD22C2D
1ED3D0BC
01100218
01DBF5FB
DE0BD32B
FAF6F834
D0F61700
1CF6FA2B
071CFE16
F3F7F0C3
D60CDEF5
DC331CFF
3BDC4228
D72FEB0C
11F8D70A
E5DFF60A
1EEA1CFC
D1D50708
09261820
C67E0A16
13191CDB
E90932F0
D7020E0A
D8E03F07
FA02E8D4
E6C83916
A9E527F9
0D44CD0A
2D31DEEC
C81CD6FB
1137E8E5
00DFEA00
21FCBF06
D003F613
C023FBF0
DBF3275C
E10ED706
EF4BCF05
093BE808
D5050D58
1F0730FD
0A27D3E8
EB1D16E5
05090F19
260CD916
BFEE1347
DBD537DD
E52409E8
32DB0D17
FBE814D5
EBF806EF
31F43100
1F462BA8
0C270582
793E0515
11D2E9FC
FA25FCFE
06BA33ED
50D81731
E708DFC7
D303200D
FF33062C
FFFFD0F4
6DAAEDE2
E1181006
0F18DEE4
32E7CFCB
E50CE6FF
C9FA08F6
0705F00F
0ACDDE39
210814BF
F8D8EAE8
3C0CD204
2FD5052E
E010F5C4
2015DCC7
0FEAC2E3
E506D0E4
28BAD6D8
3CF74029
E75A0D3D
FF421F20
DBCE27F1
F4F2F01D
C6214417
EF233E1F
470B0A12
04D00207
04C20E00
E91024F3
130C02FF
BFD228C7
49CB1803
D2E8470D
06E9F90B
FB00060A
DFF70D05
E0EFE9F8
0DE6F90B
1CC4E8FA
D10E28DD
CD0CEADE
FFC70F21
F427FA05
16F90A07
08F0DE08
FCF81E35
D615FC02
ED5A1E20
53DCF41D
07052458
4FD6FE33
E90FF212
1AFAF9E7
1208002A
F0F10D09
A7D10BEB
1E1D54FE
69041C5C
21E7041F
04FDEB0C
0904012C
EBEAD4DA
33EEC7E6
E1F3DE0B
18FBFDDC
32F921FC
0B0033E5
1BF1F7F1
070E0E1A
08061F18
18FF0C1C
F4E201FE
35E1E913
E2FEDF0E
02D715E5
36FFF7D2
1315EB00
F92B1A16
D218010D
F7EAEEE9
AF2D13EA
081621F9
D9FC2EEF
0D1AFA02
E9E6E0E9
13FEF2E3
F119F914
C7FE2FF1
06FFFFD7
0D2ADBD9
0807F647
0BFD0F11
0A21F3E4
06FBE708
33E5D635
F75F12F4
F0E7FC05
F804CCF4
FFF4FE03
27E4E5D6
363EF2C6
0601CE05
05EB2324
E525CFF4
1EE32437
EA09A1AF
E73EC3FD
F0FBE6BE
D2D52123
D6CD12F3
E20EF404
EFBF2DCC
E927B9FC
1A51DAF1
3232F824
501DF5F5
4FDE0EE4
FC22D602
EBD6DE26
21F7E7C8
11E3CA3B
D934F5EF
ED091A02
E6E302DA
2FE8F7C7
EFEDD618
E508E4E4
27142DF2
C8F321D6
53D32012
17F01813
BDD52612
FF03CCEF
F3DE31F4
C7212E00
E5211BCC
EFD835DE
1FCD31FA
FBE2F5FC
FCF41C0C
21D2EFDC
19F1C5F3
4EE3302C
090009F0
0BF8F8E9
BC0036E7
F4FD0205
FE1B0120
F017EDF2
01C4FC1C
1118D607
25E52B53
E70BF6BA

