1926241E
4E130112
CA340EF0
12EF21EA
D5E3E3FD
E9F005F7
DFF906D7
1FF10505
E41049F1
D00A1BEB
040501F3
070823F8
FFCE410F
07103414
F81509F5
2502EC09
59191F05
55FEEE18
230CFBF3
2D292EFC
DAE21003
1EE1100B
A7E2D525
DE0604BA
F807150D
EB020612
E8DB5805
F9D22D02
2CF1FC1C
F705BBF2
73E0F00A
3AE0C729
0EF6E2E8
EE1147F4
AD17F8E6
4AFBEBE3
FA05F900
0B1F02C2
0709D8D0
EDE61710
F8EE2704
26E1D1CE
09E867E8
27C81AF0
FC0822F8
011A28CA
FE19FE0B
E110CD19
3B4613E9
03253C01
E0D1D4FD
E40901FD
68A3DD18
B8F717E5
E0DFCE0C
ED174EFD
210A1D18
001307FF
52D3061E
31E60DFF
260B0F05
110EE5CE
FC1D00C9
B301F3E9
E4B5222B
2E272110
E30DF109
0309ED10
BBDFF0F2
FF21FCF2
0B39F134
D929E116
F5E8C3E9
F6D40701
2422EEDE
FA1CF5D7
309C4506
1A1BE1D8
3EF23601
DFEBE7FA
0B34F724
F805DCF9
D8D1E7F2
E91AE9ED
E9CBFCD5
0808E416
E015030E
34F305FB
F4F4FA02
EDEF00D4
01340D07
F52C03F2
07F90C14
48E926BF
FC09E8E5
2018DAE7
E9E7F40E
AFFF00FE
34E50BF1
1000E6D1
37EDE820
F7F7F5FA
E91B1925
F6FCEE22
1BE30522
390A13E8
45EB0410
EE161E0E
13E3E1ED
EE1D1920
04090DF4
F503FA82
352E21F3
10030E06
0B8B3F12
340640C1
FF0C3AF3
AF1801D3
1DA839EC
FFFE15F4
1C3FE311
27FC1C12
0305F5EA
1DFE0AA3
31FEEBFC
13F503FC
081C0C3E
C4C7DC00
04DF1BEE
0B03EF73
EB48EEF3
CEE92981
F5F604F7
21DC0C85
09030602
F8041681
F9F7DC00
CDBAFB42
B90025CC
E7C3034B
5EE43105
3E3617DC
F2050B02
F9EEFB7E
22DD3C05
022A0A04
0C12E92C
11F81FE9
5432F40B
DB061CA2
0EFB53D1
06214747
0CFA10CC
2501E1E5
CA47FE0E
DDE2F3C4
1EC7DCF5
180EE4F2
132ED602
ECE4E0D5
0AE2FAFD
B919FDE4
E3EAE4E2
FCEB2146
E5F9F9F8
AF16FD32
DBE730F5
2220DF5C
0FEB06CB
F905F154
3CF0FAFB
D7001F54
DBDE0FB5
273B1211
DC492BEB
E5DF2CA2
14D91D0C
EE29D633
19280DF8
25F3E74B
14E3371C
280C045D
EB39F71F
2B0CF00D
2804F32A
E017DEF8
2EC4E1E6
FA061B39
B327F7E2
F303F08B
1AD81A0F
2425FD17
E50C40EB
04DBFDD4
E7021EE5
19ECD9DE
0401E64C
F3F1F3EE
06353820
DC11EC60
2AEAE0F8
1BEE09FD
03E910E4
E8EBCCF5
E7040BFF
06051620
E9F91A19
EFF709D0
EA240436
F51923BA
EE1E16DE
D822DFED
20F00320
C637F1F8
E029D8E2
2D1F1116
04DD1A0C
12F4442B
03EC18EC
4921F68D
12F2F50E
021212DF
053DF904
15D5FEFE
EA670205
09F8E23A
1B200F1B
0ACF2111
F5110D01
F80B29FB
080AE80F
05FBE401
15F0F9F5
D1F1F64F
5B0FFB14
33031BCF
0E08C5F9
F4F008B9
090A0B00
D3FA00ED
1F5FDE1B
DFC9F214
15EE370B
1533E6EF
2A17CFD8
E6E9C4FF
FBBAEB30
E81D2382
FBFE2F18
34E3EF25
150C1301
EAED2D2A
FDD0F9F8
E0FA0DC1
0EFFF900
15042535
CEE6241B
211C18DB
091C18FD
0818E9E1
071BE016
16F0FCF5
D5EA0F03
08FB01FD
DDE616FB
0F17FB01
2312EBDE
E7ECE907
0FF22007
EA26241A
036EFC0B
E1E3E80D
24F3FAE2
23F81800
5D36D6FB
1DF1FD2A
E2FFCBF8
FA12FAF5
DAF4DEEA
110107F3
CFCD0CF2
0306ED1F
131AEC12
E3D6C6FD
01C40C06
1E1CFC07
F008F908
1113FBEF
F5FB0DE9
0FFBFCFF
1AEEE5CC
0508F52E
EBE70CCA
E32529DA
F116FDF9
0EE5F508
F0F0FF11
CD03FFF7
0630DD00
11F9E5E7
D7EE0416
F9E6FDFE
E90B1802
F1090BF3
FC0815EC
30F70FFF
0E0204EC
1E0824F1
1310E803
3DF4C60A
C4FBFD01
F3160918
07DBEF06
E418EB12
D7FCF623
E70C1BE8
04100DF2
2AE702F6
2B3EF7FF
D91700FC
13F60B20
40FBD4DB
0F0C3D09
3DEB1D39
4FDEE0F1
07DC170F
E02A0916
080DF80A
F3EFD9C0
E8DC15E0
283AD4EB
09C91022
D9F01300
EE2903ED
E4BE270B
1CCA191B
5435E018
1948F1FC
EEF0DA29
FF060717
F6FD130B
16FEF70F
150D07E3
45AF0818
E4F039E0
BF360515
FD152FE6
EEDBEA05
EB1D1703
C713FFFB
13071BF2
F307100B
32E9D6F7
DB023AF1
F827FFEF
2305242C
E0E8F833
E8ED220A
11EB22E2
F9D80920
AA24B6FA
1CDC31E5
1A16E9DD
DCE2ECF8
FB001AF0
20F2DF1D
BB33AB05
D2D411FE
EEEDE5FC
070CF81E
FC26CCE7
CA1EFF02
2EEF0900
1C2CE5EC
05112ED7
2328F71C
15E8D90C
15110F0B
04F3DC11
25F9FFFC
E610BEFE
2F63F009
2AEF0E1C
FABCF305
4F02F9FF
DEEC34F3
F5FEF1FA
B31BF40D
F4D21CEE
36ED0105
AC41FFE8
CF1F2608
F0DD0211
0AE80308
0A1136F0
EA2E0F10
F622EDF4
1CF907E6
38F5CE26
36F41745
D61A0013
20213407
CB193103
F6F2E717
B0DEF8FF
190CF421
DD161DFE
1100E407
EE0D0DC4
0323FC00
38EBEA0C
E2FCE500
FB3A25BC
EBFF3CF4
512426F6
CC1512FE
1D15E1DB
15B71D0C
5611E50E
D1010BF0
EE1F1FCC
15FC2FF6
C5E5CA0E
2218F33E
34F70A12
06181605
B6A726DD
061438F8
12B202E8
FF340713
F511F816
ECEDDD10
0410D8E0
E9FA0BF9
F8FECFF7
EDE0F607
B033140B
24F80E19
1A39D922
DDE21BEF
A30D30F9
0CE9F00E
0A013C2A
FC4500F6
E9022FBF
E9D5EE19
EB4D1707
1C0E0225
DEE6E808
E10910FA
42EAFAFC
253DFBA2
FEC80A15
58B12406
FBE3FE08
0EE6E706
0AF0E9FC
F611FA34
13FE11F8
060E04DB
F50C1503
20FE02F1
0506F403
10EDEC2F
FE22F116
E50B0C0F
091E050E
0E0CF20C
0534F0ED
210BF71F
F516D130
E4E0C638
00F031FD
13070616
BCD822FE
2AE9192A
E6F82100
D8131502
E50202F1
0F06CBDB
062201EE
FE0A00D6
DB050FE4
0304E406
F81FED06
03F603FC
ED19DBE4
13212831
E8E0E708
FD0401F1
E8F9F6E6
BA3A95A7
E4FF1414
F7C314F2
032716EA
EEF7ED4F
05F0D6F8
F4F0F8EE
F1212D17
05031D08
19E0FC01
2CE007D5
0615FBE7
F7E5F224
23EF03F9
323A19C7
0AF3F5ED
E80309CF
0EE0FDEB
0200F30A
5E0ED0F4
3307F338
EDDD08E3
E5E012E5
FC02B5EB
F205D7EB
F3DD19F6
0322FAEE
D82CEECD
05ECFB0A
E8FF2213
F1162B04
0C2C54FF
F52208FD
F420F22F
0BDCFB00
C5B516D7
E9FB2E21
DD58DB0A
CE0CE51E
C4ED26F5
161DF3ED
AB020C2D
1CEFEC00
DB10220D
BA12FA04
EA06E635
EF16E6FE
EAE7FBF7
1213070F
BAFFF61A
E1F4E611
FDE1FB17
EE0D14EC
0FEC0637
CBFBEFF4
DE30F3F5
F2ED01E5
3F251CD9
0E01FD11
22F008F5
E7010E0D
0DF8EA4A
FAF1DF13
F529CE1A
F3BEDD09
19DC08FB
050FEDEF
E719E9E4
0214FE02
FF1F0307
1918FBD5
F511F6E7
38E22A37
DFAB220E
11F7FDFE
32F9FA0D
CDF60D18
C03BF2FB
24D20BD0
F31224DE
BDDA21E8
1FFBDDCC
DAFA3AEC
DB3226E5
C5F916E8
18D8F619
0CFE3928
F62B1DFA
23E71727
D1EF20ED
21FDB118
2A040AF9
D51CEC37
F6F73908
C0FF01F4
08DAD017
F9E116DA
BA0C2416
FE0FF818
2718EAE4
DB2C96D2
2AB4E7F4
FCF1191A
C8D728F7
2A310A3B
29D2E8DC
1CEAF3FE
EDF21717
FFFC35F4
1BEDD40F
10C101D5
5A930854
F2FA4011
FD2ACCC5
43561FEE
000EF31E
F6CF2F11
58172404
2FE1FFF6
69E4FD27
2DD7010A
C1E2FDF4
E1D3DC09
00E9F4DB
10A7D609
ADBFE61A
04F734EE
193DE6EE
0A2BFCE5
0AF905F7
EF100ED6
0133EF14
D04C420A
EFD6390A
E7432F25
D51F1DE8
EA0ADDF8
1A0D0209
13AC2629
1E230FFF
E25FF52A
583A1512
3BDC0202
02DA30E6
CFC9F139
F9DE3BED
0C09E10F
D2EEFB16
CE02F5FD
E105140D
060D05E3
0DFD1228
E60A090E
0A17E6FB
BEC11F46
EC143A0A
FAF0DF1E
24FC050A
1708E90D
D5F20543
22E2EEF7
13D80D0C
353EF07E
E4FF051B
00F9E4BA
1D100E04
E9E2ECBD
DC100518
F4DF0809
F50C17F7
F1E10ED8
DEE9B7FC
DF4925E8
D51C220E
BF12CE55
5BFD02E6
E00CFFEC
02F00BFB
DDF50C20
AD0F1514
FF16F8F7
02DEDFE2
E4F506F2
D8071DFC
D8F33916
370317DE
0D1BF5F1
E5E137DE
2207F840
07FB021C
D5D4CD9E
340EF901
D61B0959
1310BF20
23EF17EA
E30248F0
F40F366C
16FB08D3
12460830
F2E00E42
D2E81B0B
E40416FB
F3ADFCB7
DCEFFE1B
CD372824
1700F2EA
E70518F7
F2F30814
0613EEF5
F504FBDD
E0162913
FD07E80B
2F37F4D4
FA392914
FED8DB1A
E7EDE018
400EF24D
E4DA00BC
45E6DE09
B6CFFE24
DF0CE7C2
E6120BEB
011B1CFC
412AF215
20F73B0A
E802FE0F
14F20408
F905D5EF
0815F10D
042CF1D4
BFDDE9FA
D737F7B1
F1EA2BAE
C1153FCA
F1E71324
F50BE6EA
EE5716FA
2C2A16DF
FB1FEF37
0C2122E6
12E0CB13
10E2DC0F
0BFB1525
484C4009
FC1FF822
0A261929
CE3CFCD0
0CEA1C0E
F3FFF213
C5E0FCE0
07FD0B32
01D6EE08
0AC4282A
09EBF7DA
E0C42416
09FBD004
0F19F804
15080DF6
F3042211
2B2B462E
D852D628
3E0F0406
F7101926
D1ED0E0A
0A4DFFDF
2DFD0C06
251206C1
ED231104
0AB3DBEC
FCF502FC
D7CEE5FF
29FEE1FC
12E60AEA
68040E0E
F8F73DF4
01F236EC
DF0B2797

