364216E0
42F8E20C
F5F0E9DA
0D08F8ED
DF2A1203
CE0EE310
C423FB0F
C7DBD522
E30E07D0
F72BDF03
123403F7
D01417DF
D4034104
0DFA2209
C00127F0
2513EBCE
53102CE4
153F33BE
240E3808
96E20E2B
C452F5FA
0E0AB105
E1E8FB00
02EDBD2C
0D0AE9F9
00FB03F9
CE07CE0D
C404E335
F2F601F9
4D1F18E0
1A16C902
C00FF9F3
EE08FEF8
E10D120A
EEE6D8E3
EE180C11
21EEF905
E617ECFB
10411902
071D2610
0730CA21
C33FE432
19FC0312
1004F7CD
F23215EB
07DA08D0
35000428
1B2AB960
F1F62223
1E123610
06DF0813
EF1315F1
F141221F
E60B12E7
DFF0FCF1
F51D0E03
0707E9C4
04DFCAEB
CAFA3304
FA21F725
01F70C08
06FEF70B
193E17F9
CE1DEBEA
ED1EECF7
FF20FB25
F1F2FE46
12F00A2F
0904C009
FCFCE709
1E290C14
1C0729EE
ED060D19
ECF4EA27
D3FF1100
ED16DFFA
1113DEF8
F00DE4EA
1200F40D
0DEFFEF9
FDDFD500
D5F1EF1A
391D0FEC
1B0702F2
F8180703
031A0727
E20EBB07
CFFE1D23
E917F7ED
ECFA3AB9
F4CEC821
F0260F3A
0C162106
1BFFF0F1
4E0F0701
E8E20B22
FCC80805
D9F3100C
F01F2A04
DAF81EDE
DD13FF31
ED24271B
F2DEE7F0
0F020804
E0E1F9DE
CD1BEEF8
1B23ABFB
CE13D5CE
233E00FC
FEFEF7FC
0BF9F20E
0108FCDE
F8F0D909
F7FBF8EF
F3CDF309
DD3F09EC
11F3FE17
080524EB
FF390001
E10A1318
F848EAEE
14EBF919
EF06F5FB
0522EC21
2A081E16
0014F8E3
D7EEE715
17F1CEE2
E3100714
E6FBFF19
20E73211
08FB0FDD
0A05D3F6
0305FE01
C6F90F21
F0F7E2E9
04DCF807
06E9F4F7
DAF0E6E6
24211B22
EA00E101
ECEB2A21
F208DBE1
F514FD0E
0E0F4C24
E4123219
27F9E2EB
F21501F7
0110FEA7
286014FA
42294409
3EFDDCF9
1B1CD0EB
E9072C1E
F40D2735
18120DEB
05481808
2BDC1D0A
071494D4
FA19FE08
11F0FBEF
E2F5A5FF
EB24C406
08EFF302
32050BCE
B81FDE15
E41AFEE8
F334E9EE
F0F61018
12EE1D10
BE363215
1FF9A718
814FB1E3
F12C5ADF
C3F90D47
252208E0
2DC7F8D2
3AF7C2F5
00D33250
4BD53E32
1DE0F608
CC15DE14
2D16AE04
E21AE11C
0C2E3518
A9E2C7E3
1504E5E4
152DC30B
22F80710
11FE6205
BE110AE1
0114C5EC
0CE31A16
E31A0EC2
59FC2618
4E2827D0
67A8FA53
25DDC0DF
34C914ED
1E2505DF
DC330A24
EF015B07
10DFD128
E00AF203
DFD62DF0
DCF31AF2
18FBE1FA
F5F9F402
131F452D
E40E0014
E2F71CE8
F2F41A16
0DF42F13
4D0827D5
23D23A0F
21F000EB
24F6F7C9
111B3104
1719E4F2
F5090BED
09E9F2DD
D0EF06E2
1E12ED0C
0A0225F9
063AEA36
F503EA1D
F207E6B0
F32AFC08
C3F406F6
0913FFF7
D715DC07
04F0EEF4
0E0F09EA
01E2EBDF
D4DB13FF
EB332545
E9EF2607
D80DF6DA
0D2316F3
17FEEE05
F5D6F703
F2F00A0C
EA152F36
D00AC147
E1DEF20E
11060ADC
F1C7F9C6
22071605
EDDFFB14
3301FE28
00EEF4F4
D93C1D14
0A1B0304
10E50C10
0DF91CEB
E6EF4827
CB5BF1E1
FFECED17
0413F120
E80EFEF6
08DEFCF0
F820DBE5
36EDDFF3
E70CF125
CBE6F6D7
EB04D617
F0FD1E0C
E902FDF3
3C1BE415
06FDFAE7
EB0D1621
07F00CEE
34F6FF05
050F0F24
2D0A0AFB
12150EFA
B433F9F4
F103ECF4
4008FE1C
EAEAF31D
D9E70925
FFC72629
0E061BEC
220FF8D4
0BEE1ADE
ECEB07CC
1F32E605
200707FD
F1ED060F
C0E2F8F4
F01E1A02
02FD0015
00ECE606
D3F60EF4
0F08E1ED
FE0215FB
35F1E82F
EA0B0D31
14E01714
F6F9FEF4
BEC12017
01E1FCFC
1FDB4309
16FAF5FC
FBFB1C24
0419F40C
F0CE3BFA
10060AF8
140534D2
1BE6F3EB
F3F112ED
EFF2F202
2C170B25
3BFF1318
E3E60610
24072923
1B2A0310
15E6EBD8
E8E1ED11
2208063A
0BEE0AF1
010001E0
474600E6
E1ED01DC
DCFCCB31
32F7D9D9
FD0903F7
BAF3E8BB
F527AF28
130AD5F7
EACE0013
54E40F17
21EEBA39
2E1B3209
31DFA711
182DF7ED
0EF15AD3
111B49BD
D5EA0FDF
FA280D01
09CD1419
19EDE5CD
ECFEFD22
D91ED1FF
200A5A10
070FBA35
230ECEF1
23DCF226
00F7081F
FEF902EE
EE0A34F0
0AEF260E
EEEE05ED
4722DAFB
1A03F8EF
00FDFACD
ECD6F323
30CC1D20
3E3BF328
0A4D18ED
32D61F54
FE442513
25C22129
094029EA
E9CBF4F9
06FEF8CE
B2EDC04E
48050AF8
220E0414
0ACC3824
08FE1C16
EE1752F5
0E1FBF22
E417F0E0
69F60AF6
5F56F1FC
1E321718
01F426D2
D0EB17D7
101A05D0
1E2A1A0A
FA1A3FE3
F50007FF
F2E0401E
BFFDD7ED
C62802F0
DC282C10
C5C50833
DC39030D
CBBDE3D8
16BF1BE9
BDF91ADD
F4E8C919
04C1FF01
F5F7DAEC
F1322E1C
0DEAF6E4
0CF30021
F298FB3A
1A04F512
0742FCC6
C905FC36
FF05FF26
E40F0603
17061BF4
E5F2E8DE
001F10EB
1B14D809
1CAA0709
051607F0
56480F0F
3BEDDC04
1EA8194B
E512FF13
1D28DBA6
D509181D
EB0907F8
052B0EFD
E7D146B3
2CC536D8
D80548AE
E8CD1012
F3B704D9
0712DF02
DE0F15EF
17FC0DE7
CE172BF2
2322DC15
20DC0505
0C2E17D5
C50608E5
10EEFE28
060909D7
BF1D35EA
DCCD030E
C59A0703
FAC31E1A
1BD2EB0C
D4DFFD45
DFEDDC01
95EA2703
191C63FD
10E31ED0
F5EA36F6
E4F51221
D6FC320F
32252FFA
CD100CC0
FD07E4EC
0CF40B02
0C262809
EAF6E409
F8EDD6C3
E33004B7
DF0D0611
0506F0F8
FB0CF9F7
F31F0009
01E115FA
C3F41FF1
11EC0A17
2007FF15
18FDFCF5
0A00FCEC
F4FDF5E5
050A0609
F914F3FD
F5FF01F2
09EE22E1
28DFE1FC
161DEF30
21361AFF
0E26D82F
11220400
400A12EB
0B0336C0
F616FC05
DB1BFAF9
331E3329
1BF3D608
F30FF509
121BE813
04FED60D
170101F4
A51E0CDE
EC05E503
08CD25FD
D6BEFF36
FCEEF90C
FD12F0F7
E9FFF5EF
E20F210C
D1030000
C003493C
09FBD2F6
12FB060D
F8EC0A04
F3EBD707
12DE45FE
0611F2C5
0C00FB1B
0100F0F8
06E51101
1612F31D
EA1BD7DF
FDC01703
FBE3BEE5
D3F32AFC
0FFDFE12
EAF412ED
EF0B0508
E5EC1831
DAC3DECD
DE2BF313
13F8FA19
F1E1FEF2
FDDCF426
061D040E
0A0812EC
14060A60
D9E2B300
14F1E3E8
07CFDCBC
2C08F112
D815D204
DEDFF0E2
0ACDDFE8
F217DE04
FBD71E22
10052010
0BB5F818
DE0ECFE4
E318E50A
51211946
08204412
0BDCFE04
CCBF04F0
1AFDFCDF
3901DDC8
22060218
1BF5EFF4
15F81D15
233124EC
12B9EF01
FCE40C10
02DAE5E4
06F7F214
EB01F821
F8E91A18
E81CEFDA
16F20717
E2FF08E2
FEFBECF9
30E9EA05
10C90317
F13AF0FA
DE102B0E
34401FF4
DC002F20
2102160F
0A0CFCF6
F20BF3E1
E7F7E403
FF0A06F0
0DE90C2A
BB19E5F1
32E101E6
1A08F515
E30CD2F0
F1F90FF6
02EEF60A
F91DE6F6
C9FFF0FB
E5D03A12
E00BE5C9
021615FD
35F8F903
39F0D8D7
31E909D3
36D39EE2
3DCAE6B3
2DD8F999
0BDEC7FE
0BF5DFE4
F6F82424
03E4E1FC
2BFF06A3
CF2A9E63
3FE5170E
11EF222D
ECE3B6F1
E8BB2CE2
FE0689F1
E7FDD306
E1FE0F3C
14D90732
D3053314
12FA39E0
09F4BFEA
32F80704
E923D221
DDD0F6F6
F94411F8
1D1BB3E7
F3DEEDFE
202240E4
1DEF1401
20F5DFF1
F9F9FEE5
F61E0EB4
EC4622F4
F7EE1AF0
FF080C02
0D1BF400
2FEDEF11
7EE70837
C9E912F8
303A1E22
28E2E726
150746C5
EBF2FE0A
F4EEFF48
A6D9F2F4
FB050AE9
FF32E039
1B000654
E7460EF4
1FD80216
4E1D3C1D
481C37D1
F7CCCAED
02EE102A
F8CBFEE7
73E76039
3EFCDB04
E7EFE9F4
DEE208D4
CFE4EA24
CED202E6
EBE0DF26
F30D0ECF
DD0612E0
33E2330D
E50B13CD
D6EDDFF4
F1E5F101
1BCA09DC
E91261FC
FFF9E7F5
E51BF106
1806F711
FBE8EDCF
DFF4DD22
EA02DCDE
030D05E1
F1DC150A
F2D8C320
F5F517EE
FB04E81C
091AF1DD
E1033103
E202EBF8
020332F5
1ED6051A
08E4E2F3
16F6F3B6
191B0C1B
34FE1532
E00E01F7
DE0CF803
2514200E
44B9662E
30B903BB
EC12D8F7
E202FBEC
F50CF3FA
00FF26F8
FDF2F12D
19301AE6
FD0FF410
2ADFCBD7
D301ECE6
0B1C14FB
F50C0126
E6F1EF03
01C0F348
02E824C2
2DE210F5
FC281200
E8F616F2
17F0DBEA
FFF229F5
2EF7F516
F104EEF5
2C1F2FC4
DEF51F06
13DEF3FC
FBDDEE15
E1BDEBFB
E3FD0DFE
071408D3
03FBF3FB
2F410718
EEE00308
20E72102
4221EDF4
EAEC2EFF
D312EFC1
26131002
EDF142E7
E0013209
E900D31F
E3F210C2
E102D0EC
DFFAE9EB
0C113D0A
EFFE4BDE
30001C0D
F1D3140F
FCFB032E
FFDEEE28
46D8E8DE
25D8F5F8
0E390216
E0EB0A20
3BCF20CE
D6C407F1
033E253B
3CF8F619
FBCD1AD2
E0DE34F6
49E226E7
F124FA0D
180ADF40
E5B91BD4
34E0141B
21FA06DE
F2D9F21A
1305E42A
D7DC2419
293B0BF9
26FFFCD8
24F01BD6
E145EF0F
F51ADDF8
E9DE030F
F3E3E7F0
04F918FC
292100CF
FA37FF18
16FCD3E2
2DCE03E7
1F0CF0E6
1C072F01
EA230524
17271C19
E5FBF61D
F9FBED06
E8EFD3E4
3E1608EE
34EA2F2F
F209D526
F92FF9BF
F1FFF421
ECF4FDE7
E824DCFE
C836CD1D
AF100FF6

