27E90BEF
F8DB0766
23051409
1AF2EBCA
0000CA42
F11E2514
40D31819
09F9E02A
18FCDC38
01D41FDF
BE1FEA04
0AFE0E0A
F0CDCDFD
15D80DE7
3F070EF5
20D9E504
E021D186
DAE312DA
D6CCD1F6
D1CA24D8
32F0E941
E4C92AD8
2732F01A
C8183A16
E0E8FA05
FD22EF14
BAECE565
F3DE032A
4E124800
FE39F0E0
28F0E012
2B31CDF8
F8D532F0
F059D00B
D0EFF4D2
11ADF8FF
2410EC04
07FE05FD
EF0CF206
11E3C319
2B22430E
0EF5E20A
26080FEF
15C7042A
040805CA
170ACEE2
390E0D05
13D709F4
F528D502
CC10B8EF
B7EB1E4F
E53FEE0D
391E0EDB
2520061B
04F1BB4A
F050DEEF
42BEE63B
DDF1E1DC
F5F1E718
DFF464E2
5DFE2A13
F4222318
04C31EF4
111F422D
0B0B2B25
03EFF3F6
F4EEE4F6
1CC72F09
D91025C2
0B0EFFF3
6602F3D4
0CBDBF14
2D29EE5A
E2E8F421
CC20F9DE
FEFA0D4F
0912E3E9
F813E8F8
FCEEF6DD
E00CC42D
D6F49FB1
09F61FEB
F7F8FC20
11011CD0
0C05D30A
20FFCAE8
D6E81C4A
CEC6031E
47E20E11
113614EE
D225F4DE
CBFF311C
2FED01F1
D311CDED
1FD1F513
D2D1F335
44FBD701
052531D1
3A01152E
D30DF70C
310DCE1A
FB0D4D52
2D0741EB
04FAEF07
15EDECEC
0A070101
4C10EF39
CB02B921
06EB1E1F
ECDB0AE8
20000719
0E1F000C
FB0EE7FB
B7DEFBEB
D6FB2BEE
ABFC2504
13FD092C
0710F611
C7E7F936
E7F4F4D3
1609061F
2202DB21
FDF0041C
FC4200D4
080EEE1D
F1EBE81E
9C0C0417
38EBDF0B
0DEF1727
0D0EC318
04F136EB
072A210B
E9111D16
01EFEFF4
1C03FDE6
EDF63B28
D2EC1FEC
5EF20EEC
F2412621
F708FE1A
DED6F4E8
E435131C
0DF209DF
1B1BEFC8
EAEF120C
DD21FEE1
0A27FF0F
ECCEE2FB
BBD3EE33
C412E8EE
FE110409
212340F3
B94AFDD1
25ECFAA7
1330282E
BDCC3AF5
20D41010
FCDDDD27
F92819F2
BCF84EE8
FFFFDD14
F5DAE01D
E90610FE
E5F91E09
1D121C06
0116E4E2
BBE50AE2
02DFE270
09FAFBEC
1C0714FC
23B733EF
E1AB2CEA
BB1C0CCB
B6B9CD15
0D1A15FE
1EE129B4
2B23D4BF
3728DC20
D1F028D6
3817382D
4337D205
DBCA08D5
37D112FA
2859EFE2
09030609
F6C6060A
4207FF1E
F9BCE00C
05190028
EBF4DBC3
0BF2FA17
DDD3C816
4C07DA88
26EAE702
E919F73E
0DF5E936
E91C9EE7
FEFCEF0E
3300F719
20F01D21
03194714
24C1FD00
D6185212
FEFB33F7
10F90827
1DC92BF7
1FC4F747
39070801
1AEBEDFB
EF0C230E
F117D8E6
EB0E07F6
0E39F2D8
EBA1F3E3
1BF712E9
E70C37FB
280C2164
F5EAE710
CB447E22
D62BF903
15F23BE2
E029C30A
BF0CEF02
F1E51EEA
193438BB
ED2820EA
400C0006
3E10FBE9
E701E620
FE3A28E3
F5C7CC06
10F110E6
D90613F1
02ED10ED
FF0BDBD3
29F429FE
F3F0100C
DF0D29E1
ADDAEB21
F31AE1EF
05EEF828
0C0034FB
0F312305
FB4410AC
E21BEBF2
FFE6F712
7405F0EB
E2DF15CE
E7FE053C
2344DCDC
0CE8F432
08EB1FCA
D6FA35F5
E3E909FD
1D10E5D8
C813E324
1049F025
071D3AF4
140FEAC4
F616ED33
27031A7E
FFF0F8E3
41D1BFCB
1C0CFCD7
030F360A
0B28DFD5
F1EE11CD
D9F5F5BE
DEE2C9C5
E70404EF
BCFAFAED
0710CD0D
EEF20EEC
DAF6DCF6
11F9D010
04F12408
230F2498
EC1329EA
0D121255
13EDF6F8
FBEDFBD8
2738D72E
FBF6E93C
28181AE2
09F8ECE6
F31C1320
C4000AEB
DA08F624
0319F790
16F9FFEB
010B3BAC
C328CEF7
CEE5091F
031820EC
C8270F1C
20C80A00
08E9FC7B
FA07D9F1
01E317E2
0BFD4010
4611DCFA
C3F2F71C
1C06F6EB
FA00DF14
152AF458
02CAD409
EFEDDAFB
1FE2F8FF
DBE7FAF4
370B1006
07F805FD
0E1E2ADF
E3ECFE7E
0EDE27FB
F4F70B8A
011EC403
04E6F63A
1806FCDE
0308F53E
08133CD9
F8D721D5
FFFEE0FC
A8EB10B7
5D22120F
F7F8E021
3705EEF3
FF11EDEA
F5E81332
160542F6
1E15FB01
0DFDD42E
F70BF3EE
03111903
D9FAFEDB
01181AE8
22130BEB
E4F72A13
2C1F3414
E3DD0BDC
E2D332E4
38FB1428
EDC1E409
0CCFF4B1
012F2126
090DDDE1
FFD7B606
FAF1F209
2DF80A28
D7B9F827
070FBCD5
F50B1931
54D8D4FC
F1EB111C
EFEC0704
00F60001
05DE43FF
E804E1E7
CC09B8E2
F32ADDF4
E4CD00EC
3AB422EC
0A1B00D2
D62B484A
F1D7EEFF
2FED0AE0
FBE5E2EE
5B35DF37
040FF908
CCFEE223
D6F514E7
590422E1
D314F8E4
18E4EAF3
DFFD19E5
F8FA0D15
09F72008
2E091133
F1DEFCED
12FEE234
EB24ED2F
AFD2FAD6
30211E0A
FCCEDEBD
F8072BE2
F3300DF4
3109D4DC
1009D6FD
04F9E5A8
E5F6EB1D
E212BF05
2609FC1A
22D60634
E541D30D
D4F4F015
F30E1C14
D84A2C49
FB140B27
081919E1
B6FB2EE7
1CD201D9
1308C924
10E81E19
F8F9EED6
2581FB08
1823E914
E936D013
FB161E29
2CF31FED
2FF22900
F5E03FF1
06DBC3F1
22051015
47FFEDF9
0F22EA12
06FE05EA
F5B60BFB
171AECE9
2D3608E9
3AFB071D
33E4EC01
FBE8C8B0
BC3DCAF0
18E73F22
0CDE09CC
E4F00202
0D18090C
290BFCDA
CCB5FC05
C1122814
011D0DEA
3ADFEAED
0EE40406
98FFFAEA
120846F5
C43CA913
F9F65327
18F1F40C
0B1FC9E5
D5001C1F
E00702F9
1BC302E5
0A4F1BE4
16D4DDCF
0315F719
CEE93B26
CFD4EFE2
E9261B11
1DD1EDBD
EC0B1003
0AE2C606
F106EC0D
E810E805
0C06BFD2
0DDF05F6
0A0109F8
F5D3EBF3
ED1B03FC
EEF7EF18
DBF000FE
F7071504
E8EE1CFE
F709F10A
090CFAEC
07080110
0407FE0C
0BE519FA
DD08D3FA
15F827F1
0EF6EA23
E1C0EAF9
1BF41738
F9BBE3E9
D7110701
05041CEB
CEF80500
C4EDF332
E004F208
061E0DD3
A8022AD5
FEE8D3FB
FEFADB1B
072703E8
0F1BE619
EDFC02FB
2CF70601
4EBDECFA
1A1BFDDB
CDF2EC12
05EA00EB
F8F60602
120AB910
DDD3E70C
DBEBFDF4
CADB66DD
FC01F3F7
EAF620FC
F40DEB06
FB01DC00
00CF1EE0
DAF91DC8
00F30F26
1C202BFC
EEF20C06
0001FDFE
01F9F507
09E2FF3B
D3F7A3FA
FA110CFC
1601FEF3
F804FD16
FF09E217
373CE3D3
21FD203A
01352EF5
24FF09D0
0721EAFA
F5F0054A
F9F6FC12
BA0ADF38
CF01D209
0AEF1E7E
16FDE5FF
21D7D6EB
F6D7FD1E
E9FEE0C5
D309EF0D
F6E5EDB2
050DCF19
F20C2418
0D1B1E1B
01092005
EFE2C29D
01EAEF5D
F52708FB
2306C132
0EBF071E
1FFDF0C7
112D001C
310402D1
07F83820
20E20A48
0DEE041D
07FE05D7
ECF90F06
39FC0FE1
EAE1EEE9
EB0FE861
390F1614
F9D7012E
4C20EBC6
16EE2644
2CF32ED4
FF031791
EFAF32DB
11F64939
2B491DFA
0CF6DD00
101511D0
05F0F3AE
1AE0102F
060AF1B5
1701F204
1909E93A
FDCFEEFD
2613744D
EF1BF8E5
05D8F719
FEBEF50A
0BDE15AF
1D23E728
2312FABF
1A0215F0
D4161F30
FBDEEAD8
40014278
10F8FAC7
CC0D5DEB
1DFBD814
0CC1C615
0FE3CD29
EAFC2E24
C80EFDBB
AB5FCC3D
16B27E0E
35E31CDC
FF20043A
FCFEE1D7
B614352F
36EA52A6
F01B1D34
411438FE
0A6A0C11
BB0DCBE4
12F7E7DF
1BD4F4D7
EB1CA81D
10093A0D
16DCFB02
EC50FEF7
FE05E3DD
FDF6ED4C
F12FD9F6
AC29F11B
8F05FF36
F21518FC
DA3A1FB4
FB43EEA0
64EDF8F4
E5F504BF
3D083D29
E71EF420
3121F7E7
21EAF052
E03B0AF3
2F050824
DFCF4DE3
EADFF042
1F33F6F4
A225271F
60E7F702
EACAF3D4
F1301E41
3EDBF61D
EC05EB38
C1103202
F7E8F324
08020AD4
CE1EF8E8
2AEC1035
CEFDF8FE
1B0A02FA
C1DE19C4
0A1A414D
1BDC17D4
1FF3D8EB
B1EDEA1E
380644EE
05A2F92D
AED5CD10
F5FEE7E9
34F22013
E02CE5F4
3DF1EFF3
E4E719F4
0600FB28
DD35492A
F914D6E5
F7110F10
0F35F125
F6EB03F6
F00B06DF
0109101E
C3FC2AEF
C0FC302C
FCEB07B9
C800FF08
E5FE03F4
130EF50D
F4FCF9E9
06DD170A
00E0EA0B
25D9F6C7
E32A0DF5
6D002EFD
270D02D9
13F0060B
1503FC13
0DF2F2D8
2106FEF3
170CCFE8
1AB6F7B4
0323ED01
22ED1125
032FD00E
160CF7FA
020B1A22
0EF1E9F2
EAF50D03
E4CB2CD2
08E62C0C
DC1308F7
22FB97D9
1419E212
FAF4DAEF
3B06E427
11072905
07B9C920
B9290DE7
1BE9E0FC
DBE32DEC
C0C4D6E7
DC1ED901
3B16FAE4
29050202
2803E308
E615F6A3
ECE50C01
0346B9F7
0205EBFF
F6F603FC
DDF523EC
D7FABEC1
ECF52B13
FDD71012
F9E548E2
3C08F0E8
DDEFF72E
3D22F5FD
E80AFB48
EEF40509
41FCD833
E7370EFE
09FA1043
E4F6F035
DE11D801
0DCAFDD2
1FDEC41F
E4EC1229
260122E2
EB0C170C
570D3C31
1A1FE906
01F4E160
022707AB
E3E9FCBB
26CC000C
1AB1270D
E6B508F5
E7F5DFAF
F504201A
39313E38
EE9708C9
0D020903
EE112E35
0C04FCF7
10A71BF6
22C41C17
EF2A1401
E6F1ED01
DE17D7F6
CF150314
DFD1031B
F6F9F818
0ADDDCDF
1BF2E648
E1FEFFED
15F9D3E6
1712C608
D2DDB9B4
2CD5FC1C
B5CA01D6
21CFEBFA
C01403EE
FEDFFEF1
E50BD926
0D5129E8
100C4AD5
F4FFE3DB
151421C9
264312FA
042BCB48
0AD74315
1E1104F1
193D2EFB
04FCFCBB
01CE1A3C
2ED2FE38
E920DADA

