4213D30B
B5FBF821
E22A01DB
CE02E8D8
E2164B11
09F60F0A
FBF11EF8
29D30819
E21450DF
D91A13C9
08D8FD0F
F1F8FCC2
E83A06F2
2E1FD5D3
EFE704D1
3A22DEFA
F5B9C2BA
1FDAFFF0
DEEEE7E5
FA1A4406
FC102530
EBEBE110
EB090011
2D18EC19
FBD3BA30
D5EA05D5
EFDC1CFA
F5430107
0CFC1B33
FFE806AA
E7132557
CCB51010
E4230DDA
3FCB28DB
3E0FF6D6
134AE016
F8FDB1F4
D0FCC12E
0926F8DF
A84523F9
1827F2E4
B72ADD04
027A1A1B
F10A25D9
B51EEB16
FDE7C2A8
0C15EC0E
35F622D8
EAF42711
E50E0B11
D5063EF7
2FED210A
14F6BE45
141D3208
0CFBC1EA
E6CB2A2D
132E3022
13F3261D
BD9E0889
FBEBE20A
0A5BE505
DFCF1F25
02DCE71E
CC0213C9
100CD418
0B06F729
E01AF8D4
11CA13DF
0FE200FC
0EE00D28
11EE0EEE
30A1070C
25E02A02
EB39FE19
09FAFE1A
EEFF1A1B
FA09E71E
61190E0F
C1D6101A
1A0C1A36
14E906EF
82C0F4C1
F3F12CD1
3819ECD0
220E3EC2
F521EBF8
D7ED1D09
3EAF29EE
3FEB2135
FDFAED13
F0293206
13D220C0
30E108F8
1E020C38
22EDEF04
FCD6DCF9
12DBF917
204DF1F8
40EA0600
EFC126E5
000D0BDE
3DD6F5E7
10F8E01D
E5D6EABD
F959232B
07C53614
BA050613
00F50CDE
100AFAEF
EA07F2C2
F2F74927
2DFADB29
D92AC3F9
E50DE505
0C013322
E21108DC
0406E0CF
00EEC504
0926BE21
48FC26D2
031EC8F9
ABE20E1B
0C1D10FC
DE51FFD2
F914EE36
CDF811C6
1E1DE9F0
39D4E1E8
CB48221B
FAFAF91E
09F5110E
F40F0114
0408DEE2
C84419CA
E50426E8
E81143ED
D9E8F002
99DCF0FF
F1FD1809
E202D4EE
37F5F710
E90CF0E7
E8E1D91F
E00E13BF
E40017E7
BC082813
EBCB402B
04DEF52E
E8520FFF
E5E101E8
B425CE1A
06F0E453
F1CDDEF4
34F7FD20
DF3903D7
5A284DE3
FA0BE013
08E6FD16
140FD2CD
33F8F307
B313FD0C
1430D5C3
DC1D4738
D9B59412
C0F30D17
2C0FDFE2
1A20F70D
DE20F502
0AC900E1
F7DEF1FF
2A02CCDC
ED20F81C
D50B20FE
062BF4E4
0C07FB15
C41CC81E
C50207F2
F6140713
FBFC1308
DF0BEEDD
03ECDF11
210CF652
000E4004
32F4FE26
BFFDF918
220D0C00
F3F21B1E
014B1B0F
1FECE021
AFFB0037
0AF30006
DA16FF0D
25092108
360EC730
17304405
DA11EF31
0B06FBD2
BD412406
F146D1E5
02DBDBD0
CC0F021A
E5EF3CDA
2000EFFA
3E11F217
DFFDC31A
DDAC11EC
F14614FC
A51A241C
14EAF7D5
0A00DFE6
F00DFB0F
0FB8D2F7
0DEFFC0E
FACFC0F7
EC17FF2B
E0F3FF05
23E2F6E6
54E3F7ED
2FE4011E
E1A6EE10
0A16FE34
22F11E14
EA08F600
0DF2F531
1E25D3D0
2828E5FC
CD07E839
36E80DDC
DBF9E6F4
CAF3202A
04E71FCE
F746FBF5
03141008
FAF52530
36C65218
3120F4E9
BB1FC821
F4D8F1EF
1D08F4BE
070E05FD
FAEE0DF5
000204EC
0026B6EF
27EAF4F6
1AF00F0D
57E904C5
D83AE1EE
1807E935
32EF142A
240FEA12
18DB2D17
E0D40412
FFF601E4
F801E416
2BD6D6E9
F4E2EF0F
0607EDD4
022AC6EE
E9C2FD1A
EFE0F3F8
FF080CA9
FA17F707
1CEAD4EE
DE1E07EA
00FC08D5
BF110914
E8E20CE2
1EFE021B
1BED3212
1EF2F921
F30A1905
FB1306F6
E4EF2926
1DB4DEDA
1403F80F
D4EEEE08
F4E80513
E3F2FDD2
1DF8F6F2
34FE0404
EDFEF5F7
F30003EB
FF1A2F0E
15240033
31F91417
00F1BB03
18E813F5
082500FF
E5DC46FA
F9050EF4
08D324D3
0321F802
1B0FF40E
CEFD36FB
E4F915E5
D835F316
DED9E2C3
1C0215F8
DE02CB23
2214B6F0
E0212AEC
01DF042A
1BD6F41F
DAF4FBDE
17E331FC
2B5FF00E
F2230AE9
D8BFE1D5
06F2DA0D
E81912F5
F103F1FC
1C1DFCF0
0215EDFE
300201E8
FD01EB22
CD010B40
E8FF0122
FEF6FE1C
DD0315E4
FF13EC01
1BFBEF24
27281812
33FBD507
E8DE0E65
F0E6FD2A
09DD0A18
3AFC86F5
19000048
0ECB94EE
1DF2D314
FDEF2401
0C1625FB
D62A0D0F
FC0100C7
0F0522E7
C10B152A
FEC5EDD9
E6C80635
25D6FBFA
2BE1E704
EDF5131F
F51CE4F6
3B122303
EFB00126
F5FDFD13
1AEC3601
FA9AB837
03EB13F3
01F8E630
09F60D0C
EDF1F6FF
E61B1EDE
C5EC0FC8
16AC2213
CA0DEF03
FF01F6FB
0CCFFAE8
D5089CC6
0BFEFDE0
04FA2437
39FF4227
1DD501F0
F907D818
10022AFD
B021D32B
2404F9D2
CFFDE725
ABE4CE06
EF12EBF3
0CEE0034
08EC4515
082B54D2
E3112903
DCBC1DED
031CE4D2
F2160F04
29D2071A
D631B8E1
ED0A351B
D72321F5
151AF315
C50EFAEC
19DF1E26
1203D90E
3F12F8DF
2458DEE8
0DF5CBE5
3AECF2CF
E205303A
F3080DBC
EAB80DF3
FA1816F6
0FD911F5
12ED9E06
F0090F16
01121123
090D26EB
FBEEF4F9
09E8DE4A
FCE31B2D
21DFE2F8
070A20F1
29D00FEE
1EDB200C
18F9301F
280009F4
F55AF7B9
3B2C9E5B
12DFF7FD
0C3AF3DF
270D3EF5
B9FE0ECE
11F7BEDF
22F6FE03
ECFB3406
21204919
EF0BFCC8
0A070210
CD2AE931
40BB28C7
15B3FF0E
D3C45738
F8F5EA28
56E2EAB1
202D2122
F7930D1E
2914E2E9
E506FAE7
F713F2EA
094D0CFF
FB241E02
232A341B
2F1103ED
EED4F81C
D0F0EE12
BADC01FE
DAB4EA23
2AE8EF9A
E0FFEAB7
F0F30423
F2E61C24
FB211E1D
29FCF8EB
C0E731DE
0513FC16
C4F3FE1A
4E0D262B
F8E8F434
EC00DE1C
EFCE1BC8
F52DE837
F0061EF3
07FB070B
F811FFDD
DC0534C5
26143CF2
13FC03E3
F4E827E3
FE1115F9
EFF01802
FAF1F0C2
42E5E90A
F40B21D4
41C6D102
0000EF25
0F08FE18
EA1AD7F0
F3F1C906
16FFF4FB
192C0B13
E314F9E4
F7FFE906
12010CEB
FB28FF0F
E10CF7ED
010426E1
07012B0D
FBF3D917
F708E504
3EC73EE8
110BFCF4
E6FC10FC
F8F5EED3
092C09E1
04E419E7
0BF207DC
10D50305
E8DA0802
F1D117D0
F2D1F8B6
F3F2223A
DDFC25E7
F5E90811
F80CF20E
18080427
D41CBAED
0405F1D9
FDFC15F9
F40EF10E
0FF4EBF8
15F6FBFB
F623171A
07372306
FDFA1A36
EB190CE1
13F5FDFD
FE01E807
0FF7FE18
0B24CAF5
26F0220B
1CFDAE20
ECD1D5E8
F6DA391E
E13BE4D0
FF17EAFE
EF4EE201
FF0042BF
CCF50119
26F7FFE4
1636D5F7
E91A56F0
0A1D0EED
26EEFA24
6DE1D617
F4122B01
3819DECF
16F30218
BF0935FF
0CE32BFE
DDFA22DE
C0E51318
10AEE223
E9E6100B
DC04F4ED
FC22F8FB
001DEBEA
04ECE7DE
F717FB22
0613F2E9
C8D4DBE6
EBF31025
81F7EFF2
FE15F324
E6EF02FD
06E6FAEE
F6E3E7EC
00F1FE23
F0F4D6FE
FF0800F6
270BFF0E
23B9F1C9
C416D508
0DBE2D3B
18093E0C
0B15130D
0733100E
DEF9C6E7
BB30E3E3
EFE90B30
25DEEFD2
02C1D60A
00D61711
F0F707E1
2421080E
F6F2E6FC
1BDEC4FB
F8D20E12
0EE8D2E2
ED3E2436
ECB50F16
F010E82B
1B100315
FCDAFB05
ED280EF2
EFFF31DE
47F1E92E
E4F5001E
D8034710
1AECEBD4
DB0701BA
ECF2E6F9
3FE4C1D9
10E4DC2B
DAEAE4D7
F30CF708
32C312DB
FD050E0C
2217FAF4
C432F8C2
222AF2C2
26EB1003
E9D91009
7CD5E428
DEE10DED
D8E2F3A1
F5D30BFF
EFE83A33
E6FFCAA0
DFFE37F7
AB1FFA0F
A21CE650
380DF510
51E0FA3A
03080852
07DFE3F7
1A08EB2F
0A34EFF4
1008F7E7
14161E04
28ED00E4
E21710BF
0B1900F5
12151519
F4FB0EC9
07DBE837
E70CC30E
DC292AF7
FDC9E52A
10CC4F2F
EB07D5BD
D4F755C5
0C11FCF3
0AE2DE09
BE10F9D8
C2171047
24092AEE
E5FA3B1C
E3082608
E9D425F2
DCEC2B02
F7D3261E
2FE9F1C5
F5D11A3F
09C80E43
F40DE905
D0B90809
07FC14EC
2DFDC508
2AFBFA09
BD200ECC
E00A00D7
19270512
E90B03FD
1A1BF81E
042FFE02
0BFAF4FC
E003C039
53FE0115
EF1542C6
E602F0FF
EEE10EC6
0AEC0BE0
E609F5D1
29DF1919
FEF31434
E3E6FCEA
EBE1020F
10F120E9
F01251F5
F72F2AE3
1300EA16
FEEB0612
09FEE317
DAE70E21
C51F152B
1204D209
2B18140B
03F004FB
11051112
EC3A021D
E419C6B7
8CEED50B
11DBFC1D
E801DCF3
190D1A0A
F4EEE81A
1B0F0418
0AE6E9E6
17F9F1DB
050EF9E9
C61F0C19
E72919ED
D2FBE51E
1DF11402
10FB0E03
F2EF003B
07D9FB16
51D90311
07F20BE7
ECF30108
09D3F036
E5E0EAD0
F41214C2
F9D30407
DD243209
23F3F4E2
10EA1213
DE1F110F
241EFC44
45CE0D39
0CF6E3D4
1EDB2303
15DAFFCB
320F242C
013A4F08
2311F556
DF500DD9
EE0EF4E7
07D6EBA0
FF14D201
CA16DCAB
6DED04EE
E3464D40
16B626DD
090211E7
F91BDB31
00F5D9CC
4CC50BEE
23F7FF1F
E6C6100D
FBD4E4FB
D411E5D6
DC15F51D
F0F5EBF4
EAFE0F34
E622F61E
1422CAF0
00EBFC44
EAE0BA22
AA341049
0FF7D711
C1DCF6DF
B2023C2F
21F40DC9
FAE11810
B9020BD1
180F161D
DA35FA02
F1ECFDD4
160C1BF9
0AE05C09
0306F8FC
1CDA131F
11070DD7
1724CEDA
DEF0433B
E00DF6DD
091610E3
FF1BF2E2
020FEFC3
0B0705EB
0AEDE9FC
F4DCFBD6
2842D813
4BFF3C12
2BFA0D29
10EA3E33
C501FEB7
09D0EADB
1F24E42C
E509E4AE
33F6F934
F5021728
C20CFBE6
F31FFF0D
08F40706
1EE70C05
CBD3C9EA

