0BF8E2FC
31F6FEB8
2B05DF1E
06EAF708
15ED2CE8
1A183605
C108CA61
EA0E032B
20C71B03
FE27EFF8
02120305
22E9E1D8
E3F20A1B
171F281E
F612DDC9
0219EA09
10D8E963
012E4603
ED180213
3ACEA1FE
11F1C8F5
130F1311
1A012B43
17EA11D6
F20FECE9
F014F501
5E12F929
2BDD0605
0A0019CD
09272F13
01E5E929
F2F0E420
FB112915
4100180D
D715259B
D516FBFE
1EEAFD62
0DF91627
23C5DDF1
D01DFA15
230E1EE0
EEF635B1
32190B36
0E2119DE
CC19F1FC
20FCF113
1CEE0A1C
1008ECEB
28AD3602
2E07F9EA
E90534F6
EBF7EBDB
0023FFEB
31ED0FF3
01DE2211
080C2DF6
B430F4ED
161AEE51
CA26D216
E6EC380C
143401CA
C81540EF
25C8F3C7
10FE18E4
F00616B9
130317F5
D50DD110
1FE5FB11
F8E0FAD4
F3FE12FC
33B12028
17E6EFD5
E30EE9FC
06F72FDE
00FEF9FC
EF06F613
1413ED2B
0EEBE507
28F6F020
F2F80603
E4F1F0F5
2113E822
BDE7D210
06E4EAE5
E1EDEF1B
100FC8FD
E02600F5
C815CE2A
C3F605BE
FFECE6F1
DBDF0AF4
090719C9
0B0BEFE9
30F248F0
0905F4EF
07FDC93B
141BDD13
DC081242
DD193BD7
E5EF20ED
021EEEDF
E8E64602
E8EF08F4
F829F404
11EA4F21
FBF929F9
5EF322EA
DFD3F419
F8F806EA
CB25D50E
F705051C
FD11F8F3
E936DB4A
ED0925FB
EC0335D7
FA76470F
F5F0EB37
05DA0216
F6D51537
FF0A1D01
0AFBEE26
F5F9F3F6
0809ED35
080D2801
183D190A
16F42326
07D3E82B
F2F00213
F50FE70A
40D151D1
24E0C3F2
0B371566
0EF6260C
FEEF1811
11FF08F9
EFFADF0A
1DEB1B2B
22E0E824
260F3517
B9F6DE0E
EDB354E0
1DA40F24
081711EE
282DF002
E71A0916
130C0A09
111A19E3
F5DDBE11
225704C5
19FF2C29
0FF0F3CE
0840E4E7
1B160FEA
0BE21907
2211C8F5
A81B160A
1BE4EBE0
530710C8
F84EF114
420DC110
0D1CF6E3
DD21F0C3
27CFFA21
00F51404
23EFF8CC
0ADF23ED
52B943D8
23E3DAF0
05F7040B
02DDDC02
EFF1B80E
E2361115
CAD7ED03
E6EC2B18
29BCD403
0609D21F
3EEDFCE1
48ECC6E1
DD01172B
FDFBDB15
F2D74615
192EEA19
E430141E
05361824
F31CE214
13050C25
E4E11EE7
18105602
062D2DEC
13B330C4
02DC1AF2
0E051608
2C2CEDFC
100E1DF8
25F24401
E550EAFA
F01BBF1D
E5BCECFF
D828E4F3
1C0857E5
FB522E0C
F1F119FC
C80EE007
22231A41
0D17ECF1
2308E1FC
182CF44F
16EDEABB
26EB16E0
DE0914EF
FEE1B5D6
04F730F6
E429B3BB
F9DB26D7
1BD7E3FD
1706F0C3
2CE22E0A
11E83CFC
F5EB4ADC
0037FF34
2C072C12
D92B182A
EEE60023
FF31F405
D30FB628
D20613F4
12091AFB
30E2EB34
02E20936
0E3109F5
F9F2C9F2
08E8D322
D607EEE6
15EDEF01
D7EE34F1
10F9F249
B6081D14
FD194CC6
FBEFDBAE
CB07E2D0
E015F91A
0BD5FD0A
19D6E6EB
1FFB2114
17F3DA04
E3E0F5EC
490D2DE9
01F109C5
FA05EA04
2207F4FC
FE041CDC
14F02E1A
F615ED03
F2321800
F7141109
F4F50ADB
F6EDCD39
06EB3813
C911F4F4
09E302D8
F7103319
2C01EA2A
61DF026C
EEE011E0
F40205DE
F02833F3
23F41EC7
26110515
FC0E15B5
1C0403BE
ECF800F4
1205072A
F0FEF219
0E1BF5E9
11F4E04F
F811CFFA
00FCEEA0
1A0F09F8
FAE1B6B6
10E8DCFC
0516DEA0
0DFB14EB
21EEFEF7
13071724
DBC31663
28DCF002
FFF80111
0FD41EF2
1EE804D2
1FE4FEE5
1B01F5C4
FA11BF2E
D80B0956
0FF049EB
0ED70063
F3DC0BFA
E83FEF00
10DBE50E
05FF0969
1AF7231B
F4F20505
0F1A4202
1DD9E81E
0AFCD129
1E18224B
E4CF03DD
0C02DF9E
DAD926FB
FD0AD3CF
D6FCDBC7
DDEC086D
0C2E29D8
0FE80D74
130215F5
2CF4DB5E
D1DCE621
21FA01C6
261FE709
1329DD05
F5100104
F40DE90C
F9D503E5
0DBB4019
27031EBC
0C0501C5
140E1FCF
1610F608
0FC6010A
1CE92FC9
E00FF6DC
B6FC1424
C0F8F1E4
DD43151B
6300D230
010802F7
E62FEFE7
DC1F26A7
F60C15E5
020100CC
ECF4F90D
F419D2C3
E7E3EC10
552114FA
13EFCD40
DAFDCCEF
ECEDCD1F
EA160CE6
28F31825
FD0CFA11
EBEEF6E5
D2F7CB10
2722F1E4
F1241406
10EBF028
101AFD04
09F8290D
1612C3DD
F5FFCA3E
E7F8E858
EB28C4F9
CBDF94CC
0616223C
192A094C
02F0EB09
CC00113D
DEFCF50D
2BF20241
130F1C3E
42D51521
F82B0129
42C8F42D
16F1F716
E6F52F7E
DBD41301
1EFB2414
BE06FCD2
EDF80D96
00FA0309
041AE707
0C09F31A
32ED3326
61383C26
F10DF5FF
19180BE0
D7E308EC
15FBAF11
43442910
0F060B2A
C52503BE
0F27D616
FEF70F13
EE24DCEC
2ED8A8F4
E63A16CD
0B2BDDF9
F51AFE0F
1CCD0822
EDEB06EF
F5DCF400
1CD4E8D6
F8D6E62A
EF132910
3B18220B
B331EFF2
1FE2FB0C
25D1DEE0
C12BFFFE
FB079F03
0B001A22
1BD546B2
27DC1220
FED61159
46E7DA0A
61E2F7F7
05F71447
03FAD8EB
F80A35DD
0C21E418
19E9E704
4300F314
02CEDC1E
0F2BACF6
E739FDD2
E40CFC2B
D6280DE3
0EED25DA
E95DFCE5
E6D214EA
DC1B270A
32EEE4F5
E4100C90
E5FA170B
F02723DD
2721F5B2
061749F2
DCBBE510
EA051AFD
1003CD34
E0230B43
D9023BEB
B244FBE2
EFE9DD0F
E8DE4DD7
F6F4E8C4
F9B5071D
0C06D8E0
0814DFE6
08E9EA26
07FFE704
F9F307EB
E4050706
010CF521
F61D1BEB
EBFB0B24
EC111014
EE00C915
FCE60C04
F2F5E7EA
FC29FA18
FA00021F
EBDD0617
EA0BFD17
EB010DE1
EFEFF7F4
F9FD0800
03F82032
CC202104
250505E4
EB0C1ADD
EA104F25
1A0EF926
0612C722
081CD51A
0CDFFDE6
FC0405DD
25FE11EC
0DF9F9FE
2307DEF6
D13211EC
201001FC
11F1F211
0CFDDF0A
04EFF4F3
FB0BD8D2
EAF8260C
DEF83B0A
FD13E425
E5CD41E0
F90708EF
03F70110
33DCE332
F5234CFF
28DAF70C
C9153E00
EE0D2BE9
F0FCD1BA
0BEC010B
0610EED0
05FA0BDB
AEC7CD23
1B31FA1C
FC11D3F6
240A060D
F7D5F513
33FC13F5
DB2A09CF
210CED32
00EBF00C
E7F4FFEA
EBF80DCA
0BECF01D
04261702
DB0EFCE4
0204F810
F807E1D6
ED09F7F7
030E233A
D3DCDB36
5404F3E7
23050905
2CF40535
DA051CE5
F2F002DE
E0202B0A
D61D0510
E200F410
1207C8EC
EA090700
F931031D
F2EFD612
2C18FC25
E3EFE703
07042017
D702BF06
1D01F2DB
22F702E7
24F40936
CFE010FF
4512F022
0614E313
37C1E4ED
D500FF1E
A30DEE02
00F1CBDC
21E50136
EFFCDBEB
3C0AE8F4
080921E7
01EC250A
270511FD
D6FBEC14
0817D70F
D3F0BAEE
15E11420
202D0E18
E408DE10
F0FCF61B
E30B1BF7
F70CE1C2
FFF500DF
27FEDFCD
FBE70C04
5313FEF8
FDE92731
08F8EDF6
C2F711DA
DE16CF26
4113FBF5
F503ED59
F200420D
0706060B
180304F1
4FD8002E
1A221833
0A18F531
271E0641
06F7AFEA
FBE11115
282B1C0B
E5FA09F6
D0DBE419
F3FDB929
ECFF6E42
DBF02712
2200EC0D
F3070DD5
FFFA302E
41D50A40
1509B1BF
F6014001
B0D8B000
0C251BBB
5E0547F0
A24249A1
52DF109B
1025DBF0
E105F0C1
3CCE35DC
1FE3B7D9
13000B27
040CFFBD
EB1D3DE5
3416F10A
04D70A08
E9F5EBE3
06FFE8E5
1E0240E5
FE163502
EA08C502
12E4E0C3
1C1D0EF7
F213082B
F318FA28
F323322D
FE3013DE
113B29AC
66D8EAE9
1CDD1711
29FFE2F6
15BD2300
F6E6F1F5
EE0E2912
E6372806
E913DEEC
EA05D51D
562E20F4
100E03E8
0324DF30
2FE3F42E
BF3A84E2
02D6CEFB
D72E8D26
D70EFE1E
CDC2D3BA
33AADE00
2D1EF72F
F2191EF3
02DD0206
03FF3620
1A36FCFC
1B0F1A01
29F10CF8
0400E6FC
2709F029
160D1F1E
E2BEF518
07370CE9
2EE147F9
D6FCE933
0D26F008
16071513
090E1906
DED6C432
F20805FB
2CD7FF13
D0FFFC00
E2E628F8
FEE5F310
00D418F0
02F2F1C7
151913E9
31F512FD
F704D7DF
FD5CF521
2405D11E
C864401F
EE11D506
1718F00F
FA000510
2EF2E302
53DA16E2
060932CB
3915002A
2D1C1814
F00AF4FC
04F0FEF9
E218CB1A
F83613F4
2CF019FF
F1EB1ACB
F91B0020
12DE2717
1BF3D321
FDF7314D
2DDDF029
151C141A
0B3E1805
F7E32C04
F80AB5E3
FB05EE0D
032A18F5
DCFC3723
F5F90AEC
0F0DDEDF
18E5B526
04D50D18
243C1725
F2FA0900
F1E9EE10
121FDA01
221F25FE
01D50B26
E20C04DA
DA102100
33C8F200
2A090E05
1115FEAE
25EB08FA
D4FE070F
F2121D11
FCEA20F1
0D3E2825
07FBF8EF
13EC09FD
09EA3F14
31FD08DC
141E22E7
17F2230A
C1E808C1
EC2D27DA
CA07CB3F
C8340B0D
17AAE835
CFC916E7
0B04DEDA
210BD715
283E42D6
E5E1242F
0218F9FA
1A01DA09
CE24100A
FFD0BCCF
26132503
E50118FB
35010035
C5EAC7D8
FE22F8C6
0608FC28
291BEA48
14D5E7E4
0B17F4F4
DDF7F804
FBC8F404
E60EDD04
CFD41E05
F7410AF4
20DFE5F3
F70F00D6
27D62837
1223D701
D31401FF
EA37EF1F
B816EF06
CDE9B0F1
3B21D9D5
D40AC728
C41DD3E1
D8D4F9D5
29401DB6
1A1650F4
124E2F63
090BF205
221FEA0A
12081212
141537BD
0AE123D6
0ED7E6F6
06DC0009

