29072DEB
1FCAFA10
15FFEBED
09D30DC3
EFE3D4EE
15F6E1D5
360DF6E6
E700DD07
1109E5FB
2D1430E7
E0F5E6FE
19071D0D
F2FE1821
03062B0C
001EF0E3
FADDEB4D
72D51BF8
1829E5E6
1908E416
EBD30433
FD03C603
2A1FFDF7
37C8FFC2
2CF916FE
C0E439F2
96ED210A
E0263000
D7D3252F
202C2DDF
51FCF6EC
1EF5FFE3
1E09360C
5308BDFC
D9D1DCED
DDF3CFBC
12B84FE2
D315ADFB
F8D50FF4
76E5F7ED
00E12C1D
D014F845
2E0D3001
0406BE08
27D92DC1
CE0B0FEE
FAFBD7FA
E3EA05F6
45CB27E2
061F221B
F6FDE529
DFED02D2
1415C422
04C5F71F
04B6ED0C
2FE10D0C
E50714D2
05F2FEDF
F418EDEC
DD062D09
ED331820
E4EFFC1F
F7CAFED8
1809F92E
1F05E5CF
A7F3F1E4
1520D118
49FAE8D6
061404EA
0F040F0F
03CF12E0
FD4C240B
0E2426E1
E9D6EEF6
0312E1EA
B513FA19
D8000F03
12E9FC03
02F30609
CBEC0FC1
0F07FEEF
64DAEDF6
4CF616FB
B406FB22
BC1D0508
19CCEE2F
0316EAC2
EA30DD22
0AF2FA17
DAEAEDEC
0B0AFED3
D9E62DFF
0B1CE102
D22419D7
FB1CE4F9
AFCCFC16
2BDF28CF
DAFDF9FF
EB070127
29180CD6
0DE1E713
1633E221
DF10E91C
EAFFC2E6
1BFEE7E3
D732F421
1BF6E61E
0EC40F0A
D500F607
0AC2D90F
14E8052F
30E5470F
F536EA2E
66FC19F9
320ADFE1
0E02E1F4
3906E306
29F1061A
0CE11C1B
020814D3
13F426DA
2C1944DF
34E332DE
B4060B06
CAF8E428
0A2AE1EF
FD09FBF2
39240345
FD2DE70E
E9F4E13B
DFD0CDF7
0BFBEF0A
0D170A1C
FA14DCA7
FBCAE507
FE050AF8
DFF5262D
0A10E8B5
1BC9F0D2
FB0CCE07
1B2A15F3
D80FD229
3F373827
F6EFC5B3
0D19C1DB
1313CB16
0F192AE4
F4F8F4F3
2C361CE7
EBFD46CE
E9D4D515
D447072B
EF18DC0E
DD0E2722
CB381B12
17E715F3
D34E35EC
120B043B
21F9000B
05212C0A
D3030227
F7E10FD3
30C538EF
04D32E65
081FEA14
033910DE
FFDBDF19
F70F0B21
F718EDFE
FFE31B16
D40D193E
C8DCC2D3
E02FE5E4
211F2B1A
F3F90F3E
F204C0EF
1A07ECDD
F9E3F6C4
A4F516F1
1008D6FD
080BF713
F3FDE8E4
E1DDE309
1FDBFD38
0E253DD3
24111107
E319EFD0
1EE9F7F9
FD22E1A4
E9E3ECE2
E30CEF19
0D0F16D5
F8ED0FE6
03FCE51A
D510050A
F6DCF9E7
D9FF0D3F
F612C6EA
1F11D722
1A03E9CC
30F1210E
EBEEF3CE
33F70FF9
32230305
AC21E4FF
1FE2EE06
DA2905FD
DA2713F9
2FE900BE
150C13F1
FD08BF04
34DC1604
F30B0D04
E502FA32
2DDCF00B
32E400F0
FED7F00B
0CD2EE3E
04321A15
25303C1E
00FB37F8
120C3A36
1C071AC6
F9E72ED9
F4F22711
280CCFF7
4038BC0A
23F901F9
F1120B02
F50110E4
F0E9DA49
CC12E7D3
46E0C7E4
050C12FD
2915FB2B
1DF409E4
0CFB4ADF
E01CBA0A
D7DAF60C
160DF519
2CEA10E3
32EA34D6
1D000FFF
FDC2EFF2
E630F122
1301F4E0
0503FF13
C609FA14
F4FACFD4
DAEFE2E7
FA0A1CD7
1C25E51F
09EEEB38
EA09D800
EE10E9E9
E0251C4E
E30C17B0
C6D212ED
CBCB1207
CD0928F6
0C0AF214
F5F4CDCF
25ECF705
3DE3EBF8
020A260E
223034EF
EE1714F7
24062BD2
16FF03FA
29F1ECF3
4305FBE2
2CFB292D
EF05150F
38031E09
E9F9FE0E
64F10313
FE1015F6
380612FA
C7F905F1
160DE2E3
C7040114
061C02F2
E223F82B
4B220919
14E4170C
212DF7E9
D2FC09F6
F8FCF7FF
101C1BF2
49300BF9
26FDFCEE
F81B2B17
F8FD0008
0DF0EAEC
F415FF03
EB09F017
25070F22
5A0AF74C
0019DCF5
1A210D43
E61D0929
7EFF190B
0BFFF6E2
033906D9
01E8DC0F
1EFD5710
F9400720
13DFCF16
10E41C0D
0EE7FA1C
F4FFFCDB
FDF8F701
05E40C0A
C305EEF9
0FF90C2E
C5070C0C
F013FD28
E9151725
08FDDAE8
0B2B0A12
2204E0F4
760E3FE2
16FEC6ED
DFD7F11F
E808EC0D
1A1A2402
E919FFE8
18E5EF01
401C08B4
E5F46BDA
E1CC0775
D921C206
F101EFE6
03010EE3
1A24F811
D1E80FF2
44D02EC5
0DF01F00
27ED0E16
0DE5EB23
DF1316ED
F9EDE809
EF2BBFBD
BEDBFD14
18EFF80B
4A25C8BF
0A811DF0
891BE9A3
FE09F03A
F815081C
0334CF17
3325FC33
08EC020C
EA1DF9FE
01EA2ED3
D8072831
0BE900E5
34702132
F3D04AEF
1A0EE705
25361FFF
01EF2426
D0EF44DE
22B423F0
580A0107
1C0117C4
2A0B1EF1
26184DBB
25160223
FE1417E8
0530F8FD
9BFC0C01
060DB230
F4121FE6
F7403C33
F50E1657
F1D4B503
1F02D4F7
F01705E5
E433F3C2
F82E01FD
E52B1900
E9ECD605
EF01E225
1325F8DE
BED2DEC4
B42035EE
E555E125
5213C393
81000C02
2F15110D
E3FFB817
03F7CEE2
1625E43E
BA0DE0FD
C72F0E03
00FAEACD
BCFDDDCC
B3E0F9CE
DCF5F9E5
FDE7F517
2933EFE3
EC0FE73D
29D3DD0A
3DE80911
2AFDD214
FCD4B0FD
5EF37E1C
E3E2252B
D71E162B
D401062F
F508023C
D509EEC8
8B080C21
D0EB0805
08FAE338
DC191240
2AEE0C1F
28F30701
72F9F5C2
F407D7D4
D3CEFF14
013005FC
3A62D6DC
BCD7150E
3304FFF0
E3FDF6F4
F300CE3F
01F2E7F6
E8E439EF
C2232D1D
F4DEC02C
0129EDE7
9DC0FEEA
E8E4051A
F3490FED
FBEA1E12
1814D32A
F2F52A2D
F509410B
F8FB13DE
49341E14
103E2E0C
49113CD7
C3E93ADD
2CD6010B
20EED7E6
00E02A03
FD2BF721
EC122DFC
19FDF6CC
07F30EE6
441C1B01
08D70CC3
03FBECFB
07FED419
FDF904FD
F5E21DEA
FCE50A06
13F616E5
07FC03F5
0705EBE8
300CFA06
FB25F5F9
2F090E2A
DB121B08
DD020203
F3EB37F0
020EEE33
EBFAFF0F
B9F21B04
EC0CFDFF
E609FFDC
BADBDE27
EF4BD604
FCFA1012
0B02F3E9
EF061208
FBEA1507
17130AF7
0C03D01F
17FEF2CA
1AE50BFA
F805F501
09F6FA0E
0118FC31
E1FA0BF5
DE320647
04F704CB
0FEF3107
F616067D
1002FAEB
06FBF901
1E16FA30
EC1DF5F1
0DE5ED25
060C5347
0C0AD7DA
0708E5FF
DF2D1C33
1205B90C
04EFFE01
0015EE12
2AFA0923
1CF40409
0EFC17FF
E1F7FB1D
130D2C07
E0E5F4E4
E9F2F1F0
30D9ABD0
12E4ECE7
F8C7D6CA
0C2BCAD0
F3E5CA09
1D170626
2206FFEC
D90AD8F1
D50817FF
81F01146
FEF82726
042AEEFA
0FF2130D
31FA0714
48BA01FB
6506F9F6
24ED07FA
F0E6EAE5
E4F619F6
63443EB4
B8A9B503
A2ED19ED
102DFFD5
DC0B1EF1
0D12FFE0
810FC723
F2F2F92B
0C0C1C01
1C03F8F8
CA0AD4E6
EE090530
BEDA320B
E225D2C8
0DE603D1
EAC8F701
262AFC1E
FFFDFC05
19FD1101
04FCEC02
F018EA08
0505FA08
14EF29FD
F2E53919
B4D2FAD9
0FE52719
810DFEDA
06FA05F0
DB030E0B
3A3EF2E9
E92103F5
14E8D3F8
6D01E3F0
26FFF033
1D29D73E
F8E0D231
0B371004
30F1F5EA
ECD81DD7
DCC3FDD7
08180CF7
E924F6CD
14F4FDFD
F2DC1820
5005240A
2DF6FCD9
15F306E1
A20E0E06
29E803F4
53D7D5D7
F71839FB
230036F6
0B28D8C0
152407FA
01F917F0
FE1B2810
4DEB27CD
7EF122C9
BE4219EE
E3F60012
50241E23
4CC716E0
CB10ED18
E5D02111
DB2E1D21
CFBDE8E1
38E7002E
1914E447
F3294821
1EBB2417
23F9F8EE
3D10F4E3
F00007FF
02D2FA1E
70FAE719
112ED810
0C280112
E812DA01
041CF002
3ED80EDA
4633B0F2
BBFCE69D
41F0D602
F519FDCC
A324F4D1
F4BD08D1
F614DC0D
D1182322
C5F1E426
2CFB14CE
6A35F114
11F8FE23
DC19F701
029605EA
DEC81999
31DB38DA
69D4F807
CD0FFE2C
D1E7F919
01180B1F
D6F71D2E
D728C1ED
BCEA0F19
030BF702
F513C2C6
BE183AD5
F929D8F7
DE0B052E
FEF117F1
0AEE4C1B
1E1B121C
D6FB160D
3103022C
F25102FC
F1FB04F7
DF0412FB
EB1401F6
0814EEC2
8DE20E18
EE3200F0
F607FE26
210E0FF4
DB08FEFC
1BD207F1
07E2E0F7
E8DF25FC
140317F4
1DFFF903
13F4FA2C
DEEDFE10
3A04E318
2A2C02F4
E6DCFAED
FFDBD500
D0C118CC
191AF40C
FF1EF80C
1427CCD5
05FFF1F5
E91DF1F0
21FBDF30
09F114E3
0C06F5C7
E8F209C3
FFFFFEFA
EBE10E02
EAFAF601
19F62FEC
D7112100
26D33A12
F6E2EF04
0332130A
1A010F38
FE30BE05
35FDD8EF
F9EDEB1E
F5EB0DDE
18F6EBF3
C828F2D9
F5F92EF0
F6FC07F2
07F70BE6
EFF22818
214703F5
BC3815E9
02F8F5E4
18C100FB
F1E81000
EEF114FD
03EFF404
02E649DE
EB6B04DC
67F3F507
DF020205
C7FBFDE7
E5E7EFC5
44BF1320
403ADACE
2005EBD4
09E5D9FA
21E8E411
E322DEFA
88ECD800
210021F6
70E6FF0F
FBC4D5CA
C0D82230
0701D8FA
F4252308
E6F8AFDF
B611E5E2
D8ECFE26
28FAF9FA
FC134FFD
0B2002D0
DA21FF04
46D40013
EFC5E843
49DA0E2A
F3D3E5E8
E7D3E53A
ED40021C
B8281EF5
14FCF22A
BEE0E90C
FE060ED8
BD3B04D1
000AC3F4
F0FF345E
3D131CDB
1829F819
20E310D3
A415FCDB
1706FEE1
2B2B2CD5
B5F8E6F5
BC014BC9
FFEA2DD5
1B03FBC3
482032FB
44E609D4
E9EDFC13
2A301CD8
F50AFE46
CB093225
35FE04FF
81DFD5EE
95D1D3F0
FB17ED3D
BFFA1A23
25CB0A34
E50B0BE9
12C82FE5
E55918D8
FC053514
382A480E
09F8FCFD
0A00F109
1F1E2D18
05C9E9CF

