E619BF2E
F9192F3D
F6080921
E7ED0633
E726EE03
F84CF0BE
FCD8DBF3
16D3EDFC
08D5EB00
F927010F
D70E1BEA
19C60200
D44C5A26
5B26F5EE
F7EAFBD4
BE0B104E
0BD8F306
0B17181B
D3EA36DD
051821E6
E6EA56F7
3732F004
FE21CFD2
174E2BC7
071CDEF7
EBF2EFE9
DC3205FF
C7ECFDB1
05F2291D
1DC5F7E0
08C84427
E21C0C2F
18C5D812
0E22202F
E72ED7F0
FE0C0525
E0FFD625
F42010ED
F9221A23
DEF5DC0C
CBE0D823
16B00402
C41650F8
F8DBCBED
000EEDE4
19340B21
D5E0E50B
D2F505FE
FEEB47FF
ACDAF9BF
11F21D06
0E0BF796
C9160AF0
33F5C4FB
E507DBFE
FA4700E2
49EB03C3
53F113DC
1212F0FF
B011EFE0
2819FA24
F0FD0513
F216452C
0D26D6FB
050610F0
1D45EC21
FDE11708
F1E8F0E5
FB01F519
1E1B09D8
061F0B43
FDF50AF1
EE09EC01
2506D1E3
EAF11708
0D270DFF
03F2B3EE
E229EA16
05081514
07D90426
09FB061D
FCF326CB
F3081FF8
04F1E311
0DF5FC07
E40FFCFF
F51B020E
2B59AF1C
ECD9FCEE
EF16EED7
080933EB
ED0AE7F8
D1F9F61F
1C041D30
0CE9CEF2
F0F6E51C
33F616FF
F406F213
171DD7FB
000AFDF0
3D1CF3F9
FF17D6FA
F220F4DF
1638EACE
FA06FF1B
F31617B8
2F11F212
F12B0600
F7E1E7F6
17242902
FB03FCF8
26EEE7E7
F0F9FDF5
BEEB31ED
F714DBE1
2220F8E8
01F7F104
1C30EAFF
F5192304
27CA0AEB
F3201734
D8FF2312
15EB18FE
F4FB1F03
02EF25EC
12CEF8B6
D4E91AEB
FFFADD0B
16C8B3D9
E8E1FCDE
FF1ECAFC
32E5B91B
F5F10108
061A0120
180D04E9
072F08C8
2FE72422
DD0B151D
DFED24ED
C72A16D1
03F1EDF2
FD09D6D3
20D10F00
0311DE30
DB1D091B
223521E1
24D6EE38
E3021128
E1E8DAE3
D24E18EF
FB0DF6F2
18F4072C
ECC624C6
950B15CC
EEF303DA
1EF4C8FF
FF43283E
11561307
0CF40CE5
DD4E193B
1D401E27
ED104802
0CE014FF
01EEDDD4
080E3C0F
51FF0215
F015EE4D
1C25162A
2A0D05FE
061EFDDE
F32A4DD3
C81ADC47
D312430E
1FACD402
FA0A1F1E
F2310039
32E2EFE1
DB040B06
E2E1D3DF
2DE5E52F
08E4EAE9
21FAE013
D8E8F0EE
14DFE91F
0B04DFEB
222C1411
DDEFE6F2
D05B1BE2
10ED0A19
F5CB291E
091EEF04
03320DE7
F7C10AE1
DB8A3F2C
C227261A
35E7FDE1
C7F70CF5
E7B9F13D
1E2B09E2
241304D2
2602EA08
74F4D7EF
02E02CF0
DE07E017
FF2CE83D
0C16101C
0B2CF0FC
D61D091E
DD1F0C09
2018F5E5
04D0D82B
012C02F0
D4C8E9BA
D0612F03
EB4A3F0B
D1DE24F0
09F5EEFF
0B0405E3
F613E313
0E3AFA0C
F82DEB1C
FA4F1901
E2E1F9F9
0AEAE4F4
C3F72514
DF0FFECD
1FC839CB
3317CC1D
0205F5A0
171CF7FA
D0F4F9FE
2D2C0FFC
DD08FDE8
FC020726
F6E8F1AD
FF2F2EB8
100C1B01
F7D4F7D5
0B021C24
1BD8F80F
20100FF6
FFD7FAEE
EB37AB27
08E41714
010417FE
F633F5F4
F103FEF5
3FE22304
C0FFCBD9
0EE805E1
F4122FC2
DAC2DA16
06052106
01E3E406
041F1D31
E01A31DD
EC02EB29
03020F0B
F2E4E1FF
150CE628
09F51CFD
1DF01701
180345D5
0DF40C40
F2C405CD
0F1108EF
E71320D7
0B19F41D
D6FADB0C
20EF1544
1303E603
D8FFE416
1FE3D21C
22E8FAFE
F90C4622
FDE71B01
0DDCE82A
1D39FEFC
1AF5FD09
FAD4D7EC
FB0EC711
D02C0219
001EE0FD
1FFCEE0D
E8D83322
E7C703ED
0A26EF1E
F314F00D
05E7FADC
F0FB23F4
0233F325
EEE9FBEF
0CF2F7E1
EF250D15
E9F50CFF
E9EF0FE4
DA2617E4
00DD0BFB
F8FF0F1B
C4E7D106
03004609
2D020A05
F601F301
33EDF8EA
351CF0E4
20150E3B
2607D5DB
2502F80B
EEE70341
FA0DFC26
F2C5DAE6
EE0C23F9
2D100523
FAE0010C
FA28F125
F241F909
0E0C060C
000409EE
FCD0F923
0CB10F03
0FDA060A
FED31F44
D2D6FC2D
F4FDF904
C9000EDD
FFD0FEB8
E9EDE9E3
D9FAED0B
ED08FF21
EE0513D4
6DD7ED28
04FB0F18
D4D62821
4308DC44
F13332D7
0CDFD9F5
00F1FF5D
F7E0D0D9
BE2B0617
073518FF
05CFFB0D
FDF2E6D0
FEEEE5D4
FB15F638
272C23D4
280FD2DE
CFEC090D
FAF74F01
E90B0F36
E103CBD8
021F15F8
FE192807
E0F40E12
0DD7F9F2
FAFC1401
F6EF07FD
2828CEB3
2A050CE5
160EEFDB
D6C70029
35E0F4F5
01012713
E5D21734
195402EE
34FDD2FD
DA2B1428
4C1EE8DC
DE21DED4
DA18331F
D9E1F906
14012EEB
EE36D1FB
D9D934D9
011811E7
15FAD9D0
1303FB0C
E8F5E404
070A07B0
CDFBEC00
18DBD90C
D3F5ACC8
0D28EA03
0CE601CE
13420526
E6CDE6B9
19EB09FE
1105C90B
200B920A
00D11D39
DA1DD534
12080233
D512AED7
CEDBC600
FE22DFFB
FE06003B
1AD5E323
0FE34A04
1811030B
D9F5CDE0
04DCF50A
BC2B362A
F1F2EB0D
F1DE2015
6119291B
CC13EBED
ECF7CE2A
E5051800
DEF1F500
0D03BC26
02B5DCF4
BE2DFD39
0B0E1FDD
0607BE44
1102C53C
392348B6
FCF808DA
0A25E3EF
C0E615F0
04FFFCDA
0417F4D6
3F45FC26
D3A705E5
FD05F310
D9FD2DE4
F0F311FF
1FF914F4
14EA4B02
2825D824
F8004902
C2DE1C1B
16F4E7F0
F71DF705
1ED00F11
1301161A
1449E3E5
F1F8CD01
DBD64139
B605121E
E2C70108
182C0FE6
050BC6E6
0319FC2B
D9DF2015
0E390561
1D16BF1F
30FCDA02
D11C4830
D1CFDC13
0A0D2013
F8EFFF11
09EF1CF9
13ECF5F5
3E1BDD15
C4DCFAF1
12F5E60B
E8DFFEFF
14FA0105
ECFAF9D9
FEF8F802
1EE7EB14
04EBE9FA
011510F0
0816FCE8
07F5F4F8
1704EF03
0704F8F9
F90A1BFD
E10025F4
F9B2F032
F4382AF5
F2EB20D0
F8EEEE1D
03D4E29E
EB2DE514
DF2221D3
F9E62205
FE072AF0
23E90D21
CED0127E
0104180E
FBF8FF14
08150FF5
11EFF4ED
0017FA03
F61DEB14
E12BDE05
1BE5E907
FD18070E
F60007F1
03F7E80D
05C5EE17
F7DEF5FE
D735E3F6
F153F813
F9E4BCFB
25071B03
0A0CF6FD
0DF40A14
1C22E307
0DF6DADA
2AFAF4CF
D32004FF
F0060312
160006F0
DE120294
3800F8EF
0823D6B5
042AE6E4
08ECFD13
F614F2FD
1BD5DFFC
3E3EE827
FD05F20C
0129000D
F0F210DF
0F10EF28
0FEE3A20
E7281D0F
FC13E8FC
271BD7E2
05C1E60B
14BE04EA
11FF1402
3AE8E9D4
00030148
BFD0E25B
F0093C2E
2BC5FEFF
FCDEF014
E1DF0A15
FF07190F
E2013558
0708CCF1
D0F3DF5E
F52510CC
0DD3D932
1200F019
D810F5F1
FBE7F2E0
21F21608
17161027
ED13021F
0D0D1CE3
2124D726
F309F3F3
ED50FAE0
F60E3C17
28E5E914
E1ED06E5
EB1CDDC8
1905201D
D13B2E5B
EB2EE40A
F9EA07F5
062016C6
E71A0B18
46FBF3E9
022802E8
E6064AE9
021501C1
F4F6FBF4
28BEE2F4
0B33DE4B
E5D20D04
08C42011
C1E9F6ED
1E08E005
1AE921F6
D4331828
E5050EF7
1EFC1A30
25F61004
D0F1D803
F7FD02D0
E50C2D12
2419022F
1018B91E
05D849F5
1FEEECFC
05F8CE05
01E8A330
31CCBF29
E3D93992
D01EE5D0
16D1F6E2
07FBD313
010ADB45
231A083A
D50C1BEF
4BEFCC1A
DEED0DC1
DF19010C
041C0197
24D9D0F7
A90E1F45
E4D6FE39
EF302328
0DF4F13F
05F310F5
C4F32BE6
0CFF00DC
43FCFFE8
0BECE2F0
314928F1
DDB7CE08
1C02E110
1C191114
F50C0008
1121FAE3
F9E1E30B
CE1C03EF
060BF9E3
21F9ED48
CE32FFF8
F70EFE47
D9DDFC2F
E615E00E
2DC608FF
B614C4B8
1EBFFBD7
2931C10D
E82EF2B6
F80A0B29
E3F8D601
D0494403
00312B02
1CCC13ED
E8D03216
502FF8EE
0828E3E3
1405E4CC
FEEFDA20
40C844BA
22BD0D3F
FDEEFA12
27FEC117
2CF6C125
D306A2F3
D12011E8
2318D83F
2602EEE2
CE220302
09F6F1F0
FE03E7F7
15D50F25
E611321C
EBEF250B
F33539F8
0EE7CFF8
100DF4F4
E50303EB
D41BF2D7
E7020A25
0C17F920
D90B46DE
E20119C8
2ADCE103
FAFB0FF5
F5120D1D
1F060210
17061BF4
EA3109FF
FD22D9F2
27E30D00
B746E434
3CF1D205
141F09EF
22EFE33F
050707FF
374A06E8
0B1528EE
17DDF12B
101C0A2A
15F4F8D6
1703F109
0102F6EB
E8F4F610
E1C5E422
E60C39EA
00DA17E2
0DF0F900
F0FA1A0A
04ED1E2C
17FD0717
0822D015
FB05E2E2
F80EFBE5
2B23DEFC
E2ED17FF
0317F119
E21309D3
DB3B26CE
05E21709
00F10103
1434ECD2
F6E913D3
10EE0B06
10FCF10F
D010FF11
EEE9D14C
24F921E3
183905FE
091314E9
31E52306
05F505F1
08E3DDF9
89071002
EFF70040
0C070537
EBFEDDF6
DF011441
F04F0B12
FC262AC9
D1F3F0D9
DEE90DC9
3AD1FFF7
0524E915
22EE16FD
1D21E014
30E1FB10
20162833
13EFF8FE
11FE1002
4D1316FA
FD0E091E
F5FA1B3D
2EC8EEE9
F20D0B07
F4F915C8
25F0F901
02B25BD8
04C8FF68
25041A12
01F2F7FF
142946E9
0ED72618
1413FC44
D115F022
C80700E8
09FBEC16
FE09F4F0
DEC31FFD
46EEEAFA
EDEB200E
FFDB1929
05DF1E12
FD10C2F6
380E10E1
2A26BC11
F541E4CB
0505D702
0A04153E
1929F1CB
00A9FC07
F72E0CDD
D9CC01D5
4BCC39F9
FDEFF54A
31D3F5F3
26E82216
03F63BDF
1EF505B4
0B1DF612
0E161EEF
13102AE4
0EE2D118
D33DF931
FF010BED

