CE0BF919
FEF030EF
0D1309E4
10E9F6CE
50EDAFCD
23F20414
DD1BF313
FD1F0025
F3D90F41
01DF0008
1205F620
F4031308
EF0C3639
20E80205
071F73FC
F263DA1B
13100ACE
F0DB083F
40E4E4EA
09300A17
2F03FCE8
DFF132DD
0702D7FA
04FEF8FB
2827F4D9
1629FE0D
24F90F81
0AEF0B53
BEFF03E2
102C3420
FE37DEFB
F3AFF575
CAF93906
1BD62829
3E170C3D
15F513FE
F7FA2F0D
0D131623
21FF17F8
F5F6E7FD
3B10B510
0C1C13D3
D5E7E1C1
18FE0C0A
B6090C1B
F911FFF6
F91B2C2F
CC201BC6
EF1F01DD
0E5EF9F9
530733A8
FC1A2DF9
12194F2B
012FF1C2
C8EDAE0D
EAEBE1E7
FE0FF8DD
EBDD1AF9
FBF3D6F4
4314FCCF
E3F1FE26
C7FCCC4C
1D13C427
14E3F233
EF19011E
0BF20C0F
09E5E90E
0ACB0A01
F5EE0BF6
ED0AEAFD
E042E814
E9BD1B40
D506F0E2
0FEACB35
EE16031F
10200BDC
010B0AE6
F90B1104
EFFD0C25
F1FBD60F
2A0504EA
1AE72DDE
21EEF1DB
E12009F1
F70633F3
23F71A08
32ECE537
E0D8210D
E0F80307
B4EC2818
370FF00F
39D51B50
FA02FA1F
CAFE1024
FBFE18F9
452027D7
FB0807E5
EB18043B
2D23F2FA
E5D3F1E8
0CB9055E
29110419
17DF1D04
1606CDEE
E314B600
09C51C16
32DC2001
0BF0101F
EF06231D
0D16FCDD
A8D31AEC
C213033F
F6C9D80F
08E0EF2B
F507D0F0
FCEB18F2
F2F222BF
FB1E03EF
D1431FFD
29F3E649
370C0119
39E7F500
F5011704
F12EE71B
ECDC1E4C
0AACFE28
2107B928
FDCDF830
F1FCFCF1
E40B1E0C
D81B0C3B
17FF18EC
2F020C04
FF1A17CC
1CF4FCDB
1BF4F118
DEE2E810
0BF92BD6
EB150F1C
F801D037
FD1AB2AD
13A3F0B3
10F2C5CA
0E1FF626
6936E704
281CC12E
130BC1F0
3C040425
02E1EC2A
0BE9D932
0300F0FB
5931FE32
CE2A341A
0F02FF16
233B2CDA
5BFCE123
2E0C040C
15FD06FD
F1D810EF
0DD0FC05
2E13F021
D9CD0F0B
12ABF85B
AC1F2612
E1D4090C
F80901F4
74F8D604
10CB22DA
E5C518AF
C5DFFA25
05CCEA1E
DC071820
4ED244F5
D2DE09E5
F13DCEE3
12F50101
E9CF1506
EEEBAE05
D8DF0417
E31CFEF3
FFFCF320
FF4C37CC
050D150D
05E8402E
97F93110
DB2C3AEF
45FEEFD1
3D38DDF6
26FCDEDB
4228EE36
31F800CC
EE09CE33
0E1DFEEA
EB0E1235
D9F7DC15
F32613FC
CB37EC13
2718CA32
31E82E40
042C0BD3
D90727F0
0C3ED0AC
FE3AC9DF
2FF05329
F7C8F81E
CAF009E1
FCD5230B
CB1A29CA
FCFB3526
EDE910F5
18EF45F3
DA2207E1
17CECBDB
DBE02E1C
EF220AC4
F3FFEE07
F7130304
02F6D40A
C6FDF0EE
D4DD15ED
02EE0BDE
B8C30303
18101D16
D0FBFCC5
BA0C1D1E
FDDB0501
E5F719F0
FC3D0CBA
DF0D3815
3D12C80B
EB0803ED
C627F5D1
E30037C0
FD0B05EC
1AFBF603
CB3C15DF
1BF4E63D
110A0406
F918BAF1
0D063223
E50641ED
0FF6DC05
10FB0452
0C4802FE
C1D4C64F
F3B31C0F
1417E0E8
1CEFFBF7
C42B28CF
F1FBE41E
1D2DDDCF
191122DE
2B01E92C
181CE1D9
EC241A1A
1F2226F5
0C05F7DA
10ED14BE
EAF7CBDB
153404F4
EF18B812
0D1AEB1F
031FD407
0CFDE6BB
141F01F1
FAE9F1DC
1CE6FAF6
0B3EC6F6
1600E1F7
D9EFE007
EA0E2822
11C10A4E
D7FADB23
EED5FB24
F5EBF9F7
F2E609DA
0DE9D71E
15C90304
04160005
14E50BF4
0D0403DE
08FF0908
EEFEEFEF
275EE500
ED01F615
D303E615
1717DB2C
ECF9E918
08FC1BD4
2DEBE130
EDFD0815
1C610917
0E1AFA00
DA0222E7
08E80A12
F31FFE3F
F917F0E9
F40B0D18
37070518
0C0321E4
0A12F8E1
FC3BE5F2
E8F6CFDC
123C24F2
0301051E
2AEC332C
0A3ACECA
EA31D0FF
CB1326EF
21011DFF
F718F817
03D541F3
0EED00DE
152016EC
0813E1F4
FCF61CF8
E5DCD0F8
2002DCF8
F6E51B2E
06F202E2
FEFDFB14
EFD00EEA
FEF00713
D716140C
F4220A01
40221C41
E2CA39BD
C1E8FE08
C7EBD5F6
F3AA03C9
3C1508D8
07F4FEE9
EA08E21C
E9151018
270B2C0F
C7010FCB
3C541D29
22D30A5E
F4CDFA0B
1C281A2B
1A1C01E6
EECE2AFD
F3335910
D7E71D28
3AD1A501
E30103D3
3F07C936
00E6EBDB
F3F1DFB9
F0132F0A
D7F10FDC
FFBEF628
FAEBEBE7
D32D16B9
FBE6DE53
09E94702
E039262E
FBD8FD1B
20B31568
0BEFEDA6
14041B45
32FE030D
2FE104C3
C1EFE12A
19F4F300
270BF348
C3EAF347
D82DF9FF
02EADEE2
2E130EFA
19EBD203
0C38EEF6
590BCF1D
2317F4FD
F205EA46
08C9DDE5
0E0D2DF0
1CE30B14
0DE4F907
0F16C725
290F4F04
F7FAB20F
0DE3E4FE
1FF20D12
052FDDFB
1C2B01E4
F64256E3
33B9153C
2CF033F9
171C1422
241304EE
FFFF15E6
42E024BB
04E51E4C
E84B39E9
03DCD1E4
F4EC0F09
C2F7EDDF
D625EA16
032BE9EC
F20BFEE8
E60322EE
FE110535
0A031911
FF18D2F0
FDE9F327
D8D729DD
3011A4D6
18172414
13D406DB
32F60D26
F10A23EA
30DEF300
E6FFF3D8
1004192C
FBE63602
09F40F05
CD0EF000
3AC2691B
FF2917CF
ECD193FB
165E1213
F4F914F9
FADFF9F6
E5F505F9
16010A17
FF2F3CF0
E8F1C0F2
F302ED02
D74E81AD
E8050F20
CAED0D2A
F6BC2C0C
F5F709CB
07161EFC
3CA31CE5
D0F3E1DA
E0DF08C7
1EFA2EF1
03F9EBDE
3517320E
FBFF611B
DDD1D8B5
FC19F65E
010E1801
031AFFFF
D401CCFC
F33BBA9A
C21742FF
30DAE7FB
04F8E001
C80AD43D
20EA1F0A
07E6F51F
07E8E916
F8152EEE
0F0CEECF
020311EC
03E8F20C
02270400
E602FE05
FB3C0220
CF020517
11192034
081F10FB
26000623
252C04EF
28F6EE0B
EEEAD7EB
E401F3F9
F40108FD
E40BF005
490536BB
D9D2C916
0C0506FD
E70DF809
180CFA28
08FCEF07
090CEAFB
F3F2C144
FAEAC6EA
F20BCF0C
FE01F9F9
F401E8D6
FB1222E9
F1F207F6
F6F541FE
EAE0F127
E216D519
171AE303
CF0DE9EE
F50410F4
D10C2712
101506F3
2FFECF17
13F50D08
00EFF4F2
0CF20C16
05D7FD09
38134EF3
FDF3FEF8
F304DFF6
EADEE005
09CE1EF3
E00512EC
00EAFF02
E7FA0B17
04EADDF8
36040506
04190BDE
22E3CC04
F1FFDE26
E1010D5F
160B1E0A
26EE141F
E606131A
EBD70DFD
17E4F0F4
0EF5F8F6
31B81214
40FFDDEE
EBFBFA00
E300CBC1
2716CC36
C7EC1FEA
1DFFF42C
ECDB0120
1363DEDA
231CCF09
CCE4EE00
13E93AFF
2EC4E6ED
EBFF220E
DACF0900
1E0F090F
F4FBDF1C
EB03CAF9
E7C9F2E5
14EAD00B
1243FB19
FDEE24D7
FB513414
2101250E
EE2F1700
05EB0EED
F1F9D011
10F11A0E
CAEA000C
121904FA
15C509D5
DD01FBF7
150325FB
BB10D2F0
C5AEDC08
F9F516F3
02D404E8
C6F9B5FE
E7B24723
22211D24
0002FA41
B901CE14
094300D4
05F42FB2
F62DEDEE
F8EDED0F
B7D60023
F0EF2E11
CFEC2EF3
E1F71914
CD1D1EB0
5F023429
E804F014
02F31425
CFF41CEB
1424F310
ED220EEF
1136E3B9
D3270502
1A234BD0
0ACC1BCB
F3FFFEC8
150A27FE
D526AFE8
F1E6F721
DCCF182B
FAE0EC2B
E507421B
0604DEE4
26111556
C894E416
11DAD40B
19E50AEC
2FF3F9FE
17F30E23
9DD21B19
C4E8B914
03E8D232
64F31AFB
0A052F17
0B2802D4
0AD4072D
C4FCE4EC
CAFEFD31
1B6001C4
0BEECDFA
15B7FC2C
E7DA2667
1722FDD7
FDB719E6
07D21E47
EC03D63A
0DE31E09
3BCFDE16
C92402CB
ECFF090C
C60414DF
29F915D1
18F31411
1212161C
02F1E819
32F01BEE
1D19E6B6
E02D0C2F
C8EADE16
B544DB0F
FF27180D
E311EC1B
3AF91438
24030421
FBEC0DF4
DABE27F9
231E4D05
21ECC5FA
BF4B1753
ECDE0D10
0E042CE2
2BD1E1FA
08EAD7ED
FA14FF28
08FEEC2E
C245DB09
34D9DFF1
CCEB0ED9
FCDFF914
2025CF2B
42F4F0DE
C9030AD6
15EE0527
E9DCCDF1
06D3CBFF
F8EADE24
30E10CFB
A5F4F4EF
F2330E3A
0DF6CA04
2CE7E70C
DAF20B03
F3FDF928
FFEB0AF8
18FDE616
FCD7D6F8
1DE3F021
F4E106E5
1C250524
3607E81B
31F814F9
0007E520
10121407
31F40CD9
D1DE012F
23E8FF17
0DFA17E4
E32308FB
08210D06
D1FEF103
00261020
28E705F8
E2F7FDC8
0C2DE6D7
1D0ED729
F20408E4
320B2A1D
0A3AF104
052F27B8
E0D8A5F0
04090AF2
3A02EE1A
2017DF01
FD14FCF7
09072DE4
F2DAFDC4
FE08F133
241E052A
9D3207D6
1CE31DF0
E42800FD
1B2EFCDC
1103EDFE
E927D511
4017C704
F53E0D32
010D36BE
1C3DFAF1
B50626F6
CFD33832
9B1F31F1
DA1534C8
111908F9
1103F823
F6E3FADC
41C51BFB
C1EE4227
F30DD400
07E70602
D5140C28
E9D9D4F9
11D120D6
CEE0E317
084AD4D3
0E1109F9
FEF50BE7
C6F2FE1B
21E5CF11
17D40228
EB351E09
4249FF09
0FFFEFB4
DB0AE83C
1014FA05
C22EFAC7
221117CB
33191CE4
F4F83CF4
E05CEF4A
0C26E334
CA1FF8E5
3D213E0B
FC0FCF23
F808EC17
C400D602
F9F50F0B
1420BF05
F9FCFDD8
EE08FFFE
F20B02DC
043904B6
03EA50ED
B1083708
F92F07CE
1A02E9FA
E3FBFAE9
0B05F2EA
224132CD
3FADCC23
12EA0622
0333EDCE
E8DB153B
D51F20E3
11240CD6
D0E6F5E1
0FD506E3
F43EB919
CDE50EDF
051901F8
E6210B29
F9E60C0A
2701DBF1
250B4AFF

