E5BFF3DE
D0EA1713
052103E6
FFB801AC
E2DCA7CF
25382CCE
1705270C
DD182334
E7F1F006
11C51408
F6F1130C
1CE401EE
0BD5EC0F
31091632
DEC1E61A
15034C05
F4DED80C
EBD42BF2
F5FDCED6
FC01121A
E21FE6C1
E2F5E6DF
C81B0B28
00F7E5FB
EAFFE407
B2F01D1C
E6F3EDE5
16DA4512
1ADD201A
181F0F0C
10D324EB
D5F11515
1C10CDF8
BD270616
E700EAFA
27F115ED
233AE920
31EB09F3
DAE319EE
FD082B17
24CF0809
F2FB22E2
BE14F6FA
00D4320C
BA1C0A12
D21107E8
5702D3D8
F7E50F47
C730ED05
1AE91BF7
082AF407
11CDFBF0
51FFF3E3
1BB116E9
F1BB06DB
FAD5E801
090CAC09
E425C7F6
F715F617
E6BEE517
024CA606
E01322F5
F80EF120
0BCDF6EE
16FBFC3B
15F214DC
E8CDFE1E
0EE80DEC
1B1A170D
D2B815FA
DE15F00F
D80AFC06
EB10F713
25C4F9FD
FAFEF513
07ECF805
EB170BD8
F8FAF3F3
BA1413C9
D72CE70A
CDD2FD3F
2425C5D3
FF011FE4
F0FD050F
351A0F03
29F64911
1658EA36
FF20CD32
0AFC3C06
E709BDE4
B534DAC3
16FFDBF6
EF34000E
271CE9DE
243816D4
C30D032A
1F260E0D
FA0400F7
E3D6D6F8
2025F8E1
D2413907
E4394926
E8CA25DE
07DFCDFD
E4E806DD
070420DC
042A17E9
27F11A1B
F52AEE03
0108D8E6
09F4F4F5
CB1612E7
12F01AFB
EEF30813
38FEF0FF
EF05FAF7
2A0412F0
06131E09
E6E2FD08
FC23E6DB
D51BE10D
12FADD29
F6F926E7
0EEC18E7
DBE8DD11
47064116
E3F6FC14
E6E10DED
11172BDE
FCE01DEA
F002F5F9
FC10DB0F
101AF8FF
27050030
FAD242BA
D6F3CE0D
02C0EB15
111EFCC2
1C120D18
EB261FE6
14D9000F
0952FBAA
34EA21FE
FAFB31F0
05E8D7AF
104A0D03
C7CB00FA
04FE4AF1
DCF60AFC
19DD1D14
E4223EEE
1AF8CC1D
38FB1126
F82121E2
15F05D0F
FCFE0BD5
F6F505F8
02050412
180D281D
E4C30C01
04F91ADC
092D0A03
01F81723
532806EB
C603E706
1D0B24F8
F8E7FB0E
08F30C2B
30DC0503
08F0AADE
F314012D
EE90EB03
1DC508BB
3026DD02
031006FB
E90505CB
39FFF7F8
F71EDB25
0DF50710
BDDC2B05
3B06F9DE
02DDE22D
DBA503DE
0A4D0CDC
1BEC0034
D4D00FDC
F9FFF408
CD0F3612
2534F80C
F5FB0907
ECF11203
292901E1
0F542308
DFC832FA
E80A21A6
F3031104
F0FEDCFC
FEE6EE17
15F8EFFF
0B0717E1
14EDF5FE
010B29CD
2043002A
E9F9D805
ED04F612
F4F5FCFE
FBF0FDD2
091D4912
F70E3B0A
CC08EE03
E81F01E5
F663D319
D2EC2D06
FA29E812
F1E6DFF6
DE08E4EE
EFE8471D
081A08CD
13EBFB20
D00929BD
00DCCF08
F70C11C4
CFF4F915
2C22FF09
D0562BE3
0CCAC734
EE3F0C1E
11E41313
F1271AF1
010D19E7
9FC6C7CB
FA4C0CF1
F1090521
0F01DBE3
FF21F11A
1FFA20D9
F1FF382F
1502F5F7
32103617
E9082DE8
C5D5ED23
F50EFFE9
C2EA22F1
E63C1E3D
F6D7F20F
1817F9FF
D3F509E4
421218F6
000F082C
E4E3FDD7
21F8CDFB
71FAEF03
E5D005EC
0122F60F
17DE1109
1012FD10
D4E6ECCD
F716F6FB
0612FFFE
09F9EF05
F01B19E7
F101F9FF
CC1A3A14
2006EA0B
DA12DBFB
FE05DEDE
0713F2F3
E1F70E04
1D2AC6E0
38032EE1
22030833
FA030BFB
FD27EEFB
010120EB
C7060F15
2B16F614
FCFA031E
030DF6EC
25E2E6FD
00DB24F6
1314D408
EBC91FFA
F604FB32
F3DA28F9
221D130A
D2E6D102
141713FA
1B2DFAED
F2241315
E52403F9
290DEA02
110917F3
D4EE2C06
2714EFFA
E0160C13
06FBD81A
DBE21A05
F71D0D08
D7FEFBF8
FFDC0F00
E6D0D7E5
40FFE4EC
C40E151B
FD01FEFF
15E2110F
EA122301
08E80307
0F17F605
FBFF0F10
CEF824E2
121C0824
1C0313F1
E9FAF418
230EF419
CE2108E5
E3D70506
F9272503
222CF6E3
DD3D0A0F
EE062732
FF13550D
4326DF4B
E44F1227
CD06F7FE
1511A29F
DA213724
D5B03D24
ECE4E3E0
4310EC23
2AFF2CDE
F7FEFFC9
1B0F1905
23EAD430
04201214
293FF1C0
2424B4F3
0551FCF8
1FF9DFFD
F7F621F6
0EF70AFA
1AED29F1
EAE3E9F2
3D3F07D3
24E0F60F
22283191
DC12E7E6
DCFAF3FA
EC002CE8
01E60311
D82D2CF5
CE1D0C0B
180300DF
F2F5140F
15F3EFE8
0C02DED9
2B032016
3036E7BB
DA67B1C8
0325D9EC
DFE3E00E
30E00017
D0D0271A
1D0746F5
D5D50E18
DDB9BF2B
F9DF3E06
FFF3E4FE
102716F7
0CEA02DB
E004E8ED
33C4FB1B
E319393C
E3E6CF20
22040512
0903D661
2BE21E3D
19C921F4
09141627
360F0B1B
E436071C
01F9E213
D1C21400
041C05E1
EFEBD5DB
2AA537F4
8EF4002A
09CA7EE6
5203E30D
02FF0E2A
0E0A1D0D
11DF14A7
FE0E02D2
17CA3EC5
3E1126C0
F7D6FB10
05F7FD03
E10112EC
C302EBD0
F8091734
D2F81007
1DFAE407
FD0F1FF1
3E0E1E1A
08EADC05
ED1BFAED
0B4F0506
A6C1401C
29CAF53E
E314D70E
FDF7E702
A2EB0619
0FF3200C
B9F52D12
15E12700
1F2CE626
EC26C20C
F02503CC
D2080C35
EC151DD0
CBF1CDE4
DF1A2EF3
51EB39EF
07D6B42B
1BC2FAFE
FA05D2F9
2A1F0E0A
E20EDDFC
FA0106E6
CED9C10A
FE29D10C
29E3210F
EDF66FE6
ED011EE1
011D3C1B
C27EEE05
070A0FCC
4AEF2810
0E0E0A15
19E8FD16
E6DFDBEC
13CFDED6
48E5810F
B3030EEF
D51B120B
FF190311
C72408F5
2AE8E6E2
3EFFEDD9
262006F3
151338E3
251601DA
2105F00E
15FCB2D2
2BECD410
43EEC8D1
FDFBFEF7
E8C8F4EC
2CECECF4
F9F3F6FF
2602170E
4E32BE22
1F260638
DD29F425
09F8E7E0
17FCFA31
22FDFFE8
0802E1C6
0DEF19E1
E3E0E2EB
2811EBD5
E5F6150A
D8F9F502
E4021AE9
4719DA16
DA29F013
12F205FE
06210CE0
E0EEF8F8
E8E6F5F0
0FDFE1F6
13E2F9FE
1813FF34
0701FEF9
EA090205
0DFF0E10
0C08C41F
2F0004C1
00F4E60D
DD10D917
2519EBD2
13280B03
E9FFE1FA
091A1C05
EB320D03
0AFEF830
A6C0E342
0011F308
0EFCF80A
232112EC
0FFCF2DF
140B05FE
0F00FDF6
1629F90C
D72F3EBA
1CF2DC11
00E901F8
D8E5CFFF
F1E3EAF6
5C07E4E8
151A0603
F12CC0F3
190314D5
E2FCFA19
091E02F5
28DDDB14
E6270824
112636F2
B0E9EF07
2AEF06F8
FC0CD315
022DFED2
0CF202D9
F039F00C
F7FB2410
1ADDFAFF
27FC0227
F727D7FC
0CE6EE05
190CFC1B
1205E221
1F20FD1D
FA150C20
0BFCF60E
0AEEE4F3
09CDE4FD
0F420AFF
07CEFCF2
10FF2903
CCF31010
08FDEDFA
FC11E50D
05011605
1A0E0FFE
D8F8EF0D
26E819EC
1420FFF7
FA19EF09
0B24E00A
2AB90E24
F912B4FD
0108DCE7
15FD2A0B
A904F50A
00262CF3
EE3A1612
2BDD131A
2460DFE6
0908F00C
0FF60009
1EC42AF1
23D7040C
BD10FEF5
4512E8FD
1610D6FB
E3F405F9
FFFED8D7
0616F5FD
F03F03F9
16EDF731
C0E2FE2A
1CFA21F1
E038D908
F8A9FA1C
8C111803
1A260AFC
041333FB
15C2FA00
F8451512
04C7DE0D
EDAEB2DF
2913DEF7
120B04EF
F233F411
D9F40AFA
0171FEE0
0A31CBE8
1F130B10
2113270B
35E81EFD
FEFBE814
07020EDB
FAE3F816
241106DD
3A0E2917
11190B3C
210A2938
BED1195C
AEBA450B
3904F500
E519FEFD
F8F93922
E70DB313
240CFD00
CAEE24FD
1CE6E60E
0647DB24
E002F009
D0E83140
1CFECEF6
EFE2E6EF
00EEE6EC
14F3E8EB
DCEA25AF
08E7FF01
22C3F4E4
D2050EEB
95EFD75B
F9E3ED03
0ACB1102
151717EC
2FF7D9B9
E4291136
A1171754
05A2EC48
E027E3FD
1400EA25
2C04BE29
21F8AFE9
2F3102DB
0BD4EDEC
ED14CAE3
23031FD1
020F16A0
4739B1A7
0011F1E8
D1E4F1F3
3FDACA43
F414DE25
13CAFD1D
F5FEDAEA
08EBEE06
FAD1140B
24F0DCF9
03F20D05
F90FEB0F
B52FFE14
DBD5A4E0
28D53DE2
FD00FA04
E730E90F
F2082B2F
F00A08D1
ED180B13
DCE427DB
DDEA29E3
0C12F203
09F5FF07
16FE26E6
F2DDFBF0
38000715
EB14140C
0A0D3300
04F1F54C
F9BF34FC
4106F8E2
D6FCF4F9
261417E5
0DF3FF1C
D6E5E7EF
11040CEC
DDE3090A
2F050DCF
F437C5F5
0C19F3EC
0EC52706
EAFE21FD
CECDE701
F72BDE17
0BF4E20E
0EF1C1F7
ECFCF81F
F8EB1C2C
E02EDF18
04F3C545
FF191C08
EDD23732
F90433DF
FAF1FE2C
FF10F10E
04D1E724
E6FFE607
F8DDF11D
07E30CF2
F3051114
1003F3E9
350B2013
1DFD1FF0
E9F2F809
D6F4051C
0DE21518
E6E5CA06
2A0110F1
1C1FF40E
C918F837
102F0425
FDF61CC5
1B0018D7
3AEDD5EA
FCEA11F0
C1DDF511
CDFA1D11
0DCAD7D7
1BD72203
E31C233E
EE0DE313
E7AD4DF9
0CF7F04D
C92C0124
0141F0FF
F8120913
37CD2BE6
D51C0BD9
F402C410
0312F7E5
F524DA04
D5112BF1
E5C101FA
D124F40D
4115EE2C
E7EA0D33
1C2924DB
F33FE4E7
EFED220F
0C0A151F
09D5E9E1
F5F747D8
F1170820
FADFF305
22F80DFD
0FE9E3E0
F3F4F6D8
F21FEB1B
F21117E6
162C32E6
F5CB19C3
D02B10EC
3A050AF6
F6200E2A
E904D9F0
1DFFF914
0A0006E4
1BEE05E7
FF3DF11E
EF20F5C4
2D1702EB
F13822E6
30022535
F228F819
DCF11CE8
05FCE809
F926FA10
DEEB0012
3BE6DCF8
F3F02020
101EE719
02F1FA05
EBE71EF0
0F3FECCD

