81FF1335
312A1537
E3E3FA06
D21BE3F8
101AD2ED
19F2E018
18DB85D7
BFFF1D01
1732AB1B
261FE42B
DED8FA31
32D8F8E9
F4F9C9F3
4F2E3451
05D4091D
0F150722
ED408BEB
E6CE291A
8E064CC3
A7F82806
0FFAB70D
162AEBB8
B2FBE8D0
F03FFAD5
E2E2D716
E2EA02E3
2DE3C33F
1710F325
EDC455C6
DDFDEAEA
39E80641
FA00DB1C
2B251402
EF2F3926
FBE84DFC
FACDE02C
0600D723
1802F9F3
0DE336B3
F1DAECFF
6E5A39C8
18EE1F07
140699ED
CD20EC24
00F10E21
E0E02606
FDEAE426
D8FBF7C1
F648EA0A
0CED1CFA
E4F5A3EF
44141203
1AF4F31B
FDDCE52E
FCBE1FF6
D3113413
E91EFB17
17FCEABF
E331E001
2026DBEB
F307E10F
BD0DD9EB
18CE7E00
F6EC1647
DCECDC0D
EBF31CE3
05DD26E1
020002ED
F91B1EEB
21FEE9FC
EF17DBF6
E0D53542
0404371C
0A0210D7
F3F511FE
08ED170C
FFF304DD
EDF5EEE2
EF0BFB36
EAEFFEFA
C42822EF
F7FBECFC
00F60B25
060701D2
E8F911EB
1BED30FC
0105FDFA
EBE0F11F
F00F2E00
E327F2FF
B5F813E9
1FEEEDFA
DB1D40E6
F042FD01
F7FA07D8
FAF1F5EC
1909E41F
C61CC9F7
D42F2CFB
F9D2F9E9
0115F9F9
0109EB0C
14F6FF15
22010701
1DE9FEFA
ECCB07D6
0739DCFB
4D060DD0
1726BE10
4339E6DA
08F4EBF6
180B0508
F1510FE3
E310F90E
04040205
400B2FFE
32EAE1F3
0DFC03FB
1FECD3D4
D6050FE4
250F07E4
FFD6DBFB
04F90401
EFF00E04
F5F1FE19
E6FE110E
0CDDCC02
3CCBD913
CCFE2620
FBEAD4E4
1EFC4CD6
FDE3B226
09DE07F0
130011F2
110D23FB
0814E2E2
F3ABF126
232111EA
22FDD306
EF05FAF7
25D7C538
2C1E3317
EBF9F908
DFE71938
0920EBA5
0D212707
F1F601F6
FBF319E9
C333DB27
E6EAEAD2
F115FEC3
1309CF32
1AEB093F
C5DDDA17
F3F103FA
E8E80F04
0251F1E6
DC05011A
FF1E190C
F2E73020
CD100105
0229E3F8
0DE02607
FBD60A11
18150E24
040C17F2
CA132507
04E936E2
E70FF5FE
F00F0419
DF146EFF
CD18E2E4
0EECF9C0
20F74BD7
1A0F110B
03E0DE21
FDFDFB29
1BFB0BEA
CA32E72D
E30213F2
0D04F834
3F04E2F0
32142FF8
E4C9062B
1C020D2B
1A17DED7
2D17EBF3
4DF71AD9
29D9B913
1FDE13E2
11FA2C0C
031F0315
F7E5281E
D9B30DB0
04F9E7FE
E0CD1508
12C00E3D
BCD7F6C8
2E067AD3
272D21C1
EC1812B8
F8060B1E
F6D2D21F
3EE40B32
36D8E234
0F2B34ED
E6080FF3
FD1B030F
E9E1CAE4
0C23D9DC
B9FA16F9
EDEC0EF8
98D08E24
C710E5F9
E0FAD0F3
9617E200
080A0DD4
FE2903E1
18F2211B
EC2B1743
DD33EA2C
11E80DDA
FB47431E
EC0C22FD
E633FE21
D9181E22
F7E7FE03
1FFAE310
15CE9FE5
CF10DDED
0FEFF406
53E90D14
E4EA011C
411A1DC2
DD17C6ED
BA172B1B
C422DF05
06F3E70E
05FC1431
071607E9
0E0BC4CE
01C5B8FF
EDC2931C
3915F5FF
D51A1C22
DBE1F1F3
F92AD7BF
51FF36ED
21E298F2
DE30FA3E
3BF0B4EB
BAFAE504
11E5EE29
EDFD01F8
102729FB
F0F6F6F7
F00FF01C
1FEE1622
2AF006E9
0B170701
FEDD4414
10F52E0C
F1093405
09E9F7ED
0413CBDD
22EAE2EE
E3C54135
DCFEDCEF
F9FFE0D1
B8EBEBE4
08BF28E9
EDEEFBD5
F00A7823
0B1ED003
F20638FC
E7C70600
E601501B
BEFFCEFB
3405F803
0100FB18
EB55FDE2
C7F644EF
EDE6E4C7
2610F710
F0F20AF6
1D0C1205
281EE904
2BDB17FF
F6CE11F1
1EFDC3FC
D3257A1C
E3DE28EF
19E2AC07
2401180A
F4F7B30E
0B09081F
1A121DD5
F4F91B33
F3FD180F
EBE801EB
E2FFE403
0B19E8EC
EBE3DA2C
E3FD0203
FF2705FF
F811172F
0E191B0F
17F6FCE5
F3F4AC11
0D06DA05
BDDEB104
FC17F1F5
261F0CDE
1332F0F5
11FFEA12
1CF112E7
F6FFCF06
0C1A0208
C1E97709
CA0228D8
E8131918
F035FB07
0CD92EFC
0C01F802
FDD9F6F1
D40BFEFE
3017FE04
0D09FDF5
F41642FC
E0F3AFE4
F1481E9C
1A09F0D5
21F161DF
111ED2DE
F6F4E8BA
161C1306
C5DAC90B
DEF407D4
0C020818
1601D31A
0E02E9FB
EF20E01A
F418F500
04AB07D6
2FD2083F
15FC39E0
11DFE3F7
E712E2E8
03EA01E7
FE1CDAF3
1E17094D
40FBF0F3
21F122E8
04E809E4
07EED90B
FD08201C
FD06D116
E30B21CE
DD04C828
13ECC1CF
01F7F4DA
BF09D71C
1812E2DE
09FD0513
081902F6
E9FBEDDD
32F5E401
B8E1E620
F20CCB08
07FBE8D6
D5F9D602
0DFDC221
4FECDFFE
0CC7F413
FBFFE207
BE5619DC
D4D5E0F3
FCF310FB
014FEF2C
3D45FA23
D6EFC9D9
372DDBC1
EE06F1E4
27EDF4FA
F1014FE6
13F8E00D
DA3042C7
CBF40714
E9CF1D11
23F1F2D5
CF23D913
FEF3FBEC
E90A2B07
E60C2BC5
B1D21ADB
C1F10B34
0D1808BD
E4280D28
D7DDE6D2
2CDF012D
071316BA
FCB7E817
F5E5C3B0
FB019DED
FA1BD4E6
FB282403
D317092D
FFFDC8FB
30B92019
EF19F3FE
1F3604D1
09ABFCF9
FEF709F3
0E27B9D1
D005DEED
DF1D3AD4
1023FC03
EBFFE437
2505AAEB
66E5CBCD
CAFB0F31
A8E4E0EF
FA095006
062ADEB1
EB25BB1A
10D4D5F4
E8FE58DD
BAFED41D
CF15FF0F
08E1F814
FCE43505
020CEE16
DBCDE990
D1081F03
EAABFF45
052F06E8
262F00E4
C6510E44
0304EE16
2926FECB
D509F89E
F2E5F51F
18EADBE3
DD09E0FE
22D2F2E2
1E021F21
01F0D3FA
2601FFEE
0118F406
0F0E10FE
C927C6FD
08FCDE35
0B110D11
03E0F72B
0126FC16
15E9F104
02F8EA02
0111FF0F
DDEBF708
08EF0A07
0CFB090A
D40204FF
FB06E116
31FC0C03
10EC130A
0B010206
000EE619
0111DFF9
B41BEB07
22431405
0AFB3AD2
39F5E4F2
D4F51F2C
220A1AD8
DCEFDECC
1AE23ED2
0EDCE9D2
14F92F0D
FE09F292
47FCE3F7
E3ECD7E2
11F31D34
0E091014
FC0E2004
0CF5CC11
F5250706
E41AC7EE
1F10D22B
0416FA0B
1F04FDE5
0EF0EA00
14ECF42A
24E9F5E2
F1DDF6D1
FAF013F9
0305F9F9
16E7F917
DBD5FC04
22FA19EA
04E4E0D3
0318F4F9
F8FE0C0E
020A20F7
F2F9F4F6
2459FB02
23120635
17FF2FE1
3EFCEB07
F60427F7
0CF20312
13182CFD
2AC63600
DE221EF9
D3F403D8
FD0001D3
F7EC03D0
27E34BF8
E51E0EE0
E7E9073F
F2F21DFB
D5F6E707
F82C2B40
0BE51020
2CDEF5E3
F9F26417
2DF90058
2215470A
1108E403
10F59DD2
0A050D0D
FAEEF6E9
421EF0D9
22ECD84C
190908EF
D5010EC2
591AF821
EE15100F
2505D3D9
33EBE70F
FD05E8FF
14E4EEF1
E20B1C02
E80AF819
EBDD0F3F
113E3A26
2722FFEA
0AFCCAFC
F4DAF206
EF08E9FC
0DEFF109
D30517E6
0918362A
1133AE2C
CA2AC8EE
3611E44D
E0CEEB0D
0920331B
070EB5E0
FB060DED
05F10123
1FE926D6
36240800
0BFDE1FB
1F0F3F14
D5FEEBFF
F1E3EF01
07F902F8
2313E708
DFFF0F0B
2BEF0FFF
E6012E09
0DF711F2
CFE313CF
2AD9ED0B
3503E904
C8F3F803
EAF4F41A
0AEFF4B3
F5F9C05B
D31D3BF1
1301DF14
51FDCC0F
C02D9201
1A70F209
FC0DDE14
D61911C4
E9150BE7
B90D1737
161B0300
C5FAEEF4
DF0CE3E9
CFEC14B9
FD1D36EA
04D2E6E0
03F2E9EE
C1EA0EBD
291C5C02
41041623
29C5D02D
50F13208
F203FEFB
EF03AAE5
F12DE62E
ACD914FC
FD3C2712
2A27E518
E6CF1543
CEF5D32E
D6C6A11E
18B6F5EE
DFA0F793
043C30F6
3C2F37DF
FCEAD41D
071816F3
0D14E102
031ACFF2
C80DFDF3
172CE7E0
EB0D0611
FCEA9CE7
C7E5E305
E0EC0108
05EB2DFB
E61D240A
20E7F4E9
ECE63E04
08FD190A
E1ECECAD
EC24B706
B8E4000C
21F02506
A0E931B9
E723111B
FC17F515
F4F9D635
21E726F0
4577D6BE
DF080CF8
54F216FD
0A1DEB00
E83412F7
FFFAFCF2
2418F6E1
E81D0B0D
0315101B
143314DD
F72602F4
FCEA1E17
04F8FFF8
0406D4F1
13E4F611
2E1AE80E
1D0F0513
36FDC406
EFE5E5E9
E5E831F4
F6F8D917
EC1AEBE2
1124E60D
0D0CFE14
F717EB0A
CF2FBB24
33EAE01A
4200FB20
1BA4A4E1
18170DF9
1DE4EBEC
EC09E2FD
03F3FFFE
C1390CDD
DBE4DC21
11C020F0
110620F7
180A0914
0920E304
05003E13
0432D718
F73E22F1
E21CF5CF
12F2E627
23FD02E9
0808CCFF
2EFCC612
E9EDF921
7E04F4E2
363D2BE1
05EED9E7
F500E1D2
0C0EEE12
DE2C0518
1402FEFA
F91C070B
E804D911
FB2DF9EA
0A18E5DF
1A11E817
03F1C816
10DEEEF4
F3FFEFF0
1DE400FF
D213EE24
10161F0A
ECF316E2
F514E5B8
D3130E00
0BFAEE2B
40EDB6D6
D50FDBEA
EE441A16
5C66F912
2E03FD03
14D825F4
2FD40EF7
E7C8081A
FD022717
EEFA0F17
F0F7DC18
E9F827D2
F3011DF6
26F8DF1E
DC42F2E9
3C00C4D0
E8291D51
1E2F4E39
2CDF1EF2
FF3067DA
2A4203EC
0527A324
F1F50C23
32357E0F
300717FC
1A1E16DB
0011E60E
CAE8D4D8
FFF2250B
FE0552ED
03FB1536
FC17E2DD
F0EE18C7
EBF2E028
19D6D5EA
01E5380F
0F06FA15
CA1821D9
E8FEFD02
CDBDEE14
F3E0E5F1
E9EF8F1A
04E8E40B
E7FEB7F8
0EDEEEAE
DBAAADFB
14F40FBF
DDEDDADB
E7EFD601
070C35E5
FB05F723
29DCD508
8C2A0EE4
27F3AAFF
F8CDEEBD
DE1C0111
1AD21008
E0F5DE07
12FBF5FF
FE211EEA
1EF1E5C9

