C6DAE605
B1EAF504
D5E8DCF6
30BCF8E1
F0F31405
591F522A
2BF2F517
F91C81EF
F708C9F7
08121AD7
EBE6EAFE
31FB1616
DCE80F1D
FE1EFFF4
2313ECFF
48CBC20C
1E11EDD7
F5F7EE0D
B4F8D4F7
18E61300
1FC3C61E
F5BC273F
1CEEEEF0
E72163F8
08BAE516
C648EEF5
DBE01ECF
01D80AF8
E907F913
00F2FA17
08F30132
F705D207
C30216EF
C60628DD
C5FD08FA
3405ACCA
140613DE
E1C8FF22
14E61EEE
254A11C7
F7FDCE01
DC46170C
1AFB281F
1BE213EA
4F0FFEFC
DA22CAEF
41E61737
00F1E2DE
EC11E6E8
DB33FBEC
110ADD4C
AD58EFCE
CFEF1E15
233928F9
E4F01204
F122EBF9
1ADAF8FE
E0EFFEE5
FC1B55D2
103652CF
F8BEF7E8
0236E6D9
00210D04
AD071C67
20D400EF
3B7E2601
030AF603
0C2FE9EA
11E0F418
F29D25FE
043CE1EE
E24118E4
CEC22915
10F1E0B8
1CE7FF0F
EA14F0EE
D50BE303
DEEAEB09
20E50433
C6180BF7
08F0D120
D9A5ECF8
F0B50DF4
45A0CF29
2FDEF1F5
D4E5E7FC
3A090725
23CB13C8
440B1BD8
CFD920F2
0B98D7F4
2106ED0F
F2EC0CFE
0C003041
D40F16F0
A7D148CC
F4F8EA13
F9181931
B7E4F9E4
B3F3212C
1F24EB25
F2312AE8
F65220F9
10F1FC01
D8DC01ED
0008E927
4E220908
F310EFF4
1DF4C817
F8E9FB19
27A1F70C
93290417
FC0217F7
213B1921
12FF17F4
EF17FDFD
1CD8D619
29C00630
BC0AC7D9
0EF5CB25
BB090DF7
1CE1F321
05E30305
FDDCE147
0FE0DDF3
F0BE5135
EDFCE2E9
3FEEEF3D
09EFD3E6
D411B609
DBC6FEFE
E91FF300
712E3605
181344F8
D501E402
FB080626
F4011FB0
FDF003CC
F6FAF34C
E409E917
DF37EAE8
3CF8E0F1
F0E5B030
E5EEFDE9
2D271905
2C13FFF2
06CB0B04
D2FC13F6
24F3E40C
35060FF8
FBFC2812
92F80515
12121FE4
0A1C404C
0A29E134
0BF33459
0C1BF9FF
090FEDDF
F6FAEE05
0B0EFA23
F7BCF9CD
E907F5B8
21BE08F7
0B27EBD3
EEDFDBAB
20CE1923
F7D2FF0D
EA29DDFC
C71FBAFB
1A034605
13081314
0041EB0A
B1BDCDCE
1A040DD9
59FF01F1
EF49CBE5
F5F9B010
1C0F241B
CC2F1D0F
D3E901ED
2C1B2D07
EED7222E
BBE7F6EB
BCBDDBF4
0D11FB45
19240007
B93CF319
C9EDEB11
D0370A10
EF00CB19
EAF000F2
07C72312
07DAA2A7
F40DDA31
F2CEEFFE
0CBA12EE
F5440E22
E111E9EA
241EF8D5
1815FAF2
3637D0CC
27F419EA
C8F3DB29
F7DAF1E1
27CECED1
372CFE09
F20D05F7
D1D9A5D7
F8EA00AB
2AE52113
D8E8FC14
ECFCF9FB
E23E14EC
FF13120C
E4220EE0
490CF7D7
B8E9E807
FC0ED601
F7E2A4E0
E6F4F615
BE0C3CFF
8C15FEF2
EF011DF4
F7E93BDE
D6F4B419
45F4F2F7
F729DC03
0AF0FFDA
4F2D29FD
F447F8E9
03DE0905
E511FDE4
F9D72129
04F5DF2E
FCAFF0F3
C5E4DD2D
0C20EAFF
09211EAE
0EF3CBE1
0D05E128
E10F1F06
1134F4DC
FFDBED01
1A0309F8
EAE2E523
02351701
D11A1011
FEE90DE3
FCFCF002
EEF60429
0A09E11B
E8FEAD3A
19063117
FF19D9ED
FA14050A
DCA4DF1D
03E016F0
F5240C3A
D7E91FDF
033725E4
FD1CD514
D4E9F8F3
D8F6E230
A7F1D1F3
E81CEDFB
C7FCF503
26F40814
00131EEA
11150304
1FECE132
4402E91B
E0E202F8
1BCF0414
F0FFC7EB
E4DFF407
072A041A
E427E1EB
17230603
072D08EC
FA1014E8
FAE3E5D0
F1F113FA
23EC100B
151F04CB
FFF811F7
F60604E9
19FFFB1B
E3F51607
0FE8EDF4
00F7E5FE
2D030E03
2B081B19
0810110B
EFF312F5
2BD8F408
FF27EEED
021608EE
27D2101C
0A2CE0E1
14E9EAE0
F4351C09
F70819F8
C73EE0F7
1EF444F8
0924FDFA
D42B2F07
0407DEF1
0944E129
CD110BE3
01E1280B
D015FF01
9F4C09D7
E2EE0BE0
FED41408
F6100900
5B220D30
DFF2F90F
2219221B
1305D8E1
F9FE28F3
B117F8E0
19E120E6
1D4418AB
F6052D24
C9B62317
2E0AF514
FE2AF6FF
F40A25F4
CA0F1F42
0C0BFDE4
DE2B383E
09010803
0EEAD7DC
173DD223
16CC3ECF
3A0702CE
F833CEB0
0012D6DC
011BF1E6
13F5090A
02F10CDF
FCC0FC23
DB0B1ADA
262C29D4
EED716E2
02C8DB1D
4305FB26
F5B30DF4
FAE3DFEC
CEC3D219
F9FBFAF7
DEE52B14
08F6DC00
02E220B6
F1B5F4DC
E3A0DDF6
E7F00E35
F131E6FF
F113DCFC
1437E0E1
4C0CCC1D
1ABFEC2A
FA1FEBDD
B323020D
DF03E61F
191B0C47
FD101217
061717EA
E8F020C8
EBDEFC00
B9DED9AA
FCF2170D
221215F8
0426E6E7
0B37DE20
D341D7C3
05401DD7
39060CE6
262CCBF9
0A21FA34
DC1018E0
083FA740
BAEA1BC8
17011932
EE284120
07D301EA
28D7170D
3524D208
1AF5FD01
1E06FC0D
31F9F0E4
CFE7F2FA
DB42D722
43072B06
CA0EDBFF
131A0435
F207DDF3
13F0FFAF
EEE426EF
35EFE22B
F01B040A
082EEAD2
03F72716
F6E4F719
0EF1FD0A
09FEF718
2ED5F90B
11051EE6
CFD62606
13E2CBE8
FE02EE05
01ECEBD4
AF1B181A
26F2010B
0AF215E3
DC53E444
1008FD01
ECF0D532
3926CA44
DA36CDF1
EF16E8FA
0839BFD9
E2F92914
2BD608E1
081BE215
F2EDEBEE
A30B1C08
2B2449EE
18FD244E
FD4A4838
241DE80B
FEDE0FC8
28E93CF3
9808E5FB
16E807FF
C4110C13
F8F81600
F0E5F9D9
0CFF291E
D71EF2FB
B3DBE1D9
66040CF5
A020E4D2
F3FDCFEF
EB231CFD
00321DFE
FDC5DB15
3AD905E6
0EE22BEF
11210EF2
E1F3F8EC
33F618E2
FCFF00FB
0DE4FC10
29EC13EB
0BD414D4
1AF1FD02
FEF704FF
E1ECF505
0510D4F8
11EACF16
16C210D2
FD1109FA
0015FC0E
0B1AF8EB
F3E7F6F0
44D3F20A
050632F3
10FD1A0B
F2061FF4
080503E7
190EE80A
ECEAF7C6
002A2C35
220804F4
DBFEEAD4
0B001D0A
18ECEBF7
E311EA0C
320937F9
4517F311
1A23FB00
E0FAF5FD
1009F410
0004DF12
0D03F8F9
161BE4D3
0625E5CE
E037F8ED
D5EA1847
FDF5EDEE
00CDF308
32FAFFFB
18DDE40F
EAFEC326
1408DE17
FDF50908
DBEBFFF5
CCE3EE0E
18E60C06
0FF8FC06
0801FE19
FCF113F9
14F1F9F5
E6F51D0D
1B30FE23
FD1A1612
093A28DD
27FCF609
160B4205
1CF1EBCC
EFE1030F
02E10428
D91E0CD8
1AF80D28
1BC61CFB
F7EFC8EE
FC24F004
0F2806DE
DE1D0CF2
F5514719
362DF9DE
4DF8FCF3
F0231103
F2E9132E
C1DD1ECA
09E1EA05
F9E3CE17
24670C2A
2207CFD5
EDF21906
EA0E1947
E126F902
E1F5091B
FB1B1E09
4D06FD02
0926D4EF
DAF5FD1A
1C072817
330806FA
2C0BF411
35EFC73D
FDECEC15
F705FA10
1E0EFD21
FF0A19F9
FC00D5F7
E2E7E0DD
EB16FF27
FCDA20DF
0D12CA2A
2400EAFF
FFC1DD06
F4E00413
FD064708
F60C1EF3
3E1926DD
ED3BF3F7
D7E4FF19
D9D92109
F6233208
04D33FE8
204423E0
292811F1
D3D9F5F4
ECDEF8EA
EE1ABAF9
D0F9C4C2
06B7D11B
4310F0FB
FC23FF00
A7F4E609
11DBE715
0C00FAC7
DEDB53F0
F5CF1EE7
FD030801
F30C1931
C6F832EF
ECF8FCD9
CFF20337
F1150AD6
46FC2524
F2E3EF16
09D243C0
41A9CD21
1F08E1DE
1DBBF416
B6FB2AFF
F7F5B3F1
FA221232
F919AB46
F5FFD6DB
2AF3FC08
F9FBF709
5BFDD301
D6220802
D0052051
08330AD6
E1253CD2
BE062F22
C5F627DC
F2142722
00F23A11
E44E270E
EAE90CEB
F1062212
B90B3BD8
40E0A503
05E6EEE7
2DD1D9E0
D10FD6D5
A70603F4
DE40A811
DA0EE509
10021BEA
1CE32221
1ABEEC51
15E00417
2BA40705
E7E6B4DE
06050D81
10EE2515
4CE3041A
112DF9E7
08F012E4
F5423EFA
D92E03F5
F3D33F0F
E9EBF005
5540CDEC
38DFCA17
87E4E544
FD09D6E3
15E8001F
B300BA1E
2773C42C
DCDFBCFE
0EED0BE9
30140C09
1CF9ED40
BC2D0748
FB2A23EB
01C8EC14
D3F3E4F2
EF22DD12
C7B2FC0D
DF253213
1B0E29E2
BA1B0F04
13F33C2A
D3D3FEE1
D2E9E7AF
EE00EE37
E9FF091D
FA0BF6E3
F30EF6D8
09FC00EE
E40BE7F3
291313F6
D4DE17FF
E7F8DFF7
D8B503FE
01AEFFB8
1DFA3C11
BEE21D15
0209EF1F
F7F5E0E8
2DFC0FC3
2FC63005
1132EAFE
0BF8E721
20D30EED
E110FE2F
0AFF1015
C1F8010F
FB420EC9
023FF103
2CEF174A
DFDF15F2
DB09CFE0
40214E07
F6E6D707
C329CFED
3DF0F7E1
EBFA01FD
180A01EB
E5FD05F9
280FEE1D
ED01F30B
3B13DA11
E55BF7F7
D8301F1B
060FFCE2
27DE13D5
2FFEEE2A
1CF81A2F
0811F517
F4EEF8EE
D1F41D25
F3FBEFBC
07160B15
E30C04EB
F9DEC301
2ED02207
E661C2F5
20D50609
B10DF910
2520EAFF
0CF91E16
0706021F
FDB46115
E034DA0D
09ED25F6
030FE3F4
E508D41C
0D2C244C
E52212E8
0AEA01CA
06F70C04
F70141EC
000D2727
400AD826
E1D42B0E
F5291710
FD060FFC
1C111D11
F9F4480D
0F2131CD
17193FD8
0111E316
050AFC18
F10CC80B
3FCA0332
0A00031A
FA36F6E7
10E801E9
FCB42DF6
F2E5DCD6
2F0DFBD2
EF03F03A
1AECEA01
4807DAE1
06F403FF
FE0048D6
211B2C00
CE22FA03
152B27F0
1EC9F6EF
EDF1FE2E
F9EED915
E5E8E612
F6BF24E2
F3FBDF41
2AF71EF1
1712ED0F
03E70AF5
50F404DE
01041C29
0702EAD8
0815F4D4
CA2401C5
CD27FEF4
0B1829E6
0CE2FDF2
DEEFE1E7
C90216B8
F2C804F6

