423BFAF3
CF22B6EB
2D1C1E02
FAF40CFA
05061813
1322B7F5
0CD4F30A
C3EA3A09
CED9260E
22EA0871
FC0DA2F4
DE01E915
E520A33D
F50EFE2C
00D1D603
5BE1200F
84D21839
D9CDDB2D
F9EC35FF
2A1ECF3E
1FCFF7F3
F00C08ED
3EEFE7C9
E727C80F
F6E6FA03
0904EE03
040E28F0
1407FFE8
E03FD6EB
15C90112
EB25020E
04F10133
15E70844
291D00F3
05E138E7
07F596B1
2028BBED
BFEF0B15
DD0D0AEA
50E4FF14
1500DB2B
590A0D1C
17F1F327
F0E4ECA9
F4CDEBFA
18160904
34E1EE12
0BF635F8
28103B0D
F018F017
1E2D4602
F41CFDC9
4423E3C7
0E23271F
E0F8DDC4
ECE5284B
FAE8C7F0
DC1CDD13
1A1208F4
33003F9D
EA3C24FB
640606C4
3048040C
2E1EECFE
FACFF629
DD06F212
250C1F11
0009DBF1
E90019D0
400AF2F3
033CFB0E
F3FF0A4B
1D1EDE01
0A000607
251041E7
F1FEF703
27F40AF1
230EF7F8
0700DC0D
0FFBE2FD
1722F4E5
D410F3F7
0DF81722
DC00D6E3
F9FE0322
FC19EE01
E12A0800
07F4E4FD
96AD4811
BFF8CB07
FAE807ED
13DE2C14
D3FEDDFC
0427BF62
CCDE2DED
41EC0BCF
2AE41805
12E22803
100EE10D
C0EC07CB
1FF0EEEF
0201160E
27E410EC
1E09ECFC
060A2708
CBDFFBE6
EAC7D2FE
CCF10329
D5E018D9
3FFC1CE6
F21FF70D
CB0B16F6
2A27E7EE
B5CCF2FF
10F4E9E5
3A09E3E3
010F0EEE
BDF013FC
13F1020E
DBFFFE05
1D140DD4
DD1B1ECE
F508FE00
DB0F06F3
C5C3CA30
DE24DF14
1B1506F1
F017EF25
16DB08EB
C505F630
D4D309F0
07E2ECF3
0B181208
FD2607F1
25FF13FE
0EF3FC02
080520FC
22073AF7
FE1FE9EA
1BFB2908
63DB1A1E
13FF12FE
04FB3501
F60B0E16
171DEB07
D42FB2F6
DCF2DE12
170B9104
1508FFEB
3FE4031F
0D472DE0
FF074DD1
06371606
F920EF35
B41EE803
FA0CE8F4
222820D7
0DFB1716
18FC17D7
2411BF13
E2092707
ECF2FDF0
14DAD4DF
0FE512FE
F9E20804
FAF3E0C4
2F0A0A12
002106CB
29CBECFA
0CFFFFF2
FE0553F7
D7D55140
1902190D
F70AC3EA
00C80E09
09F4063C
E0F3341C
ECFE4423
4E16361E
F5FA1A09
F7071A0A
12F120F1
DCE82506
080A55E7
F30D0700
0911EAD0
26351AF1
EC391E03
28E7E207
02E14828
024AF9D0
E6F0021F
2CC2DD09
011318FA
FAEE0035
2C1105CF
D1B53AD1
1DF9EDEE
0AC4F830
14E3EBE7
053FE7FB
D60BE7E0
F4FF07FA
BF1226E7
EDF7F10C
FE08CDF1
D107EC07
EDEFF6D2
F9F93512
CEF81125
491FE819
DD1FD7D3
DE0746EF
DB19F209
1F18FC13
3510E81A
F321D721
F720EC13
00011304
FE293A0E
160F0110
EF2416F7
03371208
05EC15EF
5BF2CD01
270EDFDE
E8084419
F1EDD40B
1CE3F219
DDFEF4DD
18E9E429
F901F411
200918EA
09FD1305
FA33CB1C
2310FF16
2BCD3A11
E91117E2
01E4DC06
F7F503EC
1BDDF0E8
1B09E60F
F02204F3
200CDB33
F1E400FB
F0163DF7
1FDF0DF2
0525F737
0363F3C9
F1129DF6
47ECF7C7
1DE8ED0F
10F00CFC
18CF0DEF
14E647FC
EC11F615
1CE9D5E1
F609FAFB
1C1E03E1
5BFB05DA
F10AEA0C
FEF00808
FCF30311
F3D8FA17
CB0008DC
A5F71F09
05FC072B
95003837
12DBF9F9
7BFFF624
1611F60B
9AFBFCD2
19F2D506
0152F608
FBA10FFF
BD0BE007
E4FF060E
E9061726
FAF3FBEF
D103F911
FE070305
7DF9EDE1
E9201412
17EF141A
D537F712
811406C9
0A0107F2
F00A1C1B
21DE04EB
D6FF600C
02E9E2F8
C2FF00F3
16EE1D0E
321F0705
F730E5E4
7EEF3EDC
F93DE105
1EF3F640
C112F0FA
F209E800
0CDBF2D4
77FDCCE9
EC1A0D16
ADEBE5E9
FEF4DDD9
BA01D922
2D02EA14
C50FB309
FBFAD8FF
40F8F240
FC1BF3D8
17103DEF
CEF14720
F3ED0421
49D1EE12
43E93EEA
0802D705
B00D080C
F4142611
74F6F4EA
140BD5F0
08E8051C
D1F6C7FC
3F1CE7DB
FE1CDDFC
E9F41926
FDDC08DE
F9EE2EFF
110A2CFA
11D8E2F9
20F832EF
AC0B1BDA
032510E1
FB0D11EF
1516F6F0
C11FD415
47E0191E
39DA46F3
F00F0500
23041AF1
E020F828
E0EE072A
34041AA6
EDF0AD2D
792BFBDE
F41CFFFA
0EF208D8
D500F4CA
FE1311D9
00ECE417
05E4EDFE
F53105B6
042DD90B
BF1607FF
F507D3F9
0CDDF305
A3200BCD
FA38240A
3CCAC8E2
CC1F07DB
13FAEA28
4D3E3F9E
13450F30
E1102413
2C01C82D
2A071FFD
1CFB501D
023046F5
F52D212E
ED05EB36
25B817FA
0D12F9CC
EBF2CDFB
DB054643
DF1E14F3
10FFE9F0
1DF01304
F721FBDB
E720A6EB
0304F936
F221120B
C2DBD4E7
FE111E03
3CE20AFE
4F21C0B8
29D9A22D
1C1701F6
101A227B
0EEF262B
70E3F3E8
0743FBD2
C5F5FBB2
F5021FDE
0ACCEBD3
6B310D1F
E32220E0
EA02381C
04F70BFC
180512BE
0B084045
3CDF0ACA
D60718EE
D1DD26EF
0A0EDF28
EB09FAE4
B1F9F440
F80CFEE0
1B040E3D
F2F9DA1B
01F822DC
4AF8D1C9
2BFDF9F0
20F50A0F
CD2214C2
301000F1
C50EBF2A
E902125A
03FB0E2A
32012AFE
13FFFCCF
0A18F8E6
E5F03CCE
EEDA01FB
62E611F0
061C04F5
19F305CF
07CAFA06
00EDF811
F4F51135
0CEEFF18
123D302A
4A0CFFED
150C0BC3
15CD0B06
18D21F37
22EAD7F2
F530CB1D
05D2F000
D844F008
C8E72119
0136DC17
E4DE01CF
E21DF5D4
E3D7ACF4
2B082E18
E92612F1
04D8D112
F9F5FD18
E517E606
F8FD0CFC
27F81C0F
10120FFD
F0E51137
05C5C0F3
FB0B0CF9
EB02DC07
F2FEEC0A
0213FD00
3AFAF310
EC0EE8F0
13DCFCF5
0DED1403
E113F80B
09F20513
F20F0109
0616020A
0809D903
E4EFEEFE
E816FAF9
05FE2936
EDF50E1C
220115F1
DEEBCD20
01EAE0FC
02FA2A05
DFEBF5E1
4EEC01F5
F9F30317
3F4314DD
F80F3EFF
17000EFA
EB1D0500
0000FE01
0B10E41A
DF30F3E6
EFE3BB2F
E7FF11E2
E1EE1B1A
14FAE6FF
F7F422FE
010310F5
F9F93008
EC03BAE8
FEF51F02
2136CEF0
23E3FE0A
FE0703F8
DC12EBF3
E62207F6
FB01B1ED
080CF2F6
20E7F0D6
011CF8DB
1DF42FF6
1E515E3C
10FDF81D
F711DF31
FAFFD7E0
F90EFEEA
0D05F3F1
33FC13F9
3F1AF6F6
FC24EA05
15E9F62D
150ECCED
D90411FD
41F4331A
EFFBBE0C
17F0D31C
ABEFE8DE
E71AEBDB
E9F5DD4D
03D5E815
E222F00E
292E36BC
162CECEF
021B1C17
0EFA1814
00EED01C
1625001C
1AED0A3E
B8FAE825
1ABD0732
3409FCF0
0A1728D3
F00919D5
F4EF1F15
C7EA270C
F308DF00
30F31105
D4FF2CCC
D6EED501
EA51DCEC
42EC0D2C
0420FF02
F5F46322
22290421
120604FB
47130511
010215EA
2902F9F7
0502A0FC
362001DD
543F4036
121D1CBA
37E3F40D
F0D82003
1700FD06
290DEBFF
0A0602C9
F00AFCF7
0910F2BF
FB17E700
1F0FD5CC
D82D103B
BA17290E
0CF50809
FF141911
2E24F8EF
DF0862D0
0B1521FD
C0171A16
0DC511EB
FD4126EF
260D31C4
12EC5204
FCD299EF
33FBEB02
FD1BE0C8
9FD50427
DEE767F0
13F1FC17
FBF4E6D0
B9F94B1F
FA1B0C00
EF18C916
120C5D1B
EC1F22F2
C4F8DEEE
0DEB21EF
D8C319DE
2D09192C
C5F907F4
111210FA
1B5B3D19
56EE0C1F
1D03EDAE
3BEF0FDF
F6EC271F
09180BCB
0EDB0D23
39F8D9E4
F3E4150B
F6F3F2D8
F2F9E42B
0018FD23
1054E028
58C80303
0F13D918
0D1B1041
DBD7F5E0
12F1E7C8
D5E60C00
E10EC6FD
02FE00CF
1BEEDEF3
C6D6FEE9
F8DDF130
E90D2117
001708D5
1129341C
D70BF2FC
16001AE9
FFEFBCFD
D6E0CCE1
F20308F5
FAE0FFD7
EC21EAF8
CE173755
FE0D092B
5B0DCE01
16F9E836
E72D39F6
26F2670D
E0EA11BB
16022028
1AF01020
C4F8E9EA
3FF71E27
F8F23917
E608ECF1
0CF007D7
0BFAEDF4
13F6F6DC
F133E4FD
FAF8C7A3
0A2209F0
0E14EBD6
E0EBECE7
F0FCEA13
051D0ADD
06142B21
22163FD2
E100F40E
E2390BD4
C7F91EAE
E6E40616
FAFF0E0C
0C23FCEA
F5F3E20C
FFE1F0C2
ECDA0AF3
1CCCD2E1
F9082209
CE0D2EC3
D9FE61EC
EBE4D612
FCF01811
04E7EDDD
E3013505
F356E21C
13D9C71F
EEEDE8EA
DC250CB8
01EEFAE4
F3EC1002
1ADF06C4
19F9F424
FCF008DF
11E418E7
DBFC130C
3BFBFDE7
D8F6F5E7
FC14E20E
B9AC2913
391811FF
13D82DF1
CCDADCEF
F6F6E3DB
EDFE05E6
102740FE
01F2F70E
F4EFFFFB
00F41921
D1141BD6
D0E403ED
FB272D13
F81AF70E
FA181C0F
E4EB2DE8
051F08F4
21EC0814
0B461AEC
34FC1601
D7102804
D11B040C
EC38B6FE
77F0F8FB
D218052A
EFFCDA0A
0CD71815
F60ED2C8
0FFFE8EE
08FCF5FF
E13DFA04
EB09323B
081B12DD
3208D9FB
C5F9160C
6BEDD8D9
E21AF610
CE0BF2F5
B42E4AF4
D2ED1513
07F1FCE8
3F1EEFD0
050F0206
1A17150A
F003F60E
E517F923
270CFAEA
08DC5DF7
2542443F
0625F2E6
042D75F7
C9F6D6F8
205F0B0C
09CC0FFA
0FF3D7F2
CC2C2C19
E9C0F701
DE0FEED6
DEEB0200
0EFFFBFD
FD1F2403
11E7EDE5
F536EC02
C5FE0B33
2512F539
C41DD31F
40FB1A06
33EF24EF
1309DBEF
DCFC1E29
CAC6091A
280E15F5
0F1B20F0
01054AD1
A910F7F6
3A07F80B
0315EC01
C41F0C10
FB052FE1
3F07E50B
F41EF500
2511EC0B
6C29E8B7
E817FBED

