091317E1
0AC4ECFE
E912FFF5
E0ECE409
E8352AFA
1C1AF8F7
ECE52DE7
6D04420E
28E008F1
19ECB500
F7F01654
D6D82B11
F90DEC32
C700EEDB
FFF91E11
FBE8302F
E8B4EFFC
D50C0DF5
03D51913
2004171A
0CDE36C9
048F1BDE
DC2B29C4
C230D73E
07EEDD03
D51CF801
33002CB3
1DDEB825
31DD5D42
0FCFDCFE
FDD80902
FE0C29EA
F115216D
2B1AF4AF
FF7DCFE9
0EEC06F5
2BD3112B
151C041B
08060AF7
EEF0E042
E9CAE0CE
1F241AF8
13F6FF3D
7E15F1E1
04FEE0F5
2EE21CEB
2113F606
DE4617FC
A6FAE8F7
C711D6D7
2F18FD81
D2AB09DF
2A1610F5
E71C1209
F644EB15
23DB030E
17195503
D747F31E
DD003030
34EFE5F9
EB3BC1F3
42D10344
04E3E62C
B1D263B0
DCE8FF08
09E94BEE
29FA04EF
4600E9C2
E7063907
4BE0E001
EFF9FE17
05DCECFA
0AF4F033
0432EF0F
0304FC10
09FDECF0
E30BFADE
1232E104
F218E5BE
D7F812FA
2421FEEC
1BD63A5A
FA151DB6
F605FFE6
EE0A0A0F
D801FFFD
F6C7183B
C22B2C9B
21F6264F
403F250C
1B2609E1
3DD9FA13
0E040513
1128CE03
0F09FD09
C421EAFF
0DF200EC
101A1916
00093BD5
D61505E2
12FBF316
0C1DD616
E2EB1303
03001ADF
3FE605BC
1E002AFD
E132F9AC
E1232AF9
02F0FCFC
B73CE924
F904F21F
0EFEF603
05E91327
141CC512
E25C0A13
00CC4B2E
FBF23717
CC1BE8FD
09EE3ED5
2512190B
F4E10522
1224070E
010A0114
E6FE2FE0
F8FA0505
CC2AF3EF
1CDEEEF0
BFDE2F1D
25F25AE1
9206270F
110E5AEB
1EFAF11F
05F71AFE
F1EA02FC
FDE9041F
3FF8E912
15F215BB
2B2200CF
F6F5D141
FAE8AFDB
EF17DD10
41FEB9CD
1EF2FDF4
D8D6330F
09EDF7DE
D2ADEC12
C201082E
1DED3114
08192A2E
F20D04E3
0FD81302
EDD7F304
37092CBB
E413EDE4
2AF80710
E71AEF21
110715FE
1E32FC43
000E0B0D
DEFBEE0E
03FAD631
0001CF2A
013712F9
28F10EF8
101361EB
18EEA8E8
0421EB38
FB1E04E6
F4070310
0600EB12
49F0C9D2
0B14D9DF
053C25F7
F8D1EE18
F3F6F50E
5E31F334
0DE3091E
0AEDEDDE
EAD321C1
A5A713E9
B6D31321
E89C19F1
F89E02FD
04E30D2A
EDF016E1
241AFB10
11099D2F
D1F2DB06
EEF3442B
0A502FF7
07F8C53F
41FEF015
1D08FB11
C1E5FF6B
C63E05F7
E016E1F4
2039F8D1
68293508
E9FED8F2
2DEDFAF0
ECF5530A
D1282020
0201334C
B21157FF
E52EE6F6
433416E1
18E7E920
10FF0AEA
1D0A1AB4
18221D30
08E311FA
1745EACD
15E216BE
0EC20D54
2E30F8FA
1520B310
E8F710ED
01F30601
FCCA2B1A
04DE3AF0
0FFED51B
07550405
F530D919
0503CEF1
1AC2E92F
D5E3F918
BAFEE91B
CC26DCED
FFEEE3FB
FB4C12F9
1E2CF4F1
02E029E3
350B1509
CC25BE06
F807E3F0
0A111FFD
D603F92B
D9231622
1304F516
19F506FF
032AE22F
1521CB03
1F2DED35
25FB15FC
00EC08F0
11ED1D07
BFD4F8E5
351C14CF
FD02D211
2A003C31
F5F8F0C5
CDF82430
14EE0A11
DAF1EC43
ED23F522
172DF2F0
09DA0F11
CEE9D70B
1E041012
D603E11D
FB02E71B
0DF2D8D3
E32FF203
11DDF4F6
E305CFF9
7002DDF4
F3E221FC
D3DD0EF4
E7EB412A
3A0BFEE6
EFC80FA9
FB242F14
0E16E9D7
02ED0511
E0E4FDE7
FD20D3DE
0814CB2C
0AFC0F21
CF08DB34
FB3C19E6
0BDF00E3
D810FCE8
011606D3
01D64BE0
0D12EC23
4928E7E0
110A34F2
F202F6EA
EA1F0EF6
ED1607E9
24F8F51A
E5D5F5E7
06FF1B45
05CEE010
150913DF
04D6FAF9
03E1FF0D
CEF407E3
DAFB08FA
042825F3
EE1BE407
0B17FFFC
0211FD24
4BF2DC08
ED242501
B22EE4F1
E8E90520
F6F0ED03
0D321FE4
1AE20C0E
F4160BC7
4216F4E3
DBF1EE1F
F52D0105
FD23150E
0A29FF0C
0BF902F3
1E17050E
FFDEF9F8
ECFC1325
F6CEF3E9
FB1E160B
1ECC3DDD
09DFF9D8
0E06D6FA
2616D72E
04EAF415
1708F703
08ECE716
0509FD22
F615F7F2
F823CBC1
FDF4F544
0ADA120F
DEEBFDFF
1305E50E
E1012C0D
F4022BF4
0FC4ED1C
EB1D16F1
ED3627D7
FF021E03
052AF9E9
F025FC39
E113EED6
BFEAD33E
FD0BE2DD
F008DE08
FBDA2AF8
0AE3111B
FD022AFF
F7F02217
E94A07EA
1C2BFBF6
20D8F110
10FBE908
24DBD509
4E003907
0DD40304
1FD71C12
13070723
B9FDE217
ED03EEFA
E0292F08
E91AD6E7
0024050D
D3EB3A9A
60F2D7FF
EA1B0927
4EF5E312
05CFCDF8
15280720
FADB00EC
F3411917
C03DE4CD
F612E120
23262601
07102BF4
E4521625
59041927
11D5DE05
0106D3DE
20271514
E8EF16EC
330739E0
F219F7DC
1B0C501B
DA01E1F3
0CF31C3D
F1FB28A4
EEE436B7
3ADF131B
E6EE0727
F2DF0730
25250CDD
04121BA5
F81C1DFB
06D6EDE6
E6FD0DDD
2B24311D
2200DED2
FCDFDB18
FFF90B02
0502E4E3
E2E8EDE8
EC4F06F6
0FEFED23
FB04FE13
002103ED
0D44EA24
22F5EAEC
213218DD
D32038D9
CB078113
EEE229FE
A508F2D2
18EA2807
30F8DB0D
1B45BDEE
16FFC90B
202C33F2
C9F62E52
1C06E70F
040EDE21
E0F3DBFE
24C03631
D6020F9C
0907F224
FFC0E82A
EBF0D82D
0627F1ED
0E0101FC
13C8D0F1
32AA47E5
1B132506
F4421DDB
2AD019FE
0DF726EA
27D5253A
C824221D
FA072607
C8CEFDFC
B01417FA
7C38E715
C41A2019
D4E0D6EF
08DE1919
2201090B
E6182A10
D3F2F509
09DFC501
26FAFD1A
D1B8F322
2F29F7CD
F60FF1FD
01F6E800
2BF72603
0618FFEB
F90D03F0
FEEFE70D
F800FEF1
090FF7EC
FE130502
F9ED0005
0113FE1F
F231F62E
37F8FA06
FC01F0F8
0D16F5FC
24FCA906
E035E103
E0EE34D7
FCFCB00C
0DCF1102
08D022EE
1123F3F3
EEEE09E8
08F32904
D6F801E4
E5DBD6C8
FA15130F
02FF04FC
E1F809ED
F60EF5F5
04136C39
0C21963B
FDD7EF02
D5E8CE16
FAFB0318
1702DAF8
1600F7BF
E6FB3BC1
0FEE230F
16DE0246
F4EAE3EF
04E22414
FA1101DB
14F3F101
120914FB
0AC1E941
F10F08DC
0B02D511
0EE9FAF9
F9130607
2BD5FB1D
07EEF1FB
09F7B1BA
310ACB05
FA0B0611
F30A0902
051FFCEE
0F0105E9
000702DD
C5EC16CC
29E2FB02
D2EB0BE1
09D60431
1E082907
DBF03A37
F6A4F005
1823200A
21F516EA
F30BCE3C
E22B34E3
1BDF0AFF
23ECEBDA
DEF10720
37DAF7E8
31DBEC04
BA26DAD9
10C913C5
F6F30FBD
232C2B1F
B8E6A10B
FE0A02CC
C506EF3E
EEEBEAF6
F921070E
F605E7F6
0D16EBD7
1301EA00
C20313C5
F4F9201C
EB2C12DD
DEE1D6EF
F11BEF35
C71A22E2
122D25FE
E222E4F9
35201400
E6C6D320
EE05FBE9
E9161E3F
1574EABD
001EC6F9
095FD512
0E3621E1
D13B19DD
0C10220A
F510E218
080EE739
0911081C
F9F615F2
3403A9DF
F8F9D719
CBD20400
EFF41109
05E9F8E4
110BF3B1
0B310D0A
F6DF37FF
BD03F312
200218FB
0DF4D40B
E6072E41
C8F6F8F6
FCE4C809
D713E6F3
089CF4E4
0F3BE029
21D61B17
FBE2DAF7
DBE9F72D
D61A2518
0202F20B
B81CF020
04022AE4
100A0CF1
32CFD40D
6CDA05CF
FCE03D00
FC0BF7D9
4A270CDC
CDE9BEFB
13FB1A31
2913C8CA
1F2DFBB8
46B8CA0D
04E4EDD0
07F9DC15
DF160725
00E9D604
1022E1EE
F5DD2318
0618021B
A416E50B
1BE23407
02F0F5EE
0BF00908
D60006EE
4EF81318
CB19038B
FC1F0AD4
FC1ACE08
BF10001E
E723F303
FB324A32
35181AF8
F5111319
D315EA2C
FB14DD07
D246CDFB
0F3D20F1
03F1E428
C02AEEF0
D8D1E21E
FA0FE733
FF111AC2
1D1FECA3
E77BD1E0
EBE81F2E
DD23BDE3
D3F9E008
E89437E5
01033237
F2E4FCF8
41E519FE
E62C100D
26FC3AFE
FF14DEF1
1DF71F36
F003E025
12031501
2A1BF92C
EE16FD25
D510FE17
F93E0C27
0DE20D2A
02F1E013
2903010C
E8E823FE
FC020622
E103D7B8
04FA1DE2
0C10FB14
14FFD9FF
1801F9E0
F5E323CA
F3F00510
08C40FEF
47E20F02
CAFDDD09
D302FEF3
B7171EE0
0DE90EEF
2F0B3B15
09FE28FE
F6F816F6
EF1D1117
ECFD080B
FCFD01D7
D7BDFD4B
EEED2A19
DDC8D5E8
03F7FC1B
08EBF609
054BF717
D4D520FA
F52034B5
3318DF1F
12EB1BE1
D509DCDF
E9F8001F
19ECE60C
F134E6F1
FAACCDF7
F32DF6E7
EC33D6E4
F6081C01
1A08FB38
300508F1
FE0BFA08
1EF908EC
12100909
03FACFFA
F826DF38
0B0DF9E8
E11FD9C5
17F3DAF2
52E8170B
1D1AD6E8
0602A6DC
40FD08FE
016617FB
E72FF503
DDF7E2EB
FE13F745
1FDB0C42
10D105E7
1DED0A16
1622F9F4
7E07ACF6
021C2525
29DA0BF0
E3F94211
F2F21EFB
0AF3DFC8
1FFC14EF
1E13070F
E9D6E2CC
E0F1F503
ED2DE242
110C25F1
021811CC
E3EBE0E0
1BDE0A03
0B22E9FA
DED4F61C
E2170ED3
EFF71524
00C7F12A
29A21D1C
F353F3AF
EEFDDB34
D630FCEA
D0B40633
0903DC11
1A212ADF
E403310F
DA1A18F0
FDF7D1F2
E220F30D
341709FF
1020C1E4
E123F2BF
08F9D41D
DC0E01CD
00EF253E
1BD7FEF9
EE62F3E2
1FD9DDFD
3F02F229
02A9D8FC
AF00060C
EEFCDD25
15E9E504
E3FBE3FC
3AA310EE
1DF4C62E
34D80103
F413F004
F3E91A2F
EBFC0323
F3EA16FA
F90F11F9
B6DF02DF
1310F638
ECFD0820

