0EEA27FA
29FA13D0
D11C2306
ECD71B2C
E1B3E124
4EF0D7DE
E8C5EE2E
E5F84028
E7F210FF
CFFDB7FE
34F51E00
0AF0DB2C
81E11C17
F113ED09
F4C30FFC
DE008B04
E3EFE005
B8C711E8
1FF61E34
0C2BC915
FF1C3407
CEF7EA13
EECA0D18
F138AB2F
E90ABF1F
5438D5ED
F9120C28
04CC1EF3
0405F1F5
0C28B830
3F36CAFA
19F9F50C
1E0BE6DE
FFFACEEF
E3D91914
F8FDF705
FD6E28DB
06E0DF41
350AE5F7
4FF348F1
4F0A1EFB
C3EA1226
CBD8E3E4
FBEF2A26
0FF6D7E4
171AAEE2
33F4EBFB
03F5DFF5
FDCFEFE6
D5F99BFE
F4DBF307
21F3FFD0
160C27E6
220D27FF
E91C2F01
1BE6B5F0
F00883D9
2F3908E6
01AED6D5
0D0617D9
212B0CE5
000F5812
2ED3ED10
ADE41E2C
EEFB0FF9
F91CDDE1
05E6D00B
25FA7E0B
CAE9DEF2
012EF2EF
1412381F
11FE9CFF
F1F8E4E5
F00A22E5
F2190B16
16042EE0
2DF0FBEC
EBE5B8DD
19E7CAF6
06DC17F7
0F0FEF08
14FDEB2D
2B22B7FE
2910DA3F
27E95C26
F1F8F3B5
11C4FC0B
0222C527
FA10FB01
28EC35A3
30F4FEB6
2B39E812
D8ED03E3
FB0200F0
0091470A
F6FE4303
DDF8F714
2905C902
E0EFED19
F60704E6
CDAB09AE
23291015
08EF0708
BBF8D129
042CF810
1FF1E5EB
F71B9F10
20FA4417
E8E039D1
14073A4D
21E3C0EF
32413336
14E843F1
ECEAFEF2
050717F8
F8FCD108
FA0D03ED
E00CFC16
E0DD1810
0A073305
FCD9D829
0201BF19
D2F7E6FE
ECF340B9
F70F17DE
CCCFF4FF
ECFDD4F9
5E1CE2EE
FEC80716
02D206E1
06E90412
03F72202
DEF2FCFC
1005FB01
EBF4FB40
F913F065
F40C49EB
E92C10CA
FFCEEC0C
1005D4F2
CB260715
D93062D3
CE21FDFF
9710F913
1E082408
551FF93E
FE061618
23F2EB20
2EF002F7
FC08F10E
E3FDEE16
1605F9FD
2E1331F8
0E2B03EA
2409FE00
DADFADDB
1FECF906
FE0111F9
FAF6E208
3422F805
FCD4B1FD
3005E6BC
DC0CB7F5
034BECD6
E60EF8CA
0B0F26FF
04F6C805
F81921F2
00F002FD
D81AEBF2
FB36F0C6
A950C8FD
D6E19819
07F7CF2B
06E2DBE7
D712FFDA
F9F90FE8
FB09C013
3A1F06F2
CEE514F5
D8FFEDCF
0602FFE7
EED0DA28
425DF119
E4920501
DDE8F2D2
D5CF230E
E1E03805
04190BD3
F1FD1BC7
10EBCDF6
E0FEFBBA
1029F6BB
D02BC3E8
DCE1F1D3
F717CD50
0C16E4F5
14E6FEAE
01FD393E
EC061FE4
20E5F22C
D9F4DB3A
E708230D
AB003CC2
202E0AF3
20E1F2D4
11FFDE01
5AF0AB21
1904E9D1
E9F7ECDD
05FBD6EC
C6D9EC0E
030C08DD
CF3E4BE7
0E033006
3DF8CD24
312A0AFD
0204FF9B
D21F04E7
042C05E5
18E5FD1E
F122D0D3
14FC00F0
EF0730D1
EE0D3EFE
304DF6B7
EE27FB3B
C50E192F
1AFE0A3E
04FF1008
391A1E03
E609C208
01221116
EE1FF6FE
36E7B0DB
FF30B912
F31521F9
B2D744F8
FF202BF0
1F2F24EB
1AC70FF1
3028DEFF
01EC48E4
E3EF4812
44E3071F
011607C2
1BD2C4FC
F2D82D37
1A0CE911
1532F3E5
170AC124
47CBAD6A
D112FC07
05E94215
0AF9F7CA
F803E5F0
FD15C9F5
F605211C
221D03E4
07ECE0F6
F1045BD5
F5FE48E7
DFFAF925
F10266EC
22DFF814
1E22D8CE
1713ED03
25F4F2BE
DAFA06E4
570B51F3
4BE015F2
FF16AC12
F113E50B
2AF3D0BF
E7201E02
DC200630
15F2EF37
F129F8DB
F9CA0F07
DEFA62DF
E8FBF507
13F2B6F7
F1DE2906
DAF533EC
09EB05F4
F102FEEF
EE0401F5
E0EC84FB
24032A24
342E7034
F6EC0519
F30DAF2A
050C4CF1
F1FBD936
FCCAE0F1
DCF7BFFA
100A43F7
1CF6731D
0BF40210
B3DBEFED
FA160CFF
D21B5B48
EB05DDF7
1CF976F0
3FFB0DE1
09F315E6
E415F416
26EF510E
151109F0
FDFD81E5
1FECB8D7
D90CC50E
01330115
10CD64FE
0E130FD1
FBED181C
EEEA1C01
0E0993FE
24082FDB
34F06C27
DE0E2BEC
19350742
07CC32EE
0E09E80C
12ECF5E0
DBE7CBD4
420BBF43
31D56DEB
2729B800
EFAAF6D5
1DF020D9
12001217
30E3090A
FEEEB0EB
CFBAFD1D
E60AD119
03F0E12B
ED2A9FEF
1BC808E7
F22DD9BD
C6D4F831
2D1E6612
ACC5FD0B
319D1EF5
F10D270C
26FAF7DA
1E1A1DDF
07E00EE8
E40AE8B8
09120D23
CBEC0117
E3F8B224
1347E223
1A0AE7EA
F4E828F5
FF05CFE6
DA0ADF29
29FDC5FC
38F40124
170DDFD6
0309E9EA
02232504
0C2C16EE
24E02B40
F530E233
3AE88309
D4FBF7E8
FCCF36EE
E2121405
080626E9
010A2915
F3FE3B1B
FC02BEE9
EBC933C8
EEEF1825
CBBFFFF7
D50D1112
0727F1FF
22E70F15
170F110E
EB20EDE4
00E80102
DEE0FDF1
04EED115
F8E9FD04
D8FE0D36
2D1328AD
F04E130A
FCF7F8E1
F30ED51B
E429FE07
4A7627CA
9912EA19
F2DBE44B
EC0C0D31
D0000916
F609FDD0
EE00E540
13DEFAFF
0EFB2D1D
F23022D5
05F838FA
14B5450B
1A2511FE
26C00605
2BF3F9DD
DEB41BFE
23F4B62D
31F30DEF
11E73A0E
090B06BF
F51E46F3
241B3A1A
30C7C5CA
22CFCE0D
36F034F8
061C0FFB
1EBA1622
CD3902FD
D7CE09D4
D11A1DF0
F3F4EC0C
591129D8
D9C1331E
EF3D50C7
F9B00BF8
4BE614EF
F1BEEE12
FAECD9E1
FAFDE3E2
FE0F25CC
221203EC
EFDE0019
FCEA60E4
091CDEF6
25B730DA
F366D401
F6E472EA
22F62614
20FD55E4
EFB2D4E0
00F9F352
E22B1606
ACF141C5
1AF9F50A
DDEEEDE8
C12F1FD5
BBF43E0D
F104171D
1BFDFBE4
F914040E
160C03DE
21BDF30A
07D4B803
F71EFD1D
EB26D605
D3EAE112
FE04F5EE
17F6FDFA
18E8EFED
F5F1DFE7
12091F17
27DC15DD
0B1BF205
FFF72601
0C0E1EFA
DEDEEAE2
EFCDF01E
FD1B23EF
1B2C10E0
110D1201
F616F60C
F6C5D12C
1BE214E9
03DEFB02
F90F1BED
08E7FD01
17EF1F01
121AEE1A
13140F01
160E09EC
D700F507
2E130622
08F5F120
07091509
1D160F00
15FF0D18
171CF308
43CFA1E5
DAE1F8E2
110E0EF0
F6170B05
0FEC1918
EB023500
EB241CFC
17C6F449
E0EFE005
F8F80BF6
02DDE5DA
E8DCFFD7
0E15FFF7
01FB1BFB
DE0C4E21
A7E3C3C0
E7E7DFF7
F8EC0ADC
F81E162D
FCE9161B
0AE1211B
3E0ECEEE
06D5040C
42C50CF8
42C4209F
E5FE3704
DE2427F0
2A15DBEF
021F160F
E320C9F9
F11C02E2
F9FD0009
08F5D50C
2CEEA94C
24DEDA1F
FA17EB25
030AF4E0
1C038AAF
EE48B3DB
BAFDC717
1039F537
24EE5F40
FAECF7F4
BE24D1F6
0D29EA08
1011AFF3
1F120813
F5F6F41C
3EE1FB28
BD06EB14
33EC110C
2C160702
120AB1D7
ED110914
F5D1C4F1
EF1C1AEF
EC10F3EC
FF1F30E4
1503D217
C00B0EFA
B4F5DDDC
2205C916
B2DEEC18
29ED20EF
3CC40331
E303022C
0A0305E8
CF041E1D
0A29DF15
B2D2A9D2
C3E2D9AF
59EA2103
F8041522
F43DDB2B
E91F0F07
19F90CF4
F7F8FF08
10FA281A
FDF7153E
D013130B
170E0CD4
14184A00
3B1B2DD9
47E30114
FFF80D31
0B0A1636
DC210D06
0422B6F1
F6FCE301
FB25A046
EB1DDD03
C92F1A25
35FFDCFF
14D4E2E4
1D0CAEF8
0CEA03FA
21F917A7
323EE5D4
FB2134FE
14F130FB
04FBC6F0
D61D17EB
C93D0BF7
3B39D418
0EFE34CB
F820D7D5
14F6D3DE
FF6E063C
0DF2D062
05CCB000
BDE2C1F1
D0FAF001
0117161A
2EA60A0D
E7250DF9
DA09CDD5
EC52111B
15CA061B
3B4726E7
FA3E1358
1CE026F7
F0E204D5
D7DE1EEF
F10619F1
62012514
F7E2CF33
02120116
BFEC245E
CBA7FA0A
0C40E8C1
EFDAF8F4
133F4A10
1B491F5B
240FCF2C
FA01FFF2
FD57FEFC
0AF9311C
44051935
F21E32EB
0AF1F430
F71C010A
28303E00
F33900F5
CA38E82F
D7D2E746
3CF6D4EB
E5E7E3D6
39D626DB
F4140D23
CF1425F2
FEFB00FD
0103EE0A
F7020BD8
04D42201
FF07FDF4
2306FC0E
01EC02F7
0FDEECD7
FF1F1000
2B122626
FCEAC5E5
DBDC0CE9
0F09FC24
001B2D30
08FEF0EA
EDE3F0D7
0E08FC08
FC07F2FA
C4FF04FD
5AFAFDEC
FE201EFF
27D9EBF3
DCE1F00E
DFDCD1E0
C023F807
01FB041B
33E1FF0E
DC3CE906
F144F9F6
12F7FFD7
2415292D
07C409C5
292A20CD
E9C61D1F
0FE10D0B
192402F0
F2EA1314
E00941D8
1B0FFCFF
E31B36E0
1DCC39F9
FBF90103
110F30FA
EF321E29
E700C215
F12FE4E1
A40BFC05
ED020723
DDEEFA10
02F52BD3
0919FFFE
EE001705
D91EF6F5
2029100C
14FF15F9
DFE911F6
1625E5CD
DF2F14CC
1BFD170A
031F0E1C
1D163DF9
E5D51DCB
2A19B7E2
FDAEC733
563AD7ED
19C7B3FE
D3FBBDC3
09E3280C
3201E521
06F5F0F8
1C0D0BFD
FA08FE22
06050813
E138D226
FDE9F6FD
23EABFEB
EB1E17E3
012D06E8
2547F43D
12DC3C0A
E2D8DA1D
1616F4F7
E2F0C72C
02EF3EDA
EF29D920
EFE23EE4
090AD800
D0040BF4
F816ED1B
12E6FAD2
C023C0CC
9A0EF4F2
1EFF15FB
45D9040E
FBE21526
28FBE7F2
F9D32C29
29FD141A
DB16E114
B3221749
FDFF02F3
EC20251E
CAF7001C
EAFCFA21
37F41802
F9F50517
1E150911
1101D9FB
CD292309
15EF2301
24ED1EE3
F6DFF022
F112351A
1724EEF7
0FE6EAF8
D6041D65
06C6F60E
3AF66DE0
1B1A2D04
2DF828FB
EC0A0EFA
10F517D9
CB20E50A
4219FD0F
BE29F908
CFE8DE27
0CD9DEDE
140828DF
D03ACB0C
FC0211D5

