F843343B
09F02A32
01E8C5DF
DEEDDA00
372FEFD6
3837E000
FFF709FF
02FEDC03
E6F43605
15F30801
F1060227
0B0D08F0
06D2F1A1
01D7FC17
D715FBFE
DE30F51B
1032D9FB
152A1028
2B3A0343
C1FA2230
00FBF815
1A41F5E7
00EB1C26
ED431F11
CF1BE743
2A04FADA
F9BDFB1E
233E2DE1
F1081FFC
ECDB48D0
F3F042FD
F0AE1FE3
112EF513
140EDFD4
38CEF916
E9DAB70B
E303C0DD
1F151719
18CE1A13
ED7EECE6
1104BCCD
F103F75D
F212DBED
05B46600
CB1A34EC
CE0D3E14
E4ECFAFB
A638F2AC
ECF4D94F
12BFF7D7
013C5FEB
BCDF0147
2B34FC0A
3AFDE3E3
ECF8F2F4
14EDB1CC
11150DDB
0AB71BDE
E34A0203
14C522D2
19F313C0
F9C11002
1AD903EB
19103315
E303E0E4
1D521E0D
0D1224F5
FAD4E2EC
331DE71B
FD8501A2
E22A1402
F9D5F346
1AFBE502
F3DC09CD
DCFD1FE1
27CA2E07
FFFCE6EC
1318F5FD
1AE2FB1C
FC19EC07
FF002234
EF23F62D
05EE0836
F721CA05
3713DAF9
0C1E0645
F132290F
1259FF08
E02D0330
FE05E814
E9EE06FF
FBECD7CD
FE1F2D3B
04F730FD
14FAD92A
E22E1010
FEED1600
EF1914E7
01F11B11
12390401
EFF227BF
2CE7EFE9
D0FE0306
E1D1E23C
F31F1CB7
0322070C
F4E7F51D
F735F60F
161EF405
E6CCD0D9
2A102BB5
FBE8021A
26B3F51B
1CF8FB13
E605E4E6
F3C8FEED
233D03F3
FCD5F532
00E20ACB
110B2CD4
F8F13B3C
0E1209E0
1016D644
0102F544
E83B13E4
36FCECF6
ED0655E3
171B00D8
2BE40407
DF2225EE
FF01131E
000A0208
0DF70AE7
D4E6EFDD
E5F8D9FE
E4FEC8E2
2CED1F00
E3CBDB0B
010A1027
E614E8ED
F75137E0
00EFE820
120009FB
EEFB0A0B
55E21A2B
0F14F7F6
08DCEE09
27BA0E7E
8CDCC1CC
13FDD0DE
E901F021
FDBB3E06
EC13FDE8
1A03D631
DB0E0710
23FDED0F
14001808
08FE0FE1
F505113F
ED0CF70E
27C4103C
2AF119E4
E7EC1643
FF032544
F5060EE6
2C180ADA
F0031411
D21013D4
0327ACF9
EE38C403
D73AC71D
0FFF26FE
EEF0151B
05F7F720
300CDE1E
E9092E0C
E930F9D7
C816BA19
272A1C03
F1240E10
0FFFCEED
00EC1301
F7071319
40D4072A
EBFE20FC
FCEE0527
13FA03E9
E257FDB5
F71FC512
00D502FD
0D00FB45
19080101
C507E33C
000CE8DA
240F1A0E
F107112B
001DE512
343DDFEE
342F1805
D9C3D707
03DB041B
13ECE8F6
181A0D30
FED839E5
D60E25FC
3EF8E92E
1AC7BAD7
D63D0904
10E7F5F5
190819E2
1BEBFDF1
E309CE21
FD104FF6
E8F6FEF5
210714FF
12CC000F
1817C4F6
EC260400
09031331
E0FB07B0
FAFFE81E
FF9923EE
D80CE9DD
FA0A18E4
F30A062D
FCB24302
00D0FD17
33FFFB1A
13BFED1A
E614F9F6
45E8C538
F420F10A
FBE82CE2
E1071B04
0BF6F2FF
F2AFF709
EBEDD5BD
25D4E018
110605FD
E7143AF9
1A12DE09
E953D7D9
DF0DCF07
2B06FE00
CDE1C71F
0F4ADBFA
C3EEF410
2F1E180C
0E2B0A29
E41D24C5
FD0202BF
1225191E
0A09EAE7
E310DD41
2E6AFB17
1CCEDCE3
10F60D10
0127D6FB
F31CFB16
E0FC021B
2705F702
28021402
FDF8D2C6
D7ECF61F
FC042A4D
F2FC0FF6
0DF0DEE7
DF13D4E8
1C2D3AD7
00FCF204
1FFD2820
FA0EDBF3
06BC4115
0B38F4EB
0D0C0612
1BD8DE06
1E15FD02
0922FE07
FCDCF210
F6E3E20D
10FE000C
01EC0907
F80BDF19
00F310EB
13FDFBF0
0605E8E3
FEE520F6
FCC00321
FB01F80A
EB25E0DE
E5E9E3F1
F401FF14
03F3EBE1
F5CD2FF8
F90A1201
F421EA2E
160906FD
F8D7FC04
E5F8F603
10E93AFB
010F002F
DD10FEEC
0100F4D4
FC260917
EA2408D7
1607F903
271B1006
E3EDE3FC
FCE0F7CC
033F02F0
D0FE2509
D1F6E7D9
07EB0AE6
25B91708
E3F2093D
F2100AE7
CF160914
0737FCFE
101CF41F
FC2901EF
F0F4D013
9C0ADCF4
F90625CA
ED8125CC
E418FDD4
1222A414
B732232C
05043717
A7BEBB52
D50BF5E5
EB0205EA
0E20CFDF
0D0500DF
EA361FFB
30EFE3B9
1BFA550D
E8F7F6E8
0E151B05
03EE01FD
FB20E305
FDEFDF0B
F62F06F6
0CF20A61
F8AEF1CE
23B536D1
4E0406FE
FB1D4AD8
F8EAFBFC
F2D01A1B
DBDB1B01
C509DBF4
C22F060F
4AE00941
0DDD1815
FFFFE506
251C21FE
33B817D5
32E7D7B9
DBC714FF
E2E82638
3FF6FBFB
F03A4AE9
CBACF9E6
21F1ECFB
FA16F2DE
343B33BC
00C42825
F5F2C4BA
4CE3EEF5
3B4205F7
E420110F
CE1BE82E
3632DF14
F31A3608
EEC7F220
40C208E7
EB37EA23
2427EDE8
2DD8F9D7
BD0BB40A
A7FAFAF9
DE73FFE1
08E603D4
E4032409
C02B2043
13ABBBCC
1D03DF15
F3B2F918
FA214C06
FDC01E06
FF090F23
DC2201C2
0EE2E31A
0C07494E
EF19EDE6
F201FB37
1606EFF3
18C9D324
17231E2B
F6F91D31
15FDC60A
E5DD17E1
27030D1E
36F5052B
0F34370F
120BF335
34E639FF
22FAF004
071628E1
38C32E0B
0403E4CB
0AF33602
F6FA1F12
0E003B56
FAEF1545
139DDF16
17101CFF
EAF40618
1401F4F7
F908F638
CF21370F
10E09BBB
2B0E390E
E50BCEE8
20215B06
18E639E1
320CE6EB
EC1D1B02
D9353637
D8DDCE0B
F2DC46BA
0613FD03
2CDD3C2D
F2C8FF4D
DE0756FE
08D8DF24
DF04F404
F4F2FD3A
1DDAF6FF
F9C20C02
F2DE08BF
16DBF8D5
E6FEF6D7
20E6F6F9
FA1AFB29
E5DF03FB
0A22281B
22E423FF
0120090C
EB160E34
051D1FE8
E6F11FE2
24272ADE
E3D6CE13
17E9FC2E
061AFF0B
FD251CED
D5F9FF0A
EF0B1AFC
1326001B
EEEB1E41
DD0CCC37
0DDF23E2
0DF30915
03F712EE
1BE61AF1
05EF12FB
0D07B90A
2B00FAF6
10E8151F
F8E8F7FF
1AF4FAEC
E6D7EB24
C8FC1D0B
F806F90A
1A0711FD
EEF618FD
E71411F7
FB111213
E1032AF6
03FAEDF4
C9062219
07EBE8FF
F50EFB09
F8F6F414
EE2A1013
E7970DEC
14E1F4EA
B10CFD0A
E0EBD90D
16F222F4
0E0D0DE5
FBE4EB19
0616F902
1503D8FC
03CB03D6
16FAFAFD
F719091F
3302173B
070EEF0A
08F0ED03
E70A0004
3624FC54
112E1645
070B05EC
DF001307
E5041D11
1B2BF310
0636FE0E
BE0FF04E
0EF9E6C4
15DC112B
F311DB2A
3750F2E0
080700F1
00060212
E0180514
27BD0E34
1350F0FF
DC39F906
BED81015
01F227CD
F5EBF523
D4DEF3D5
1931C055
F93E082D
FD03E40D
1F33F9F6
2005F6EC
1401E4F1
230B2481
0D330E0B
1DEDF6F6
2B400514
EB082AD7
1A0CEDF2
29F512E1
F6460F0B
E1F40AC4
27E2EBF2
E6FF2B55
EBF209FD
FCCDD635
143D28E8
FE03F613
EAD202FC
E511DF08
0F08150B
0C0514FF
072E4A3D
1201FBFC
18ED0218
CAC20D09
1027FA08
F02125F8
34060BE9
2E2FEEC3
09D0F3F2
1CF7EC18
F8DFF71E
F4F62CFB
0ED1EB3A
0731DEB3
1A1900C1
F5E3050A
FE17FFE6
E2E7052E
F7D6FA15
02C010F8
12FBE4E0
0BF6E71A
F026E303
01E8CFEF
ED1DBBF8
0EEE0D08
06BFFCF4
E04517DB
033F0C10
F5F5F4B6
D9043FDF
CC001017
DAEC0DE7
23EC0B04
EF2EE9C8
21DAF60F
FC86E3F0
ED0C10FF
D5F01D17
13D7B8FA
CFEE2E61
C0FCFD44
F4D0E317
E9FC20EF
EBD6EC4D
19151D21
07B203CE
AC0D04E6
2B43401D
05043830
E9091BDC
0EEE19E7
81F2D6E8
F10EE615
DD3F1EF3
CDF9DD23
C4D70F9C
ACEDE2D9
AC341EE6
3112E8E7
2641FDA5
2617350F
C4C5DA48
59FE01E7
29F21C03
28DC22FD
D340F0F2
FC6DEECB
87F32F2F
183242EA
57D8243F
0D0FE9FE
C5B4092F
CD3B10C5
B7CFE6C1
E4043F22
D04BF204
210928F7
F3A500E1
02511AFB
E84035FF
08FB02D5
862CE4B7
14ED2D2F
C62317BF
E7FCED0E
24C12543
EDCB0605
FF14EEC8
FA013A23
F704380A
10030EFA
D239DCF5
12FCF416
3DFDEF2A
E3F1250A
1D2AD0EB
1A26B7EF
07090226
ED0F3E08
0DE2AB16
FA060611
DA1AF233
E1FAF716
4C02E2FC
0EF7010B
01FFFE02
FDF9FCEB
0D011A24
D822D70D
F5E0FFF2
281E0119
1BE90C08
0B29BBFD
FDFD1307
20DFF606
E5E1082A
0D0DDE26
F71B25EF
3E38E9FA
FB011FDB
EBCF2D3F
0E08F1F4
EECF32F4
04F2F51A
1EF5E70D
DF0116EB
E60EDE0B
0116D2ED
154DD320
EABD0C96
EB0FEB1C
3010DB15
1B0DD608
1FE618FF
050A07F4
1011EC16
F5F9FFEB
0FF01BE2
EF0F100E
F0BCFA1F
EC1BE7F3
F3EEF0D7
3D045955
E4B40BD1
1FF533BF
EE03C3EA
0D11F409
F8FA0138
EF2CE603
E84EF915
FFDA0914
16010921
18EE0504
090CDA44
2FFF10E9
2402DFF3
F917FDEE
0BE1FCC2
071404F1
F6DCEAD9
E415FC1E
0448EF0E
02F42BE3
FB14FBFE
F30A4A0D
07F0D053
C1F90706
10F319EF
0C0112DC
D6F1352C
F7F7050B
E57C37F8
04FF2441
0C22DAF3
F812E5E5
E121CC18
2806D912
EF0012ED
DAFCCA34
F10DF5E4
F74641D9
12C02507
D20531F8
0A1130D8
F8225C1E
02DF0F0A
0AF84181
0A5F41D9
0EB4F1E9
CEBC0BFC
EBED1322
CE152404
0DFFF923
29FB01E8
ECFE0E03
FC12CF44
EE1BDC1E
F03C17F1
DF1E0BEE
EFE504E9
0AF911E0
EFFB07F2
420810A7
022021E1
243A0142
F5BDD850
0A093F02
FAD70CFA
11F714EE
2135E401
16FAFEFA
FFE3D7ED
F9BF30F9
F11AF2D8
F5DBFDE8
F62C03FD
072DECCC
EB01613C

