4411F2F7
18131321
17FDB3EB
F40EE007
1C0DF50E
1DD90E0B
F13ADE13
E881F3EC
5AF85DE1
3413B7E0
241D0EF7
D454EB2D
0C200218
060DBA03
DF2E2C0C
361F35BE
511D1C03
2CDFDA1D
2210F112
EAFDD0DD
FECCF815
28F33FCF
38254E15
2509270A
EAEF1015
02DDF7FD
6AC7E60B
1477BC2D
FFFA0618
D70CF6D5
020C0209
D8B513DA
28CCCA01
145AF0E2
FFF17E17
2694D9EE
D9F3EFFE
FAB5D715
C60BB5D9
DFEF0524
DB11E10C
E6D311F9
EBFEE633
FFEA1509
EEE52007
22DE29EC
ECFBEAEA
34EFED12
D625E422
F4CA3CDC
20D8B90A
F903EE33
E8DBD6FF
CDC3220E
2BEA1C0B
EF3E20CE
0901EADF
380BF9D5
42200932
0DAF030C
020C190A
01D82AFD
EF30E9F7
17A0F902
2806D8FA
EC0B210C
EAFDC12C
BDE9F3A6
0D062C0A
0B1FE000
1D3205F5
1DE10805
00F6FBEF
C30FEC05
131D09FC
FDFE0AF9
FED90EE6
DC181FEE
FFEF1208
13F70D02
F11D1212
F80B1BE8
F4F1030C
ECF7CDE9
CD24FB16
FDF000F0
01E91CE1
38CA20F5
FD3AF003
0F28350F
2D19BE10
E106DC02
A4B7D306
CB210E47
10002A01
07DBDED7
DBEDF1FB
E91FFDFF
CC101A26
FE0BDBFB
EA00E3F3
F3F066FF
EF24DFF1
FCD6F107
2B07280E
E9F62B26
D1E0DCD2
F0191A11
2B0A37EA
D402CDE1
EBF21FFE
1EF303EB
A940DE0D
3405EFFD
E5E60ACE
46D02512
E9E7E503
D73AE10C
FD0AD1FE
100AC907
FC1701EF
DF0F2839
02FCE71C
E0BDE501
0FCC0BEF
0EFE0AE5
1C099E0C
0EE00DE0
32C7EEDF
E77918E5
1738E314
40F0F120
081C18F8
1705F608
F6060ECF
FCE90FC8
1C49BCF9
1FEFE5D7
E120FFA8
180BEEF0
CDDFE6EF
E7B0F7D8
D5230821
0FEAF1FF
EB05FF00
24110500
043F065B
0E09D5F0
BCFB151B
1A4707F0
F5DFF018
01C3DE30
F90B07EF
158FC50F
28EB07FF
E9B0E02C
2007C7D0
F73808DD
372CE734
0C1204FF
DEC508BB
070115E4
FBFAFE02
1A26E1EA
0136F628
FA15F8E6
D8F805D2
19E05FD1
19D702CA
0AE80BEE
FDECEBD2
1E071149
0BCFF62E
D9FC172A
24C5331A
AC12D3EA
29F5F90F
1AF1E9EE
0DFCE2DF
248FE4E9
CD1603F1
38E9101A
11E8FE00
35082F04
0EF2FAEE
123908F2
ED25E9D7
33DCEB0D
D634A04C
CEF5D5C3
F2EC3DD8
2A06E917
08E8EDE4
9BE6E003
FE05D419
4D06ECF3
E4EC13ED
B1227EFC
EDFD49DF
F9FCE327
E00A0BDF
232CB2FC
F82F301B
44EE27EB
F92231D9
33F7341D
12D014DD
C6091D13
D6E95CFD
E54702EB
0B0D45F8
09AE23F5
34ECD616
16FDCA2B
2D02022B
D5E2F817
DB230BDC
04B5E1F7
053401C0
1D0C0031
040119ED
1A3A1A32
F5F319FC
2709BD07
19281EEF
01C269FE
E20722E5
E7E5F002
DA1B490A
CA59B4F2
0312210B
C9DFE019
E7FBEE1B
D5351E08
1ED2FEF7
31C911D2
21F23724
13EC32E6
FFC9C92D
0B4F1903
B800F02C
E751E91E
23B922FD
F8C12F3A
C437090B
D650130A
FBC67BE9
3AF0E81A
1DE91816
ECBAF103
0FDCDDEC
01E6141D
02FB0CED
3F510123
FAFB12FC
17FD0C18
E8D4ECF2
EF2F10FB
1F3742F0
F8171D03
E8F93600
D0C1D534
10F5CAF6
ED01F320
1115D302
EAF40BE3
E52C0E08
26F54BE9
FAD1AB1D
01F40D12
ED12EA00
06FAC310
12D81DF3
FF11EEF4
27ED0FE0
E7FCFB28
FBED212F
15AEECFD
1F1503F7
17E80307
0FD60AE8
D52D1B02
40E24413
EAFC0CFA
38EF21E1
162BF200
2AF63D0E
EFECE101
0206FD0D
2213C703
20BF4A1A
FAF917FA
200403F6
D41925F8
EEF2E909
0F09090F
1501B300
CF2331FE
F0FA080A
161C20ED
CE0913F8
110A382D
020911F3
21CEFF09
0301DD27
F0CFFAE3
1BF90408
041AFFD9
DD0FCBF3
0708F9FE
C62A04F2
022E14F2
280219FC
2714DF08
F4E9F508
1F17120A
04D301F9
F4D104FA
28D8DA21
FF0AE31E
15F817F6
D8E4F725
F1184E0A
310406C3
FC3D6018
0AF5EED4
FD0400F7
EF1808AD
08390602
38240D26
06E4F915
03F513DF
0CE4DDE5
112620F1
222B341C
11E2E613
E553E41E
CF38E110
FDF20EDC
E3FC0622
18DCB22A
4301D90A
750AFE2F
B82C110B
1817EAE9
C9E80F15
D8FEE039
0EB4FBDA
F4F9DD30
1910020D
083BE6E9
06F22DF3
07233DF8
D3BFF0EC
DC00EDE4
EC034208
2B061A40
D10334D5
D9051B1D
61CAE116
E3FCEDED
33CDE118
0FFEE024
FEF30629
CFCFECE2
25FBEB0E
2AF8DD07
032E1ACE
F2C7EEE8
1C4811BE
E90C19B8
FF030BCD
D82A13BF
15DB29FD
F32C34E0
30BE2038
E80FC41B
20FFC3FD
1F0FBEF8
12FF1215
35D1001D
CCC8DDFB
E70B2BE7
FD1BED15
311B0F16
FA2AEC35
06EAE393
EACCAAE4
CBE102ED
E1ED131D
FF4230FE
0D0D36F2
FD1BF2E6
03F9F733
DEFAE8D4
011E0FFB
12E9FD04
192417F2
FA2639E7
D114AE29
CB05252D
2614FBE3
5E0DFFF2
1ACC1907
F417DD17
C4D813EE
0C0846F5
01283227
BBDADE41
25E534FC
0DCC3227
C72017EA
2720A7E7
6FDCD712
07F11E23
F1FFF3EE
0EE9F7D4
ECBDF900
1FF2E234
F0F92EC4
541D443D
10B70F1C
050F0F19
EDEA01F8
182EFEED
18080E24
50C2EDF7
58DED3DF
F210EDF3
D90E0BE6
2109301E
EA1F2BC4
E4073A02
2FF92E23
F8EADEF9
2560CAE6
0306E7EF
E7501A2C
041F18FA
0AD128F5
03FF42E2
E13400FE
BD2F0A17
13E5D5DB
0DF929FB
1C4C2810
D415C925
174113F3
0404F805
03E7FADF
F90B14CA
21F3E2DD
0C2029E0
F0D5BF04
0CECF3FE
0815F4E7
17FEFF0D
EFFE2BFD
DE050013
F2161418
DE1B1813
FDFA0707
F410080B
FD06DF21
1106F904
EA0BFD01
0FF4E505
180607F1
D426DF04
21FFEEB1
ECF3FE02
02D2C4D0
08341808
FAFD2210
20D60301
F108F5F2
F40625F5
F627F4FC
DFD1EC07
17C440F8
00F10A01
F1281F0A
F0E004F4
2411F2FA
E13A091A
00B9F0C7
BD0ED016
25DD1000
F7ED0500
11EC06FA
F9122CCA
E7E00B16
01EA0FFA
C6E9F8EF
C8110DEF
E8F7F312
EF13E40A
04FE0A00
07EC1210
4727DAD8
F90F4D0A
01E5011B
EAF708F7
FE16FDF8
F6CEEE05
FB15440C
F3D3E400
EF0BDBF1
03E523DF
E7FCF8ED
E4053628
3DEF4A1E
02F4DC0F
CDF7180A
22EF0FEF
E7D4F2EF
E8F2F80F
3615E30D
EAF51DF2
462CCBE7
D8EF25EF
D4010111
E1FC78F4
2BDED321
05EEFD05
16A51016
D9EC0EF6
0B1BECEC
1610FBFA
F9E615D6
D0F4D1E1
13003703
28302A00
0537D302
1EC3C0DA
2134FEF9
BCF63F0C
F9F30FEA
04141AD3
DF3633FC
F11BE513
FA3D14E8
11D3FBFD
08B317F8
2AA7B903
D8E636FD
F932FB07
2121FA15
F4DC0F07
F73AE90F
221DF7FF
14E20913
14EBDA0C
F30A24E2
2AEDEAEF
E322FED7
0BDEE807
1303241E
F80AC1FC
13E4F3D4
1C0F420D
FEF804F5
0FF0DED4
31DC0355
0A3314F3
0F0AED20
EBD2E718
D1F1F0E2
F2380CF9
37E7F5FD
EAFAE540
FF16F40D
28FB0E05
B106F510
FB30E50A
0733180F
1702EB37
E2B4F32A
2A0AC9FD
FDDA1002
2D424DDF
C747F541
B542E501
C84B1B26
29E71CE9
1CD61CF6
13FFBDF3
0705F442
DB06FDE1
B9E7F02E
D0203919
EFFA289B
17311FEC
16B0E7EF
C3DE32D2
EA1CFC1D
4C25DFDE
16187013
FE2502F6
2B2E08C7
0B0D1542
170925F8
DE25FFFF
3605330B
BFE23ECE
36091511
0DF35B3C
0BF7D6E3
193B53EF
CB1FF424
1F08E6FF
F9B5E3B7
CF02DBFE
43D415FE
2ECA3418
B2DFE4BF
2FDF5DB4
1E3FF6A0
F11FF9CE
0BEE4051
FED9D627
02F5E4EF
184DF22E
1602F51A
014CF71B
21F92624
D4FCF4F6
FD1A0AE7
F7E9D522
251FB8E1
DCCB38E8
4B2309E1
12045CEE
C86FEFE6
12DE0C12
03C9A8F8
0A26F9D5
0D53E4CB
0D0319FC
FA0F0606
15EE000E
34ED3D11
F1032024
03E4EB2F
2DE60CF3
2A131FED
3AF8CFFD
23171914
F82B2400
122C0804
06FB1CF3
0EE914FB
03EE3005
C9D6F20B
1FF62718
1F22CC08
2B12EA1C
E506DDCA
F30116FB
29BE26F1
07EBDD04
3D160250
F4E946CC
F1120145
2EF32A2D
1A4AE3F2
F402D914
0E04F01A
22D4F9CE
361A1406
3ED8FBEE
2B17C60C
06DC1E17
17F13A01
E1084602
EBF7F210
10F2D41D
D718ED19
F7D7EAEB
241DFDF8
2C10220F
0C08EFF8
EF273122
00C7CB0F
18EBB823
E80333C6
F5C35EF7
1817610A
DCF4E902
0D0B0A1A
FC18CA1D
0AE3C7E3
D908010B
1E1D3019
EA1606F7
06E8103A
EEF9FFEB
015BEEF8
E70A151E
F13E1117
16F426E2
010D07E2
1B1FDFDE
E7F702DE
0B100319
E2EBEAED
122F24B8
FA2F2D3B
D901DB3E
CCF1E7DE
EF04C0F7
54CF2E0A
E6E0310A
C8FBDEF3
281A42F9
DF7EEA1C
F7CDE214
D207E011
FBDC3731
15E3C3EE
0203DC15
DDF206D7
2CE2F5F1
DDFA04D9
F214E61E
1525ECF0
E8F00503
1EECFDF2
1A0211FC
D9071016
FC35FFBD
FB731D01
401125FD
F0F81509
1720B405
CE4C2CF5
DADA0403
E7E713E4
11FBD302
01F72903
0AFCE52A
16F11406
FE0BE3D3
D12A0614
27EB13DD
07BAF6EA
19F52A17
F703C520
C8C51903
0096DD20
B50D08E6
F0C10801
0E0E22FA
BB46CD13
09B80B07
E92C1216
EA113205
004940FC
1CFA1FDA
F7F042D8
0EDADC0E
C012B91A
1D211809
1FD40A3B
242120F2
EDCC13F8
D700CBE9
ECA9F5F5

