E13DBF1F
03CE1BFA
FFF1C41B
12010600
1BFBF957
23C00F04
08D7EA07
FB122D09
2CE0CD24
2301EB44
161D08FF
17D8D70D
DEB92FFE
27F93322
110BEB03
DD2CF0DD
F4FAD01A
C4FE3011
DE0CFADB
BFEBF8D9
8103F0C6
EBF6C161
6033FCFA
F3170326
07DEFFF0
1A1AF913
E3BB01AC
1121FF07
5A310DFE
C831E314
15F32F03
061F11D6
A0E512E0
4F461921
16D6DB0E
E204092A
E115E6FD
101BF4F9
DEF1FBD5
DF0901FB
1DF0F114
BFD80520
D9511E15
08EAD910
3EECFFE7
E9EA18EA
00F90ED2
0B135E12
11ED50F2
B4921CF6
F243E405
F1FB0609
B23FC2EB
0DAAEAD4
A7C12A36
CCD0E0A5
1C172105
03FADEDA
5EF1F64B
32FD0300
CB05D0E5
117E05FD
C9F202D6
1E1EF5B5
D2E61F1D
2D0B1EFB
E313FA04
36E6C71D
D2FDFBFB
2A2D1517
A11F2EEB
E6A0F720
E40FF5F3
E420EC4F
0AFBE8DB
0DD5F8F9
CE1B09EF
12F7ED11
F1C50FF4
211DF310
67BB1221
DF02BEB1
DCE7DDE3
141A18F4
F3041804
0DFBE9CD
9F2DDB27
2A4218F9
50FEF51B
08251323
3BD5FDBA
EDFCE50B
5A0619E8
D4DA011D
EBE819C8
0501FE02
EE11FDE0
2FEC01C4
FE1E1E11
F8310A3F
23F4E0E5
3BDD011F
050801FE
3E19D4DA
051EFE09
0B0CF708
BC70EF3D
060EF3E2
1B05ED21
EFBC12F0
2D0C0A1F
092AF7E3
E505E40B
3BF51836
E304D455
FA1824FF
F1DE10E8
ED07F911
E7F952D8
DBFD0723
F8EF08F6
20FF01E6
0415EC0F
3AEB0B16
FEF601F8
1E1A03EC
FBD61609
DBFDF8DE
241204F7
EE1D11F5
00350ACD
ED2FFDF3
05EF0504
F6F30A03
F0FC171F
E1F5092F
E6E113EE
EAF815DD
E406D5F8
2BFBFEFA
DCDE2331
5C1422E4
FFF805FD
F7F2FBEB
F2D7F513
081DF333
2D3421D3
F2FDEDD9
05A5F923
1718A7FC
FDE3F9FF
F62E39C2
1EFAD637
1D24D31F
1534E00E
270316D2
CE410C28
D2DA47DE
DF02FC04
F4C7B4DE
F1D4F0EC
ED180809
15F7EC22
D5D5EFF9
1E06D2F2
E52CBCF1
D2E70EF6
F71A02EE
13E51BFB
2E02EEFA
FD00FC08
2B1811FC
D466F147
FEFFDF21
10C3D418
EDCA49C3
F6020626
9FF8DAE3
FC0729D9
390E25BA
0F040436
0111E604
1DEB0616
C630DFCE
F309E409
ED2503D1
D9060921
FBF5F521
0AA67E10
05E9E153
CF081228
D343E3E8
FE072908
04CBB210
28FC2A4F
FA5B0F0C
0E04D3FE
23F00718
0504EC15
C9451005
F0F9000B
02080C26
D5193416
D5DEF3D2
E84005F5
2C17F6EF
2DFDF114
3A57D7D6
23EFF1FB
C1C138F6
D9021AB4
08CE26CB
12ED20D3
15F2E8FD
DFF2F5DF
EE09FE33
FC49F007
072AF714
F733FC33
0BFA33D5
9A27E62C
FA03211D
F2150420
DFE8F9E1
D503BDD1
01232DA0
0916ED35
E51A2FFC
D9DE05FC
12D1001C
25E2F21B
480001F3
2CEA2B40
4E1923E2
FA380BD8
D4E604D8
203D054D
15E6DC37
F906DA15
19B0F3EE
20F9E81E
C7F53106
E54511F5
26BB36EE
31DC1FD5
CF472806
2814FE43
D6EBEFB0
E6EEF570
04FCDF10
0535060A
2C0710FE
120F03FB
09022917
0912F91F
DCCDEA32
BFFA1AC6
16FED218
CA1A15F1
20EAF82A
4219F5FE
EB120EF7
4511CDF4
D005FFF0
62F6FBE4
1F00E8C2
D605F00F
D9ED3511
F7D647E1
FFE2DFFD
66DEE6F6
081EF124
8F0B2214
040AE2DE
1EFAF3ED
12034011
F520FA1A
0CF6FE0F
2F1A261B
E43FE8B6
FB17DCFF
C7EB0AC2
5121F632
081FFEF8
8D3CFEFC
FA1D1BF9
F71806F5
EF2426EC
EF13E624
F629F4E1
30F20504
ECEDE819
401A0537
F0D617FB
1AF41C12
050C16EC
25F10AC1
F6F2F6C2
DF02E4F8
19F30302
F322D6FA
F7000FEF
DB031616
060E07EE
CD33E2EC
0A0AEC0A
072FFA1E
04F81D0D
E0240C01
F029E7CB
F40B0917
03ECFE0B
50D7F6E9
C30BFA1E
C5F208D0
F4F6F236
D92A1BF5
26E9D3FC
170DF4F8
01FC060D
2E1A0EEB
0B180315
71FE2A01
058D0F08
A426E22D
F5EB0EDF
34F806FD
DDD2C9EC
23EBFE18
E6F3E7FF
E2E23A0E
0FFBD304
A71BFDF3
D4FAEE1D
B7F9CEBE
0AEB0CF0
421914E1
FC39F232
40FDFCF3
ECEF0315
10E60711
2BE8144F
0833F5E6
E00DDD22
FF0A3200
1CC50DED
000D01F8
D3240EE4
F0F50AF0
16E91005
F9F5F3F9
FCCAE522
1A23FC59
D9F8F5E5
CB0D0FFA
DFF80A13
03F926F1
14FBDFD4
58230738
09C80D23
752109C2
22151925
D138F7F4
FCFE2132
BFE5F8FC
0922D8DC
02250717
3FB15A0E
1A04F324
08F4E3FA
8107D9EC
DBF20A34
FD391B14
F5E30D31
10FC09D2
11240D22
18DE2C26
F7F7EED7
1E24CAE7
1904D9FD
14D9DC25
0602065E
16090906
1BEFEC21
E9EA26D6
F8D9125D
F250D1DA
1002DA28
27EB2617
230F0CF3
29F2FC1A
D703F1F1
D0E1DF08
FA1A30F7
0E0E350C
2EFCF881
05F80EED
FBEE04F4
E21113E3
22DDB10E
1B0C133C
A1060A36
DB0132DE
F79EE3D6
FBF408F1
10160C10
47D8F8ED
00DEDFC5
FCE41DC1
02D025FD
09E40EFD
AE27F7D4
241EF712
0FB5F813
C4EF29F2
0FB42516
0FFA40B2
17DAF92E
DB262909
D311F528
F506AFF1
A23C45A7
E9ED06EE
E049ED09
F42FDE05
F705FBFC
BA4B29F3
F24E07E8
FBDBE71E
0201F7F9
34FB0C12
0B0C0EE7
35D90D19
D2E8DC3A
FC2300F2
C2BDD105
CCEBDFE4
39EF3724
66F535E2
360F25FE
2825FC2D
28D13BDE
2B48EBF5
553C0412
09D7E11C
12EC14D8
F0CFE6F4
FBDC05F8
07EF0605
F60919FF
09EE1E08
0BF9ECD9
1104DD32
E5E2FAC5
11F5F806
F914030F
FD022009
01E1FE05
0810E5F7
FB01D9FF
041417DE
00F00404
F232F109
04E8080C
FCFAFBED
1AFDFCFB
F22A1EF5
03E917E7
FD1FEFF9
CD1505E2
FD1A1ED2
310AE0BA
EFD8F137
C30A1D04
EC2B02C0
19DCD72A
0C3CF405
1E0101E6
EDFBEC33
D5111BDD
EDF5FC0D
1CFAD117
05D21120
FFEDDAE3
361B050D
F803EB2B
001816F3
17FE011F
EBEA0409
09190018
02C0030A
240CF858
F1EFDED7
E1001011
EC04200C
1A02DB2D
11FEF901
120C0905
1616CD32
F90E1313
0921DE18
FF36F1F0
FA05F0F9
04181207
F1F71AF8
F0061023
D9E6F72F
FBEBEC3E
F7F007EF
16F028E8
2846B515
2507FBF3
2BF3FEEF
F41F2636
03FAFB09
F8362606
0801F91A
F0091D1F
1E081A30
DDE5121A
2B4A13EC
E5E027EA
C50C29F0
F30AF7F5
35DFF436
551D1DF9
FA2ADD3E
D7F6C4ED
0F10FB0C
27ECFED8
30E0E2F0
43FBD10F
5905165F
AAD94F16
E6090E13
9EB5FFDB
F904CCDF
DC2F0011
E033E211
F92B1010
19E8F014
05F909D4
F045071C
BF0228DA
D72F17CE
ECFEEA17
0E230B21
CBEB020F
22DF240E
03230621
ECEAFEEB
0DDCEBE7
CDDDFB24
F7F1E7E4
3C1F0AF8
0FEB272A
E4F3FB14
E91DF9D6
09F8FC09
2D37EAEB
50F707DE
FCEA1ACF
C7270A03
CEF41912
EC1CEBDC
0DFD1DFD
04EEDCDB
0017DAD1
64005CF6
DAD11913
3C15E8E1
BCED02E3
FB0ADDE0
09FA071E
D8D12344
E2E42F38
B800D7D2
0E54D74B
E00D2C05
E20BE7DA
131829DE
CFDA271C
A7D7FEC6
381C98F7
D713C804
072B1A09
CF11E9BF
15F3FEEA
1BFFA517
0D38CD1C
15262737
0AEBCD2B
FDCD1411
E705E04B
EAE2E716
13B0F0EA
DF36E501
C3D0040A
01F2FE29
13F64A19
21FD09F6
0B39F502
031F1130
07E50101
D5FEF60D
FC12D950
3819D5F2
4C1BD34B
0D1D10DB
30E3F61B
BF1E364C
EB10B5A6
2BEFFC28
E60A26DE
CE28C4CB
F9CEC229
FBE62A3F
030D06E9
EDF2F4FC
F1C0FF16
E6AA10F2
5433E156
CAFCE0FA
D3D50B0F
6BE81901
06F52904
1B2CDD05
49FE0915
2BF2DC04
F8F8D848
F30F43F4
052CFE39
0F124EA0
0E11A2EE
CFD4F3DF
0FBEF908
DCF11D0E
C6E5E103
FB00E47E
D6FCE12D
293010F0
F3F210EF
F0FF0BE1
FBDE1A01
1EEF0619
4445D419
ED0009FC
E7501C20
052504FB
E90F04F8
0B461802
F3DDE603
0E10F42B
2B43FA46
15FE1D0A
2BF5054A
00CA1E3E
1C1808E1
100B28FE
F2E819EA
14E811F7
F7E1EB32
F8D2E041
EBF41533
14DCDE27
F0250920
0DBEEC2B
FAF8180D
04FD0627
0BFF0F08
0BD7E30D
2244CC09
08591DBF
1DE72627
13E6E6EE
4405F3E2
E4F1D2F0
CF16FCCF
CF05E11D
07F7F711
22E10A3F
FA17F6CD
0FE50408
CD14FCA8
1100B11E
2AEA150B
1D09E3BB
DA6108DC
04F9E804
C719F208
EA1503F5
1C03313A
1D0A2EFE
F806D50F
F409E114
1B262019
FD0D2E30
1900D4F6
F6FE26E8
1A073115
13F9F3CB
2820E8D7
FF101E13
072EE80B
C0F4E005
F4F92FF4
1719E1FA
E9E1E125
F3F50AD5
E307FCF9
0A0FD23B
AB003DDD
5E172226
0FBA2100
1C0B3ECE
2EC8CCF5
0203151B
DF2808F5
FCD4E301
0C201A40
D8FDD4DC
29441C27
6ACF491B
38F6013F
45E2F937
F8EF3D44
ED0D01ED
EC51F740
C40AEBF0
F2DD32ED
054406DC
A3FCFFF4
EB03E1F9
E70A074A
F00924EA
FEEE3AD8
15C1F90C
F51E09FA
D2FAEEF7
02BB3033
DF0EFFDB
C021062A
010B360D
C4F308F6
09EF14FD
DF0B2ED2
042400E8
26EF07FF
F1F2EA30
17C32A1A
13D014C6
141DE4D8
05FE1ECF
28F9B310
24E71C00
3D2F08F2
2D1121D9
E7FF11E8
D50FC801
E8381F21
E0EE0201
E6E826E0
2412E1DE
EC31EA1D
C33AE1E0
34F6DF10
CE0BEE05
DBD80DFC

