2A37F713
19DCE611
2A101DD7
DCF4C419
6517D916
FFDDE92A
11CD0818
CDFB270F
E6DA5E2A
F906FE05
E3080C06
0C0B151D
84DB310B
25D823D3
0202CBE0
0DC6071B
100FFA18
EAF2F6DE
160BFFDE
161E08DF
06322CD6
38F62AC9
EB13EEF4
0C01DF05
DCFCFAEA
0E053208
EDE65D10
162AEFCE
EEB60206
100BCEE4
A8FB3108
2A0B37F9
ED2BFA3D
07F33303
E3DED933
11C046F6
B8FEEFE4
E8F8DBFD
10EFE80C
E3084749
03E41604
DED50EF6
27FA3D44
F4FAEDDE
BD1C091C
2CFBFBC2
FAEE16D9
DFD8E358
BAEF2C09
044D32DB
F1E630E4
D813C213
0AF10914
2B481BFD
0106F1BD
D2EFF1D5
3F12C5C3
F74031D0
D71032ED
F8FAFA02
09EC0DCA
0DE7CF0E
E9C4EC03
2B0CD92E
E2EF4313
17BEE81E
FB253413
EEF2ED00
F4D62CF9
03F71723
1001E203
EBDA072E
3EF2FFE6
DEDE15ED
F7020F2E
F8E605FB
1422C417
0EDCC9CB
F7E8F328
190BF90F
F2E3D91C
FD241AD3
CF0709F3
FFE105C3
2213FD0C
03DE291D
98FAD2FD
D6FBDBA2
EBE93CFF
BA0210F4
D015B531
25E12E06
110E3A1E
DA2F1FEF
1EF5000F
F5E3FE10
E418F70D
0E0009F0
FB04CA09
09F4F9CE
0F15FDEF
060DEE3B
00BF1AEA
03C916CA
EB13EB47
DAE4F0F3
DBBE1DE0
08282EFD
DE18F51C
0EDD2804
270801DE
EC0FD10F
20DA31EE
02D0C21E
18EDE9DC
01F30BD1
0317E2FD
020EE719
F90CFDF0
FC183303
FBE30DDF
D02001F0
0E0FF117
0DFAE0FB
DEE7FF08
D01016F0
CB0CEA0E
1535D0EE
2D1C2FFD
021129E4
EB0CF9F1
2602C43D
1CF616F6
06F0150A
06200E09
11290C02
0320ED0A
1A08F4EA
EEEC15F3
17F2F505
2210EBE0
EEF6E01A
062BEB31
0DECD40A
2037192E
BE420329
32CDFE1C
E3E0D01A
36F8C9BD
CC1FE21A
F11B0411
E2DBC017
E6FD07EB
34ABD2EC
D1F507CE
273105F9
16FE57F7
D412E20D
EFC02622
5DD81A06
F5F8FAFD
C3F177E9
26F0E9FB
1725F305
0C09EED7
E5F9A6E7
041318EA
F50C0CDC
03080F10
E1F31EF5
1B280C38
1D4642DB
D9DDC22F
4F151B36
0819E002
EBBE3E24
4355F6E9
CA2112ED
DE1B3DEA
2210FCFD
11CC3337
2AE644DD
C2E81BBC
330329A6
DA071507
E0FC27FA
10090006
30F2B7D5
2BFE0CD6
190AFE22
14EF0101
E1DDE604
1AEC9606
01FB53B8
CEC7081C
E4EF13EE
0A10D510
DFEF140F
17021CFA
DA0912A4
F41D00F5
BBC1C9DD
C2F116FE
30E3F4CC
17F8FCF4
09F8FA26
E5033B0B
E5000D09
FF1A1296
0F4A1522
6AFD11EF
E3E0CA29
F3FD17D5
0A26CA3D
05CE1AE3
F0FEEB23
FE0308E3
0315CD1E
18040ADA
F417D5D9
F50ABC14
11F20A03
E0FF0FCF
172B3EF5
C1F91018
12D10E53
EFFEF6EA
DDE2D5FD
01E5FA35
FBE703EC
0803E9D0
2E0E1602
E7D10BD4
181C0506
FF3FFCD6
DB15D502
B012103C
F0170CE6
EC1527DD
F21338EF
F501EB2C
F316D9EA
DF0CE0D5
2E012512
2902EEE7
D4C5012C
E537280E
F1EE0DFA
38F6D523
1B16110B
230EE219
320F00D4
11100F04
11F72603
3D01D90F
E8DD0414
0C4F0DEF
EFF713D4
3FFCD3F3
0EF510F7
D1F30EFA
F1080901
F803FE24
06DE0A04
12442110
E9D80925
39ECF7BE
304A221A
FE09F521
04DAED22
FBF3EAEB
0E07EFF3
F0011D18
42B6ECD0
27F818F0
14C8DAE3
461AEFD2
E11ADC12
EEF9201D
E106F9E8
F4F416DD
F8FDF7F6
92D817EE
E1E60CDF
E6FAFC17
E81F00F2
F5EA03FD
05EE1CF9
07E302F0
051D1C0F
DC0CD6F5
031233F2
35FE2431
04FECB05
E7FEE9ED
0711F6F3
0B29AED7
17F1061D
E0EFFCD9
0BF3ED14
22FE3BF8
1E14F6D1
F80DEFD0
21FBFB15
011008E2
EE0801FB
E20E2CE6
170A17F0
E4DAD7DF
FEEF140F
2AFBF2F7
1210D7E0
2B06F5D4
072C3A25
25F113D8
16133915
C239F119
13F00AEA
29F31F05
FF080301
BB1B4004
2CE222FF
3DFA1A3C
4A1B43F7
1A2C10F0
1210FD0F
38112FD6
20E815F3
F625F505
3DE2C6F4
EFFFEAF0
B624122D
00220023
DF18FEF9
0EF435D4
0C08FEF8
DE0B10A9
58070DFD
ECEFDAEA
07F316F2
13FCFB2D
EA0616E5
E917BA0C
002904DC
0505D246
0F14F2E9
F5F5ED03
EB1A1000
F5DFFBEC
F708340B
04E600D1
1EE6BD1C
0C0D0816
1219FA0B
E10CED09
40F72329
F2E4D721
EA1911E0
96F0F217
1FED1CD1
04EEEAD7
2026CDDC
3B050F39
E8D03E1C
B71E200A
BCFAFA16
CDD7BD2E
C724DEC8
2121E3E7
1E37E3C6
1404CCE2
0E0FF423
32DEF605
0F12E636
0B291406
03DDEF12
09311DE4
322D09ED
14FF1BCA
B6E4A323
EEE1210E
D734E1F2
FFE500F1
E117CE1A
F2E6E914
F520CB09
4BFAF910
D8E3ECDB
FAD3C21F
E0E4ECEF
ECDD4917
DFD22AF5
F915E7E8
EF4A0122
11B335C6
06F00DC6
65E1FB01
F128C6D4
00F00A5A
E5123DF5
BFC6EEDD
04FB2CF2
F8DFDBE8
162CD100
E834F229
EF3B3933
02F1CED3
18E0C810
E637FCDC
2A10E62E
EE1EFF22
116905A8
F5E03443
19FDF9EF
32052C1A
ED085E04
0503EEF6
F8DCFFEB
23FC2314
F7491724
F5DB2C1B
F4F017EB
A3F6FCCF
D4D01DF1
28F60213
1ED20F0C
EE086A2B
1FFCE2F2
DEE22B53
B439F011
3BFF0BE2
F307F209
0003DFBF
F40109F9
3C25EFD5
09F6131B
F40E011C
1C14E619
D2FF1217
DE073028
4105F4D9
33D6E721
CCFA11DB
03AA4A0A
1506CDDE
19F0E5E5
1F10EBCD
0E070C2C
22FA0F01
0CF40EF8
05FFE11D
D91615D4
D8BBDCF7
239B5266
F60B07E6
0508F608
11DCF9E9
E1E7E10A
0E0A18DE
0CF0F8FF
E903F20C
0BFF0F11
15FFFFF7
17E3FD18
03EE17EC
13F5FE01
0CFFF6F1
1312F51D
14D30AE8
EB3C2004
F013F527
F902EE06
30009715
1BFCBE31
98131905
3A361727
1E2737FF
E6F513D7
F2EF0DFB
DA03F00B
1917EB17
F8103400
F727F80D
F7D60F03
1EDB040E
1910FA05
030A2DD2
E404092B
E82101F5
07ED0028
14E8D9FB
0AD6EFFF
27DDFE25
E9FC0305
EE0611F4
0702F508
F6090CF3
0B230DFC
FBEEEDCF
BB11FA18
EF09F009
1009F4CA
EB160F04
0CDED314
B90036FF
F41FF7CD
D2FD2531
F20E2AF3
D901160D
1D022204
1002E8FB
D6EC2EF1
2C0BF837
00F20328
05ED1F04
070B0223
05F1F013
FDEE04DF
080F0824
0A04FA81
D90B21FB
402EC529
0724381B
01EA17DE
CDD51133
DB14FBE9
E11BE12E
11E5053F
F7F20EFA
080737D8
11D11B12
11EF15D3
DAECE613
0B031B1B
112BFE00
F54339E3
F90AB906
01E800FE
AC1C0DDD
162C21FC
D709091A
0CFCF522
1401E2EA
F62B100E
BF37030B
04E727F2
12ED0B18
0DF30BE7
FC1F0713
08CDF7DD
B1F60BE9
0FFA0305
F100E0E1
0B290310
CFF500E1
0B13EAFD
ECEAC822
4FDF01ED
1F11D4F6
F8E8031F
D6F000F7
E911C434
2EE90311
F0111105
252AE6E1
F2F9D62C
D0000AD0
E8130EF7
39452503
18C2FD13
1C0516FF
0500140A
210B20BC
F4ECF9E2
1008F923
BE09CB1C
A6FB17C9
FC0D59F6
DC2AD4EE
00E4D4FC
A7ABC61A
EFE40401
2D2FE7FE
F8C37544
11E4EC04
0205020D
25D9B529
0421FADA
C4D537F0
3EF1D0E9
2017E2B9
1120F6D2
C0231F69
F02B3DEC
DEEACB06
0E20FED4
5F242811
10A6D21B
5906F812
E9C5D225
0C06130E
2BF6EAFA
36F60921
08D2C502
D925FA12
EF03BAE7
DC2E0D37
00E002D0
0BFB5C55
F5E43919
050845F2
CA11F1FD
0F00C8F3
EFB1F222
1FF70313
CDDBA410
4D2F1CE7
18F5C6FF
1FF7BC0F
2CFDF326
06E7F0E0
F0161137
E6090E38
04F2023F
D3FE0B3A
D3EE1822
C43E1A26
3AF1D91D
F5B409B2
F44FA20F
B5220C1B
2F31D202
0AC12A15
FC4034D2
F3F8F6FD
00FA1C1D
D2DD3002
D906F4F4
8B08DC1D
F7F4012C
17FB01D8
F6F3E505
DD0412EC
F7EE00FB
11EE2FE1
EF2804D8
D40E30CB
0E3D00EE
FB280CF4
F406EEED
0EE21609
F707FDF7
DA081304
F70BD82D
BCDF4C1E
01E6DE01
F7FEEE0B
2CB8EB15
3AEE18B6
F7FEF4F9
B5051F20
CF2524FB
ECF1D1E9
F4FF3EBD
DEE2E71A
273BFD06
DA0BD8F2
FD02350D
E8EA0FDF
F62A0702
0217D4F2
2517D33D
0CE9FBA3
13F607D6
B4E60B02
F517FA23
2A110C1A
D6F3F0E5
39D5C222
3208410F
D0E4F1F1
03132DF5
D40CE414
03D62303
34DFF2F8
1EFA1CED
27D20C12
D7E4DCE8
2AFAEC30
F8132908
A3060EF3
EDFAC63A
2FFBED11
0FE6D901
FBE341F5
F437DB12
E6F0F609
23F0E1D4
0B081F11
14FAD6E1
EB13F8E4
F835001F
1AF9D304
0CE62D12
2EE5E214
F5ECDB06
D5200CD6
0BFF05FE
15E125AE
0E3901D4
0929BAF9
F3BBAEE4
0D100B25
0ACCF429
3D061701
F4441FE1
3C35E8E4
15FAECF7
FBE4F91E
04091007
F11923ED
FB47D621
4C011819
C3F4FA05
CA0FF7FE
08E92B18
D5DE00FF
0D102C2B
0C0AF232
10090A46
DDF4FB15
17F6AFFB
40012F38
C5F013D7
49FF120A
EB21F6E7
F5F0CCD0
F7DBD924
D10DFF13
09120F44
E72406EA
1A0B2648
B84414E1
E411FE02
04F5D6E7
DC1B03D0
05EC3820
070414EF
F6D50735
110E01D4
AEE7FAE4
DEEC38DC
C5F22013
FB396CEC
FAE6DAC2
FFFBC4DA
FEF7240D
32FECAEE
E11F2FEB
1608DDBA
EBE3E70A
011D36ED
230AE547
DAF0E80B
22F52C06
382B12ED
F6FC1ABB
CEF8ECFF

