C70006CB
50D30818
E9FAF800
0EF937DF
F90A08D3
32ED21E2
EB181CF5
E4B343E7
00A308CE
F1D7F8BF
1B2AF3DE
0D050C3B
E108FFE5
B21512E6
21EA0311
DC0BF121
E997DC24
CDC60AD4
F038EB00
D523ECE5
FFE1DBE6
F0C4EA73
22D9020A
21EE19BE
18E5E500
16170B24
CEF6CB20
FDE93818
03E6F5D3
190BF013
F116F208
260AFE36
1E040705
F54B233E
0163EBF1
34EA091A
DFFC0FE2
0A10FCEC
FBEA1B5E
181ED3FB
D215EFD4
D61AF8D5
01C905D0
FE0423CF
0DC6F214
FD150BE7
F0FBDFCE
D6CCE8F2
68F027CB
63F603F8
18F2E12D
EBEC34F9
0FE00FF2
C915FAD5
D01912FE
FAFA320F
450DFA07
083A37F1
1A17E924
DE13000B
14F8ED16
FEC9F50A
F2E53E30
4E1A110E
04DAEC2C
FA02F40A
1E0F051C
020907F4
14CEF720
01030F0F
DD15E8C0
F0D615BF
C30FDAF8
0307DEEE
112014F2
F1F8CD13
0B2914E8
CC19F8EC
07D7F00A
0301FB09
0D0728F1
F6F3F926
02FCFA2A
2FFDF0E8
FCE3F80A
E9CEFBE8
02FBD9D9
D71618F9
D932420F
ECE423ED
310EE9C2
3F260704
E2E90611
FFE71D1A
0FDA4316
E703FB36
E81F15FD
BFDB01EB
6701FE18
E0F00003
160807E4
190AE3EA
EAC4FB12
E627FEE9
ECF91E22
FE0AFB0E
0FE809F0
16E81C0D
0837F7F8
3000FE15
1411E606
04EA0AFF
1907EE11
EFF21740
1E0E2659
A2140F18
EBF523EB
031003FF
0320E2F9
F8113BF6
082CDAF9
08ECFC03
010F25FB
121CFA0A
F01AF20F
020FF01A
0CEF1EFB
F5EB1EFB
31FD21E3
0B0BCBFD
1FCBEB2F
EFFD1E17
D2E3F7CE
0BE90FF5
EBF2240F
36FCC90B
061DD63A
26CA050C
F0023C1A
360E04EE
2D10343B
06E3F13A
180DF41A
F6FC1FA6
0005FC02
BC040F6E
E8E1F91C
CAED2FED
EF021FFC
070814D3
F709024B
E1F3210F
D20AC41D
FE15CA5A
13CC14EE
2FF621F1
EFE307CB
0B32F3F4
B3E503F4
29E929D9
E7FA1B07
470603F6
21F8F2FC
F00408EC
3415EF04
2CD32E2D
0903E716
001411B7
F10E2309
1C11E60C
EAE618D3
D50BE6DE
E1E4D309
0F34E5EE
1040F1E6
EF33E5A2
F7BD020E
21A72704
33250B06
EA32B8DF
F905E402
8116F0FB
F21125E7
F51617F5
EE12F2ED
D7EF061A
DE2C0023
0EC0F7F5
E2EBF61C
5B03D7E1
09EFF4EE
24EFEF1A
F80568EC
DCDE064D
BD00CCF5
F6F330C1
49F70A43
D4B23131
E20FF40A
0BF60BEA
D739F504
F8EE0CF7
D321C1FD
E311E00F
D2DBD80D
F50312FA
BF121003
274704E9
17E534F5
CFDD2411
2DE31505
CEEDF2F3
B7F106F3
F1D9C80B
CA45C3E0
F4072323
D2E73321
012E0416
DAC90EF0
21E0FCCB
FEE5C5F6
F8FF30DC
31F7102E
2D2CFFE2
F4C4C203
EF44110B
D312F724
31FE0EC6
E9EFE438
18F823FA
F7131E12
04EC030A
D805FAF1
3443FF16
2BEFEC0B
0903EEDD
1B36DA06
DC11EBF5
F418EC13
FBEADD0E
36ECD939
001112E3
3AB209D9
51CDE414
F8EB0631
15280DEB
EA3F2B00
ED074698
04F5F31E
D900DCBC
E53B0032
070D0116
F700F8F2
33F3FC00
EE01FE06
08FAF6BA
1914E7EB
19CCF20C
06FF3325
FDEB000F
E21604F6
2FF90719
F24130E4
01EE00FD
FE29F5FA
E909DD10
E8D1EDF1
EEEDF6EB
D429F41B
E203070D
EB13FF08
2C14E4F3
F233E70E
E1DAF817
EA1EE000
241D081D
2FE6DD14
EEE5F603
F4141E01
0C08EA13
0F1FF30C
CE11B4F3
03A8F10F
BABB1115
E3DE0731
EC180C13
0E1FF51B
E2E9F411
13073CFC
FA0A01E6
E20EECFE
FDEFDC03
1FE91A09
07EFFA13
0AED19ED
0C020AE7
1BDA0E10
F6F5F5CA
C735E023
F8FBF428
362BD6E6
1210EB03
0500D4F0
23F7ECD2
1F15EBEC
EFF4F439
1704F8F4
0EDA16E6
FA28FB01
0DDBE30C
EE08EEEE
02FA20E6
2BE611F4
0101F4FA
EBF90122
D117F6F2
F9FEE9E5
1E160909
07070101
E90A2F00
FFF724ED
31EB0AE8
1DEAEBC4
F5F428E5
0A672629
E5D208E7
D9270E33
04F9E4EA
15FF1628
A69AFCE9
EA2A410E
14DB330C
F1EE24E3
EEE605EC
02381AE6
070612FB
160FF4E7
EFC8FE15
EC0002E7
1EF0EAFA
201AD2F3
CF0AD006
D1D7E5F7
CA252C24
0709CF0A
E9FB2515
FDF6042E
E8104AA6
F0EDF9DE
DE12F9F7
EFE323D6
BB0D7EE2
0707DED7
06FFFC03
EAE9F10C
21E6F322
34FDEF1E
DA1D2DE9
1E29E4F5
EAD4D51A
A1BF15E6
19E05BF2
283FDFB3
2CFBEBF9
2DF905D0
0C16FB02
4806DECA
47E90722
10E5F114
D99FFC0C
25F7FA25
F7F008F9
11D5FEF7
51E92802
410DDA32
D519F3F1
18332FFF
D8F8F9DD
F4DBECF4
ECFF050E
F63FF7F7
EE012D12
FD26F909
DC2E2CFC
C0341BD7
0FF80412
D0EB202B
E656161B
0C1ADBD2
D43EFD1D
E009161B
0C29C412
EE1B0BF6
170622C2
11011A17
ED0303F0
E2040314
F3F610F8
1F63EE28
EB04FF34
C8D8D50B
E3F51CFD
DFF3D4E6
25F0E8D8
2F21FE2D
E5FE3F33
06DADF1C
12E90613
F7AA08F2
EF080ADD
FDD0330F
31F641EF
B219361D
35FCFFEE
2B14DAFC
20041927
3431E441
FFF0E919
AC38FDD8
09BAAEE0
3B391604
18102D1C
F7FEF4FD
F822FD27
08091E0A
F7F8F801
F408D6E3
21F9DD3B
E0130BF3
FD4BD7EB
FC1DEBF0
06ECF013
182B251C
EDF6280F
19F24109
FA18021F
07C1020C
09DC33CA
FD1AE907
3021D2FE
1210640E
54E8E42A
11BEE6D0
F7FF130F
06FC10F6
0C18131A
DB070102
2B15F02B
02EDF504
0B0BFC21
15DC2E09
130CFEE5
C525E42F
D2BECF40
11051611
12000818
EA091CE7
E6D4FF17
03100900
ED00F70A
12ECF721
01F60D02
170909E0
0103011C
D4EC03F0
F5FAEE0A
FCD60C0C
14F31514
050E0912
2BE80EFC
4B180AF6
E5DA4307
0BDA2320
D58FF2BF
25F7E231
E2F3EECE
DF0A2123
FFF5F4F6
D5DEE812
24CB16E6
0FEDF1FF
0DF512ED
07F9090B
0700F307
FAF4E324
ED27EA14
11FDFDEE
FFE9CD05
0AE9D908
0B01F5FF
25C6B5B3
F5E61EFC
1AC8F908
EBF039F0
1AF80300
F1BC2CFD
FF0CEC19
F5F1E709
003506ED
F321E24D
FDFE141A
0D1304EC
F30A052B
DA0DFDE4
BC1B0DEC
090826EB
069E20E5
DAFB0618
E608FFEE
190C1920
E435DAD2
1A3DFEE7
08E416CD
E4F9E2E8
0CCF04FC
EEF50DFA
EF260E21
EDEE160C
25E5D2FC
0DECF3DE
05141202
CC2AF129
AAF0C7FB
0BEBF8F1
060421F0
06070552
FDD624FE
DA2C060A
FBD62A15
F0F0F6CE
3118EA13
BDF80F25
E5E3A148
5DED03C4
CA2AC4C5
D5041AF3
FE022344
F6DF031D
0923FA12
0DC407ED
F0E823E2
0BDEED14
A705F3AC
EBD7012A
6CD4F902
331DD10C
E4F4BCF9
CFE1CFED
0C15FF03
F6DEF01E
083746E8
F6D2F616
0EFCD8F7
1BF9123F
2DF1120C
1DFF06D7
1949F63A
D5250BD5
1B0A0612
0EFAF424
E80A05EA
30DB2F21
FBD5F8CA
35D8E333
E834B409
F206E2FB
D4C2FF0C
130FFCE6
D750B818
EA2E221B
EFFF11FD
D8F6FEE9
FE0F03FE
FF10130A
FB2FBE03
F3FA38C6
D8C223DF
E606F004
43D42ADA
27032BE5
19FBF82C
D410E0C1
D6EABDD5
97FDF4E9
0ADCE8FA
0DDD1504
182F16E9
1D22B8F5
34EB07FB
2F21EA0F
D53FEA33
D0F9D6D0
22D220E2
DA1E4DE5
231511F2
E7E81930
F3FC1E1B
F6ECA2D3
40F3D91B
FBEA0304
0315C7C3
CFCF2501
06F92AE9
190BAEF0
EBF8D362
FD1EA4E8
E40A00B7
F33F2EC5
352B9BFC
17F8F649
DEB33CE7
BA7EFEC9
D7DFFAF6
10F2F1C1
07F442DF
1BCBF5C5
EDBD1209
CE1917E3
DDFCE513
0DB632FD
3ADFF525
34290D01
0FEB11EF
C908E633
E5D71819
460FD3F9
F5E223FC
D91409F6
E832FD3E
1AFB14F5
294761F1
C9144A04
5426BD60
B921E644
0F4402F1
390052D8
16FDF1E1
E521F30F
1928E7F6
F52CD007
01F009FE
F3080B03
DF1902E8
F8E81207
E5C90203
09EE09CD
1C3622E6
D8FF2625
0AEA23F3
F0EFFD03
EF0ACE11
00120FE2
0A3FF0BD
F911FEFD
F937C5E4
F3F9CC4D
24F937E3
E200E2EE
09FEF809
07FB10B7
F1FE0A1E
EFE325FB
C898D019
47E70DF1
0EF8D4CC
51E33C3E
1A23FAF8
F70F0B2F
DEFCF00B
261011D0
061E2BF6
E42ED957
0DE41637
03E442E2
C5E218FF
1518F900
28232110
1217F0F7
FCDA0DF8
FF0C0A06
17EB0EE4
1BF3FA20
09DF34E3
F0C9EFEE
1E03E217
1411F3D8
2223FF1E
CADD28F8
F8FEFD02
E10915E0
FA000AEC
07D5070C
0311F215
E32B06D5
090AF4FB
D38AEE42
22EFD6E6
0F09E405
E926F3E9
23EB37EE
F5DB0CDE
2503F6F9
CAFAF5FC
FA17CDF6
0DEB080B
1B050508
E514E0FD
F3F221D6
41DBEC42
0CDDF71A
B2B55DEF
0EECF2A7
0E09FFCC
E5223A38
FF43CCEC
EA1C0340
F50B140F
DCE4F5F9
0FDBF81E
EA0FECF9
F3D13325
0ACBFE26
DCF510E9
370401AF
25180020
18FF05CE
1228F71A
DB21040C
E5C50403
0D050A01
E2283611
C3D3C2FB
F113C90D
FDC20AEE
0324F312
F8F53E22
DAF613EB
FA2526FE
EAF8EC10
0AE303BE
F4C014E3
F0F6FC1C
D8FE1D26
F406E713
ED0211D6
03072EDB
2526E9D5
FFE80437
FEEBFAC9
3E1149CF
DDC0E53A
1D370BF6
373ADA0F
F116F154
FEBAFE34
B703EAEC
0615ED39
C9E5DBFC
09E10BE9
EFFE5AE9
FF1FE9D5
FEF5EF21
0DE203CE
F21426DA
2516F802
19E90E44
E2E608D6
2C393CEF

