F91A1302
0B231BF1
F205E10C
B4E5EF08
0FE90A34
2601EE62
F10E25DE
01FCC201
FEBEED0C
25DC06F6
F44AED16
0BC4ED08
31B1BFD7
22F4FBE3
F0F817DE
2536D3FC
D40FE136
A9BCEE05
2400CA1D
D3D003E6
2BF62A1E
030905C3
F3E21CCD
0BBFE2F7
D7FFD650
EF1D0E2C
22E40640
12D0F31F
1F5EEDEF
19CCF514
07562014
14E8DE00
E22B3DF2
FDF418F4
1AE5140A
1400F80A
E7E5135C
DA14DC1F
1622DCF1
F83E17FC
D7F7E89C
2A0303EB
E3F049C7
C5DCD41D
DBE8121D
B95B1047
FDD42FAA
E714E44A
EBF4B834
0DFC0BD8
DFFBBDE4
CCCE2132
FD3CFFF4
E65FE0FE
EB1FEDEB
FA81FD1C
F3F10108
FF3A1007
09102F21
3F17183B
36CA0215
D9D0336E
C624F546
07FB26F3
24490623
15160DF1
EC26F6E7
F900ED11
1B360BF0
3FE90407
FC1D3405
FAC2F922
16D7EBFD
11060013
0354C5FF
04D0FB05
F7EC010A
0D1EF21B
46E1E4F1
D833F33A
544E30AF
E8F7104D
22C5D601
07B3C510
F1491847
BE0235C2
0EC4EBFE
2AF2211B
FB0D0625
EDF4FC45
DDA6E6D9
E6CD2928
2127CD0D
0BFB0DF2
09BE2127
CA64F135
04E7C70F
D1C90302
0C390CE0
2EFC01C1
084D00BD
FBE922E1
EE181BE9
1DF1EE0F
061A183A
BF0DFB1C
F02DF111
CBD8F15B
F03E0F05
EF2AEC1D
F1FB4C33
FF94F0A6
21F0FA04
11E10EF8
F2EBEFFE
1433EB1B
00F7051E
DCD6FADD
292F0314
FAEE491A
F510EE38
10F70BDF
0AEE0EFE
243B0DF8
0EE122FF
EA1DE0FF
E1DAE239
2B2B1F07
0BE413A8
E9F1250B
02FEE7E9
FD0828EF
E2E831D9
D10EE4F9
F1D00DD9
FF27FADB
D2AA3C10
2834E71B
23270B0D
E3F01FD8
D06E0F12
0B5413D5
3F1FCD10
ECA6FC07
24A5F8CC
1AFEDB2B
E338052F
DB211D15
0ECCFEE2
001D22FA
1504F4DB
D7463115
C43902F0
F805EAD9
3026D7BA
19C308C8
F503F00F
010820FE
FB06F6ED
0B011010
070A0600
142D13EA
FACB19EE
1ED8EAEA
F122FF3A
240ED9F7
C4D4081C
E210253D
ECEAE7EE
4DF312E0
15F6D505
140BAD19
0FB7EB17
D30B2119
FA0ED3F7
FFFF2002
F840321B
F2EECA0B
FFF7E2F8
49DFF003
BBF8E5C7
0115FAED
113850F2
EA300907
0CCB07BF
04CCE30E
F800E3CF
14BA201D
211AEB25
2208BD2B
FEF7E815
FA11EBEC
EED5FDF1
5403D2FA
01BB36D8
52DCFAEF
FE08E624
C03308D7
181EEF3D
F3D000E8
DC53121F
240BE722
0D161763
D2D5EAED
0EF3FB10
F2EB07D4
B6E63405
5FF408FC
0B08B520
D80C0BFE
04221E01
3CEA27DF
F115F8E1
260B10E7
33E6FE05
E9E42405
F90FD0DE
E7DFE9F5
1EDEFA09
04F9FAC9
1D0622EA
1DE2FAF8
2DFD31FE
1B390934
EBECBFD4
4DD9F517
11D20ABC
32D52BEE
1DCD0527
D61AE915
6533B9D5
09E3361A
18EEC7E2
02BC0E0E
0B2D0CB9
3BE10C26
FE2EFA35
D4C1350A
1EEEDCF9
E5F0FEFC
F6C9CB5D
1103F0F3
D714EDEC
EE57DCCE
2335C7B9
BCFA150F
E33BE8E7
2561E2F2
1218ED42
F815DA16
EC49F2E7
02FBE109
01280D0F
DD1808E2
F535342C
FA53E60C
29DF14E4
F229EBEC
0FF226C5
32B012DB
2BCAEFF7
FEDBF82B
FD19F22E
1EC11111
2CE1F8F3
F4FB07FD
F964CA1A
08C8DAF0
341EF911
E925140C
F3B4D5B9
FA3E0AE2
0B082BD2
DC930D11
E12709F3
050CFF00
11471CD4
253E1D05
11FCDF03
242FFF11
00E90207
D420D311
1DF31511
0AF23206
FEC5E62C
D6D235F6
08BED7F2
EDFA1CE8
22F14C0C
F8B7EC12
D0E5B812
FDD921E5
47D1E0E1
3AEB0E02
2D5D2717
12D0ECFB
CEADF3F0
F6E50FFD
17F809E9
EF74F319
2964F6E9
CFFFFF03
EBE1092E
060DEC01
D35710FA
09B5FB19
D63A1F44
F552F7CC
E590F10A
F0DD2D0B
070FCB47
1A0E0C40
2DC10104
F958F5FC
F15DF000
284EFD32
03D7130B
292A0407
0F41FCEE
3881DFEA
58D3A4CE
17CAE7E4
3A279EFA
CACB0629
EE25F91E
DDDAD212
B109D2D5
2D2ED5C9
275EC261
1BD4A92F
E3D2FC08
FFE507F6
F77EEDE3
20ED071C
F9F308FC
07E7E4CB
1A552BFA
CA632E11
FBC8C400
F72DFF20
3DAF2611
CEE7F42D
EB160E02
33ECF0FF
02F1FD1E
13E71101
341C0103
660ACDDD
48FCDBF4
39D61157
560EEF09
F9FB0BDA
0E0CF314
F2D408EB
CDBFB7F0
ED261726
F1ED32F7
FE0AD50D
44341D03
F3ED20CA
14EB0C0D
2A69FA08
140A020F
D4900309
042BE949
E6D54124
D46BF335
F74DEE0B
14ECFBF8
EF120A13
0311C0D8
C1011F14
49C22F15
EED8FB24
F60A06F4
38FD1CE6
EEEBE0DB
1AF4F3FC
EAF024D3
18DBD62E
E71107E3
2E45CC31
2581FCDB
F0C81323
BCE4DE34
5FF73401
E7C5C7E8
04044401
DF220AE4
2D05150B
5DFDC506
4BDADAC5
BFDBF001
F5581F40
FEF3F6E5
D5FEFC15
15EA1FC6
0DEE0DFB
4BDEDA27
EE761BF7
EB5504EB
E816FDDB
27F2CEED
2FF1FCF1
F4E8EEF0
1B2F4C0D
100CB2D0
1FEDEE0C
C902C3F6
1F3AECEE
E8FE19FA
0623DF03
E92ADC4D
F081EEFC
0D08F2D7
34DAF3F3
D721E9F1
ECB5E309
170E14B2
0FF4C024
E7E3D3AA
2EF9F54A
DA45B7B9
EBF0E6E4
E5DB0FD4
C51B0F25
0BFDE31D
02F40043
0C262647
D3F918FE
DA15F704
FF19FEF6
33A22B40
8E009F1F
17E4EC18
0B0317F0
4AF5EFAB
2E062E11
EA2515F1
0628DAF7
02E5F914
3819F73D
E748CDDB
CCFA1ACC
E77E1D08
E715F3E8
0EF4E2E1
3AC7F8E8
FEC3F102
E00504FC
EF08FC24
01F71213
D2DD0FF8
2029FB0E
CA3EC4A3
E5F0D502
E90B25EA
FA01FDEF
0911F51B
F816040D
F7F6F1E6
EDFFDF12
E006110D
FDE8DBB5
DAFB0DFE
04FEFC0D
FD16DE16
2C1BC105
CB0404F2
F9DA3AF6
DFEEE70C
1907FDF4
D7CAC3D3
130402F5
EDFC1319
ED0CF004
27F7000E
1D07FE04
D3F10E07
C310E0FB
0306F831
2FFAF1FC
EC0AF303
13EF0620
F3F4F60A
F81FE6EE
29F9FDFF
11E4183E
060A0147
C90F14D7
FEF3F1FB
260EEE10
0409F3E8
071431ED
382C0F18
F2FFD5F7
09071CE9
F105F903
EED9E30A
0117CAF6
FD0002CB
05FA2800
33390800
2FF8C2DA
0601EA09
06050F10
09F702F5
1A121311
CA02E5BB
ECEED338
E9CA020F
2BEAF3DE
1BF0E10B
176DFEBA
D5FB23F3
2C62F5EC
350AF1E0
33AE29CF
F6FA29E9
D914EB0A
EE3ACE29
EDD8DFD8
1A09140E
E2C60359
CEC821F1
1BB4072F
F64DF1F5
0008E8FF
FDCF37F2
8DBBF519
31501522
D60AF1FF
F431F436
140EF0FA
02EEF908
CB0AC014
F4230D29
303BFFFA
FDFBD137
E9E538FD
12FAAF07
623F140D
F4C207F2
20D3221C
E0E123EE
EDFCEFFB
1D02F207
2A09FC18
C829EF23
FA2CEB0F
00250306
0504FB02
32A61F17
F932E8DB
211AEC26
E5D1F00A
3555DEFE
0D07F2DC
0B14EC0C
4BC12008
F136FA09
33C3DFDA
1DB1FFD6
F81919F3
F7E7EF01
21F12501
2CDD21DF
10C90313
120D080F
FE090F03
196A0F32
C731D81E
EBF0DA1F
15F90BF5
D8DFC6FC
33CB13CC
EA32D9EB
0CD021B8
DD1C23DC
42E5D308
3A020703
2BD8EDF8
F1D40908
2BFF050F
F9DD48D9
2513F746
14FD17F2
23ED0507
37091DFC
35E5C5FD
11F9DCE3
19D00B2E
CB10EDF3
F3EEDC22
9A4FB1C7
1DC6EB0B
D928E7EB
D40F123E
210923EC
DF1E3EE6
EE32469B
4CE82D21
0A3302BD
00ADC817
CC1ED30B
05BE1726
F6BDD90A
02183C27
1F0828F2
0F210F22
F6FE1EF7
F5E5DAF6
0A42E71D
17C4094F
6125172C
D1D72016
4CC3F4E4
EFDD090C
135214FD
FE4A02DB
E806CCC8
EAB80DCF
17C7BDEC
0302CE4F
F3FCF8E2
3DFA132C
C7F6EBF4
06C421B0
1012BFE1
FE440107
F31D0BC6
043AD0DA
32E21D25
EA0B51D4
EBF7DA1D
CE3615D2
DF080D36
083C3115
FE24FEF6
141E2E0B
08E11100
0109E707
FCF30105
0E2B0CF3
CDD31301
E61310F4
1DFBCFFF
2D4BF2F7
E6070C16
020CFA3E
42E8EFDE
2107FE14
E8FF61DD
68AF19DB
05EC0505
16FCF5FF
010F040A
052CFF0C
FA09DBD1
02E91308
DD1DE3FA
E2FCDFF9
133017D4
3B0B09EC
2BDBF030
CFD9E32E
F4110BE9
E4DC1B20
F7E50D43
00B5F209
AD0E27E6
30D5BCFD
F50ADB46
C8E21004
09D434FF
F5022508
19471203
F840E5FD
12FAC8EC
15FE25FC
1BF20FDE
1C1EFB20
D1D9DFFF
0BBCF5F3
F905F2CA
3E1814B5
B6D9F627
3F250A06
E30CF5F1
EEF9F9DA
DEFD06FE
1D1A3EFD
CDECDC27
18D0FDE5
04DCFA1C
05EB030C
10C6DEDF
FEEA1AFE
242F01F2
EDF0011F
F23AFE1A
1798D20D
021EDDFF
07EDEE17
140D1907
E215D9CF
D9FA0A03
EF1C0CF2
03FACB14
1C06101D
02B20EE4
24162124
F44A23F8
DFCB0D1E
E20EDAC0
1EEB08EE
EE3806D5
18B3EEE4
05EEC908
F0D718FF
F945CA23
0540B4D7
0B061214
E132DDF8
0724FBCE
111912A7
2623CCFA
D4E80BF6
FDEED733
C7C5B00D
2224DC1C
0B20F5CB
16EFCD10
DB3F03FC
0E0DD3EA
113C1325
C5C52035
02671F48
073302D4
1ED0D0E0
0CD5E7E3
E4F41CFB
14D707E7
ECE21829
F445E900
D5AEB8E5
05C20408
FA0724D2
0DDFF5D9
0339F11D
F6F8FF08
EA2A0B34
EEEE52EF
4B2ADC02
CABB0EFF
D5402CEE
1440FDDD
EA1FF100
0F8C1CF1
1325D806
FFD8FCDA
CCD7ED11
F0E7E1F2
FD81EEED
19C1250F
D94BE303
EB23F92A
D3F0EBFD

