D80AB813
3CDC00CF
E7E2190A
22371035
11F80634
3A0AEFF4
2CFB0E0D
C510CEF8
18C61EFF
27E90ED9
1403F7F2
2A0BF8CF
562806B5
C1FFE9E0
131E0809
EC01EDE7
15150029
092219E2
FBF10CEA
F8FE291B
15F2DE1C
E92A3DDD
230CFE04
170CF7D2
EC1D0C24
F94DF918
F01B0AE4
F720D6FF
1F0A0CF0
BFEAFAFE
B3DFE02B
20EEF3D9
06DA0D23
040EF1EB
DC0B212C
E42D28FA
F0ED010D
C1360161
0B1E40D7
A3CEFEFA
27241C11
19FD09D4
F83811C4
EAD84DEA
01381608
DAF1121D
42F6D036
C323D811
C92B0344
D81B18DD
010107E0
0CD2310F
34F346F5
061AE01D
7ADBFF23
10DB2F06
DF22EF33
040601D9
29DF0242
D9D91A12
0DD2CAFB
F70F2E20
0A3529C1
030DF050
1D060FFB
0120BBFB
0A06D50A
F026E30B
DFE4F505
382C0BED
FC371C33
13030071
2103F835
035F17B1
E6F110FE
EFFFE80B
02CFFCF4
DCFC2201
EF03E805
2112000C
F028CE18
FDAD0C34
3620E11E
1D0BC21A
F0FADBEC
EF16F919
FDDCEF0C
ED3D31F6
02EBE641
00F2FC12
EFF8F7EE
E7C937D9
BC3B0EF7
2924291C
F10DD529
F2F0F6E8
2C1CEB06
C3E7EF73
05FB27DA
18DDEDE1
09FBF037
D0C5FF37
24E62004
EE05D219
FDD6D6E0
01910B2B
FAFA28ED
16FBFEA6
08F00432
DB07101B
0DEF0005
10240F7C
C0F0B034
1B4D2B05
09A62C15
C6023716
27E4FEFE
0DF1617E
04FE0F13
D1F3FAF0
00F93AF9
E308D7AF
FE0323F5
0642EB40
15140D3C
F12F2CE6
23EA0C2D
DA03161E
51E527CF
0FF5F5E5
29444DF4
CDE8D557
07F3FBE7
28270222
22DE0DFC
F70D1312
4611F8FB
00FCF121
F4E416E5
05273D04
3AEED6B7
48033BFD
1B0112DB
DF1DEE1A
E31005E4
36EA0B0E
2B30CA02
0F27EAE7
C8FC1831
CD1C3FED
1A102DE8
D5F0D8E2
E303D614
EEF20418
F0C73D10
E81B2713
CF59E23D
D0D707FA
4606EA15
F20E2FFD
F928E304
F2DF09E8
F9D435FC
19F20337
E3210207
3BCC0913
EB43A51E
26FFF6DD
F5D0F40E
F1FF0006
CDC915F3
C02AEB0F
D6D51028
0C180E11
1DFA2B46
D8FEF5F6
1219D6CE
C7F0F5F1
0DBEE714
F8EBB711
22F40DB9
0ED3E4F2
EE222911
DD30F7FF
4E1C1805
FAD00A17
0EE934F9
103A2510
E3070BF7
E12EBDC8
CAD4FD2B
BFF726FC
BC0625C1
15F20838
0903E747
08150E31
F4F0EA28
FDF6F8E1
F0EEE9F5
FEF1CDA1
F6F412EA
AFEB00FB
FB00D738
750FEAB0
EF03EB11
1621FDF3
F03314E6
FDF0C0EA
F61B081A
06FE1DBE
F60E0DD1
44241A2F
31D6FE0B
160719E0
DE1A001D
F2D20845
F5F20E08
E8F312D9
15ECDEF7
0BF5CF98
FAFBCEF2
0D3CD6EE
0A1AFDF4
F50B092B
3CF916E3
24240003
CD8F13BE
261DEB16
0C01D6F8
EEEFF2E5
02F83D1C
2AF7F6D6
29F4D407
05C6E3CC
2210D6E6
D207DF25
C4CC1854
281CDD2C
FB20022E
A5FFF62B
38FD23ED
0208D736
E4D0DA00
FBCD14E7
C91AEADA
F3CCE212
DEF615F4
C4DACF37
DE28E4F3
131407C7
E025FBBD
0B02EFE7
15F5DD20
0621F924
E413D7FB
B9ED1CDA
1D012123
EBAC19CE
C022F219
0BE0E561
ECE207EC
FAEF0AFC
F3FEF300
DF281BC0
00D8E731
2427C238
CE0EE4F7
D7BE025F
FAD72217
FEF50D31
06F2F7E1
DD8E0A58
25FE17F8
14F10ABD
F619361A
E1D11C32
02121F0B
FA1F369F
09F038FC
36BC158C
1205C603
003B00FD
E0D0FAF6
3364C7DC
2611ED3A
FDFEFCDE
F7200206
2B00E9C4
0A0ECD0B
FBE9EF5E
FFF8EF07
37C7FEA7
FA02181F
F83FE28A
0BF401F5
2B3412CF
0511FC18
231BFB3D
1313F1E5
130DF8F5
11D739EF
FDF9DF4A
C8F9FB11
FF00F88B
ECE419D9
031A1514
FBFDF2D5
36CA12EB
15053E2E
05E1059F
EB0707C8
FB08FE50
1F1DFDDB
12283EDF
21F44EF8
F9F4D816
2B0B12F8
05F90CD2
0C1FF8C2
E411EBB9
E41B14E8
0C0213CC
EED6071F
E0D4E8D0
F00803F9
3A32F3DF
1EEEE8F4
0C0509D3
EBB0B3E7
A00BFCBB
C3F0E0B3
EC2E50AE
F11107CD
17F5F9A7
0F2D121D
01E328EC
0FCBE4D7
81FE13DB
310414EC
FBDB3501
E5D60535
340C03C0
DD0F0AA4
BECBF9ED
0CD2E2EC
F801D368
E7212305
4A1DBA0F
F0E0F719
FCE5FB14
0EE400E0
DF02F5CF
F0241215
17F404C8
1615EA14
F1DF22C6
02E1CB01
F0DCDFC4
06D71502
03EEE508
23FAF945
EDFE341A
32F2EFE5
1B0619B8
3011F6EC
E4050481
BEFFAC1B
33D9EE0C
EC1DDE04
09F408C8
E5051516
F41F16F6
EDEE100D
D5FF1D16
0FD0E1CF
06D921F9
F005FAE1
E7570213
02F8B30A
55200E1E
D4D4343A
DE0EF8C4
FAFA11FB
0106FC52
E421BFD9
070E00F6
312ACFE5
C5F5BAF7
2BE5DA1C
0BD803E4
55F0FD04
FEF71A0A
D8DB0F0F
0B17FED2
DA211CFF
27142DF0
0CE001F4
24D52223
2BDEF20C
C6B7DEA4
0B042948
DD23E4F1
F5F3F4FB
E20AF8DC
10D0282E
FB0B0AF3
FF0605DF
0AE73E36
D4E8FC04
17EBDBE7
21C7FDFB
EF01E327
16F01FF9
E614FAD9
CC0507C6
4BE9FBF5
00120F0C
EEE9400E
C6B52DE7
26EEE3E7
E1291610
1F00F0F8
19F11501
D2E12BAB
0E04E3FD
12F6E814
F3B310FD
0DE2E931
F3FBDDFA
1311F4DC
1FF315F0
06E3E0D0
D4E8EDEC
14D0F128
EA1A0EDA
2310E905
12F9F70C
35EC30CE
F0C4F924
2425F83A
F4FFECFE
FE210615
F6DAEDC5
2AE621CD
F431DDEE
D402FA00
2F0B05FB
03C416DB
FE07F52C
0E08F314
F5ECE1EC
EED6EDED
EBCCFA26
CEEB1FF8
E6F6FAFA
E6FEFDE4
20F1F4FC
EBFC0A08
1900E411
DF0DF506
F6EA0216
E4EE1601
F1100309
03F3E8F4
F710E704
250806EA
10E4F5EE
16170AF0
DE01130B
0BE8EC01
03E30427
E12AEA0B
09F505D7
19251440
2EF53931
E6F0E7CD
1B1FF6F2
12EAEAE9
1E1729F2
F9E1F0DF
D5180BF8
E4D810F2
17FC1811
F90D0B1C
C9BCFB43
02E3F60C
EE10C612
CFF0230A
090608E8
DEE114E9
08E9071B
2225F141
0EBBEFF6
A6E8FFE7
F1E90602
0224110E
01C90C09
070CF80C
EAE506FA
EB2CEB13
C814F1E4
07F1EAF4
0CE40F00
EC34F803
EC159001
4AEBF5EA
F4120AE4
12FADE05
D7F0F200
D72303F9
2F272D27
1408C5F1
FA36FD1F
E122EBAE
DFFF1124
E7FEF635
0AFFEB21
CF21DB17
FF021CDF
ECF2045E
17D30A03
F838D6E8
1400C9C0
F219D901
0FF5E824
00E59D70
0BFEF8E2
43AEF052
13E3192B
F50EFF1D
51FC29C0
43312AE1
F2D1CFEF
D514DD33
FA07EFD8
C4E00BC4
EFF30534
04270C0B
1F0B0DD5
1115270C
0DF8DD26
D5D9F31F
20F3A613
16E20A52
CF20201C
0123107E
0A10F2C3
0E11F705
CB12ED10
5438F2F6
E80FDC09
D6F6F981
E9CDF000
F9BDEB24
BD080FFC
1806FBAA
27FE3811
F8000F1F
1EF9FA0D
1EEF22E1
F521D419
EF141866
1FE1BFDA
E770EE9B
FF17F1F5
E6F10448
2F2C28FB
E0EF1981
F5080016
D5F40704
FBF0E4CD
102BE439
FEF13924
3E0EFCBE
DB13F9D3
FA120AC8
D006F9F7
DD3216CF
FB20DA0B
CC18ED1D
DD2C1404
AA064C36
EEF0F835
F1DA4AC5
DD071A0E
094EFF06
42E40310
F5072AE1
B3EA3E52
1200CA2E
0C52FE09
05F5013D
DBF8F231
F20CE6DA
1F2ED818
D9C5B8F1
1907CC0B
38B70CDB
F2FCED1A
09E6400B
0A3A201C
1BF7E91F
EE15EF28
061F010C
0108443A
E135F420
E9BC2627
FCD6F9F1
0DF600FB
22DAD3EC
34FDFD53
F527AC27
1CFFDD2D
EF7EED44
E8EAE32A
05074138
1ED8FC1F
06EBEFEA
21191CC5
D32E4D00
F209145B
0F47FF03
1BE6FB24
EF261103
36F8D002
B60C0BD1
E411491F
52040524
13BC00C7
24EA49C7
D753EB15
CB0BFDC9
3AB6D4A6
EF811E20
F71D39E7
1C25FEE5
14F91048
F4C733B6
1DDE1E39
F1F1F0D4
09D705E5
140B0127
0119FB0B
12BDDF14
1CCAEE41
1232EF5C
11F3FC02
11D9F5CC
FAF8F6F1
07F51018
ECFAE9CB
F5F3E60C
28E20B20
EB08F32E
0211DFE0
36F8F24E
1CECF30D
E02C192B
E00DFD05
FB32F90D
FEEFF401
E2112CE5
0308F3CC
FD06F3BE
F11A2315
D039213A
14FCFA4B
E20B14EA
04F3FF0F
EF0911F7
320F111E
2305FE16
BB0BEB8D
E73EF11E
FF0DD41A
E506FC21
020DF1CB
C6D50CCE
F93321F9
DEC8FDF8
EAE7EFD0
25EC0515
1710EAEC
19C0231A
28C4241C
FB70F3EF
40C01C10
3A04D607
150F0729
F6DEFF06
060A47F3
030608CB
DDF10D10
ECFB0CEF
6409F2EF
370BCE36
E417F6F6
0F052E1E
1034F6EF
CDF6F1F5
0BFF1AE9
F9C9170D
29E8460D
1A1EE9CB
EBE9F106
FA534546
08FCE6CE
0C8DF7AB
21DA0719
1818EB12
161BF514
0BBEE81F
01FEEF03
1B2CE13B
59E222EF
34CED80F
09F5F800
07F90A3E
EC0936F4
160DF0A9
EC29053B
0E42144B
DFD0FA09
1D00F843
EA2E21E6
08C11281
E6BAE30F
B5012DDF
CA081A03
04041BED
49F8B08C
F08B17D9
1AC6F6FD
271FD8D4
F6D8DDE0
329DF5B5
18EF09F5
E93EFF30
31F1EB0A
1B3F29EB
0A30E601
FD1210DC
F40EC902
E53012FE
E9F1F937
E034F251
DF28211D
410B1BF3
D5072240
0356D619
DA0713D0
9B0A34E1
08F7EFF1
F5D4E2C4
0DFA052D
0DC33A1E
FB0EE6BE
02812404
DC0C0112
1CE0123B
3C0DF2EC
E909FC27
09F406FC
D4BDEA0E
291312EA
2539E8E7
12C33423
B749EB48

