39F7F0F6
4DF2FD02
021DDD1D
2410FAD0
F8FC1609
190C12D3
EEC7E9FD
0B29DBD7
15CF0ED9
2FD566C6
F9E3E402
4B0D13C7
1CFF04EE
54BFD82C
F50A2D12
F8160F3B
F9F8DE16
29FA25DE
07F3C62F
20F9ECEA
F4FBFDB0
1D10261D
DE26DED9
48D30C08
03EAF9E4
FF0D070A
161E032A
360402D9
EB2306ED
E43312E6
F8FD44DC
0502DA02
08F6FEFA
0FBDEDE8
162924C2
FD422808
03FC04DB
0AF11F0E
1FEAF32B
230FC947
33150021
BE06D303
EEB33AFD
1423C3F7
130C04FF
DB0C29DF
D0D906F3
10E42CE7
FA00FD44
3238C909
C5FF28D9
06EC25FC
15081F05
07F613B7
10FAB1FF
0906C8F1
0513BB2F
D9CF3EF8
F0090EE6
3BD3FED0
FDFAEFEC
0D1B313D
11D9ED0F
07C8F9D8
DB0509FE
D8E2FAF9
F60E390C
EC0926E2
F50CFF08
0701FDF8
16E934D6
E306DB15
27EEF5CA
13F9D6FC
0422FEEB
F619FEE1
1B1D1CD4
F5F7FCF8
F904EE11
FAEBF2E4
F71720F5
3546EC16
37F3171C
F0193209
EBF1EE03
F8EF1C06
170A28C1
35F64605
CFFF130C
0A02230C
041614D7
E118E600
03CFEE24
F1F21D0C
FDE712F6
1AE1FE15
EB16ECED
2BF5F5F7
FFF518C3
1EE91112
FBF922EE
15130E18
04F7A701
08EE0FFF
F402FEE4
2A33DF1C
02E30403
2BCDB6E7
10FEFFC0
F17223EB
01FBF500
F7F30BF6
0D2325F0
F1DB2BF8
FE2A2EDC
FE0D0800
0411F20A
EC01E11F
0710EAEF
D6ED0511
FDD92021
F7F5E0E4
1907010F
05FAFBF9
E108D000
07CEEAE9
0EFBDEC6
2C3815ED
13E30FDB
0EEB04DE
FFFDD816
1D33DC09
F20F0A04
030C2014
21F9FA16
192FD32B
321D1E05
0D22370E
011213FD
1FEF103F
05F4740E
18D8152C
F318F118
01E602D3
1E03E61E
FD3C0A12
01133811
CCFBF6DC
014D0D1E
F4EEEDF9
E61FEFE0
C4E53DE8
00F520EC
10BA061E
F8FEDD1A
14F7000B
0999F9FD
C5E9082F
0415FF0C
D0B7EAFB
11D4DE04
2B16D71B
2CE317FA
0C1DEB16
091BD2E4
F9EF41E1
1BE7F5DE
0FEDEB31
2ADBEF12
FE03051E
CDA30DE3
4B24F04F
17250890
1E024B2A
CB29E1CA
130E0A1D
F90C0BC3
F6DE1311
F9FAF03C
043011E6
04DF163C
EAD4F5E7
1A22DC21
39C7F2E7
FCD819FC
142A0DF3
DB16F70C
F7FB04F5
210B3415
06CE4D09
F5DDCEBC
FC061D0E
09EAFFFC
041E38E4
F0EEF638
3306EAE1
EAE9EE2B
0343F1D9
02DA0705
E3D3CAE8
EF090FF1
29E5301C
09E9C721
F639D523
EE1AD710
D900130E
01E5AB18
DEF72719
BC1F08F1
37D407CA
EA1DFFF2
09EA08E6
CC0040D0
C0E81BC7
EACE2128
CC411EB9
E028E31C
EFDBE91D
FFD90602
09FA2A2E
FA19DFE2
1AFBF512
3413ED1E
FD1AEC16
0124D608
CB0940ED
0AF7F503
D2E6F8FF
F93C19F9
ED1E3D3D
D82CA507
19063C07
EFE5C0F9
FB0C1A0C
EF0C4BFA
F303E51A
EF531AD7
0109EAA8
0626FC20
0B171D15
00D33937
E010EF15
061DD7D9
F40501F1
09E3EA3D
02F70541
F53143CA
53F0E5D7
E7DF2EFB
0C1816FC
180DE3FF
C7183732
F1FF1D18
CAF0F3F2
E8051AF4
FCFB06F8
EF11C502
153ECFE6
020AF707
FDF3F015
FAF5FD06
F81B22F0
FC0CFD14
1B190AFB
0AEBE500
FFE8E53B
14192115
1C2705D8
EEE4E505
02090120
F6EACE05
07FF0EC9
07DFEEDF
17F1FB01
4106E0FB
FDCE1108
09E9E319
FF680CEC
F3F0FEE9
1024EEFE
2CEF05E0
1C0400F4
09F3F910
25020703
E73408D7
FC000C12
00F7EB3B
1514F909
20D6F7DE
F917D10C
20F5E3C4
020FCEE1
17FBF70D
0A21D309
030C03EE
FC133607
0FF1DFE9
0C1108EA
1715C8EC
EDFE1E15
F9FBE6FE
0807DB04
FFC8FF04
0EDEF127
1CF61B08
F3FEF5E6
D026F514
EBF90C09
ECFE170E
CE0520FC
03F6F118
16F70F0B
48FFCF11
DB080AF6
1526BC18
2DECF8F5
0CFFF90E
1208F8E4
FF05C61C
F4F809FF
17E2D5F9
0F0BFC10
2306F913
DFDA4DF9
25FEFEEB
FBECDEEF
C421010F
24E1FDEF
2830E40B
E835360F
1FD2F534
FC0A47F2
30FDD900
FC07849A
49E84FC8
0705D63C
24F4C51B
570C161D
0B143E4B
F0DAF7FE
1032140F
D5C9EC04
E3E5C673
E1F1FCB8
28F0EBEB
3A2615D5
E7DAB00C
2529011F
21C404D0
BEEDEF13
1A004407
04F921F1
B7CC00B8
2218F9F7
07F9E022
F9F30408
F3EA2EE2
0005DB10
4D205BB1
292B2ADF
17050DF5
E6D5CF11
1DFCD3F8
F9FA1EF7
2FE4E4E6
38AF1E06
271F0921
EAE610CD
EC02CF16
DF230101
D8E0EAF2
18EA14EF
E5ECF02D
17AFC005
F935CBE3
EB22DF39
1C2A5027
FF08E7F5
9EED11F0
1842F716
AED1AB0B
F510BAB6
2AD106D7
04FDD10A
10F20F04
E0E0201A
262522E8
0D24DCD9
13F80DCB
BBE944C0
052627ED
EBDD26F3
1EFEEC1A
F2EE1FFA
15DC30DD
C700FE03
FE20021E
F0FFDE36
DFFC090B
FFD0E6BE
08F80CF0
E8EF1315
F600F34C
F93006E9
0F09AEF6
EC1D2920
E408E2E0
FA2A2729
3DFAFC34
05D02513
E6F833E2
0E38E52F
FBC90B67
EC48C8F1
14F210F5
FE0BE05E
F30903F8
E60EE1D7
402F30E8
B6002EE4
1DD3D420
E2EF3445
0FF6FE97
1425B42E
F4ED260C
1F2A0902
E13B203B
962B03D7
EEE219F3
F8E5E3D7
2909D902
03FFFE01
D8CB1D12
F743E7F7
CB33DDCA
CD1DE506
AEFC0CDC
FCF30D1B
16D613E0
F608E9D0
E900133E
2605F3D9
17D84B0A
C9C2CDB2
D0E40C21
00DC0A0D
F8200839
1810E6E5
DA06D102
F4EEE8FF
DC05174A
E838F9E9
D302F3E8
DC41E5DE
EC06F9F1
05DDE8F9
F0EDFB00
FA2907E6
F9090404
060B0F22
F705FF07
E20E0710
FA14EEF6
18FA10F9
01E60012
0B25F707
FA0AF426
041F0907
F7200008
1F33180E
FD24201C
F2FEFD03
FEE53D33
1A29E915
FADE2D0A
110EF3F5
0F010520
EBC500F5
261B1E30
DA2322EA
FAFCF3F5
07DEFE19
12FD04F5
FC04F716
F9F20EBF
373DFD23
03081122
EBECF9E8
EB060412
ECFFFBED
F40CCAF9
1EFE0013
DCF2130B
D727D203
1314D4E4
2CF509FE
00EF0EEE
F204070C
DEFD32F3
D004E6B8
FEFD0307
0C1BF2F9
030016F3
F6F40322
EE42E5EE
B93A04EC
E5CBE1C1
0C00DAD3
09ECF2F9
ECE512F7
17E527C8
E7DDFC14
1417F0F8
D0D4F50D
05ED28F8
F1DE0CE6
06F8E6E7
000A12EB
2F0CD80D
CA033832
0A07D125
F8FAF525
C2E91C11
F615E3F5
E91D3640
13F13515
2316EE25
BE2C172F
CCE8FE04
050B10FD
06EDFACF
13254D12
120CDDCC
1BF6ABF2
EF052112
240344FF
1621FCE1
0B480CBF
1EE7F0FC
F4112503
0DEAEC09
11ED2EFF
110A2942
EDE9FA16
150CC30C
0AE00F32
D2001202
F6F81D35
F9062709
FFDC24FF
E00BFA1F
12F9FFEE
2DCD55FE
222E0FEB
EB0614E1
3C3102CE
1A18FA30
EFD82910
FE0EC3E8
0000CEEE
DFFDD7F0
17281207
F1FB31E1
083908CB
14075A00
FB09D4E3
E2ED212C
00120735
213ADF05
E5F73F24
D8E2E005
E7410CE9
2313F023
D5E8F21D
2900000F
D9E8E722
01D6FBEC
E2FDD2ED
CFFF334C
B71AFC1E
0A1FE5B4
0B0C27EE
32C51C04
4712DB20
D4F8E308
D6070F20
00A61E19
290CB114
7E099FE3
5A0728E8
A431D8D6
0DF0150A
DD1AB846
9EF7B59F
FF189E18
14FA79BB
C6010A47
FC2ED214
13DC1007
CDFBE8D2
E023F5F5
5CD709BC
270FDCF8
22F9D6BD
F10CF902
08DB340C
F9F70733
04C3FFD8
34EBDCF3
24E909D9
F2C6DAC4
21EBD7F2
EF3D1B0B
DFF300EE
3E04E4D3
30F8EB1C
C104F946
BAEBC2DA
F1DF1BF7
F500F1DD
F6DFFFC6
000BDD28
1B0108EA
0735241C
14D60E05
F6D80B06
02F71D32
095029DD
26C2FBEF
0B232E3F
1F021FD7
032633EE
0E1FE713
EF00D93E
DB1C340C
3ACE38F3
ED19F30B
38DED5F3
D4EEE6D0
C205EBBE
F30DD42A
1BFAFCE5
F6020408
080A0AEC
DF03D40E
0FF1F7C6
E9F2B90E
160438F6
0A21FAF4
F1D304FC
22F903FA
1FEC11F9
331C21E1
063BEE12
F1EBAAC2
03E0F3DF
0EFDBF03
050ADAFE
17E30716
FE04FD16
06E8F100
F9FF0A1B
EAEA7409
33FDF60E
19E41ADB
17E5E10C
101FECEC
0301EB17
FBF5F9F3
0FD500F7
D9F80DF8
2321FB0E
E8F30EEE
2FD0F1F1
F131230A
E300EBFB
0024FEE9
DDDCE433
F1F8EDF2
10FCDF00
0ADFD6FD
151A2BF2
DF25D1E9
E5F6DCD8
E00FDB15
F8FBDEEA
37EDDFFE
E123DD07
DD0C01E5
E7FB111E
2423CDFB
28181D08
12CD140E
F71407F4
EB0B2A11
21FC0FF1
0015E1FC
FBDBE7F9
240F01F7
E8EA1103
0E07DBF1
0AE51512
E2C2DCDF
FA0BF806
F2F4E0F8
EBFFEC28
04DFE92B
130EFFF4
07020302
2FDD2110
D029220B
E9191BD7
F4150EED
FA0500C8
1A13F90A
21CFE1D7
EB22000D
11B914EF
020B02E9
ED1702F6
EB38CE45
EE0FDB12
270C022D
BC01C40B
0B240807
0D0A15EE
473AF4EF
F0F7BA49
F3EBFB22
1D071ADB
FE28DA24
F227FFF5
F0FE03FA
F916E7FC
1A0EEF35
D533E13D
15FE0E05
D70EE4E8
08E0D706
E1D50512
0EFB0123
F7FC0102
E3F4F3EC
F41DD41C
00F502EF
29E6DC04
140CD910
2110E6E9
23053002
EE151AE7
13082BCF
D0FD5E26
15E6D0C0
2B01F4E2
ECD548E4
BAE9F31C
151FFB30
CA13F71F
0B29FDFF
200DF71E
3F1E18ED
2B062415
08CE0BFD
00E811EC
11CEF802
0AEEFEF4
0DEAFF03
0A21EAB3

