FDF32024
C131E4FF
EFAB2A19
07302930
09F2DDF7
234D07E9
EF1E2F0A
0CE60D15
07D82BCC
0016EEC3
0FF705FF
1527F818
D1DE1ED1
E4F8DD15
02CA140B
F9CBEDFC
1FFF3CC4
D82DD2FC
FB3217FB
DF1EEE17
294ADCEA
3618FC24
CD15C32E
FEEEB9E6
0737461B
02F8A9ED
6B1B2E2B
03D81520
1821191B
EC9905DB
E817CE13
190AC4DA
E06046BF
11191F04
ED49C714
1848F7F2
C214E0E5
D80BF020
551A33FE
031DB726
E5F8FF40
3A42241B
7DFBBCE6
E91827F3
34ED5142
0D144DE5
5E3DE2C9
D909DC2A
C8281D17
08F8EAC1
C11C1D11
F8EEDA22
00D1E3F8
FA16EF06
26EEEE22
DCEEFDD7
0EC8765D
ED0DEC51
B1E6331F
3210BF11
0C85EA0B
30150C22
C5FE4AF7
0BE7FCF1
F80D0508
EA07E6EF
DA0735CA
E910CEC2
F5D3FDE7
F9D8DF19
BB0E384A
F62B140C
090009D7
1819E34E
15D12901
061A1927
F9E80C1D
F7F308B5
F4E61B09
161A191F
24FBF7F7
F8C1BCF7
2DD5AB36
DBE0EF11
3D112211
ECF02D0C
222CBD22
FB14D3DF
E3F62B03
08E10112
F2F3D6ED
10D9C1CE
B91F130D
ED2C05D2
06ADDCFA
FE18E835
E82015F8
0BE9DCDB
CD2D34DB
EB20FAEB
4A04720C
E1DC132F
15D60404
E503B981
D1D007E8
2711D6DE
FBF410FF
DCEF0406
F20B19DD
0514D2FF
EDC10222
EB11EFE5
55F235EF
F813E7ED
D91115F5
0AF00204
2130DC08
17F0F435
1D0F1A56
FEC4F1EC
051DE12C
06FDF1F7
E5052BFC
02FC1D27
27E22615
393102CB
2126DAF9
FBEEFF00
2E11FEFC
E4F9032C
190E2AFF
13FD0900
053B1D0C
00E7E427
FFFBF4CD
1ED61E0B
E8F1D0F9
FA0CB000
FC292413
0604EBB0
C52320CB
0602EBCE
D6F8312A
0E5FD2FC
E0E826EA
F6F6CF11
CE1AEA03
FB24E9E9
3C190315
EEFF34FE
810107F9
E8CC12CF
CE3CF8DB
043404C9
CD1A3A2C
26329EFC
CB130F12
03FF16FA
0431FE10
10E9E2EC
3C1122F8
18D235F7
DDC4C300
FE0758D4
E6D4E8EB
D918FBED
04B9FD14
F9E90FF1
F124D9E7
E9102D08
14EFF913
C31412EB
1D1EDAF7
12E5F8DA
E30067D7
082815D7
2343CF03
151700FC
E8BF2328
F717F509
E02D03DD
BCEF13FD
D1B2B62A
FC39C8D4
353B1D03
0735DCD0
D8D7DB16
0936EF12
BBF4020A
1BE0F2F9
08010D0A
F0E8FD03
1F14DE2D
E7F02904
FA0F2016
12E0EFD0
FCF51516
EFE6D3DC
EBF41309
F2E80BEB
49FD2DEF
EE0FC304
BB1A311D
04F1E9F7
2DF0051C
F3053BEC
02CD3F7E
3207B5DD
E9CAE419
EF27C9BA
FCEB02F6
0DEBEC12
E3FAF40E
0F0E1E0C
DAEFFFDE
10F0FAEE
E40DEEEE
FCE0F812
DD19130D
EDFC0AF1
BC15E3ED
10F4DCDA
18D80009
F2FC0CDA
5917230E
E9CA08A5
09DF24F5
05E701D6
EBDDEEF4
EACAD415
3A0C67E4
0A190008
FCF4FAFD
162621F4
C910CF02
F733FC20
03D5C745
2207D536
ED07EA21
E81AF7F5
E5B7D3E2
44C30393
2DCFF80C
E4E1101F
F4B024EC
F316EC03
09DDFBF2
0929EEF5
BA0A0CCC
020ED84B
E85206FC
202100FE
FFE60D0C
14F4E30D
E92C1059
D7E3FBC0
DCD346FE
10F9058B
E702E2DF
06FBE0E0
E117FCFC
F3F710EB
B33E21FD
21ECCDC3
F1070E02
16140D64
E9FA04E8
F301F338
D905EAF1
0902C3DE
FB0A41F8
22240C26
12F60EE1
ECD705DE
C3E1F51C
E4EFD9F5
2A14F20E
FC0FCCCA
09DC4AEF
0406F522
F7C9E6F1
EFFCDA11
FF06172F
FC1927D2
0AE6B9E4
1CF40C62
E3DEEB06
040306E2
0CE8D5F6
DCFF1ADF
FDEC3EF6
06E60CF3
F9FC1AB7
FBEEF8DC
01F00504
E80E1DD2
E812EC0D
1517DF92
FB503117
FC22E681
EBF1FBFF
F5ED10EE
00FB1202
1001CA4C
DCEE201C
ED0E0F77
F3FEF608
02F6FA4F
F2F3DBFB
0B03E646
01FADD00
E229FCCB
1EBE2B08
10F6E6F4
0B211DEF
30C8E67D
0EDC0717
FF0C142F
F51505EB
F60002BD
EFE9FADC
F4DD1D81
F112C707
D40724D8
E1D32710
051F0DF7
0604CF3C
0CC7DBE3
EB20E83B
91F3F93A
F9DA0B12
00DEFFAD
FE431B05
F8E9E620
25CCF5E0
0814EC01
C0F216D4
12CDEB15
0AF82FF2
9F07FC15
1A08F7F4
22E30E12
CE07DEF3
1412FACB
300EF8ED
54522100
FF260F57
17402CF5
0614F4DB
E2E54724
30FBE6F8
0604D0F3
241CF23F
061E2E54
1CECF1DD
F42DF5F1
03FF112A
253A3CF3
DBFE3707
2C2FF04B
FFF41904
1F1225E3
D4F8FB0F
EB0D13F4
D0D9CB07
F22F271A
1D101A28
EFAF30DF
222D180B
F6EEF714
ED0518F0
0DE4D85B
E30B3159
EFCCAFA5
36272D37
08CFD30A
C0FBDD2D
F700D4D4
08ECE2DC
FA042B6A
DFEFCAFE
5BEB0EE8
F43C70DA
E5D51DEF
211DCCDB
EC3FFAE7
1AE5ACE3
19E9EDD0
D418CFE5
16F744EF
EBDDEC0B
05E017E5
B925A616
F8ECD91B
27D33311
D5D8E30F
FF3B0AE1
2700CD0A
E72BA913
DFE0F403
F715F92C
0EC0E5F9
54EA041C
FC1AF8EE
0B05F1E2
0C2710E3
AB09F525
B525E102
03FD2819
DE0DF7F3
EFD1481D
1C22C8C6
3AE70A2C
E415D7ED
0AFEF227
F95001FB
15DE010E
E5F6F8EF
28EC0409
0C081CFE
B622FB18
E1F70E1B
DB2C3E20
902741D5
07192027
D1222CF2
1EF5CC0B
D9EAF508
241BFAE4
2BD61411
0B2940FB
F1070D0A
F915F3FC
F60CD7FF
412C0C03
0FF1E10D
E046DCEC
04D467EF
EA192022
D9DE4750
0D02F913
0A2E41F7
281BFEF1
D6271AFF
050912F6
0317102C
0BE1E903
F4F011D7
B000F0EE
E70FF005
C8FBF9FD
FCFB30EC
EA0805D7
E61D05EB
1906EB02
08E8F710
DCEF2B14
D41A13FB
13FB1B00
F2F91AFC
0608DCED
22FD20F5
F5F83309
BC114FF2
22FE12EF
FDFF1612
F3F72C1A
0C0A271E
F841FF1A
EEE91CF9
1D0910E9
01EC1AFE
12681BE7
DF152D03
F7DFFC05
F5231017
D700F3F6
06000900
080B1EF4
DE08EB07
F111DA03
DD25FA03
07DEE301
F1021614
200DF810
E7F41BEC
171DCA04
150BF611
1424F2EF
E1150EF0
FB15F300
0E33F6F4
3A22FF06
12030B1E
F1272B21
2AD9F5F1
10F105FF
E50A011F
DE082CDA
EC21ACEF
05251CE1
0CFFFCFD
EB082DF4
161B23F3
FF15F40E
0316F606
0ADEF7F1
1314D915
FA0B0223
D607C1FD
D9040010
C9DBBCBE
F2F03938
20020D7E
32141DF0
FF1D01E1
580DABD2
FEE1E6CB
FCF8090E
25F7F8E0
1F1D22FF
1B29091E
1CF53820
00E119C6
EDE9E1E3
E11EF771
F82826D7
E51817CE
0CFE3D1D
FB1B3827
D7F9140E
D21525D0
06E6FDE7
12FF09C8
0B0815F1
1524F0CE
2D180812
060AEA15
0FE508D4
0F09F388
EE31D5D1
07190E2B
F1F1EBE2
DDE7350D
F81507F4
0E03F90E
D527B813
F3DFCEE4
E80F1517
0B11EDD9
02E947E7
120AF6EE
D81C0546
E909FE24
21E7DE04
EE06EF12
ABF5C7EE
2EDF1B6D
C3F53DEB
FB032D3E
FDEB16E5
3018E117
D527EAE1
D4EA19D8
E40EF21A
101AFBC0
F40508F0
18D9F8EF
1AEC0AF1
09F8E0EF
36FD2308
F8E91D44
0BF2FD04
07EC091C
33E1D103
1FD7303E
2EFBE130
E4E2F7F0
25C22612
DE832D26
F034F1FA
FAF00BBF
1A1A4A1D
0919FFE5
CBE6081C
0AE10004
DF11132F
0FFBD22C
291458D2
033D39EE
E9DB04DC
D33002DE
06F3D00C
DF08CEFF
FF607117
36B7F317
1ADE0EC3
3001E8D1
EBFD11BA
25F2C531
EB29F4E5
F21AE426
F149EE0A
1233AF16
1520A72F
EB18F4EA
991CFFFF
CE260AE1
D308E92A
280706D1
EC032FEC
1A165ADB
FF140CFC
DDF3D004
36E610B4
0B3F4A1D
0DE5D2FB
1A18CF0A
3AFAE6C8
F1F4100C
05362493
380CCCFD
3CEA08D3
0DBFECCF
36260C12
D1CB19D6
1BFE2F40
E121FB08
0246E2E7
20E92918
0CE4D828
18E10631
E7C5EC03
DBD5C4D6
ED2D1CEE
FEFA0E10
FCE8DA23
F51F0D44
E52BFBF7
15FF140A
102209FE
0E2AE20B
1E3FFEF9
06E31819
E80EE10E
FE39FAE0
E2FD2703
FAD54E0B
FBC71912
0C03E2D1
23040200
DCECE30C
FE1227E6
D1D13418
E2F60BF9
F4F3FBBC
FBDF051C
1CEC2D24
ECF0F8FD
05F03C0A
F514120A
D9FE06D1
041407CC
E2E9EF4C
F7E3F209
0D0AF802
F5FDFBF0
0A03FCE9
D5DB03D3
08F01B1E
DFEC191C
F3C1E80C
04F8080C
130EFBEF
14F93001
0FFB10FF
3000ECD6
D8F2DDEE
1CFAF710
3408ED0B
C9160403
E4F7F715
E7E849DA
150CE2A4
FE0BE9F8
D409F9F9
09E600FD
E5F21716
07EE160D
020AF60E
1510FB08
F3F6110B
F9ACE107
0B15FC2E
4DFFD1EC
00F62232
E224EC0F
DDFE2D16
0725EB28
1000FB2C
01F8E618
F02200E2
1AF4FAEC
FCE511CE
223E39F3
E3E61CFC
FF230002
FA2C2A49
062800CD
260A17BA
0BE8DDE8
FCD91230
1547FCD5
131ECEFC
161522E3
2037F243
CAFDF3D3
E403286A
2D22DF29
D127EE09
30F30F12
05C73B06
FCE7F2EC
DD08FD06
F3D6BAF7
F3E7FE92
1D34ED1E
F893C610
10E3E12B
1322A443
E312D000
0A27FD3A
EF12E0C9
F8C03014
D3FBF20B
F9FFFCEC
44BF10E5
ED030B34
FA111F1F
DFE325EA
1D0500E3
19EEF2FB
151CFDEE
24072698
C0DA0832
BAE2DE3F
1CE3EFF0
EAF0CF30
E727F118
172F03B6
F921DD0E
10061752
43E50009
B1C6412A
EB20E301
2557F728
242359D7
2013CA60
1324F9EA
0C01DDF0
08F31C35
EC14BE23
1AE30426
E7E5E0F3
041625E0
0D1C141F
F5C00F1D
ECC707FA

