0118DF05
FA05002F
A6FD261F
DE1FFDF1
B5EEFCC3
97EE900B
300BDDED
F0FBE202
C41206DA
410A09CC
F511051E
E3FFDBEA
0CF9FCF0
F5FEFBD6
DB52DAF6
F7E1C70E
05E5CC08
060A07C3
F7D2D215
15E0FD3D
02200DFB
F611B12B
0E3A0543
0D1304E6
0E1D0327
FFDC0702
3FD91EFA
0D16FC0B
F90A011F
1E1E09E1
C31FFC2A
010F9DFD
33FADE03
CAFD032B
23643702
17EFEC02
0BBA2B26
2C3BE20A
3113D7F8
1CFFFE20
001BFE3B
03EFE157
16EC13D0
F124D4F7
E80DEEF3
EA2410D6
E20C00EC
1CD30436
1AE7D8F2
4113301C
F9010936
2FC2E1D0
FCE5EA04
26A70F45
141CDED7
7BEFFCE0
3202E8FC
330D0D05
002628F8
E13A0052
ECEEDDD6
ECD0CA47
1515091C
F81CD72F
F011EECA
03FE0118
06F20B04
FEFDFB0E
F6312FD1
5206E5E8
D8FB34D5
01D123E5
E238E2BB
76FD2F10
E50B12E7
2BD8040A
EAF9061B
C7FCF3FA
10FAE216
C7FB0519
DCDBD728
F10115CD
34E4182C
FBFF0FDB
2F0DFBEF
EFD80CEF
0308052E
C3D2E002
E72D25E0
200600FD
E7BE0A18
0DED1B24
1CD40029
7415E1FD
CCFFDBED
DED90503
F826E225
F1E5E4E2
1F291ED4
CA2CE2CB
CC0100ED
07F0F6C2
4016F23C
2BF50A02
0ECFF404
F80735E5
EE0BEBDF
FCEE240C
D01209E1
7E07D6EE
270F1137
CE0736F4
D90511FD
15F4E9D8
F7220A01
F2FE130D
E937EE1A
F6E5C808
1EEBD0D6
0BF067F7
14441EFF
071104D1
F20B02FE
F9F5F410
CFC412D0
14EBE4E9
E70A1C05
C3012014
030B2E11
F9F2DA4D
00D3F001
050000FF
D01CD9E5
033B0F04
03FAFF2A
1F3404DF
0FF2FE13
F60D1121
F2E02DD3
410BEEED
E6F708E0
F94115FA
DF274301
05103301
3FDD2A1A
F445F947
21F6E0FF
D3F9F70A
940DDB0C
F1D501E7
F400EE04
010049DA
FB33F9DC
CCF120CC
02BE25EA
2C44E711
F8E0FF04
F0F4E23D
26E60E13
EFEBD8FD
BACFF7FA
F306ECC8
FF4FE9E5
09FB3C1C
0605EA06
E71410F0
2710D118
F709CA44
06F2CAC4
FB0602E3
4921F9F5
F70B3105
02D707DF
05E2DCF8
05DF6602
E83DEA06
DFEB229F
143F0AE0
C70326DE
2027F223
0645FDE9
09000BE7
4D03DD1F
05DD0415
FE4318F8
C9E7E0E3
F205FA21
F9F31544
E619070B
082B011B
EEE1F5D8
20090D04
EDF9FFCB
CDFC08E8
EBD02D22
D0E9F2FD
E781DFE5
09FBFDEE
C3EEED17
11E82FCC
114E0DEC
D4F6D3E7
F0423EF7
3CB9E258
FBE7C4E1
2A1EEDEE
FEE11B35
B4F7491A
CA24D2AE
27E520D1
201F1C2C
11E61904
E44CCD12
0019EDF1
E8E63B32
220220E7
03F601F9
F2E3E546
FAF81C0A
0FC9EC24
E212072D
271AF327
DF1C0815
080815EC
14BBFFC8
1616FA32
F9FA0EFB
C60DE2F3
CCCE08B4
41E707BA
28FE2AF8
B50D31D0
1CFF2EC5
E81436F4
2EEC5048
06D8D02D
DBCC0ACE
F724FF21
EB092203
E2FDEE23
FE17CE98
D71F11B6
BAF70CB1
EEFAE7E4
040DE7FD
2FF7F709
0AFBCB04
3610DA15
F7D10AF4
1FD5CE2C
6EFA660E
1DD8A122
15F8E4F5
02E81A0C
1323EA31
0DBFC24A
001609E0
E0F015DE
0B09FBFD
0AEF31F1
F61D1955
000EE2D0
1FDC2D2A
8B151C34
2E151AF9
7E02FF25
F0130E18
9026FC01
20F2F2FF
1E1022EE
08DC0203
EDEB11FB
2FFAEAE4
FC29090A
FCD7E9FA
24FB2B18
1CE6022F
B4101708
F9391E0C
56130106
19F71C16
EB21F9EB
C7E51AF5
DD0A1606
01FFF3DC
31D01407
120AE00D
E80BF402
0DCDF525
0DE1F8DF
1E0117D6
E414263C
DDDFEB28
720B0A2F
26F11EFF
C403111C
F60412D8
B4151AE2
F1D50BDF
470DE734
E104C3F2
D4190302
F1231505
DB06081F
10F80DF1
2C0118F1
FDE30AD9
54FE3916
02EBFFF9
6F1AFB27
2631E7D3
35EAD0E6
182FD238
D833E9FE
CE052CDE
FC0505FA
F6FD0FDE
941510FA
F4270419
3700FFE8
E2330BD0
D417EB64
CBC3D0F6
3CF9E4EA
FA19DA41
D8C5F2B4
1FF01CB9
C61014D5
6CD7E516
4ADDEDFD
200802E6
F1093603
FD0307FD
ABE7EA15
274314F3
AE051332
D1F015DC
D9EFDAD8
F111ED26
FA09140E
F0125606
B501E5C7
07FC2CEA
261603D9
21DFDAE4
CAE2D73B
F902040B
03073508
EEEDFF0E
19E009F7
B4132EF0
30151114
D3CC2B1A
02C8E2F6
F2021CFE
253500E7
06F3E241
AC301B1C
E8353304
EC1359D6
B313FCCF
D428DFAB
2030E2F1
FD2ACA1F
29BFD7EF
87F4DFC9
FE23CEE7
65152BD7
0C150DD1
BD191B0B
14F5FFB9
0EEABBEB
983240E6
17033001
ED0AF6D6
D5E52D0C
E073D818
FD2A0E15
F208CEE5
DFEFD1FB
E2293FF8
B6D5EB20
F8F0131A
16C4F91C
ECF5B5E6
DEFC14D3
35EA1CF4
07EB2E06
D3F00B42
10D51100
1F01F545
DAFD1805
DBDCCCFC
CB3313F2
D906F7E0
03EF1613
371D09FA
49D6100D
BBC9F00C
24E71E20
032CF41A
09F83520
F4C4EFE2
2CEC02F9
05E40003
1AE8F614
04DBF7BD
FB3423C6
100915E5
ECF1FDE3
174A06DD
12CADEFB
26C025FD
1CEEF5DE
02D90DFF
08CE060F
2A011016
56F01DC4
E71E1F0B
C700F323
FC1FE925
2F2D4129
F526D025
E42CD7F5
DD343DF2
FD11EAF0
47FE0CC8
E221D109
EB426ADC
2FD71A2D
DF2706F2
25EB1324
DBE30A0F
EC10450D
0CA551F5
DB110D1F
11082E1D
D6F9DAF6
35FC0ADE
0006DCE3
C9F5E2A1
4CE229F0
2CDA104D
F40214F7
EA29D1EC
F2F2F80D
190700E5
D1EDF403
140BD613
30F627D9
DC2401EE
30F0F505
F40E060C
041EE1DF
F7040E20
F100CE00
351101E7
2B1720F1
DE00FAE7
FFFDF9FC
2038F0F8
1C10F000
21FCF0E7
FF342DF1
0EDE052A
F9FD08F8
24D4F30A
F2180E1E
EDF505F4
FA07EEF1
ECEDEEDF
F2F4F623
FADEF42D
08E7E2E1
DC0A0615
FEFA16FB
042D2203
12F9ECE0
16F0010B
FC040803
DD220803
0910FA25
F8180B02
DD06DC01
0AE704DF
0D10070D
03EAF1FA
D314ABE8
FD1F1A17
0CCA10FE
E7FCF207
1B0ADD17
F9F2DCF4
15D7F717
B1060A4E
02075710
F0F91010
04FBF504
3024C6F4
E123F6F7
090DF500
08F41606
0BEEEC07
F40DEAFA
E4E418E6
0FFE0317
E5FBE5DA
0E05EBED
D811FD33
0500FFC6
0114E507
DCD622D2
0E1FBA07
6311E1E1
13F3F51E
F6F71BFE
22240813
0EF1E602
3B100AF6
35EAE3FD
15012AFB
0EFA21F6
1DDF0BC7
061F27FA
FDEC0511
040B2EDB
E1FF17FE
420108F5
FABAEF0D
DB0C2AD4
DA18C22D
063D3512
21DBF0F2
E0F8DBE8
FEFDDF34
0B02F9FA
0A2BF410
27EF2EF5
14CFDF18
33FB2D08
68D0C6EB
4812170B
FDE9141E
02EF12EF
013110FF
D51616FD
040E1F0A
BFFABD04
EBE605FA
450CE5DF
EE23F211
C70A2C2E
F8D60CC4
3E3DDD15
F401F5F8
C7ED05EC
0C0B0BDE
4AE2FAF9
FF181DBB
FA28EB0C
27EA1322
FBFA09FE
0D20D9FE
E3111CFD
F7E5F605
72F80EF2
1D2C0D39
14010437
4677FDF2
E24006FF
E006D8F8
DCFF0FE2
D3EE0BBD
1BC531DF
190E28D9
EF0FFB0D
B511F725
19CB14D8
0B26F2DD
C2E801F7
0FC52D12
0BF9E7FC
D8F10304
0D16E630
08FAFEBA
2088C6DE
3FDE26BF
E2F13404
1DCB1C05
C81FD7EE
37EBD412
27241B04
05F32F3A
3EF81AE1
4705FC3C
36162AF5
D1E1F233
FA480CA3
C532D5D2
2DF14F09
2EF403B2
1CB1D008
161F020A
1307F549
480EE50B
1001F621
F90E33FB
36454423
1023F6A2
8323E8FD
D849C7E4
7ED7F3F7
01EC1EC2
6BC0391F
D67E0BF8
FF2EE81E
CEC7F3FD
00F2ED31
020128EC
FFFBF0F2
0B171AF9
3B340DCF
D50F0C13
460EF304
C90E1AF8
01131924
10F0E406
0EF1D21C
162E0C0D
DD3EF9F1
FF08D629
FE12FBE9
C6E31724
F815D1F0
0B0FD515
0C9EFA06
CEDD05D7
E50AE310
E4DAF2F7
0CDCF3FE
B60E2ED9
1BDA3218
03D6DAF0
FB12E2ED
382E14E3
D7192EF0
FA79080B
F13607FA
FDF9E0DD
F92329DE
0AF22034
E5F92ED0
46021727
0D1712C7
16F31106
FB23F5D9
F4051211
F9F7FE09
C80CFFC5
37170C10
FEF9F8FE
1A24D9D1
D742F205
0511E1F1
E224FE21
07110DFC
0000F2F8
03E6FE09
112644DF
06ED07D6
01043271
F3F6D813
0726B5E7
0506FD00
08EFFAE9
EB29FB0A
20D1E0DA
CEDA4A95
F8CDCBBE
232D0C21
EC18F309
31F510D1
FDF6F205
1CF0EB06
F5E7F7F4
2504F7E3
03E1E60F
0FEEF6F2
E603FD07
01010403
0C03DDAD
0C18F3F1
F6E1EF1C
D8FA502E
1907F1D6
EFDAE4FF
190CDEFF
D90DF9DA
DC291224
2BEAF3ED
D5123606
06A7DD3B
29F60BE2
DEE4AB01
0165E101
2D1849E8
08CDDFC1
C32B04EF
E5E820F0
F128F019
08F1252B
DCF1DD14
01FEEC1B
B5E2D311
1C2B08FE
710401D3
3B40E62A
ED111109
C3FEFA13
10F5B336
052BF70F
91F9CABF
C2041C36
ECFBD932
C2EDD3E0
D525FF16
1706C6D3
FFF3F818
D33CB902
03063510
0DFEFD24
F81AFA20
F9E0CD18
BF08FF05
EE19F816
29102213
C421EDF5
C2F515EC
04230F07
14091705
261E0FFC
400AF704
1420000B
D9F50CDA
1C050225
28FFFDEC
EA2E00EB
C50AF4C2
DF05FCFB
F1C4EAD2
EAEF000B
CC08E5F0
2F082FD5
F9DAD520
0DBFF51B
F5D20234
D61EFDDB
020F13F3
23E9F1E5
DA250D15
F1171524
2C13D532
E920E7E8
190A38C3
E70C1C1C
BF12FB01
F9FBF210
0B080EDB

