0B0B1408
40CBDBF7
00011805
E4FCD5FE
3AF8EEE6
0B430807
19070BE8
20DDF900
E216FDB4
E3C8D801
20122B02
0D160905
3EF62F05
FD141806
FBEC02FB
FCEEE001
F0CDFB42
C5EA1C02
DA0DDC06
EC061AFB
01F7C400
F5180C05
1FE1D8FA
08F7E6F9
020A1A13
28E80EFE
EF06BEDE
DC001400
14FA0D2D
DC3116FE
E3BB1F1E
002A1000
F408D2C3
0DDC0108
191F33CD
F230E100
F31DC9D1
E7C815FE
1EF52215
FB22B405
DD360D09
B9D90C04
38F4F809
EFBD0203
C8ECEA44
0B1D1903
FAF20C03
F62009FE
EF1F2AFE
192ABD01
2E08EAE3
E2C2ABF8
5A2334E8
45463E03
2E0418C5
CB22D208
140F562A
B8C8F702
FE20170E
2EDDEBFB
1DF910F4
42E70401
F4090D10
FFF5E9FD
FD071300
E4E7D3FB
1FF61C08
EC19D1FA
04F9F32E
0EEEECF8
570AEB20
0823FDF6
DF17E1DE
0BFC0A01
FD02FE1C
EDEBF300
BA24FDDD
C9B30B02
EEF31E10
CE0118FA
01D701DF
DA3EDF00
F8EE1621
16E6E9FB
DF05F603
E3CDE6FF
00E9DF00
0CF269FE
F7CAB9D2
161ADB02
0BF22E17
FBFBECFC
DFF8F124
D5FDF3F9
F2F2FF18
16142DFD
D7BE1019
0BE99F04
140C0601
0CF50600
0BF9FAD4
F8D71B05
F2D7E6CE
D0FB43F8
12F50ECC
DADCF503
07CD15C1
0C0A0E09
1C0BD21B
1FEA2C0C
0907ED0A
F4FF3004
EFFDDF26
F0E0DB0C
25FE2003
13E15703
0B1213F1
FCDA0FEE
2506EE02
A41CC807
F814F602
041058FE
0819E1FB
27E23608
EAD625CC
DD1913FF
FEECF9F1
FF24D9F8
07066415
20F7EFF2
EEC30915
E0FACE2D
FE110B31
0E13100A
24091415
DB1AEF0D
10EC2605
EC11FBF5
F40F2636
031C0915
C0EC87F4
F2E62BE9
10DF0C07
0FFB0E07
3F1621F3
DB1E0E03
0BFD3439
E1D91515
36ECF7EF
EAE222DF
443EECFC
153E2CFB
F8E7072B
E0151CFA
1A0D3E12
01FDE80A
F4EB99E8
31F941F1
F0E12907
00FBEE1D
19FAEACC
FD100B10
EDEA210B
02E9DCFC
EAEE0328
F31EE718
EE2DD4E5
F9160C12
0F11F0EE
00FA2D13
31EB2C09
2C1EACFB
17290421
42EB0F01
560E22F1
1B2F13E4
2216192E
ED33D922
FAF92512
2603FF0A
F401F4E3
E5190E08
44C0F60E
F500F420
D9FECEE2
EDEE14C9
11004A01
E80A151F
FF0825C7
ACD5E2E6
D60DBC06
21062902
18DB1D0A
1EE2FFDD
CF2263EF
0BF82E1D
F0B209EE
C6CBFD0A
E220CFEC
41102D15
0CDC0918
1CCE011B
FE012FFE
081212E6
E314EE0E
DCFB0DFF
E8202905
F0F75003
0104FF22
2C2C0E13
0C1ABF1E
130DF518
F8FB0007
1D319200
EDD7F3FA
CFD7DD15
F7F31F04
00F2F3FA
EA082405
F70F0CFE
E203FEE5
BFE7440A
FFD4FA0D
0657170D
F20EDAFD
0F100DFD
0623E9E8
FA073104
DF0CF8E5
FDEC0C16
FA15C51D
E9F7E303
D70DC71C
1A050303
CB064DE8
FB09DC03
111914DB
27202F0B
17E71B15
F71D270D
ECEC0CCF
182E3A07
F412E125
25FECD01
E6041000
C317FFF5
052E27DE
F923F106
B3FBBCF3
D254D312
17EE261D
F61FFA02
E6060511
26D5D600
E4152DCC
DF270E10
D7092208
FC1FF804
FEFEF20F
24FBF105
06F01B1A
D31CE8FE
DDD4F800
22160300
BA020023
07E9B000
FED2DCCB
DD1AB607
13FA01EC
1A12F102
12E5DD28
5121E3FE
0EF425E5
F3FBF8FB
550DE106
EDBF4F01
F623ED09
F506FCFF
EEFE16F6
05243400
F4D011DE
DE160DFE
0109DCFA
FE101CFD
DEFD2C11
F83A1EFB
2806E902
FAF14105
EAE00F01
F20EEA02
160FF3FE
3FD2FC05
4B2B1AF6
33E91F04
F60BFEFE
0BE5F0FF
2BEA1F04
2CCFDB02
B912F5FA
FF2CD3FF
CE120403
070FC8FA
E5EF1EEA
061D14FF
D201E516
DC120800
1C1CE61B
0BF6D6FE
283310FB
D5FB1401
01F91FE6
0620C901
EAF7F7DE
1BFC2407
CE13E0F2
EC041E05
0BF301FE
29FF04FE
010A4106
F12C2CFD
0C1F0813
13140305
674F61E5
5A1E03FB
F9E8CCFF
0328EDFD
F911E3D6
2906DA00
092FEF15
0B27FB01
160910D5
2C0818FF
12FB21D8
29E7D307
12CDDAEB
D1F51501
3AECFA3D
40E10502
D1F72B12
D9F6DEFF
0101F40E
D7D7D3FE
020AD401
3543C901
0B2B2114
0A08EDFE
170417D2
DEF02903
EF0A1206
07F91A02
0EEBE8F9
26F81AFE
0208E9E8
F7100EFF
EE15AF21
0A02B2FF
E817120C
21CF0302
E7F3253F
28EA0100
2EFC3BD4
20C7FAFE
26C80AEA
F936EC00
3B170CEA
E305FD02
2F14D94A
F303EC01
EE0108D2
03D059FB
08CFCF24
F730FBFF
FE02EC1D
D8183DFF
0D1BBD1B
120D1BFF
EE00ED22
09E60600
4D0B040A
2AD93800
17C8E3AD
17CE5602
03F9E70D
0AE10CFF
F3DD39F7
02D920FC
3EF722F5
E1EFF801
241E4D24
FCD90900
DCE3E9F9
051D2D01
FAFE0702
F9D81902
F919C104
1F1D3C02
0BF6F1F9
E6FD0402
D7F643D8
BD320EFC
0DF8EE2A
F0FCC8FF
1C20EFE0
0D221BFE
1B1123DA
1F141E00
FF0610F7
DB14FEFB
EECCC0EA
4DD90F04
FD14FEFD
102A45FC
E92C7026
560832FD
31F13F4A
070F0101
EC17CA01
13C2FEFF
EBEAF721
F61D33FE
1B27F849
C4E10800
07FF22F2
E0EEB7FB
0AF62D1B
421001FE
20F8F327
E0FCFC05
24FAD1D0
F2183802
24EB28E3
0C17F603
C2C5DAF2
421EC403
D5FEBA23
25002BFC
FAC3D0D4
FDD03101
04F3F7F5
04FAF600
0302B2BB
2AFD17FB
74D3DA09
12224102
BC200AFB
F7DC5B01
EBE22C01
E8E8D8FF
F2F7FDFB
0704F4F1
E1FEEC27
0EFFE6E2
02F0F1CD
2FEAF1E9
FA100701
E4F11504
19FC1E05
0E16030B
04EAE702
F9E3FBEB
F41002FE
F511F100
01190002
F40CDE01
F7EDF1EB
FAF5FB0A
11F80303
0312EA10
E6110F29
03FC28F4
CEDD02E7
05FBE739
9A12F916
EB1339F1
2CE9F809
FDC3EAF7
EEE0070A
0FEFED0E
3EEFF708
430614ED
00FE02EC
E50E01F5
E6F9150C
0F07EB0C
E704D4D4
10FF342F
D6EDCBF1
E9FFD8FD
1AF9F412
0913FBF9
660AF10A
3EFD6A17
E6DCF9E9
02FBB1E4
1B0FFA17
FCE9451F
E6F7F80E
F1F2F5EA
D506ED5A
0F08EADE
20E20BF0
E51BD0E2
1302081C
0B010505
162D02FE
DFE318FC
0CE7FEF5
2109E6CC
FC092706
EC0DF907
E7F73CC2
DEF4E320
E9CD19E9
E302FC01
172101F6
1AE543FF
06F7091B
1DF00706
FF19D43A
03D642FD
18E9271A
23F92200
FE35F11E
F5F14B00
DBE821F6
10202CF0
18D3FAFF
1F0319FE
E0F628E7
0D02DC00
F5341CED
37002204
0224D04B
21190DFA
F42D3E3A
FB3105FB
FCEB2F0A
EAE00300
18E14803
E8D3C303
0412EBE5
E6F7C8FA
1FE3F1F1
F3D80804
14F11020
D91CD406
311130DC
23D7FAF8
CB180F0D
0FEB10FF
24EB0307
F6F8E9FA
13BE2B0F
15230CF2
02D91417
B92F4DF5
FB01E821
EF0FD7FE
1B1ECFFE
14DCD008
BE17F1EF
2203D003
F0152AF9
1AC930F9
EF0DAC32
02E11403
351511F8
260D0DFE
1722FB2A
D9EF1CFD
FE17F5FF
05E7FCFB
0532F51A
36F1F602
EB0C0C0B
F1E62E07
FE3525E2
17DAFD06
2EF418FD
FEE73408
EBDF4203
F3E2DBF4
031CE2C5
F4F8EE04
0BEFFD09
1820280C
45EDC031
0E3D4B02
0CDE1B42
DCCE0808
B2FA1C21
CAC1D60F
220AC1E8
D3F2CC04
25182E5E
EB1898FB
27D1F9F3
0420B904
170B1FF6
3C2B290D
17F44CF1
1AEE1205
2D3011F8
F30810FF
060DCBFC
FED30004
CEE701EB
00051FFE
2F1B2007
0B223303
211A14E7
1AD3EE00
F6D9BBF2
E8F2E8F2
19D2F806
1DFA23FD
00DE01FD
09FD160A
DC01E2EF
E1E8FE02
1109FBE3
1ECD3DFE
36F60C05
C8EA0203
D0E7182A
F9262CF7
FC10F60D
2FE404FA
5D17BDD0
E421C500
26D6E51E
F8193707
DA074525
E4C002FF
E3EE59E5
D3181B06
D2DB17CA
DCCDF50C
111E22D2
E1ED1500
0B10FF2B
E60813FA
14FEDAF9
EDFCD50A
1A06F1E6
15F84BC2
2CEBF1DB
FB15F1F3
02130FED
F80F0B17
0C09FF09
01E9070A
F50150BF
E1C8C5EE
17F6F80B
0DF8C4E8
F1EEF1EA
FD0F1B01
0EF9D613
F2DF2A17
C8F706D9
1A02F415
ED19E627
CE6BE7E1
07080504
C23619BD
16F0A8E6
ECFAD90C
EA05EFEC
EB0D13F2
FBE7BB1A
07F7DA0E
FB0CF440
C7140526
F81F0EE8
F90EBDFC
0BF00BF4
E02FFD1A
18F4F542
F0ECF915
DD1319D6
02CFE778
D8F7E518
FE021E0E
1740B7FF
0E16FB0F
F1FB00FC
EBFCFE27
1BF32901
F60FEF01
1611EDFC
F1ECE303
F9DDEBD5
10F610F7
DE271FED
F62CDF15
E00ADF1B
F2CD1F1D
1C201F07
FE07F0F8
E2CEFCF4
F9EDF20C
18FBCD04
46FEF306
0CF5349B
0C0D0BE9
F5CA0A25
2A04F4F2
12FE0EE9
0FDAC6F0
E6CF9EEA
D414BC38
18011021
FD01DE0A
2B17470A
C6412102
291612D3
F4F61F04
1C080004
E8EDD502
D0E3F13B
24C1242D
E3C2F6F3
04291EE1
ECFB2FFD
DEE9F0D8
E3FFD9F1
B3CFD23C
18FFCF1B
F9292CE3
C6CBE530
BAEBCFCC
3FEE12ED
D62C12EF
E1E2DF19
FE37FD1F
D5E31708
00E8D8E3
02D9EAED
31174E44
08041AEF
231AF718
2AFC0600
F6F0E8FB
1EE0122C
08F5D610
2FFE21E9
203728E3
1709C42D
0C2050E9
B5042918
F7BF0CF0
F117741B
0BDB261B
0D11E834
01C6F0CE
DE05F82B
EE29FC1E
08034DFB
40C916EC
FCD6F003
E018EFF3
0606CCDC
0729FAF8
30E73A0C
3E2731E8
54FD25D3
CDE5FD09

