D62BCAE4
0D012511
13FAE9CC
F4F43209
3717F0F3
17BAEBDA
DA084231
2138FC30
B3D91C04
EE371539
B70DEECC
2BF7E6CC
12D3E5F8
F1D707E4
23EDB8F3
F1091B36
F2BDDF40
EBE3CC0C
D203F05C
06DE4C27
04E0100A
202417CB
19FFC623
E00DF516
F2FFD006
FE02FAFB
3824D1EF
F220FF11
1410FADF
1D1E072F
D9D90BCA
1FEF1D2A
D611FAAA
FD02FCE6
40FB28B3
EFDEE61B
D3EB0A13
0A05FE2F
C6FB21F4
FF1AFEDE
C8E6CBFE
6D0A2228
47F6E143
22C5FD1A
DC0BFD03
0F0F30F6
ADED2304
ED23064E
3A21EF35
452339CE
1E0110E5
F0F81532
CA160DEA
29F4F6F4
15C805F6
F6FAECEC
3A2CF717
FB24ACB6
D7E0B408
C61CFA08
E6FBEB0A
E7270F00
D6131AE9
D9EBF636
361F21DB
18D2220C
DC0F2B12
00181305
EE00E3F7
010CE033
13E723F4
0B11DC1D
50C912CD
11F60AF5
04FAE51F
15D61001
37F21208
35F01016
F2EFE30E
1FDD0301
ED00ED02
162E27FF
D0FDE4FB
03BD061E
060C0A0C
12FBE212
22DA09EA
14FAD0C6
F82B2ECB
D0A4F2D2
E000B621
E80BEDEC
EAF52201
E5F3FAF0
1645EB23
1011E70E
0D03FFEC
12FCE617
FEEE11F8
1A4AFCEF
0C21F0E3
12FF20FB
0410FE00
021EFEE4
CE1C0738
F7F13102
04F7E6FF
2B00162C
48CFCC19
F3E21518
100CFE10
EDE7F607
0B07E0D0
13371507
4CDFD420
2739280E
2D002B14
E9BB071C
4D011529
E8EEF809
0726FBFA
EAE81619
16FFE9CE
040F0EFC
20E80710
01FE1209
55E2C539
22FBC523
6A1FFCCD
F3E3E8E5
1E02070A
DACAEFCE
FE06FADC
CFF2E9FB
08FAF5E1
0B0B0302
D8E12AD4
CC01D2FA
07070FC8
19143240
3BD8FBE1
07200513
F90710FF
0C0CEC09
CD3A3B15
F9CC4FFC
F70C27FD
E9DBE6FE
014FDA3D
E1DF1F13
F7F4FC17
CD1CFFFB
7E0CFF0E
DEF6F21F
30F513E7
05E7EAF4
7BDCCBE3
03071A08
F7FBEC22
E3F1E345
E4E0F40D
E3E228FA
220021EC
09EA080F
33E214CE
EFEBB008
9FCDEAD0
D53821FA
F91EE6FC
23F1F6DD
41ECC9E8
EA583B15
CA25E900
032D4907
9ADDD902
0D3BE5EC
3FB943F6
DB01DAE2
412DFC25
17041EC1
08FCD218
07030225
2305FD1F
C0D0E216
101F06D3
F6F91AFB
54DD29F4
D9FA09F2
140ED001
DFCDE0EB
F4C4D1EB
1E2E37F3
DDF253BF
34FEE6B7
D7BEDFFB
15150A0A
21052EC5
4C04CFE8
200202B2
15051CF6
1EFAC60A
2CB2E5D7
C9DFDC2F
F1CA09F6
F3F8D4FE
D2B011F4
C00F0DEF
D607EA0B
0E09EFEF
351730EE
F91AEED3
02B81AD5
620929F8
1CD0DBDB
3111FE05
0112CCFD
2AFB3C39
0C1E2B06
E1DDDE2E
D90824F2
01E11AFB
0A222718
EE07C1D3
0611F702
D1FA1924
C51222E8
0813063F
F90417EA
08FD54FD
FEE0FFDC
FCF3DED2
040BF02E
D514F0DE
ECF3B001
F51207FD
040EE901
BDD1EB14
0F22DAEC
C7F6DFF4
FC060013
AEF8F1F7
F429210F
F4070F08
030014E7
0A32CBE0
1E1410E2
12DB2211
42304FE5
48F1FE00
180E05C8
7506F91D
E6FE3620
15CEE10A
0C0817FB
28EC1306
192631D0
3A121006
0FEF430A
E8FA00E8
0BF812DD
F3FBF932
381D1109
E31E060B
032102EB
111B2DAE
F620FCF5
06E7F2C9
11E50B01
FD14E6EF
F1091FF6
0D0ABAFF
FE2FF019
07D4D009
02FA26EB
0C0138F9
0B252AEF
2BF105CD
E20830F3
E8F1D816
F7FFE5F7
18DA1E0E
F8F4FDE7
B712FC01
DBCE1F0D
15E316F6
D8F806F3
16ED151D
1E2FD4EA
2BF71F01
09FFF800
032B1618
16070FFB
DFFA14C6
1A03D33F
E5F8071B
051423EA
FA08EA0C
D61334F7
FD1DE8ED
E10E2D06
EBEE1316
FE160B04
F331DE24
FBDBD7FF
F3EC2F2D
2C32EDEB
E2EFE1E9
06F0FB0C
03141111
16FCE300
1305170B
03012215
D712F0E9
1AF2D6DE
F90331D8
331C11E4
F008D3EE
E50A32FC
F4E70839
EDF1FD0E
DEE1FFF3
FC0BFF04
2AE823DD
17D002D5
EFDC3B16
EA1101B8
1A1B47EC
1DD5F603
10001FF0
0BF0DCEA
E6100AFC
DEFCEE29
D2EE3402
0DEB04B4
2915100F
CDF00007
B4DD041E
F8331BDA
EA020FEE
C514FDFE
1824EEFF
25F6EFFB
B7FDECAC
30130325
FDF22F3A
20061F3B
37D5DFE9
B6D506F3
FB05190A
01111E1F
1704EC26
3D260D02
E4F40805
0CF41D11
00E92F14
49143612
E9F30BFD
DEFEE811
E616E1F1
E719C0E0
4B0432C1
F6E61B48
E51E100C
07FAF7ED
0B17D2ED
49F7E5FA
0FF30D1A
2120021D
E6E803F9
151B1B22
FA50E0D2
CA0AE936
36F72FF0
E0C5F41D
0F11F301
2D12090D
200DB7F1
06D9FDE5
D0F6E7EA
1BABE6F3
D40D2552
140B2DCF
20FF0C13
1ED003E6
F62F1E4F
FFEA58DF
D9F7E8E4
0F09D10C
BC08CFAF
CAEDCCDC
E149E028
27C8E2E9
D4F3B905
EA1F3538
E9E68D22
FB0DFAEC
2CFA1CF8
DB14FD0A
1FED2F10
E8F2F320
51E1F356
050FEDCE
F8F9E91F
0F20F601
E02F274D
D7D901FC
07E8F3D3
1A131FF2
20ED2F00
26D207F1
5209CAD1
EE0BDFC7
C71BDFFA
17203050
223BFAA9
F02F09FE
F4F1E918
0513D718
06EFA40F
160E0F01
37D020F6
27F30FF9
C0E6F6FB
EA260E09
FF2BEEFC
0D200BDF
FD1C130B
171A04ED
D12C0D01
ED22FEE0
58FB0139
FECF1EE8
FFE41510
FF1527F6
0BE3F0AC
DF33CC07
B5000FE1
35B52120
F1F823F3
14D6D430
0209DDAF
04060A36
EA4407C1
07D9E710
19FAE80B
0A133428
1C11E505
29DC0D2F
110B07DC
0E05F8FA
C21FFAE1
BCFE1326
030906C2
08F3CCFA
0508F5FF
1C07EFF2
0EE81607
FBF0062B
20F6ECF6
F1F0F71B
0004131E
F81DFC13
F6FE20EE
0AEDFEF5
0410E9F4
15FCEFFA
04E90116
E3060623
FFF70511
3F062504
201CE7F1
EEED2DCF
00F803CE
1716E01A
C808DE17
261FB3F8
260DFE42
E1DA2409
CF37EC17
0404F028
E003F7F9
040FE308
DF0B0BDC
0904FAFE
1C1210B0
3EFA34F7
0908F7D8
3003D2FD
FB0120EB
F70A0CDA
F1EAF5F8
1DD5FD03
E414F8CC
04F5FEF7
E7F41E0D
FA1BE0DB
F70DFFFC
07F3FE0B
162BCE08
0AE3BDE4
2DF92907
F6FCF21A
3B0B3006
25000B07
E0FE0947
CA58F4E7
F2120737
0DF4C8E2
EBFBE32A
E901FD0E
281511B7
16FCCA06
D4191CE5
18F1F0FD
C4F3D6F8
F9EB08EB
ED041C08
FA2121FF
2000D760
010215F2
0C08333F
0111C60C
1714FB30
000DE9E2
D50F11DF
0BE4CB00
F328E35B
FBD31E15
D30C2300
1BF4050F
2DE9E0D2
1F11FA0F
0D0DE6DE
E3D7DDFA
ADD4EE0F
01C436FD
CB100BE2
5DFEECFA
1501F4EA
0F26EB01
D4E9D9DD
1714DE04
0C08F8F8
D90010C9
E9E905EA
4DE21114
F105EF11
D1C90BD1
12EDFB20
1E02D6FB
DF201204
DB17FA26
DD1733E5
D8AF4128
CDE4D3C4
59FB1F08
D0FB0AFB
12F5E003
45F2F407
0501F7EF
0CF3E8D9
E5E601DE
6708E4BE
0D1F22E8
DB08CE0C
F80419E9
C9F2F208
E6E4E811
06E5E123
F4D20F1E
2614061C
E0FB2C10
24F4F102
E001F714
28FFDC03
C6EF6206
BA0000F0
FB19D613
CFB6B703
FA402740
E2DD2E54
17F0DEFC
07130B33
FB5E2ACD
F323D1D2
160F011A
1F2F211E
2B99A215
35FC09C2
D614CED5
14E636CB
F9C2E5CB
F2FF0E9C
0500E810
08251BC8
4220A218
1C081816
FA23E9E7
D503F808
140DE115
E22BD3D9
042A2B1A
0300F3E6
2EFB1FE5
CD0CEDDD
1E5EFB02
C709D03D
1A23F451
FF1F0DFD
2CDA00DB
1BD133E9
F2F6E817
4CF51026
F9E2E7FA
0BDF2F0A
02E0F4E4
E80D06B6
0AD2C7EC
2A19E627
F2F0F213
57F8BD0E
DFEE0725
14BE08D0
1EE7BD1D
611DDABB
F4DB0F18
C70CE7B9
F7F5FDE4
02EE0507
0F29FA4F
10311BD0
F90819C0
27D324D7
B0541008
B3F320F7
1511FEF3
0AD1CE06
FC0B055C
572DBD16
021634FC
15352701
1214E8F4
04111D32
FEF5EEFE
1C15FBD8
E4CDD9F1
1531FAE8
09CFFAEA
E8FA0FD5
02F705FD
FEDD1BEF
1EF31608
2B05F705
D1DB1649
6FD21D0A
FAE8F822
D82807E4
F309E4F9
15FCFD0F
FFF91BF1
011F0CF1
DEF20CD3
2ED3F022
180DC935
0AD3B3F1
EB19FC29
F60D0908
04EAC512
F606FB12
E5F539FA
11D7ADC2
0BD61742
FE16D5D9
B01ECF10
F8E715FC
FC02D929
DD2CE4EC
3A181809
020AD6F1
F6C2E748
D3150EF9
C91A0311
F5FCFA29
F51B0B0B
08D6D2D4
1128D220
3627D211
C8ED254E
0014D204
FEF4EF0F
210C242D
FF1D2408
F9EF0C03
050212F5
EA2212D1
03FD01F4
11E0DE3D
0B2A08BF
FB24F61D
0A1B0BF8
00250F15
D80417EB
2FD4D100
02FFF40D
4ADD234A
CAE72B49
AA0D0904
350F28DD
FB0BF333
3E360212
EEED140E
32DF0908
21F5EFBE
FFC3DBD6
21F10EF2
18F3E5FC
333115FD
DB12F9C1
1701E4DF
F809EE03
1E26F4D4
EFF801EB
645A0C27
E00AF5F4
D817FB1B
F403F609
FCEB131B
0F012735
033009EF
FEE70EF3
EAFB3A08
FF3927E9
341CFEF5
04EE04DC
54E208ED
E12148D4
380207E7
0B082F25
EBF8F227
1709FA0F
C31CEDE3
FE0FE9F5
FE010320
220A0AE5
01232ECF
DBF619F5
C315F5F7
0211F603
1CFFDF27
4CAC2822
F1FFED30
C32C1E02
E70304F7
E62215FC
B309D3EC
470EFB16
0EF623F7
E1051F28
C00D050B
F3D61CFA
E5F2EDF3
1F081316
06EEF9C1
EDFBE2F4
D7F7C5F2
2B0DE2FB
D41F0AEF
0EDBCA05

