BCC4E771
0410C9D1
F7F01CC5
11132104
0FE00518
DB0FB3DE
CC1801E5
EFF9DAF7
05D1B0FC
1B0901BB
FA23081B
FFECF32A
DA1705E6
F122DEEC
CAF9D6FA
1CD908F7
10FF0D7E
EAF4DAFC
F9230BDF
1FC915CE
F43CEA0E
2D240D0F
1EDFD91A
29ECF2C9
EDB31B34
24BAFA08
B71BC8E2
EBC02E18
EE03F702
261919E2
02DE610B
154BFD81
25D5D607
CECDFD17
EFDEE635
DDC12002
E6493AE4
C00BE06F
0B20F0EB
13AFFE21
1EFBFF46
1FE8D8DE
142BFFAE
15E22FC0
AFD0FAFD
22D0E2DD
FCCCEC11
123CFC40
EF06F9FE
070CF70F
F54DFBCD
E20D0401
FBF50EF5
01E3192F
E914FED0
F2250510
C024F2D7
E3FBC30B
30E5E651
3613F9ED
D74414B7
E7F310FD
1DCCF69D
1DDC0D60
BBFEF315
CEE7110B
EEF5F41F
EBF0E918
F112D7D3
01B70832
E906D9D8
2B0B0DD6
E2A201CC
08F9370D
1818D3EF
EBF43439
36140220
F608FA16
2A1EF603
F013D9E2
B429F32D
01092CF8
D9F8C528
FAC62D2F
F6BADB2D
E4F4B5F6
D11F11CB
F9B3D61B
022838F7
DF762934
140CFF65
2BFBDDF6
ADCB0B0D
FE180E0C
2B01EC30
F03BE89F
0516FDF1
21080A0F
DFEDE0B1
0715E0C2
0D25D8A9
ECFFEE11
2E20F516
09F71411
EEC9211E
E7D015B9
2D31EE1C
DDFFE236
1902E80D
15091A0D
C000C751
E6DC52CF
1C180520
101DF9EB
F1DDDF05
F4E8FBCC
2F18EA21
2DE52222
B40505FE
02E8FC31
9DF824E7
13DA00E1
1125DD25
1C161A01
521DFBF0
42FF2414
A3E20F29
090F09E6
27E4E0FF
FBE0F3F3
FBFCF801
EFF0EC0D
D11DFE6D
DDDE41FF
C32ECD32
10CF1373
FC0EE3FC
D8E502DF
0FE014CF
0623E829
FE6825E7
2F27F552
05112BB4
11FDE611
F20C2EFC
C5010B20
DA3127F9
0AF3F609
23F221F5
1D0728CE
FA1B1DFA
09E307D0
0717F91E
FADAD039
12E416E9
1B024AEE
0C16E5E2
0C1D0E17
FC010DF7
190A1013
FE42D4C3
FDA9F641
E6F50BC5
0CE9BC02
0A161112
DCD02815
E808F009
FB01D420
352C2343
2AF2E2C7
0EFDE546
EAEFC2BE
DF4219CC
58090030
0347F80D
FB04E6F7
F8E92CFD
07E80F02
FC033826
0BDAE64F
09F3FB05
20E5F6E3
E635C2CE
3AFCA051
3BFAD9EB
05E7E18F
2BE413FB
120AE505
DFD709B0
F5011E30
09221A0C
02ECDAEB
2100CD0D
15EAF5F2
0F3FEC53
15F408DD
ED0BEBC7
FF2A0222
42EF42E9
FE04DE1A
393CEC07
2E0517DD
02E0DC05
08F8DCF6
DF06170A
ECF1DE34
3B39D947
0FE92724
DC3F381B
1D0E18F8
2E411D10
FCE003EC
01C8F0BC
1E1914C6
FD1CEE15
E40BD8AB
D9FE283F
10BC1C54
11E1F9DC
EE0D2DF0
EDA6FCEB
08D21B0D
021C25FA
161BD32D
C3E3CFC3
0945F123
2808CBC6
262E0EFF
EA1CD4D3
0ACEE30D
EE030725
000F0CFC
E4E82213
F1390E81
0047EC1B
B9FDCEF6
1317DD0B
2700DC21
F3F6F114
2BE50209
FC140CFA
073E0FAA
15FB0912
2DDCED4C
13160404
FD21120A
1BE30016
3822DB2B
EBEF07F9
BA23E309
D5B6BB0D
E2F0EB3E
0A1815F3
EE0BFC13
E5DBE5FE
05DFCF39
F71FE03C
FB070B07
EFF9F700
EA02E9EA
0AF7E6E9
0F1BF1F0
0129FA0D
0BF80DF5
FF2C031F
17C603F3
C00A20F1
060B411F
E4F6FF14
0A33EAF3
F6DF40E0
15CAF4D8
C921EC03
26F5D5CB
07292BD3
1002E707
EEAEE92C
0B0AF9E4
EB1FDFEF
21042E09
1319D401
030A0BEC
E6C7161F
0C0C08DE
ED0B3916
F2F60518
390AFD1C
EB16F013
BA15F244
ED011705
01C81520
0026CEDF
1A0204F6
F504F8F1
100CF1FA
21DD1C26
EEF9EFDC
F306E714
BEE7DB2E
02FF0AFD
01D5F7FA
C9E52313
FFEA09FA
1C04F404
D12CF419
F0FD0008
011026B4
1EFFD9F1
200940F5
2EF509F5
3DEC40F7
0AFE09F0
132C08F6
FFE3F6E3
02FCF7DB
F715DA06
210B05FC
10110CF3
3CECF312
06E1F506
D011F821
18E4F0E1
F42509E7
1E40CDB8
30C5FDE9
F6ED1BD7
DCD3E210
BF151B0F
D11CF518
D8C9F147
2301D525
03EFFDF0
27EAEA15
F509F201
1615EC66
EFCAEC01
D5B13818
FA09EB0A
0305FAFD
00110224
0D03F7DD
E100FBF8
FD6BF2D7
E817DDF0
0DF32823
EFF50DBE
BAF211F0
5D10F1D5
C6161FDA
D900DE2D
220DE7FF
DC2220D5
18E5BD05
B016153D
EE02F403
DFB8DFEC
DC25F11D
E01F0DC2
2110C5D3
1A090D14
FA0B4813
2A56D2B3
27ECECCC
2EF4DDD9
E3E10796
21EC06F6
C6F9ECD5
281DEC07
03ECF41B
F4F90CFE
FAFD18D6
D5293109
E5F3B2F6
1E391E12
D2D320FF
FFBF5E08
EEF82016
EDF837F6
E7F524D8
F8E40BF1
36014601
D4F26C8B
F7E7E4B6
E71AF524
00B5FBE5
71F4F0DD
2ADCD925
E9F7FDFB
E7D025D9
E8EEF301
071DFAE2
F231AC32
45BD02A4
0BE30BF5
EB19F0F4
2ED3F6CE
3911F5F6
F3E1E007
DA0FFBEB
01EDE1D4
ED5B13FD
FAE8F906
312D2CF2
E54351ED
1D040602
E300DBC9
E9E714CD
08D0AEDA
FA32ECF7
1405DF1D
F0EC51D6
F8E4E7F3
EF00D837
03D73100
1300C5F0
19ED12F8
0C25F7BC
F0FD2317
230AF0E1
F91AF2E6
FD47571E
000E06F9
12F63EFF
0AD6DFB7
EB01B2E3
5D5E2DF9
27D1057E
B2D60C1F
F7031CAC
DFC8131A
0DD13227
F90DC526
193004E6
ECD0F423
1CFCFF62
AB11C42E
DF3C1BE1
E4EEECFC
D0DFFAD0
F32B1302
C6ED1E29
3FC7D417
13D80D3A
D5E3061B
DAE90723
FDFC00E3
D7040127
13EAF5E8
ECF2E6CF
21E5D2FA
2817FF02
E1F4F70E
14FE1006
0D06BD07
0043F9CF
152FF0F8
FC261C18
14B4D600
07171DE5
F40115FD
071904DC
EFFFD407
06BCD527
3D251ACD
0A11FCF1
1DFF0FEF
17F413F2
0622EF04
06F7E608
2F19FC09
06EBF216
F2FAF003
FDE7E7F6
C0FB271D
FBF702F2
04E00701
FC0B041B
28031710
F51120FF
E12102E7
F9252AF5
E9E91133
061A0F04
24FA0DF1
2905FFEF
F2091609
342A6801
ECD9E7D9
DC013727
F715DF14
0918FD33
2A06F40F
0906C71B
1E09F2DD
2D24BCB3
FFDA1DCB
0112FBE6
FA0BF905
E43B5C0A
1F18FD3D
FE00F01E
0BF20104
4456FBF4
0831E2D4
0BF6F804
FC2B0615
21D9FA11
0A00E6F3
312932DB
EEF70FDE
39F61105
F1EAF712
EE09F100
FB15D055
0124F510
EC24F8CA
03D8B92C
39C409E8
20F30BE3
16F7FCC6
1EEF05F1
D41721F7
0FD7F733
F0F32226
D70941F9
F8EEBF24
1C084BF4
0510DA1F
19DE01FB
F52E21C6
F3EDD816
04230800
F0EF12FC
E6DEEF14
CF170E06
28033B1E
24F3021E
49282611
B912E0FF
D80B0527
E70552FD
F20DE2EC
26262CE9
EDFC2A0C
D9EE44FE
1013020B
221F0212
0136ECD3
1E27F1DA
E81D1CF3
24F6D8C8
DCF5FB0D
F01E07F8
ECF1FFBF
E2C0ECD7
E1202FCD
23010613
27E8EF24
F1FAD2DA
0E06EBF8
C3D108FD
18F020F5
FEE5BB1B
391E24DB
12F2EFF2
0CF7F7F5
1CCDFBEF
12081C0D
D93609D1
E4F4E032
59F52A09
031A1323
4E33F3E2
E0CBE2FA
FFEC1507
ED0AD317
12B5F720
E105F2D5
D6E0FCF1
1AD5181D
0D27F602
D5DF2412
0209E6E8
0F122A17
0811E003
ED31F6CA
F015EC11
E21002ED
33B4C618
E70318FF
0941F50E
22D1FBE5
F5384DD0
1CEB1A04
D2EA2B1B
37FB3019
07EDFD1D
0F1A0FF0
05E7F0D5
EDDDF1BC
C41B0F26
060BE642
F2310439
F03CDE04
CC012E9A
EFE6F4D2
DBECF7EA
F2EBEEC9
5D2035FA
E2DEE1D3
22DFEDF9
FA1007FC
0C58D01C
FA2414EC
090DF6FF
060CEBCC
50D9E20C
ED53E8FF
0409F4D2
1A22DC02
1F1500D2
DCE7CDEB
23FA21B0
E3DE56F9
F2E908E7
F00DF4E2
17FCFFB7
0A29E233
F7D522DD
2B19F927
E2DA1BCC
15DD4C17
13E97618
10C2F3E2
D5DDC327
0FF6D5D1
18241433
15420EFC
FB15EFE3
BAFD04E0
FEF846EF
04240A02
E9DB0B0B
112501FA
25D505CD
0057F100
F1E2D9C6
08FEADE8
0CF10C0F
162B2CF1
111E13DA
D40DE5FF
E0CDEBD5
F6CF02D5
EC11F0F4
DF260D1B
ECECC10D
20F71AFA
21DA0441
01181719
F9F31A13
3D12FACB
EB26FBF1
290CDE14
11B2FFF3
F015DF09
1B2E1D0C
09020F04
0BF3E214
F8F441BC
FCF5FDEC
F4FCFE17
0EDEF407
FBEA1501
FCE0E209
EA07EA16
54D9EB19
F92658F2
E22020F5
0FF5DC4B
07DFC407
104A06F6
04D801FB
101EBF3B
F5F51A08
1E2209EB
EAF7ECE4
2200CF11
15F919E5
E42C05E4
2110D915
132108F7
04FA69DE
F3B3B224
16F5FEF2
BFDDF21C
D801FBEE
F3F00E0E
1904CA19
EEEDFCF7
292C1DE5
EEE9E523
1B21F0F7
E8D2B624
E4C7DC03
0F2051CF
2C0BD9C8
11FEDE00
13C5F314
E9EF0B3C
07D7E813
3016F0CF
1DC7CB24
E905E2BE
2F031403
1FDED648
CCE3FB4A
13DE0803
0F050518
1A113022
BEC8DF1E
2603291A
30490423
EB13EB25
11251E08
F0D3DF1A
CC182EDC
E1C5F8E3
EF1EEA3A
CBE319E6
DDF4EF33
0CFE0D12
19BFEB1A
010B10C8
F90CD9DC
F52AFCE7
DBC434CE
FCE7F9E9
1712F705
F51BE725
D81BE0E9
1F1C10F7
02EDE7E4
EED319DC
E21FCA08
54B92014
E8E4C1E4
E8E22C00
10030606
1A1002F9
E1EA0223
0506FB01
D3EC3FDA
E2DF0143
141510F4
CE0FEEEC
FF50EDED
16F10D1B
EDFEF71E
E9D0F0FF
48C5F2DC
A4223BF4
EAE8C6F1
20F8F2E2
22CADFEF
15EFE3F5
10C8CAFD
0BE4FCEC

