061217D0
BCED8BB3
16FDD5DB
2B1B07F7
0D253B04
05D7EC3B
3DCE33F8
D0E11FF7
D79FFF68
C5EC11C6
F625ECD9
D83A09FE
C037E121
6C00F23B
D9E6EAEF
29F1F321
C8070D29
371848E6
09DEF029
54074118
17194018
1411C3E3
050A1A37
100BEEEC
091300E1
01F5FEEA
13CCD0EA
4321D3F9
E3B3050F
F2BB1028
F8F3D1CE
261D1BEE
F1E4D702
F6B408AF
0C22B90A
12671600
010BD10F
31EF03E3
D2F4D0F1
1522D515
282C0447
26222227
310EE0E5
C8CEE4E7
1C06D0C2
0ECCFDD2
08EEFA01
301FFA34
FBF7F4FA
0BBFD8CE
17300C12
A71E06E9
062A1F23
111608DE
1619F50D
EEC9F00D
19E715DF
ED21D8FF
12490DF4
E203E3C0
FFDE11EC
01351AF9
19F6CB01
F2181B1B
28F5F016
D62E0182
250825ED
EDD2F202
04FA361E
1AFF1300
DFF1B04F
F5E313DF
18F610EB
0728F418
08FAF8F3
FBE91210
153119E3
EE2C0CF7
0205D306
1AE8210F
15FEA31C
D5DD44DD
20D8FF48
EA03CCF4
1AEA360A
E0210108
FEFA1EFB
2939F4F1
BC0FF7D8
E34F0842
DBFAF71D
2803F4F2
ABE10637
F9DA1221
DDEBFFF5
00F60420
DC01C9ED
D80FFC19
F90BDE23
02233900
F1FA0BE2
2223E9FD
F8E8AF12
F744F4CE
F32CEA0F
C2FAF513
F8D83406
36DBF9E0
16FDF9F0
01D5CE2D
F413D0F2
18090D08
C9EE10EA
F8140B14
273B92F3
CA22C7E2
EAF3DF03
3BEFF7E6
1E1DCA0B
ED08F6FC
03FFE3F1
3502F306
2AEAF704
0204FFF5
1509F72C
F51C0A1D
0A27D625
E7210EF7
10250BE9
DEEAED10
EC491400
D515F4DF
F80A1520
E4F70BDF
05F908E2
1E190C0E
E2F920E8
E6AA00DA
25F30C1F
0AF40A09
81133721
DD001508
E721E5EB
CC04D9BC
F2040919
FB080915
FF33EF24
15130B05
EB42E5FE
57F1C1E1
22F348C6
D4D502D1
021A2AE8
F7AB3CEA
EF1DBCFE
35FDE12D
2FE9E81F
07DF18F3
F4FC4308
F4092C16
D9D9E8DB
0511F624
FF0DFD1B
D01C2012
EC1F0018
0CED23C8
DD1F451B
36EFEBC1
2BCFEEED
F94FFA2F
F001D9C6
D2C507F8
07081D30
22E80C0C
1F0200FB
FEF3E9F0
00EB03F6
2AE418FE
0104F1D5
ABEFD60C
03F53AF3
F53226AE
FFEA0503
16CAF4F3
DEFA3202
01E103FD
D51318F4
1E003202
031D08DE
EF100243
02FE04E0
FDF810F6
DE01E8E7
D8271048
07E7F82C
CF0FEAF2
DFE30A08
F3E937ED
2E0E0435
27F01D56
F4220EF5
E9040340
46EE0215
060A41C7
F0D01910
F6E302E4
0E184044
004402FA
D93C16E1
DDE4D040
F3FEBD23
0D231901
17FE0FCB
1812CE04
0B1DD735
E2180CD4
F33D30F3
2CFC3209
3EA62109
0B20ECF5
291E44FF
281BDB0A
F00FFE1B
13D1EBFE
F8B3FFE4
B86014E8
C001FEF1
35F40E37
F0F90EE7
F21405E2
F8F33216
FEF91522
D8062A16
1B08DD39
D5001BE6
DDCCD324
F3E33CDC
BDF0D90D
DEEB1E00
CB311C22
FC0F1C1D
52F6F7E0
0B10F802
FC1AEECD
91EEED33
08E30906
487EBDAB
0A302C14
1B0812FE
1CEA141C
F42DFE22
4CF51DF6
19000BEF
0CD707DD
FCFA0EFF
D111F4F3
F4F31BEF
4616F7D2
D2EDF80E
2F11DF0C
F33014EE
1C200B0F
0DF5D0DA
2A2324EE
16F9C6C0
0FF9DC0D
E5F1041C
F7330510
EF27FD26
D9062009
2D062BF5
BDFA1504
F52ACCE9
EFE91236
101AFEF1
FA1005E4
1EE1FC07
431B03FE
12F9C319
F1F0FE04
070EE615
DDF01104
F719FCB3
E0FFDD04
1000F91C
EC181BF6
D41013F7
19D5FB1A
ED08DF1F
16FBF1EE
CAFA1C37
1B02ECF5
E407010B
0511C8F5
E8FDF018
EDDB03D6
0217C725
1EF23AFB
FD0BE907
E0EE0519
21F006DA
07FBFDCD
1D0D1BFB
2005E20B
EAE1FA01
F82AFBE7
0710F6F5
F7FAF7DF
270209F9
BEFC0AAE
000B1A07
0607CAD3
F6ECFD1B
23DD1CBE
DE2323EB
25C2401B
FEE30619
F5C4FEC8
0CE8F306
241211F3
181CE9F8
2A0DFA0A
DFEC4BD5
F5FAD5E4
F3FBF904
0E2BF6F4
0CFBD5F4
28FEF1F5
D505C10A
32BC2725
FB40F7CB
EEFAF321
DEA6C7C5
45064AEC
FEFD0C08
E6F006F9
06F8050F
0917D6C7
04EC2621
E3B9DE00
03D6211F
0ACE32F5
04EEE840
15C10913
0F3423D3
E20EFFF6
1613D4ED
1CEF11F1
01FDF2F6
F5ECE506
20140B0A
E70BDF2F
DE2F45F5
D2E007E5
05F21DD4
21F6E608
3CFCE3DE
2F140EF1
F41FF9F9
24F41FF7
DB07F929
04F70EFA
DAFAF20E
25F3EB02
FC09DC3F
ED20FD15
4C2FB6EC
18C9F2AB
05E2FAF6
DA29000F
F609FB1B
130F12FB
F8F011F1
EC1BD7D0
E3E12A11
FBF2020F
1FD8300C
ED000002
15EEF105
1E0100E1
F8C6F2EC
03D1E717
DBEF14F7
EFF21705
FB21321E
B03EEBC1
0605C4F7
B5173DDC
E41517FB
29EF4116
21139032
1612F30A
FCE1EFDB
3A2023D4
F6EE1C21
07EF1AFD
CAC51B36
DE152A1E
5C352E2A
EF15C1DF
1F0C1EC1
C7E7CD2D
11E51A16
0B2C18DC
C8E21CD3
E4AEF606
14111CE1
0CFE1C10
D9F41F1F
E2152732
3F161E2E
00070BE7
EE1C30F5
DCBE0CCA
C7E8091C
E4182800
DBFBB8F1
BBF8F408
181D180D
570ED6FC
11EE1BF0
FD33E219
07D90E0B
12FDFE19
0306E9AC
EF331C37
2DE537BD
27110221
15F6241A
0724F043
F4E61604
E4E1F32E
CFF2D41D
C40BD5D4
E318EF09
D9D11145
12FA2943
E5113B0F
06D6ADF7
0DB707F3
09F3F500
032AED0F
FE271932
C4E20AFE
0C18040B
281828F8
24AE35D5
CAEF1F45
E3FC04FD
0EFCF3EF
2C0417FC
EBF6E5FF
CA037E26
1303353E
00EC13F8
F120F20F
E6F81FE3
F4FDF802
18ECEDF3
0E230CEB
E9EB05FB
08EF0A13
280BF3F6
080005F2
F9F1010B
FDF2FF02
F70916F4
290C14F7
E4F5D31D
C0F7ECF7
F616F501
F80802D9
02039038
D82F1C21
1309F523
F937040C
12E23EF4
C62D37F7
E219EDF7
18C4F831
F1021B00
EFF4000F
EC11FBF4
1507000E
CDFB10FB
C4E8D719
D0ED0EDD
03FDB402
D8E9F803
0100FA11
DBDFF4E4
240CE8FD
F8F12AE6
08F30903
07E1F7DD
1611F5E0
E417EA04
011601F5
3D15E330
021332F2
F3F8FFFF
F1051043
11FDF411
07F4EE0A
32DCF835
DFE3B701
D423082F
F52CC5B4
FAFA24FD
191BDBF9
0F043DEC
44E80323
10F104E6
FA09FDF8
FA03C7FC
B9F80016
D5DE1DD3
CBE72330
DB1B0E10
28240DE7
ACF0FAFB
010BF4E3
B1CBDBF6
37391CF8
CE024014
E207EEF8
02DF2203
FAE0F5E8
17DB1AF9
F51204EB
2609D304
1EE82D05
E9C445B3
43E2031B
1B0EF6F8
EFC3DFC9
F8F2D816
F4EB1001
E81604D2
3F4E31D9
15FFF3DC
D7E4D2F8
EC1132F9
013FE300
20010F0F
F3D9E1D3
F00D09EE
003201EF
29FDEC12
DCEFE807
0B252CFC
E1270C19
0E14BFDE
0F1D1830
C5FA1804
C43C0BE4
EECE29F9
BC2021D4
F0E7F50C
0E16F819
F215EEFD
D6DA15E0
00ECF8E5
1ADEE0DC
310F3E0E
FC142CD9
F2F20AE9
F52C10E3
9BEF08FC
30430A2B
2EFC0F17
050304C8
FAEB1EE3
DBC716F1
100843CC
42EFEAF5
193BC501
13F20EF5
2627F505
0DD2FECE
FB29BFE4
B507212E
C03A00FF
7E1B141A
E1050DF3
EB220815
AD13E827
0720278D
2A2C9F68
61CAF4A4
139E0294
04D24312
D509F2F0
EFE2082F
1AFBEB0B
F0F7364E
E6DA2BFB
F105E336
ED2DC10F
E008E63D
E817F018
24D54224
F707B700
C9250725
01321F2C
2E10EF29
C517E9F1
CC051D00
B7312DEB
B917E72F
BA1B390A
F024FDFA
050C1114
2AB9C64F
3FE52741
F648FC18
15523A37
F5F1CF28
0902D9FD
0101E981
01FE3621
13F3E00A
29BF1FF7
F03CCFE9
F0D9E8FB
1C15F13E
280B35BA
4C2435DB
4F412512
F9331401
E5271317
273A01F0
BBBC0915
A74525FF
3AE7241A
124016FA
EB352FF3
2FDF080C
0AD73AFA
EEF13FE6
D71CF0E4
2FD6FE0F
E317D016
09F724F6
0550E7FD
44D5102A
0544CCFA
511F1FED
F9F4E7F8
FC04EF18
F7161114
0ADA1303
FBE2B9EC
1B1004E2
E047B52F
D6D9381A
E7D6EEF5
26FFE903
08F6F4F2
F1DB04FA
05292BF3
E6074819
F99F281D
D9FFCF1F
1BD1D20E
D416D014
DBD4F9E6
00070804
10EDFF05
2CF1180D
D01303D5
FF02F806
09F9DD2D
C3193EDF
DDF4212B
182BFCF5
08CBE913
E1FFDDC6
2FDDE321
F13A03D8
1D0428EF
01EEFB28
E300F60F
E0EF2A18
E0052D0A
44FCD4B8
CFCF252E
00141EE8
02DEF50B
F5EBF408
F933EF17
CD0E3FDE
FC09FCF4
E3ED06FB
0428FF31
424D12E1
DEEFDEDE
08F51AED
11FEEF18
1F181ACD
06E61F0C
E7002318
F6FF03CE
CEF2E93A
0BFEF90F
02E0C810
E31BF5D4
F410EFFA
ED27071E
FAEFEE11
2821EDD5
3CC31F35
0E1A1BF3
F1DC1D44
CAE8242B
E4190DF2
28F20818
CDE202DD
F6F134FE
01EB140A
BAE520E8
05251EFA
FDF2F6FD
0A3605E9
25EDD901
E5F0F2EF
0CB14724
01FEECCF
F0033BBF
141137E3
FCCDD2BC
C5730D06
0EF53F1D
0416F716
D7DB352C
06340223
00FCFCF7
E4EAFB49
EE091104
0A3CFBD9
202615F9
2008EFDF
0BEEF723
0E24F810
F006EB17
FEEFF60D
0E510213
1B0EF0F9
1F1F3FF9
1FB09BDE
F233D7BC
17021EB4
D11407D5
BC3B0EC0
302404E2
1309231F
C4D0E0F0
04FCE606
08CBF22F
ED3719BC
19E8D0FA
DEFAEB2F
EF150920
08E1050F
F42A21F2
2A330F06
0CEEEF25
0406F0D8

