152AF9EF
1E11CFCF
BC50F100
28FDD531
FE301606
32B7D530
1C1AF0F8
F052E912
02DF022C
4416D008
F63201EA
EE1CEFF2
2DF0EE1E
1CD0FCEC
0C1C0423
FDA2EC28
CD1CE90A
16953536
E216E103
3FEDDFE1
E80F0AE7
0E07E9FE
18ACFDEC
DDC61448
EB0408EB
11C81752
E5FF0C10
14A7FA14
221B0316
CC31EAC2
0518E809
FB0CF6FA
44DC01D0
E424440F
040802D3
F82D81D2
0A3EFBE6
21DD48D7
14AA0E08
F30B1CFC
3C33F52C
FC3EA158
0B3E0BE5
F0FBDD37
F527F7D5
DC2FEB23
08E4DD0F
24E21529
19EA04E1
0EFEAD35
E4FC1C3A
DED92958
DAFC2EE3
E0F1EABB
DC45F8E6
1C083DF9
2EDA08C2
FBE6351A
5305FAFB
13C93203
FD450CC6
2CC9F617
0CFA11DE
C5D50703
C4C406F7
F708F4E0
F7DA04E1
E8F60C0F
C81FFB14
09CE144B
37050B29
0A1B14ED
0BE815E4
D4C75413
1206E9F5
36020BDB
EAC2E71E
0C05E614
2E190205
FFD8373C
000211E9
E80D493C
0D110FFB
150E00A5
101BFEE5
E745F40A
56ECFC43
EF0B0208
C9C1F305
F830FD0C
D62AF5C1
02213505
0904EE09
F1DA11E3
DB170C16
FAF73724
2336F41D
E2E40213
02240CFD
0000261C
BFC9041B
EAF0E0E8
C4B20439
E403FA09
03E8FBF7
FEDC1B14
100010FE
0AC2F2F5
D3FC19D7
0ED31AFC
0FC610CD
E14ECFC8
AF2C11F8
07EC0D10
1D0BF313
DA1C0E20
FD01EC07
ED2B1414
16FB1FE8
F922040B
3411F7C6
0BD4FED4
001E010B
060DB244
E2D92F09
DCF0A9CF
40E50001
F51004DD
DC200B04
FAD824CE
E7FDFDFD
D91616FC
1A0DF008
392AE53C
F01428B7
E71D29A7
13D6F5EB
1AE80911
DD1BF62F
130EEDF3
C9D1E1F9
0CE1D12F
CEC215E0
2F2FE0BF
F6F018EC
234625C7
33BDD801
FFDEF7CE
F42223EE
DFD3EBF5
2B25FEF7
E7310CF2
29B8EAF3
11013A74
D8DC10F0
D417FCDB
1A03101B
F106FF05
17070D11
FF10E3CE
22420D37
20F70011
F7B20E07
F7E0FAE3
0730ECFF
22DEDB09
E32E15DA
D3FC1AB3
F5F4FFF9
381F1746
FE19F4DD
07FB0BC5
F4E3242B
51101D8C
12F3F1D0
D72CE809
DFEDFBDF
26DC0DFA
E34CFC04
EDFEF8EF
3C0DE417
D7E1FF3A
D6AD09E3
DB032A20
EA290D2B
0CC0E8B9
DD2702B2
CBFDEFE3
08DCFB26
EF451AE4
FCFFF509
2CF5D616
0424E008
E0282E4B
F617FE35
32170AD0
E7131704
DBF90A2C
1416040A
070DE783
24EFEF17
DC05FBE9
FBEC09E4
02480406
EC0107F7
B8FC14E3
54FBF7F6
EF214427
B7DF0719
E33CD38E
F8F1EDE6
181DEED4
CDD4ED48
212AD2F3
52D718D9
FC322703
CF260144
DD0CEC65
03CEE51E
31272AEE
DE01F211
39EC0333
E10D0FFF
FCF01329
CBEC01FF
2704E4DC
EAC5E32F
C42EF5A5
DD0D10F4
0D03DC22
E5F71D10
0E04F7DD
E60707E7
DEF4EED6
EAF0FB00
06FEDA07
BB00160C
08E8D281
25F4E204
B8471642
2CF20030
15E417F5
00D90018
FC1213DD
2FE8132B
0DF5DBE3
6114DE16
DC40EDDF
09F90F24
1F5616FB
10CCE3FC
F02DC606
12F71DFE
F814D900
1B0CE91B
F8161F02
FB201232
0F351AF4
E9FD06DF
F40CD81E
191E12C4
F02D02D4
F0F4F624
E60DEE2C
FBF4ECD0
102D1511
D21F18EF
FFF9CE06
000AF911
D906C0F6
F90E0F31
0F1AE015
23EBD810
1436EDD8
0608D80E
FD36F012
1EFB17CB
FC3208D9
21001E03
031A32D9
C81701CC
332DFE13
32F91B0D
05D7E53D
20F4FBEB
0D18F43D
17F5FEF5
F3161FCF
FD1712D3
F8E7F0F0
2E31F423
06080E2A
B1F7E832
F90DEBF2
2626E5EF
040139F5
134112B9
D625DE0A
111B0616
F0EBDC02
4EC5F21A
E4A0EC3B
1D0A1FD7
07EAE6EF
03D60511
F822E2F9
3A04F315
CD0BFFFF
2820F525
0DFC0C1D
E738F5E8
F1160B31
F5E11DE2
DF1021E8
E94FFA0A
F5021C00
3D100DEE
1EEF010D
D91C0AFD
E72FF700
20FB09F1
2BF1177B
12CB1CE9
16EB0BDF
C3BDEA29
15E7D803
08E2D52F
0BFC388C
9F112017
F543F21F
E0F5F11E
E4D7EE24
03FE0B08
F014FCD2
E4F11510
3FF026B7
BFF5D50C
00B9D0B9
E5E2F9FF
FFF90F53
13030BF5
F60B0FFE
0EFB16ED
5A19E633
A7330119
270117EB
EA260515
EDFA0F24
040A0A3E
09F2CB2C
DB24E2FF
11D7FE16
E52C061F
E9F5DCFF
D107070C
02EFD1FB
02081ED7
1DE2DB3F
E824D6E3
19E70AD8
E08B2BF0
44FAC210
38EDD2F1
FB041B22
D70602E1
BAF000C6
1738ECEB
2D40CA7E
D6DA04F6
20EB0D0E
100D242D
04FEC830
1D2B0301
31E7E4C4
ECE4FBFB
1D2A3005
1CEB28CE
E3FD227E
1E1BD30B
E9460FAC
35EFF9E7
E9292E06
CBED0FD0
3725EBFC
F619244C
15D117EE
CF000901
E1724729
1BFAFB1D
EAD1E8D4
0D0FF5CA
D62EFC23
AF11E6CC
F9E61AD1
16E80B01
F608E80C
CCD1F21B
28113409
CAF6EA29
1D18ED23
F9FD0105
DB1EF319
351F1A07
7E09F1F9
34EDFDF0
26D91539
D4BEDBD1
4239FDFD
26F2E90B
FD48EBED
EAD107FB
E40AE5C3
BFF9F4FF
2A1F20C6
EAF90B52
FA130432
D5F01510
FED4DEC7
E5CD1D10
EC2A0D2E
F7FC09F6
07C2F3EE
4727F209
330217DE
06D23405
18F017FD
5E0017E5
01F7F618
23E72FD2
F7C00610
099CF9F8
2F261F19
4639F215
020CE3D0
DDCB100D
610ED3DC
F94E03F3
EFF02A35
FE24F906
03063ACC
22140A0D
46F1E6F6
E808F3FA
F61606F4
2DFBFECD
EBDC0C0F
CF2105D8
E2EBD5E8
EBFC0CD1
59FE4408
DF05FC18
1BEB0320
2AD6FE00
0A0D3DE1
160FD1E8
FFD7FA61
FC13FEDC
F5E8000A
FE1D0CF9
F61CF90E
B9C02E29
0BF3D146
F1CA1107
0A4E2BF0
0A280D0A
1CF511F3
01EDE3FC
FD4F1CCE
1C18F91A
05032EF1
EB1B0CF7
0FEBDAEF
0DB40003
0C082001
170DFD02
FFF7052F
26FCF001
F51825F6
13D1181D
16F2001F
171F0C1C
F40902BE
E3F0FC10
F904F7C4
F0F9032F
12E20DED
F8F525C9
3E1B12F1
20F7EBEC
CA0C01F6
151E0F19
120CFCDB
092DF906
FBE509E4
3015F109
EA30F1FC
131EE806
0AE2061B
E11BFCF9
132FF039
0515F4F7
FA0D0407
F5F81D89
D804CBD2
F9E7FA03
08F4D8FE
FEFB17E8
00FD1003
3B2715FA
FAFD044F
E2E91DCD
D31E0422
F50FF1E8
03A0C80D
F2DFF216
012DF8FF
2EE8EF24
050357C5
2503F12B
240E1012
16D21011
41E428CE
EBD4F92A
F6EBEBE7
130ECAFB
E5EAEED3
F702E00C
25F40317
DC201503
01F0F4F8
E8FE0427
1FF207E7
F7FBEC14
F9E4EAD3
CB05001F
1C28EEDF
D6DA03E1
E702D3F5
EB18E7E9
1BCCD5D7
06D7D707
F60BEA08
04FCE80A
EEE8D920
1EF4FC1D
E318E70F
28EB10ED
C8140E1A
E61C1327
DB46D407
AACEED18
CF11EFEF
BFE93505
44EFF040
F91C1BFC
EFBE0AD8
0AE10F04
21DCD5D0
CAF12612
F39FDB28
F50710D4
0ED83E08
2009FFEB
F51D1FF3
0212EC17
DD11FDC8
0A42F2F8
E6110D17
F11E0CFB
C6DFFA01
EA10F93C
16DF1CCC
1FC00DEC
02E32211
D336072B
E6EEFAED
2B5612F9
F7C50CF6
E3CCFF2C
EE373EE9
0710DC0C
E8F3BEDF
25DE08BF
00F5ED45
FDFFEA05
F345CB00
2728E826
EF0BD2B4
F8664BD2
E616F71A
FB19E32C
084008F3
0FD806E4
1003DCE2
04272DC9
F314EB41
216237C4
96FB975A
2AE1F521
10ECE1FF
0C743ED3
F9F53877
DFFFC9C5
CA15570F
1024EB04
3AF0C17A
0DA3E62B
24E4EFEE
00DBE904
E1FFC7FF
12F4ED1F
0FFE3924
DD0808F5
0A073286
2DB9F00B
1EB21F6F
F20AFF06
D114F10E
05D3E0CA
FA2B08E8
FACD00FE
F82B502F
0CA11243
D52BC933
DAB8090A
E923BB45
28F3C1FF
87E3F3D4
22DF1129
0BDAC3CF
D5CBB4D0
F716C9F9
FDF5FEC4
5B08E26C
F6DEFE11
E436D617
F51FDFFA
03F10BC6
141DF9E7
E0E7C51E
F047EACB
D23A01E5
220E13F7
DF0B2FDA
0812190E
FDF319AD
09F4ECED
EB2ABD58
E7ECFE03
DFD802F0
F700EEDF
1727A317
49F2FEB4
0E11EDF3
DC0005ED
E6EEE30D
ECF8FB07
F817E018
41ECF21D
C3E1A91F
1AFD1608
111322D6
120E0CCF
F839DEB9
2FFE1104
0C05265C
E6230705
ED0D14FA
EF25F9FC
07C90EE6
F71D0308
05FAE421
E71CFAC8
FCFFF101
1DFFEE15
E9EAF75C
AB02EF42
0604E104
022501CA
D2C64370
CA011F12
15D8DD1E
FA281026
E8C7FCCA
2E2507DE
FBD507B3
18F4E63E
DAF6CA12
DB290C02
1205F781
E018F6DB
E41CAA02
F9CE0F07
2C1A09C3
1008FE10
37093ADF
F7F9F706
0AF7FB30
0837F2EB
0700D900
F1E90CBB
1B2128BD
CDE3FFFC
3905E88D
03A3C210
25EC2F28
11FFD6F0
D5090AF4
1B0A6BF7
190D0EE5
CAD82163
DCDB11B9
09EAF7F6
0B102BFE
F907D6E9
F03F2B37
DDB91CF3
1C071CD2
11FAE7F6
B8CDD71B
1302CCFB
E72C062E
FC172CF4
43EEEF17
D117F5F2
D9FA18DF
F0E42612
F7DF20E6
E0BB2E22
0508CCF1
2D232904
1A2DF7FB
43BBFB22
EEDCDFD8
0BF32D1F
320EE0F5
F8B5E01D
33D0F646
EC105009
D2264225
27E541FE
2B25210C
1BF46FF1
050803D8
CCFC7DD7
2701E61A
EFD1DA57
0619EC18
3307CDF3
1BFAF329
0FF8F5E5
0822FD0F
11C418C6
04C4D8D1
0F28F010
DD253404
2E4B27C3
D34D05F3
EB223A26
18D43719
13EDCEE3
FDF5392C
F3140D10
2A0F321F
09F77EE8
F2F9CC28
DD0C69F7
FB1329D8

