E2E4DA3A
54E813DE
21EA3421
CFDE1A1B
FC011540
1F1625F1
2FF52D26
F9DDF70E
BA2436A4
08011BCC
EC18DCFB
F428FADE
13BAE5E9
183235FA
08F41504
F4EDFB25
DF12E33F
35FEDEF4
CEDFF3C8
9FDA2C18
C7FAF5CD
1B03E7FE
2008D6E2
54421A1F
E101DC03
0414FE15
ECECF8FE
D20BE81C
AEE3FDE8
32E3161C
B9F2F4E1
07FEF6E7
AC0E46E9
C11F2CF6
0616D9C2
2C2222D4
FDE9F108
CA0FDB0E
1BD31A04
2A08BC0E
47F54827
DCAEF9C4
D900E7E9
FFFE0621
E511DE14
1214E7EB
A305DDE9
DD8EFCE8
0FEB132E
211DCACB
4C2D180A
0B59F713
F91EFC2F
FE001505
B414BD1D
19070A0C
D7FFDA18
2605EA10
EB12E4DF
0A4019F1
F4FEFBE9
14FF2F1A
F520FB08
E9EFDA12
03D61A32
2FEF08DD
1F34CA10
150E040C
F9E3FF19
38F315F5
EAD81718
D9245E30
2F26CC0D
EE0BE606
E70B0EFA
E512DE24
0EF4C92A
E9F1F0FF
F601D919
E90B32DF
D8E4EF19
011EE8CC
18EF3EDF
FDFEEFF8
EBD2E707
15FF01FD
19F2DEC6
0505E2F4
262E2AC7
FFCD67EC
E9E0EDD7
270FE9E6
F11ACE53
D6FC2E15
07170CD9
F41D090C
E9030FF7
ED120FEF
32FE02CB
173532FF
DCECDC0B
DD22E509
12371315
01009FF7
CC1F47DB
17130419
FC17EC1F
FB09FADA
EAECF015
15210B32
FCEDFE01
EBEB11FF
31FE3DF7
CFF80C05
0720B6EE
EDE72DFE
0D1BD4F5
EAE10611
DCFEE2FD
1E0B02F3
03F4EFFB
D10BE0E7
FD1CF609
E500CD02
EA10CD15
E61DE0F7
E72BD60C
C8FE1C28
E207D3F5
1B0A170C
2BCC1EAB
F6D3E1B8
FB0DD4ED
F6ECEB02
07EFF206
E3FA0A0B
0E12DEF2
EEE5E1F6
1302E80F
040B12E3
FE1CC901
0F612E13
0703F0F4
12DAE810
080D19F3
1F4FE3F0
BD03FEBF
EEEA2E0E
903BFCE4
2609EB31
F5110316
1F041CF1
17EEC0FB
14E80513
13DA20F2
03F8CB09
21F0F2F3
E214C1CA
DF9D1DE6
E4FD08F6
10F0F70F
0B1F09FC
FFF929F6
06EA240A
240C20E0
DF350FFA
3D4E0D08
13F8C3FD
0BF8F732
12E816F5
F9FCD835
4C16FF2A
063411FD
17EF001D
3237EF04
12A8EFE1
C5F53DF7
0D03071B
11DAFB1C
CFF23018
BBDDE3E6
E80615E6
07F7E935
04F2DBDA
F7EEFF38
0A2ACED4
00EDC91B
EC02073B
F96E0AEA
18D3E0FC
DEF3DF51
0D15EEF1
E6F2FA0C
8A3A091D
F73495F7
2BED2D0E
C2015854
1BDF7103
06DE2E08
22CFF9B0
13DC1509
1AF11DF6
EA2CA925
07DD1AD0
0306FAE6
10FEF7CD
2BA62E13
FA0AE2D0
CDEC131B
C613290E
2CD2122F
1241E4FE
D0EB03FE
FF0711E1
1D0712E9
01063204
3ED004EF
0D3214F9
0EF6C2DC
0DD30EA5
C321EEF0
E0D2F1EF
36CB2048
EDE51808
77BB2919
EBF6E5E3
FA041605
EDCF0EE5
0D011005
0FD927F1
1E10F8ED
DB05CF21
189B0824
45091EF5
371112EE
E5FD33C2
E7ED15D5
43EE2E10
FD0C0BF3
F4EDFEF9
2EF4EE3A
0C09280F
0D3789FF
0ACC100D
E8A4093A
DC0CE4E9
FF25E0D8
0BFDEA20
CB1D3A40
E21DEBE3
1FE515E7
D42C24FA
01C2FE09
EA061AFE
FA3FF5FA
D9081A0B
EDE9A102
C3FAB731
FED8E801
F3FD2FF8
FC0EFCDE
FE081B10
E6FD4722
E82A01F4
1DDE0518
270906EC
A620ECCE
17F2C5EC
FB0EF6CB
3603E110
FEF6F2D0
DD20213B
F105012E
F1D5EFF9
0CEF2104
0B1303FF
F92DDDF7
B2F3050D
20170825
12E903FA
F605F720
2FE12B0C
0619F707
E1DC18D5
2FE5CFE8
F5E41010
F3F8E9E5
D401EC01
14E90106
C40EF703
11F50317
F4FFE5FB
1AE0DEF9
F208DFDB
21E10CE9
3F2200FB
EF2E2512
16E2E5E6
F3FA0DED
160EF204
F11C0A16
FFE7E6F6
29FF04FB
14E11E25
10F9EDFC
EDFC07FE
F5D8FAB4
F9FFE30E
F6DFE5FB
D4D5FB0E
DB11D911
CBEEFADD
1FDE181E
E808C60C
0DDFE615
B91CF0FD
04160AF1
FDE3FD07
0101121F
161506EF
F3F1F10B
F807211F
C8D3D60D
52FEEEE8
152CFA10
21E0FB14
CA0609AD
06290422
18E6213A
14F3F6FC
34120BF5
00E0FBC9
D8E4BEDC
D214F306
E3C308E3
DA12C4F0
D129DEFF
C7FF0DFC
1FFCDAE9
42CEDF0D
F036083E
FC4021EE
1BDFB305
CDF80BFF
27EC1413
FC3CD8DE
00FFF410
FE0F41B9
1606EEDC
FF10C4F1
10213D1A
FF1A2CD4
201B0EED
170AE8F5
E9F0ECEB
F4D2B923
EC2F1309
24DB1911
0FDFCD51
DE07D10F
0FCEDF0B
DBDCF5F4
21F1B3E4
26ABF4EE
0817E8FC
F6313313
9D23FA0D
E6F910D6
0704080B
ECDCEFE5
263A031E
EE5608EC
0014E802
EBFF2B18
00B6E9BD
3869061D
E0E90CEB
14431114
E8D31F31
CC1838BD
34BC140C
C20CE317
1C53E42D
CE2323F3
FA033103
C2245AFA
4BEE0D3B
3BD2BED7
01E5F714
1E3939EA
BEF7098C
2210CDFA
D3131FFF
100ED3E8
2ADCAB14
D0F83BEF
F3FF1CFF
13EFF3F8
1F0DF8ED
E6E9C01A
FEF6F8DE
24E60C2B
27E6080D
F00308E6
D40BF3F5
10E808E3
09F9E2D5
A9122E16
CE20D1E4
0BC4D302
143925F2
240605BA
0EEDFC20
29FDFDF5
8709E704
01090704
FEEFE825
F7FD0E37
F40DF62E
094C2AFD
FEDF1449
4C2523FF
E0F70F11
1E003501
D8121803
3BD415F8
C4E20E31
34CBE11E
1B1E36F9
DB1B2512
27F4F422
50EB1ED9
DB0FC0FE
1900FFC2
20F0DF3F
FE1DCD54
CAD1D201
311B3C1D
F2E30F28
0FFD000C
DA490AD6
16E9011A
023F1CDD
F6153E21
1500EFD5
E00CE7DB
173EC825
E02EFB24
F3EB19FD
1B02D429
03F3EA1C
F813E9D7
D11415EF
61C3DE05
1AF0210D
0D080308
10060B16
FBF006FB
F2F420F0
DF0F0B18
F5E60F14
28E9F61F
F9EB2304
04040214
D7F209EE
120FE8ED
F70C1F43
1B0C23F9
16FB2AED
14EF1801
DD29D5DF
0900F1E9
E8E108E2
0CC7E6F6
F5D80C29
0E02D52E
121BF6E2
EFF41105
F0EC1BBC
E93DF931
1F050211
F41A05D3
EF1C0F05
ECFF0404
FF19F70D
35F5F337
F801F3E0
390DDD10
DBE9F6FC
2512110C
18CB2B31
D6E5DF1F
F9E5D4FD
320BD50F
03141708
F41206FD
1E0F16F1
E91407ED
0E1E5BB5
FC131A0E
FAE7D705
F11412EC
FF3E2004
E6080004
F318E90D
E8F45006
CFB0DFDA
DDFEEA1A
FF1EF8FE
020D0BF8
FEEDF9F0
F7E6DF18
E412F03B
FCF24EF4
13F539E6
E40BE5CD
EE15EB0A
42F82500
240207EA
E5E8EDD8
08F6DAFC
BB1C2710
F8E627E0
01E528FF
0DF8E50E
0C0DFCFF
EF4AF110
20182211
DFEFFB09
F7FEDBF7
3C0CEDF3
F423E920
28EBF2B6
03FE0E49
F6DB00EF
0A10CE22
F901FBEE
DCE80503
09020506
1F052A00
02D5F542
0203EB0D
D4F80FF2
F6150110
DA3728C3
E80EE2E8
05FD2F06
7EDE1FEA
D027E314
3325E613
F307130F
E833F007
159F21ED
F5D9E726
DDE00127
7ED1042C
1D04D60B
FB04F00C
D0EE0329
2A0FD133
F7FE3208
EBFDF60F
1E0006AD
29072202
C5CEA9F4
EEF200FC
2606DEDE
D3071411
04C831F5
0DEEA9F6
FF441607
DA15F8F8
351FE4E8
3FE868F0
02074329
371B1C22
10F4E0FC
CD25F5FA
DE16BFE9
311DDCFF
00193DE8
EF170525
0E5B6E04
FBDBFBDE
D80A1F32
2FDFE7F7
1F020353
00005415
28A71CE5
2BBBC729
E8032436
B1F8F43D
FDF1E7D8
411733E6
D8DF1FFF
45F5FC04
47D90812
F2F0270E
F8E7B5D9
2DFFECF6
FEBA12D0
21E31322
0805C9F8
30E9D8FC
052D0528
FE050210
1CFA1F5B
2AFFED48
D000C5FF
D5F9E103
03FBE3E3
08EECEC9
15D72FE5
12F70804
4126011F
0DCA31F9
F5EA2226
45DEEFEC
F1D7293C
F29E3910
E9F3FB24
D1F3151F
1625B30B
FB11D629
4CCB1722
FD110BE0
282E2CF6
21F621E4
23DFCE49
1DD4D70C
071B2CF9
D3FA08F9
F821E19D
F4CCEAE9
F10131E2
FB0C1BFC
FF1BEE0C
24C23063
06F33115
1037D4FC
F0EB10FE
D40F350D
12E90CEB
EB1FF5FD
DC261CF2
D1ABD235
F609030A
FAF91320
FA14C9EF
0B1202FA
0BED0A19
3FF0F212
EDF8E91B
03B913F1
E4B336EF
EA24381B
C917FD09
0AFAF2F6
25104EFA
ECFF16F1
12AE1716
10482101
2B1AF5FD
331AD2C1
FDF9E7DA
EB3EBCF0
07F707CC
EE25EDD0
EF141716
09070CE8
D0F82B2D
DBF9CF04
D7F008E0
E8173439
07EFF816
D0030ED0
10F4EAE6
E60EF6D9
E7F60BFF
210114F5
CADF17EA
1030F735
C61918FE
E2FCEAF8
2C14E33D
F9021642
20CB9E0C
ECEDF1ED
081902FC
DCEE0BE6
1C8126E5
E030100E
E4F8F6F4
1AF503F5
FFD40609
BB09F315
E4B918F2
F50F1BE6
F8B6FD0A
102AFFE7
250412F8
F7E20D02
E537C4FD
32D80608
270C4E21
0BCAEF25
1A08F919
081124F1
F2E4EDF1
FDFF150E
43D94D32
E3E002EE
E60B22EE
1609FEF7
F6E5BD0D
F6DFF2D6
EEFE09F9
2D1DE90B
09E40DE6
3010051C
01F027F3
E1D11CEC
D9D93F0B
44BEDD18
11F10405
FB10EAFA
0CFA08FA
FCE9481C
10310D10
20FFD9E8
231111BA
EC99F1CD
FE171108
4DFF05DD
0D35EEF9
13CEE70B
ECFCCDD7
111C0CEE
E80F2709
0C0BDCED
FCE70710
F7DF360A
F5F2D7C8
03FCEC48
2E210ADE
2C0E19DC
F6F9D221
383A46F8
D90FE22A
051DE8ED
BF0AFCE0
0431B914
BD03C6CB
0823B711
1515EF02
CBFE00BD
3614F1B0
E012E40B
CF091D0C
02E1122A
0723FAF4
1DC8ED11
F702DC1F
2CFF071F
DD27FCF8
1EF33C1F
09EDDFED
D721B5EE

