FA10311B
0C00D128
D1EEF630
35E8F3DB
F8293840
FDD8B2F5
02C2FC00
35FA0EED
35EB24E3
EBF1F11C
29F523FD
E3FFFF24
F9DFD90C
E4181E01
0DF502F1
C6D82C14
0B250119
FBFEE0BD
FE0B0D11
D2D6DF20
10F300FF
43DE02F3
4DEAEB56
0EF2FACE
F9113C3B
FDC7FDDA
20C05300
E7C61BC4
E5F0F3F8
F40D47FD
07F6F5F1
1DE410EC
47F5FFE3
EE000111
E545EF13
15F8EF1D
F9DFD0FA
010BD2AF
EAF11E08
C00B35AE
FD31FA0C
D5CEABEC
04E9210D
ADBE0204
0A0CF20C
26390709
0D2BEF2A
B309C2FE
EFDDDEE7
2033FD30
E3F131F2
DBFA6125
E2F0FB36
1FD5CCFE
1D1327F4
D8DCF52A
F31AF3EC
0AF6DFF1
0DF8E735
17A2E4E7
FCF4FAF9
F768ECFD
F501D7D0
E70C11F8
0DFD0B20
04F8E2E8
F01CE1E6
CAD8FEFC
160AF2D0
D110FE15
2DD10FF7
3AF1FA3F
F312BD20
1A46CAF9
8D110210
1BDE0CFB
3E01FA0B
F0F1ECD6
F0B8CB19
0809C60D
CFE0E722
FD19F5C2
0DFC26D3
D93241C1
2114F7F2
46DADE20
58E62C2A
0AC53516
1D25E4DE
0325DD18
E70FF5EA
E918EA1B
C9F7F3F1
1CDD18FA
E9FCF0AB
6352F1FC
08F3F80A
060F0216
2DF5EBF4
0CB32763
CEDDE9F6
FED31A4D
EAF701EC
DCF200AA
041513D2
DD1B24DC
0E10FF19
D533F8F4
EDEBFBDF
F43E0AF1
092ADC0D
F7D0D3C9
2EFB050F
2040E5D9
F4FA02ED
061EF101
D2EF24FC
03F007F6
0D09F9C3
062146EA
FEEE4825
0FEB3813
C3DEDAF2
0FECF401
0FEC0F16
D706A8D0
F412301C
09E9F7E0
BCC6CB06
EAC2DFF4
010AE7F1
FF1308F5
AF0CBDEA
EFFBE90F
53FF1916
E3C321E8
ABF1F7F3
EAF222F1
65DB1BF1
2106DF03
39C542F3
12E71D4F
4224F201
A8160B01
1FD42B4C
0614FFF4
0C4147FE
085200FD
7E1B15FF
DAB11F20
6F2BEF1F
07CF1E13
5413E90A
E4F303F5
E7FB170F
3DD6E5CE
B2E71215
1008FBF8
9C1702E9
0C051EF5
1508FEF3
F009190D
F7132FEE
B811B406
81E20D2A
15092025
05FE13E3
00F018F3
A0E429DF
EDED0FEA
3531180D
222A09EA
812C16F8
CADC3538
CD030AE7
F41A0E02
81243036
C8193432
22D93509
F3422213
7D0A1BD2
1B400EF7
CE1A4403
3ACDE718
BF08B3FA
E0F9EEBB
32F7F1EB
4BE4E83E
7ED32219
12EBE1C6
45E90D16
E0D8E81D
05F719FA
1ADE01EA
FB0BD703
35010CFC
E40CF117
5CF9F448
200614F9
18CC1617
E81BF8F8
0EE1DCD8
FBBFCEFC
05F13135
E9CD2D0D
02F8FCFE
2203EE0F
20140FCD
1A0610FD
362DF3B1
2D1E2F06
08ECD5FB
06CD0207
C8DDF5E5
11F322E4
2FED0609
08D4F121
240EEFF7
FEDDC41B
1308F231
36FAF4E8
BDD51E59
180E203A
071B160C
3A094DFF
0D26FCFF
0BEBFE05
EA08F830
031D29F5
01401B14
0444AF02
ED1A0919
0B4CE300
EB330FF5
D30203F6
CE05EB2A
FBD33D16
2C0C402F
F1E3FBEA
E61DE6E3
D7E53416
FDF4FCF6
1CDA05FA
F4D7F2D5
0710E208
DEF8D60F
39E0DBFB
40F23AE5
AC0D0CC2
3F77FF1D
ECFFBCFE
F5E503C6
01FD1300
16100D3C
15BF0FFD
36171F25
00FCF3EC
FDE4E809
FDF408F2
110F0609
DDF2EE38
070BF0E4
17FF06E0
F814237E
E8F61CDD
1EF32CEB
1CE714ED
1A02D7C5
E4E1E834
312EFAA9
EE19D7FD
FA0D07F6
32190DF9
D221E11C
FC0003FD
EF2C02EC
E6ED15F0
1C0EEE00
EF19F6F0
D5E9234A
CB021709
031C18E2
11DD06EC
FB0FD81E
071BE80C
F0E83B4D
101EECFC
1107F13D
1CF4E605
FA1DDC29
DF242BE9
30122707
FBF1F116
FC15F805
07040BDA
F41B2381
EE25E0FB
20E93E38
0FFF4424
1405F124
02DE0000
ED29F097
FCE405E8
F3F708D2
1DEA120F
224AE9C4
12E9F40A
FD18113C
182ECC2D
EFE71D8B
25F716D5
033204C1
100D30EF
F3040A0B
1E0021F6
E901E338
0805F3FC
F1C60C1D
24F2F801
EDE72DA6
37EDE803
F3E534BE
0003C319
0B130142
FAF8F500
1FE104A7
1CE8CBFA
D2232A06
F9E0FD14
1D5E0C12
F9ECF921
01D4370C
03210EE9
F72623DC
EC1DF9F9
0EB11B27
1309F83B
39372E10
0BF9FBFB
F0FB3AE0
1E1D162A
1516DE08
16360712
244FE529
E311E502
48161821
0AEFDEF7
16E70934
0023031C
1D1214DB
F40BE002
D71BE6FF
F4EE1AE3
1CD024F4
2CE92DEB
02FDF508
2B03E8D2
0CE2C8E2
E82FD0CB
25BEDAB5
C86235EB
F2CF9CDD
0B00FC22
FFFC1F17
1AE20712
E7CF15D4
DED2F2F2
18F20DE6
0A0AFCDE
1EE90D05
14500501
D9070D2A
09F0F906
F10EE0C8
CB2B3804
4229C04A
0FE52FF7
F50F0AA1
09F9DE21
12F03942
D329D407
20013C9F
E5291A05
FFDA2B2B
ECC70114
30BA2913
FD04F207
0BAECB13
FB09DEEB
D9B81D0C
F5F3D22F
063512F9
0304981F
E9CD0201
0720D510
F507192A
16DA0B18
B510F156
DAEAF711
F0DF0B16
EAF70025
1A2840ED
1BF2D5CA
A1F509CB
E920FB2F
FC0DF4E4
FBE7F2F9
17EFFC18
F5012724
0DCF36E6
000EE624
05FBB4DE
FF1C00E1
050F0314
0C24FFCF
3204F701
1E361519
11FCE0F1
E305E633
1ED5ECDD
0E1FC609
43FF34C1
04F80BF9
FD161FB3
0FD7F51E
010A26F7
0C1D10F1
1629F7E7
FD27FD06
020A422B
DF03CBCA
E64F11F2
E6FC0B47
D30CE3BC
F6FCF1FA
1B27F9D6
2E14B3B5
A2EE31E3
D7E5EADC
1CC3350A
F92CC117
EFF122CC
E53A15FF
FB1C16FA
0023EC0C
1EEAE4FD
F61B0A16
1B451D04
72DD0614
14ECCAE9
E4F3E2D3
0FE0F627
DC20ED25
DD0DEE20
D52EEEF1
E8F60C18
F0F8E90D
16F2C52F
E6190CDD
05FCDA04
4B433108
1BFA1DF8
2A01FD1E
0DCD181D
2206EEDF
E5190D02
1919ECFF
06E44E13
FE3DEBF2
0DF1EA24
DEE304E9
02F1FEFA
2B1917F6
FA1ED9CB
CCFCF413
0BF2D603
11E5E81C
FF09F9F5
09EFCBFB
F5E2E902
C8FBFDE9
13113222
BAF00D0D
18D80216
2CEB18F2
E306F7EB
BDB225FD
DF2BFDE7
43F2CAE9
121B140F
E1F723D6
E108D011
34030CE9
19161A18
13FEF94A
D51F2747
F9150EEB
F5ED0013
2FF114CE
E41BDA0A
23FCF71B
1C2706FE
DBFDEAFD
D0377AF4
1E0F110F
02DEF307
38FFE513
E5DAFE0D
26D705DD
43249F23
1B150400
3A1F062D
EBE9FF0F
2D05220D
05052506
ECF9E5FB
0BF858E0
00E105FA
2ED40CEB
1A183835
1EF45FF3
03F1D92E
F0F7DC29
C736021C
194FC1E7
19151EE1
0A34000D
002ED00C
E037D7CA
05F7F856
00EED60F
1F26DD32
1AFE06FD
FC0DD917
E8EC13F0
E9E8E8ED
1D09F911
F821CF03
1C08F010
EFE105B3
EBD5F7DC
04340038
EF24EC17
001AF0D7
F2ED1E2A
FC1EFFEC
2CF1170A
DDF2D4F2
E9EDF4E2
140DFC2D
EF16E7D6
1BFBD521
1C2AC908
0DE9093A
09F60C21
12FC1823
B2F528D7
F7FABDE4
F209F720
F751FDF5
EEF52709
551016AE
1AEC1D19
1C0DFAFD
05E4DF0C
03CEEBEB
F7F1EF03
0B00F1FA
0B2401EE
0C360B41
D8E6010D
191B0835
0A16D7D5
EBD0E0C5
F805211B
EC1F2820
EB050906
D4EC0BF1
13003FCC
DCC42910
28EE02F9
D42B2111
11EB0C0E
F3200CFC
17D20DEF
9929CAF9
EF0FE000
EDD6290E
02B6CB2C
2A26130E
0ACF06F3
F116FB05
03FCF2F9
D01C290A
F90AF5E5
2D18182F
FF1F1BFC
B7271ED8
04081F13
F2DDBC1A
0EE22FE8
21BD2B30
1C16000A
D431B027
F50D251C
0136DF17
1DB7141C
1636F4E5
1C04E7EA
BE132221
FF060806
07C1CDEC
101C22DD
D3060B2D
06DC1504
34FF1107
0913EA3F
332A070B
02091C09
CE05FFF2
11F3EC2E
98EF2108
E5FED9B5
F91B1A0E
0900F516
28C9EDD4
F310C5FC
13ED1D10
E7143419
FB18B8EF
F4F9F631
CF055BF8
EA541004
D517D8E4
D1ED8D3A
0710CF0F
E3EAEFEA
39D6F2E3
EAEB16DE
F5FD04E5
9FB112E4
1A03F7EC
7E24030C
01EA0B13
F60C22C8
E7D0C9F4
E21D3923
ECE4CE02
AAF409FE
1E48DDF9
9B1CDC01
DB34E3FF
BA0B35E8
DCCDE8FF
9F04E81A
CB08FA19
7E12E62A
E8110310
7E161415
E4EAD3E5
FD190AF1
13D7E009
71280318
E8B3FD24
FCCFECF2
FE07E50D
81EEF4DB
FC28011B
4CF5530C
04F426F4
96F4FD4D
431D61FE
2EF3D8F4
FAFBEFB9
FB10CF0C
ED07E5F8
D8F8DD0D
181DFFE1
810BF601
FEF50410
5EEDCE05
FF1E1AE9
0DECD204
FC01B11C
750FE1E6
F2E2F317
DD07F210
FFBCEB27
32EDEDFB
232BDD13
7EF1D831
F4D9C218
81E51824
0E0B3E05
66F81BF0
E8332C17
A9FA0917
0019F40E
81200FD6
E5D8F0EF
EBC30019
1A0311EC
FF162120
F72E0701
C423DEBE
28F8AAD1
131ADEE1
E3DCF3E7
EA1105FC
0FD8D019
1FF4C5CB
DD0C381C
23CB0325
F00FE705
2B00EEEC
EDF30840
E9CEF6D2
04EB092B
3628FE01
E0F63514
F3FAE1F1
2AF53CDA
FA0AE7F8
0BF0FFDE
C4FD0C1C
1B0A8EEF
0AF5CF02
23E10BEE
F1E9F804
3B04F258
C7DFCE40
20E820ED
CA10332F
EC18F1F7
F305FC0D
36CF0AF4
10FC2C0B
F1A5F0F1
010128CD
100B22E5
FA10FEEF
CEBBF51F
04E500D1
DAFD00F6
02115AE0
1A0823EA
02ED0E00
1BFDEE20
CA1DE71A
F707DE24
E516D119
E20B191F
E40602DA
CFB638D5
D3FEE60F
0C3E9EDE
E02F09AE
35E91323
00081B0A
19FDE606
1E230411
19B5E81F
1CE43DEF
C210EB1B
E5EE28E9
1DE7FCF6
08FCEFCB
FBE90DF6

