B3033DF6
1207C5F0
47174AF2
B8DD3BFF
2934F1E9
13050022
F511B1DF
04050BFE
E7D2BD9C
BF220147
E4EFBFD7
D216EBF9
2804E611
E3FAD9EC
22CB74D0
14FFE04D
F2D47240
13F3E50A
08FF2809
B8D23C08
EDFA2523
EECB0714
002DF419
D900DD0C
D529EF15
F6F2BBF0
FE01D549
13EFF2EB
CB0816EC
EEEEE518
EA06DFFF
F4F71433
08E1FC47
F6D1B7B6
DABE2F03
1F12F11A
C30013E4
0BFAF413
3C1CF011
0301F6FB
220EDC08
08CDECDB
FEEFCEC6
CCFBFBAB
E9235AE7
313400F5
0E0914DD
E91B15DC
03EEF941
FB19201A
F3B7D71B
0B5EEECA
17043EF2
F217E703
08E9D3FE
20CD15DF
2836F129
1CE62A31
2191B216
FB14EEE8
F1D0C8F5
C7F4E83D
12F6CABD
C3EAE7BB
E8E80A01
D8F0E22F
E2F416EC
E01134FC
9210D4FD
BBE0CFDD
F932B4D7
FE17E5F1
F22210EE
1EEBF325
F4EDF102
34FEFC05
E9DEF823
DDDCF125
40F62C38
0F17CD1C
0DD64815
ABE019BD
DBFF0942
1A06E81C
30E9100C
E9C109CC
11F1AF14
0DEA1804
02F0DEE4
EC39F0F1
0121E6EC
DA061417
1A302A11
E002FCEE
F3F300D0
BB2D02FC
E209F43A
0E1707EB
074247C6
17EB2FF8
3830D116
14E128EF
20D94E1C
EBE5C3FA
F41534A2
DAE4F812
2CE3F609
EC1003C8
F9F1041B
0C220F04
F90CFEDF
0FF63AFC
57BEDA04
F5FA0ACA
27DE0FF7
EC01F205
F11C2700
1002EB08
16D3F31E
0EB90DEA
BE4464F7
E925E823
D31500EF
DF131FCE
0902DAD3
0339DB2D
26191B05
29F3F614
C8FEF51D
DCF72CC0
081018EA
EEF22019
14F2EE27
13380739
06F41EF8
07E206E6
DF0EC9FF
3C1F0B15
DCE0EB38
AE25FCF6
EAEE01E2
ED4DB519
ADFFFBF7
08DD07D9
D9F506D1
BC072EF5
A50C4AC3
0F440EFC
31EDDAF1
E9DF342C
104553F6
1AEFE9F9
E8D922E8
2306F90F
E5DD0535
F100DAC8
E61F19FF
08FEEFFF
22FA0D2B
0B2DE0F5
07DA110A
F51BEFAB
EE58E0DB
1A3B1DF3
E8F7C5F1
201DF8F3
050AD9F8
2AF6F816
EF24FD10
F416F40C
E114D8AD
331E1FFF
01DAA52B
16F5EFBC
FDD50205
F6FA061F
3127BE2F
050C223E
BEFBE71D
AFF70F0E
F8E52CD6
1424F7D9
9543220F
0C01F5F6
21DECE1E
15E52317
DE201BC7
130C2337
E3FDFCE4
090AEC49
210BE8E7
D81E07FE
10F20AFF
BF01DAFA
CE1C0F1F
022535DF
E2CFA00C
10DBF8DE
D62F81FA
0C3BFCCB
15EBBF4A
E60D0BEA
EC3321D8
F709F0F1
26CF2122
BB20E1F8
E4233A14
18CB50B0
1B181A01
EDFFEDFF
0A0705FD
160E49FF
0B1D31CF
0820E6C3
4DFBD6FF
FE080003
F81626F5
EF080BF6
EC09E3C3
01FC2DEE
F26306DD
F71E0DEC
06031327
FFEF202E
E901E41A
F0F7A8ED
F90B261C
ED2924F6
072137F6
F2EE04EB
0EEA0129
BAC414E9
F71DE634
BD211322
0AE10016
253B35F8
FCB628E8
141FF20A
073E35E7
FBFF08D0
1C0332AF
ECE2F30A
EDE6A60D
FDFF0128
F7E97107
1BB404E8
F18C09FC
FB0EFA12
D3EDBA09
1B21C0F0
F63835FA
C9AA04DF
32D93AF6
E7F6F2E0
3037F9E8
E1060B10
C90136ED
041EE406
38F8CF10
55051FFD
060BDC14
DDF3D726
DDDCFE0F
E6DCDB1F
0FFC0101
EFF5FF0E
E0F0D9CB
24F90F0E
E83FB5E4
13DE35C2
F6DDC302
FFF8E5FC
0B1AD313
E800FCF7
E2EE1740
23FEE707
09F20514
0BEFD500
07FDEA26
1AEBE906
02EB01F0
2F02EE18
E7DCD23A
0ECAE60B
250C0FF4
15F5F150
E8FA07FB
F9E60208
0A01EAF9
0806F0FD
EBF8E009
0CF0EE09
EC265A0C
0AE8F2FD
FA21BF44
F80D0EE1
2916A7FE
20F4DE03
F604B104
04F7ED2E
160F05EA
44092705
FF0FF60D
DD28FC04
0FBA0EFC
E0010D17
C93FC2FB
0E13DD07
09F9F7DE
EFF007D5
F9E8F601
05C204F3
F0E4BE1E
18E2C7FA
02E48A10
F6080AF8
1EFD3416
06FF04F7
0CFC291C
0433E1F9
08F800F0
0BFE28BF
F8D4E919
F5E40FEA
DF22BDC0
03090DEB
051A26EF
06B01A31
2C23F144
FFEDB7F3
FD331717
DAE0FD08
FD26E0DD
D2F5E20A
F60AEDF6
FE06F6FE
DEF0E8F4
DF0FBDC8
EA0F45F6
0025EF0B
34EE2806
13FBE8EA
FAF4C6FE
130918C0
F50B4736
ECE2191A
DCDD02C2
E1F103FE
F9E8D1EB
0A2931CB
130E14FE
3AD9B413
0A0DC510
0BCC0DE6
25E3E7FF
0B130CFB
150DD7EF
E7FC001A
191F02F9
F11034FC
0938ED01
DE441309
D1C2D5FB
C9D3B915
0D0B3AD8
C724DC33
EC0120DD
D8D7F300
ECEBEC15
14E607F9
9F0CD8EB
CFF917A1
E5DED209
E8FB14FA
E8EF1F4C
131EFEF1
F0C1FE33
EB1B1BED
0D12D5FF
D0E1E742
1109330D
07F01CD5
3045C230
F6DA181B
2ADEF4E0
F12A16CD
F0DEEDFD
F347D5C0
FE04A9D6
CE0BC611
32D71AFC
E2F4F1D8
20120FF6
D223CB1D
BDFADE23
200EFEE1
2900D40F
3B230BBB
0E272913
FA0A1C05
03D9D537
F00013DC
0A2AB8F1
F2F7F8FF
F1116922
31F91405
B1D0FCF3
072FEF20
DE15E1F7
F2011D02
1129EFF8
0B0D2939
BDDFEA09
ACFF0ADC
E5DD0539
F0EA0DF8
3ADBC719
05EF0911
1E374CF9
D1F7DCEA
8127AD2F
8CBC151A
CD0AEF2B
DCDB1510
13F5FBE6
1E0FE944
22EF21FC
281BE00E
DBE2D8E1
27EDE1F2
D1E71CF6
32EFD116
0ED9292A
26082116
09EEC126
19E9DD21
130AE913
3613F6FB
20362425
1CF31FE4
FA164F0E
06EEA5C9
0208C00D
34E4F5EE
EF18E830
F6E0F2F5
F417EF2F
3B10F74D
0725D012
35180002
E71FCA13
F6E2EF08
EC067E13
08EBED0B
FB1C070E
0C2EF412
0213ECC8
310F0E01
0AFCFFFD
040CFEF0
190AC3F3
F5FD21BD
D6E8D6B7
0529F203
F305FB06
D9090CED
08EFE30F
D807E811
24EBCBE6
16F1FA19
2EFCFBF7
E5FFFAE7
D5FBFCFA
EDF21000
EFF215D8
FAF0CEFA
DB22F50C
06110602
FC0D170F
03FE09FC
EBFA1602
F1BED6FF
03F5FC1B
04E10DF9
11ECEEFC
0DFA110F
190209F0
F6E9002E
1035B720
DBF3ECDE
00F41E00
131BEA09
2CFDE914
F421D60E
13D1F61A
F9E4210B
0219230B
E7F90122
FF1609E1
EFF5FF17
FCFAF608
FEE81E23
27C41A0C
0002EC3E
E6F3F9FE
13E322F7
03D0F7EA
EB28F621
C20BCE04
05CC1A07
E0EBFCEF
E02BEDEA
F1B83507
4ECC0AEF
05DF08F8
0EF1F4FB
03ECEBE9
2138F4F0
1AEF2510
E012EAFF
FBADCBBB
BE40C411
D8EE3217
16FDD7E4
DE0A2E09
CB241A81
06F305E8
2EFADCEE
2C182900
3B0712FC
011DE8FE
04E9F51F
E20F1B3E
041CECFD
E10AEE0B
17FCFFFC
2FCEE814
090A073F
09E9F306
1ADBF617
FB0DE5D4
4EEDE2CE
C7E244EF
21EFFDC8
FB18E6E1
CD171DE5
1018070A
032E0315
1CF3FD0B
FA21FC29
D2FFE502
E51A0E0D
1BAD1C51
10FFD7EA
23F52705
D9FC10DB
C00CD7FD
C73238DB
214BB1FD
DDF4E2CA
0B29FBF6
DB2415D1
32ECB904
19FCF5E1
ED13F00F
39E5E6FC
19EBF6F8
0AE1CC17
FEDB3E03
02DAE4BB
FF201525
D303E220
DB0403E8
2EFEE7CA
E51CE3FC
0CF72A0C
BA362869
05F4CB20
D502C3E0
EF0CF5FA
114A1E06
0304F514
1F1358F3
D1C3E80B
F1FECA9F
EAF95ACB
D2120DDA
130AE6FC
96000F02
BEE7D2EF
ECE1CBE2
1133EEF4
EC130C11
C20F1CE1
1FF79B4C
BAEF25E1
13FA34E4
20424D40
CDC9A2EF
0106070B
E113E427
EEC74CD7
03DA0945
08F7E5C9
F5F8E8E5
0BE30EEB
0BDEC7FA
DD1CAA4C
08F25A19
072BE74A
E70E0CE2
141F62D1
1B029FEA
C3E3DD01
D9E5F4D8
C6DE08D3
EF152911
FF01FCE4
45F531C8
26D8CD12
FB14A413
3BE4D906
BF212BD5
EF23D6FB
FA1BFE1E
02FDC9DF
19E2E021
3CE6E4F4
35352103
E92FE908
F4E30839
C5D43F2D
FD02EAA2
02FFFF28
13310429
0C0CF73D
5D3C2906
2EEB07D9
ECFB14C3
041131CB
FEDC20FB
D7152DE8
FEF7FAEA
11F2CF02
FD0607F7
250F16D1
01CE19BA
0F0EEA1C
DDFB0007
E5021BF8
771CABD8
B5FD0C02
0317DA27
31FEF5CF
F8E3E500
F6E0FB2D
0A051613
1DE3E904
3007E925
F2FCFC27
AD05DD19
DE05130E
DCECF12F
23CD2408
DEEC1DC1
1245070A
1C00D906
01E0FC2D
17B821DE
16010C26
F0D4DE1B
00E017D1
FC0B310C
EDF2F528
F20FCD08
20FBF211
05E10C09
E8E3F01B
FA10FAF4
000E1BDF
0BFBF815
EBE1F7FA
1AF9F2ED
060501C8
05CB0FD5
17FFE7CB
1A07D2D1
2539D00E
FFDE2CF0
FDFF1CC2
322D1B30
2A001BDB
2909FDB8
2D392AFC
24194214
F71E0321
E3C9FDE2
0BED08F8
1B02360A
E60F0A10
F6F2F509
022919E8
F5FA1125
19E821F3
E8017427
35D00C58
23D137E8
FECDC100
0214D6F0
E717FCC2
08ED05F4
D1F7E34F
B41F4519
D7EEB43B
201CEFAC
C00CFAE8
FDF9EF3E
EBFF1AE3
0E0E1346
FFDC23DC
FD007C0C
DBF7FAFE
EB1E3DDF
0111FD33
4238F2F4
22FBEB35
EA071B40
F2EDBEE7
CABF8154
A7DFF4E6
051515FB
D206F928
010624C1
EF150D24
EA10DACE
F7150B31
E1EB9FE8
0CEEBFE4
D8E2BCF5
F60A1FC5
DBF8AFE7
22F1E9F3
0616C0F9
1F301D09
F33AF12B
F3C865D3
EEC9DADE
F8FE0B04
140AD2D8
0707D9FB
DBF63F29
EF0813E1
334EC010
D7D8F7F0
EFEB1227
3A302B11
E2F2D8E4
D6FC15E0
22ED3718
24EC1C03
190FE013
18E71BEB
CAC2B1D4
FDC90905
0B013FEB
EE15FCF8
0CE32ED6
04FFD6E8

