F0EF02FA
17162C90
0624D3FF
152613F5
FDCC2C11
104BD1F6
2F2E1EEA
2FEE2C19
12BE0501
13EBD935
09D725FA
C7DCE503
44CDE750
0D14DFF9
1443DF17
F9B229EE
1850F115
F7F9E9CF
19F42EE8
E86308D8
E7F4D427
05E9FCE5
B121B9F7
0609BFED
07000614
F61524E0
96D806E4
3BDC2AC3
F9D2E5FA
F2260EF1
B9EF3803
1E103F00
41EB0E04
0B34F5FF
DE451FF4
2FEFC7EA
D914E70D
E7BC4BFE
17E6DAF3
07D608CF
F4DC2132
26EA08F8
2939F23F
FACFF106
12E300FE
F5F3FEFC
D7ECFE02
FB380652
F50625A2
1A3C4419
D10909FB
38F83717
DFB53A00
CB2BD036
18AA1C12
0F3118F4
0742F9EE
FDC8F604
FFF9ADE9
03D0DF35
2B1ACC07
2DFFD310
E9113955
3BE5E916
321AF134
FBEDCCED
1014FD07
062418C0
D72FF91B
1136C513
FFD2C3FB
ECC0FDE1
FBFB10EA
FAF12407
2FF61FFD
0A1F0014
EDF5C104
D8F9D0BA
F90A1F0E
0F14F2E9
CF283CF4
EFFB0FD5
DCFE2ADB
0F48E703
ED02FEF8
07F10B37
E1C3CEF9
FFFCDAFF
40ED1204
98CB0B0D
28E80013
FAF91838
D3DAFC23
FC25F3EC
00EF2A19
FD120E11
C8142BD7
0F39DECA
38F802FD
FBC418CA
1C231005
F416D621
EDDE04E6
F6F019F8
25130FE3
3A0ED8F2
E80BFECE
DA3FD9E7
2708DD28
EA13E60C
16F1FD1E
F9DE19FC
F2101402
EF9138D2
ED03BEFF
0404F1FA
1E120009
001F0B29
0A20FA0E
1AEB3C00
010EF4E9
E1C9ED0C
0AF9DEFF
FFDAEF15
D310F0FF
E10249F5
F7E4EEF9
29070030
FD02001E
060CD1CB
C122F528
1265D3FD
F7F7FE1E
E6DF2B18
14FC2AFE
FE1E0705
E3023A03
F6121711
D90700DF
E6014BDD
ECFC3DEF
E5F3051B
01E2040C
FEF8FAE3
57E61139
03F21302
00D6A933
E3E20904
0406EC03
BFF23D38
031DF9EE
1CE44016
F1D407D7
CB3C4DE7
E7EBF810
F703D410
15031B07
BFFAFFDC
DCD4AFF6
120E12DD
052FF5E8
0AF4DC0F
FA09F0F0
0F3517F7
C925EB00
ECC90335
E6D107B3
0CAF28F1
16F6170B
06BEFC2A
E4191D0E
123BAC50
1FF83FC8
40F4081C
F3FBF5EC
0A4BDF0A
F3C5EF04
101AE608
24DCCE25
0721030A
0DF1D6EB
0AFF1EE4
0909EF1D
1513F10D
F126E506
F619F905
DAC90EFB
ED0042FC
D9E7ED2B
D48B679E
081ED5BD
14CBFEEF
EB100FDE
0AE0010C
F0B701FD
F94B0ACA
FC1535DB
FAA256FD
E50218DA
E7012CB6
FA2B0404
D7F2EA0A
CDD2030D
F910141C
FC0AF2F0
EE26200A
D436E0F4
1C070ABE
C104E908
0DF8EFEC
EFE6F8F9
F9EADD01
E5101E02
0854D81D
11B91BE9
DA262DC5
3339E4F2
DCD1CDCC
FA10DD3D
09E21FF6
2BECE114
08FBEC1B
16EFFEE0
F3F566FA
FDEBE4E7
E4CEF31F
02EFEC10
ED84F827
0EE2A6F9
0F0527DB
D9E15AFF
3F031608
D31F1F0E
1108EE0C
F5F1DAF2
0EE301D6
0800F13D
0B071ABE
ECEA41ED
EE7E2A09
03000914
05F9FAF8
3BB0A6F1
302F31C6
D90544F5
FDE515E8
062BE307
35CE81F2
F30B0EDF
CDFB38DA
051224B8
F234F0E3
2BDBE40B
FBDC26E8
0FE1ED05
F1F7F9DB
32EB3AFE
19120C21
FAF90903
25C416E6
F100DAEF
0AEA20F1
F135FE36
F1FBD600
17F9E705
1AE90524
FAE12B03
130103DB
01EFF618
E827CDEA
03D711FE
10FBD6DC
F82CF4F8
02D60A08
F12C0114
F2053FE9
05CE06FC
16021723
071F05D0
EF5EFA1D
C90A6314
0121E11D
21C40D01
421544F5
09EAE7D1
F8F8EF13
EEE00F0A
EBEBBFD8
0D11FD15
D52EDE28
18E5FC2B
E919061F
FEE730EB
0BFEFDC9
24240119
F319E1E5
EDC6E407
D2ED2D23
0F111B14
20F6D3F6
21D9F3B9
EC09DF04
D9DDF80C
03D10AEF
11FE01D3
E70A401F
FC0B0E02
EF192BFE
F6B825FB
CEDFDB0D
0E47FB23
0A360AEF
39D9E7EB
00B80D52
1138ECFC
0BC9CAC0
CB0FF029
FF20120F
16F905FF
FCCF1307
DBF31613
1AF219FB
CFC2D597
10FAA9F1
F2DBE70F
E80F400B
E4FF00D6
00390C1D
F509F5F7
B8F2F9DB
F8F7EBC5
FA270B0E
E81B0A19
F80AB1DB
F7142FE7
B90111E5
D82BEFE7
02E7E0DF
D9DFE209
EC121204
03E41F10
32E7C4E3
B432E6EF
C0F41B12
DC0139EB
B1CF40D0
2B180AD7
2205130B
FAEA11EE
07D10C1E
26E04CD1
08D40F14
E89E02EB
0504F4F2
0302CD08
E7ED2EDE
FD29F3F1
CE01F60B
2CCC2718
CED71CE1
34FDF2C9
04AF15DD
38FE0D24
172216F2
F128E6EB
E004EB37
F9071932
BD54B2DB
1407EEDF
071D03F6
F42CFE05
C62DD117
FFE6EAD2
13F40B07
B12C0FE6
0BEEF1EC
13E51CED
F6D6E918
16CE060E
F2FAEA12
2E56DADA
FAD3D6E7
D3E320C6
0CB0EDE5
45AD3427
EA1241E6
F6F61344
F8EE3CEA
FFEA23CB
E5F7E93F
DAFCF025
081600CE
FD0304FF
05C7D109
F1083719
06F3E8B7
FA11D2F6
0D09D807
F205F0CA
D7ACE209
FAE9D5F1
CEAF2CC7
06D0FE24
E6FBC639
25FFBDD2
CEF9D206
27EDF912
EFDFF625
FA00E90A
17F2F5CF
26DFF2C7
17C2E3FB
133FEA22
E70EB8E4
F4F1FA0B
401BF508
F4C60C11
00E523F0
CF29DB02
004A53C9
F4C4033C
DFED091D
D835D2F5
11ED1053
E8EE13DE
E4F9DE04
10CDE7AD
F3EE1800
333B08FF
14101AD3
0EF11510
3A15DDEB
1711C9D9
E935D311
D72DFBEA
DB0417C0
1DC8E7EA
C810F603
E91AECD1
25DA2BC0
AED74AB3
BDE1E8D2
EAD5DE61
08EDCDDF
DBCB120D
34EB3403
36223D28
DB2358FC
0C0E071D
02F20AF0
FF0CEE07
FBEECD0A
31D43CEC
ED0426FC
1F02FA07
3011EB06
F50A011B
0A0B09E9
0E03091F
E2011907
1C14E505
EDFB14F0
D101F935
FB000302
0A1CF2FF
FF0AE60F
0319E7FC
FFF80613
F9D809FE
E5F3DE1B
2606F514
1902E838
EE10EBD9
0FC09DF5
18EFEC0B
2D18FEF3
F6F12306
FCFA0611
211109F3
EF242C0F
05FE2902
F11909EE
E6F20210
F510F341
FCE9D6D9
DA23D7F9
1434F025
0E331ED0
EAED10F8
FFF7F611
1AE3EBF1
F216D82C
163A1CF7
F9E4C509
0D1BE9E4
C20E3501
E8D7FCFE
06EA23D6
12EF11E3
E2D6DBBF
0819F5F9
F32F0A11
CF03F5FB
021603FF
E4D3331B
FEC723CA
FE060B4F
010E161A
05FBF7FB
020718FB
0102F80B
FBECF910
F5E8E020
E010F7F8
F63003C1
09E1BB0B
0F21E9F1
FE04E5D8
15D0DBDA
FEC53C17
100108FD
F3104DD1
0A080709
C20D35DB
D51102FB
E6FBFB1E
DF602EFA
FB54F3F6
15FF38EB
171EE915
1EB90BD2
30DC07E1
0CAAF81E
0AF1E02A
EEBF250B
E65523DA
E1211801
EE23F3BF
10042DF8
27F8E916
F0F716FC
27E9FBD2
F60519E0
0C2E2BF6
CDDFC430
082BFBE7
E8D8D10D
12FD241D
20F3E001
0B17222C
ED14F016
1505FE07
210C06B6
ECCEEF0F
FE1C48F1
CD30DF2A
0BC105EF
D21C0EFC
12DEFCF3
E144D1D3
E81E1C3B
FF27EFDE
F71AD335
F4102CE9
F11C03DE
2403380A
120A0B0C
05F2041F
D6F1E52D
05FB2B10
1E27F111
08FCD623
F206FEEA
1F13D9FD
45D90B24
09DDD43B
FE520E2C
E70E1652
2EBF184B
01DBFDE4
04411110
1AB51701
14BD38F0
43604A22
23240809
0A2DA6E3
E7FCE7E2
FDC2E1B7
F6D21FFA
C6D9D797
4CEE1331
DAEA1215
0BFEE107
061EC702
3CD13000
C32B2FD5
EED011E4
F7EBE248
FF0015F0
E61DFEF1
21F6191B
DF27BB28
FA5AF5D2
31F9D214
DBD7EE2D
00EF38D5
A30C17F1
EE0500E1
08C3FEF3
DBF2F8F9
ECBA00C0
C437FB48
F9DD0BE4
1A2A4405
2ADCBE69
0C27C904
E44114F1
03070716
1C1FEC0E
A5DF4EF7
0AFDDD28
301923D9
2301F1DE
350334FF
2AF82F2A
A40422FB
E1D3FAF8
210FDE03
EEE9EE2A
F1736DFF
F4C620D4
1913DA38
F909C9D9
1F8FDD19
00DDE52C
F421EE08
0D42CF0C
74F70CFA
052F1700
B0F2250D
2DF808EB
18F8D117
2D35F4DC
0B2DEAFF
F515FEE0
DBB5F00B
0F3BAAEA
2118E5EF
1BDFD4FE
07C2EA01
DB0FFE11
F11AE5E1
F41ABAF8
06FF1AB4
D80D2DB8
25EFFD19
F5F7F5E5
03EEFAF1
0316D4FD
F3DC22E1
1BCEF6C5
FE27EE08
D1E3FEFC
E444231F
A4B7C73B
33F7F62D
F0D6F11A
FF170D25
DD1DE1ED
FB131002
06080BDF
E904DBE6
33254CEF
28E9E126
12F0FBF0
F112E6F2
26FAFBFE
04CD0B12
D8EF04FC
2E01C3E8
F91AE9FB
05FC33F9
02F90F17
FC0521F7
0BF5E221
E9FEF722
2FE9EF24
EF2C1459
ED061DE0
1B1FFBD1
190F0C3E
FBE2F305
11F6FABF
E121E6FD
0A1606F0
1210F60C
0906F32E
F8EF75E2
101D040F
1FE00DCE
2F2F2404
04EFFC22
E4FFEA02
CD09F508
1E21C818
10013A12
1AC606ED
C927FE51
39001904
0FD415FF
FC025AF5
DC2F0904
12BA3C14
DEC8FDFA
D8D51B1A
E8CCE317
E9E72909
3616DF10
0109FC0B
0F0FC9E6
2731E533
15D9F5FE
DC0FFEF9
EF222016
062D1717
F0FF05F5
DE14C91A
14D92BE2
EBB70615
D935F0E3
0E1902E1
C397C743
B8F524E7
2325A6D1
1E0BFC0D
23E7EFFB
EE1DDBE7
1AF414F5
04311811
1419E715
40120122
1A3D2605
07EE0EF6
35283E01
FD01E409
E02B0A26
0CDEDDF9
E21ADFF4
18E1094E
E53E1EB2
F632DAF6
FE2632DE
BFE811F1
F7BB0BFC
1335F222
F32E1F07
3435C0F4
22C4BB1F
0520FA36
0011B20B
F2F7F90E
08051F14
EDE2FC0B
05D507FB
0AF8E91D
DD2EB5E9
FCEF3E3B
BDF35101

