02FB2E0F
1BD8CA3C
00E22043
1FF307E3
0725ECE3
18F4E736
E62BFAE3
04FE1C26
EB14033F
2C0AF1D0
0ECFD2DF
E603F9FE
48DF0920
EB12F1D9
06DC2047
EC1F0211
F90C3CE3
07D90A54
EFDF5CEE
DDDE3126
AE12F5EC
01C618ED
C2F83C50
F2451428
2AFEDE14
0DF3E505
02DA7023
13DE5528
26DF0CF3
F0DDF408
FC2DD7FE
11111A11
3E1CDDEA
12EEEA25
3F0DE8C4
151DF1F3
0EE40120
F5FE15CB
D8123136
CBC021D8
2707D40B
F41F087E
3835F637
ED163F09
E03313E1
0CFFD807
DE0CF0E6
DD0C3229
0D22E6EC
DCF4D440
CF11E0EB
FA1CB823
F814F228
EE0BD6E1
D6DCA560
F1BF0F9B
F1F80A1A
BEF7EDE3
363937ED
0BFA0BEC
E517E92E
08082FB1
D901EAD5
E621DF1C
31ECCBE0
E4C4261D
0749E046
1C0FEF1A
DF15F9FC
07F0F212
AAF322E3
0416FB41
E50A00F5
E2F90516
C0F90BF3
02FEE917
14301C19
FEFFF60A
F301FDFA
0214EDFC
1A13F712
0E10E427
280FDCFE
DD0E36E4
1618F51A
F0F7FDF6
E4FF28F8
F6CBF1FD
FF16095E
BD16E5C8
3AD5DE0C
EF10151B
1E152DE2
0749DB05
1317FBF7
EB130A03
14D6F230
FE2BFA8B
EFE3E7E1
0D1C1306
061F22F3
1413EF41
3E01F3EB
FE13EB26
FCE8DE22
F3E51AB2
069D18F4
FC29F9BF
D1E00F15
E21CCEEC
05F4E503
0DFC0BC6
B9FBE8C7
07F7332A
65CF1AD3
DBE64715
180B0C0F
E303DACA
E5E50FE8
FBFFE8E1
05FBEDEE
D7033701
F4FE20F7
00F7FB10
04F003C6
FAF90123
B7012810
08CB04E3
E118341A
E219082C
FDEC33EB
F51CEBF5
011BFC01
130D03DE
020C24F4
F70106FE
1107BC08
1D2607D0
F7463E0A
3BD8DD30
3416D8E8
E722F5F7
16BFF404
2EFFF8DE
DD07CBD6
E80C0BEE
0EC8F604
41DFF034
E3FB3103
1643B82C
1F26D214
F0F63F22
CE33F8CA
1AF4F045
1EFB2521
3CF8F502
BD310A0C
EA2209F1
DA0F08EE
4CDFE591
140AF4FE
B10320F9
EE2E4506
0614CFF8
166AE2BF
F1E719FD
A91CD6F9
AFF335EF
2D2118F3
D9D92119
E3F8FB1A
F02BF906
97E4D2D8
DA0025F2
F7FC2D29
04F830F1
3011F444
F008DAF0
2A270421
FDEC1B1B
1DFA31E0
0AFA2D30
4DD116ED
28CFF2EF
F8FBFEFB
E8FBFF27
EE0F1BE4
1F3EF1DF
3C1861D2
0715D127
E331FFE9
C2175644
F9E80B4E
E40F2FD4
ED0EFFDC
09D91332
F9D1FAE0
EDCC2B38
3B12F8FF
DA142514
F0085009
1CE316B2
F60E0AFC
1FC10F92
4510D4CF
EF17FE14
EE1AD311
040CFFD8
22CD1AF9
FAF8EAD0
FD081AD6
01FD0804
F1CAE624
110D0625
23E32F03
07E425E4
FBE7F7E2
F605E61C
442411DE
EDF7EFC0
E61C14E9
0C16FB0C
17140405
2FEB21D1
DC02E3FE
E0EE2A43
02ED06FE
082642DA
FF09E0C4
17E811F4
F6D1BE28
151DEA18
D526F3EC
201D1611
F9C00C05
FCF637EE
0E07FE2B
F70E16E2
E1FBF655
0C061C2D
FBF4F7FC
1AEAF3EB
08D6DF57
FD11DCE5
FAF40AE6
0A18FF14
A1C7330C
E3E8EC1E
3E0D0D50
200415E1
24F4C2FA
1AE2F5EA
E2FB14F4
FBD6030F
CEFAF317
E409094D
0D202A1B
F40B0745
FC0BE5F7
F600D2E8
0DFAFAFA
E51108E4
A9191538
C3F1E417
15C046F5
151E0EF5
2EF0F5CF
E5FF0104
1F621E56
23240AFC
EE1BF101
0A09106B
15ECD1F7
0E061501
B1233427
2FDF03DB
C3E32FD2
F1F50E2D
E1F52303
F11CF020
04D10727
E4EF04CD
0AFEF9E0
EEEA23F0
EBF0F805
0BEFFC3D
020A1E03
F90BDD08
FE04E2F9
021F09FC
16E320FA
04FFF6F3
FE2D30FA
070BF424
19020509
09E20BEF
FCC125EE
F41BF01F
EEB4F723
0C2AD1F1
E422F503
01180CF8
BD240418
0524DB1A
22C8F1FC
F70424D3
221002F5
2EE115E6
EF190CF4
191412D8
0F0304F9
FB041A02
DE21D311
F90515ED
2AE6362D
0DF1E6DA
FB081126
070224F0
FD13CFF7
2DE4F30E
3C2E2BCD
231B0A20
ECCDDA0B
0BFF1D29
E4141BC7
F2D5D3F6
11D9C0E3
1EDCEEE3
08E01121
ED020809
13E708FA
0806FC04
D0E10425
DA0428DA
07F6D0F6
FD2C37E0
2BD31D13
EA0026D5
09F81342
CE0B021F
08D0F90D
27D2071B
25DDFB08
D721EF31
E11601D6
D41F09F2
1FFE30D1
01CFFB03
1002FAF5
F90B1DCF
D2FB0AFC
FADCDB36
4412DAD6
2F0BE4EC
0F1CFFD1
EFEF1702
E610F524
EDF5F7F0
0434CCD0
079BF708
F6230727
EEF216BC
1F0217FB
F014E60E
24D2D62E
FA1E07DB
1B32B7C2
E1F8FAC7
1ECF1FF6
D803F901
FE27C501
E201D512
2AECEBFC
E10B3EAF
19FB0210
FC157B06
31FCEFD5
FBFB09F3
06F7E85D
F1F023FF
DF0DFD3F
F1EE281B
272401F0
1EFBF7E7
D41D9C76
AD11C82E
F9ECC6F3
23134AE8
264FB9ED
ECF0FFCD
EFD2FC03
0706E0FB
1504D2E0
E1360FFC
CBC32445
E800B219
C4F9FCFB
020710D9
17C0EC0E
F41B100C
E0E5EDE6
14FAEF41
FCC5161A
C071E5E5
0A3AF20A
F7F524F7
E3D7E300
D608EEF2
EFBFC328
E047030B
17F5ECCC
1EF11CD0
4BD514DE
21F331D8
E4E8DDC5
0410E81B
1BF22501
EAF9E20F
62FCF6EB
F0F6412A
18AFE2E9
1F440424
1D0E0516
E4E01EC9
F938D911
F0E0F00D
0BE42C25
BC210F37
FE0408FF
11FBBBF8
351FF2F7
0619EF3D
44E5FCEA
08D0FD08
F5F700E6
1A1A0728
F4EADBD1
CF03F1E3
41F123CD
F13C1AE6
BF01E109
F6111B17
2AAE2D24
1705FAD8
4CFCE94E
EAF3D0B3
EAB02CEB
08051795
050FF3F6
FCF2F102
E7EDD802
E3E4E9F2
10D2D3D2
EDE01230
0B07081A
EEF2E90D
F70B0A04
FC100308
1100FCF7
F50C1F0F
F610F300
10F5190A
EC060F00
0BF015F1
E50CFCF6
F2110312
2CF7FEFC
F406EEF3
E7174CB3
1110D5F6
F7F91A30
2DDC1C06
1AF41304
F636EB0B
1602FAFD
10EDF618
F318ECF0
FC51DC39
C112C5CD
EA030E2E
0104100A
FA2D2BEC
F7FB2BE0
EFF6FE0B
2424262C
FAAF1D23
1610FC12
12FE13F5
FB130130
FD00F7EE
1ABFAEFA
FD08E527
36FACC09
DB1AFFD9
010EF9F1
061016ED
0C17E4F6
EFEA0EE8
EFA6E6C8
17E01BEA
133B1026
04FD18EE
0501F908
FC101112
FBEFFF27
1BEC33F7
2105ED11
0B2AACDA
FA21EDFF
EEFDF0DE
EE1825EC
F714F306
CC08F310
25DEEAFB
0BC3F213
F10C2404
C6FE15E2
E9EFBF17
FEECDDB1
0016E0F6
D728AEF9
07F40A0A
22F9F20E
F3F3074B
17E03B1C
12F73D0A
13E708F9
D10B1FEE
41EBE3F7
130A143D
2FF7E620
FED5DE34
F84DDAF7
12E9DA09
1808F202
241405FC
E8F3F421
12F128E8
0A03E6F6
DCE9F6DA
01F60912
22BA0CCC
F3F21807
120EE04A
D7F4250D
E2045B0F
2327EBE8
080B140D
043812E9
05131317
10E11DEE
040404DE
20CCE040
2E234714
E5FAF405
EEFEE8C9
3B1BF61B
E630B9EF
EC18EFFC
FA04023D
D41C0FD9
0C08FBE6
D005F812
DE090CE6
E8FDBE2F
050010B6
0BF30FFD
0B1409F2
30E733C3
01D0F52D
F2F22401
E926FFF4
0546CFE6
D7EB1BA0
23D23208
26F80581
14B6FF4A
3307FAD5
0D131A20
17E0FA16
07D122F0
E52D06E3
DBC91208
2BB10EE6
E90B3102
2EF5F52B
F71BB3E4
F018F12B
5AD30443
42B10553
29CEC60B
451C17D1
BA514AFD
04133547
0608FFD1
06103901
CDFB4149
F33FF325
02280E05
DDA90E08
0A32FC08
BEC30A19
1EFD40FE
E8EC0210
32E437FA
F1F21516
F71D24BE
E711FA67
EFC6D7F7
1115B31B
D4E8F925
E301C4D6
021EFF01
19DEF4CF
5EC7F3EC
17F8B4FA
A9D4F1DD
0CD727F5
FF0732C0
EE0A0405
2306C01D
2017F70E
B118EB0F
F71DEEF8
F4F3EA08
E3E3201A
D852DCF6
252CC435
22DA2826
F116BBCD
17390912
0EF40929
B9CCDBEF
011C38C6
DBD229DF
22EB19FC
1506EA3A
38D41447
5911F8D1
E7C8E00D
13F3F1EC
01132708
E5E61408
0C34FAEE
DF17FCF5
FA12E2BC
DDD912D1
131F3001
F802F7FB
1F04E3FD
EB1EEB02
18DB15F1
E42435F0
E027EE0D
E82FFA2A
DC0C51DF
070D0A21
D8F30AEB
EBF6F0E3
030CF428
ADF7F4D7
DC520A54
021EE901
0BCCFFFC
05032D19
D6B0C50B
FBFF1705
EE08ED05
CCF10CDF
F924F308
EA2E1B25
ECDA22E9
10EED523
DCF8D7D0
DF14FF1A
E5DE05F2
280BDAE6
EECDF321
DFEA0C0F
E9F40CCF
F71006DC
F9110CFF
21F0F6FD
FA39E0EC
1215D328
32FF0EED
45BCED06
D3FBE9E9
E4EAE910
001CDF38
3ADAFF11
08FDF5CC
E400F2E8
0809F03C
F803FA16
FF3CFAC7
F310E3E5
DE09C0A8
0EE605DB
FDD4BDFA
DBF7EE01
D345FEEC
063B1FF5
D9063943
C2CAE630
3708092C
1500D611
050BE4E1
1A15EEE5
E3140FF0
E43B2DE7
FFEFF312
E719CDF2
FCDAEC39
01BFACD9
E11DEEFF
EC0F0401
FBE1EFF5
07121416
0C08EB2D
ED33F70E
29210EE1
D433E3F3
06D53F13
26170DF9
F6EC0722
06F7F92C
0EFA06F8
EC0120F5
1407FA15
C40F4CCF
D2282EB3
DB1110E9
F1DB1220
D8F9FFCD
0B1501E3
0914BC07
08EB0FE4
DE090BE7
F21A130E
D8F8201A
EB06DC07
3F0DFC08
F908EEE2
F6F4F511
022A0C02
17CCE221
FD0CE711
3B360CC2
2D10B068
342911D7
19D80018
3CB6BD1C
F810E2E0
CB09E5DF
F215FAB6
EA182CF6
EE2F220D
FF0AA91B
2338F6E4
F7DDEBDE
E8EFFAE3
FA21F70B
CB17FD0A
E5E3FC0B
FEE5FC27
05091AF9
D0E2F3F4

