2B1806CA
24EBE4F7
F6A617D2
D4C22BCD
2E3F3A11
E68DC607
0A1107FE
EC28F0E0
E3052E04
F0C700B4
03FF1D0C
F3D6E014
E2251C07
D8A203E9
E61CECE4
EB582441
DC0504EB
1BBBD60B
D8080C08
D926E309
1A17EE48
00FCD8B1
F112281F
23DC23F3
FC323620
0A0BD808
114CFE36
E0FFF9CA
013B3403
2BF2D9F8
3EECA9E9
0ED60902
1F180A22
DCABE9F5
2145B1DF
100114CB
0C1232FD
02E6E3C5
FB1F92F1
4FA317D1
09E80FF5
AA27093A
FD6B10DE
86A9B525
4402B902
FF490B17
E502DDCD
1CBECE2B
08ED2506
5796FAF8
0BEF15B6
21E7DADF
FDF55900
1BDECA39
F8090BFA
F92DF605
FF3929C9
07DF1DDE
10F1620C
E3162DDB
071DC829
1F642812
C1FE12DD
09CA510E
CDDC1404
0905E73F
E9D0D8F0
F4EDFEF8
BFDF64EB
4033003B
01E3F310
FDDFF0EC
FA15BA40
DCD50345
E7120012
EBDE2D0D
FE03ED25
FE09101F
F4F3BEE3
C612FBEF
D720D61F
D3DC25E3
0BD5DB16
36C7D73F
D41438F1
D9D71C24
21F21DF8
FC383B2D
09F50733
E7FF0F21
090C1BDA
D3C53200
0ADF15CB
4537F11A
FEE33A1D
51D3F8CC
F90F0E23
0A1A07D7
2B0504DD
05D20FDA
CD589027
263DD3D1
22CAB40F
1E95F4E4
FF04E01A
3920FD03
1D0AFAED
2225EAF4
E8E103D9
1430EC22
CEF314F9
E31C25CA
0147C0B6
23E4F9DF
1B17FFE2
1CF9FF04
27290B19
3EE8DFCE
2D03E6DE
B334F7FA
57BE1CFD
29AF284F
18F7DEF2
EA061415
AB3330FA
23B7A43F
01FDE9F4
DE10110B
21A9D20C
C643D72A
D712F720
C00521FD
02FD23D2
F401CF41
08242819
21C1EE0E
39044CF8
F50110E5
BC05F104
E7C9EDE6
00F86C1C
CCB91EE7
E41B10EB
0BE3FF12
41FF1B4A
AC0DB814
13DC20F6
E81C04FF
F3FF0437
EAEF3219
24E5090B
0D19F1F4
C60D20D8
041A23C2
06FD1627
0E0D11EE
1EFC140B
C4EFE312
05F420E3
08E6E2F3
0612FCFE
C7CAFEEF
EA3CD20A
C92AE1B6
231BF5F2
1012EDFD
F534F7FD
CEE9E2DD
06FB4EC9
1117E30D
11C0C019
3755121F
221BDB01
06BAC7CC
1122E2E8
56D5FEA7
C10E67B5
250A0821
EB161B16
F0EDEA02
460039C3
07DEFFDB
DCEF0124
FBFDEE39
F21BEDC6
02D225ED
FB15F718
04B74E3A
6A1B0035
0B17064D
250DF3FF
FE00E6DD
FEC530FE
060FED08
08D82939
2D0EDCE5
B9CAE41F
07EBF92F
10C407DB
F1151F20
20E0F2F2
15CE2DBA
15D8F90D
F166EB24
F5290209
F713B0EB
D802A3FC
A0F5E82A
DA0B11FA
0FD3116F
1A27DA17
09F8EBD6
EACEEBD5
390E121B
FBDE1221
1439FAEA
EE06FB38
F6D7BE1B
06C32EE1
2DFA02FF
452416CC
FE09140F
F82A0835
FD15F78D
E6DA06F2
0A00F469
25E8161A
05FBF716
F419F6F9
C41206FA
DE35D915
E733F8B5
0517F7EF
1AE302F5
B41903E7
12C7C4F3
FF284FD6
1DF9DC54
1102D8F8
EAE027EF
050307DF
FEB10DF8
FFE6343A
1615E4BB
EE0B47EC
D9B70E06
F523D1F9
1BDD3C14
1D0043EC
FF3021B0
D408C509
C0E81640
F40FF954
DF06FFE7
DDAEF5FD
2D21E918
03070719
F805150B
F5FA2509
1054E7EC
28FA0E0F
270A1DE3
B90F27C3
191F101D
D534051F
03100EE2
F5E2DA07
D3CA040C
F2FF24F8
0DF6EADF
CD14A5C9
1406D3BD
10C1600D
1906DAF9
EB0E1C27
E7471531
2FE217FB
0FFC0D11
090B26CC
342013F7
23FD2DF6
FFFE0222
0E120016
14DA2150
19F91CFB
F9121715
0913EDBF
FDD30EF6
21D3FAF9
E1CF09E7
FAE7FF1E
1BE0EFE5
E81DD0D0
2E080D2E
ED1A2B10
18D4ED0F
FDEF0AD6
FCE30CF7
D93E2719
BC01FDEF
F223ED1E
03CB23C0
E6F4BDFD
F917DAC6
B6280406
384BEBD5
15FD0DFE
03DE1A22
1404142A
E4290729
DB0CD9E5
2820041A
E71735FC
F02424F3
00104209
FB16FC00
0F0928E7
FEF1E3F2
FCD52710
12F6F834
F8D2FFFB
E3F4A1D6
0DF5DA24
3EF118DF
33051B0D
01AC1832
E5463305
0ED25436
CA1DF7F2
62047721
EC29F306
1301F90B
EEF003E0
0A18E923
E1E520F7
0051D605
E91A1C04
1B0413F9
F01603F0
03F5FCF2
2B3BF907
F3D7EF00
16FF1B1D
0631001F
1AF020E2
F4F80705
B62D2706
E747C80D
221C1C31
CDCD0810
2CD8FD31
F70FF81E
D61B1F02
F306C8FE
C0F7FA0A
170E2EE2
021D5E21
CEE8E633
2DDCD0DC
F6ED4E06
1ED3FE42
F7CDEC53
172EF60D
F2A10BBC
E9271AE1
E354030E
C80CD929
3C4AFE16
DFDADCF1
F60EF4DF
DDFF060B
0509F5FE
25C11FEE
22E2EDEF
C7C3EEE4
C534FBD0
F641EADA
E1E8ED31
0FFAFCD8
BF5420C5
F4FDFCA0
0FAF14BC
DE0D40F5
1F20FD0E
2D352E0F
F7E60D0B
CDFA3119
CAC6E201
D23A170D
F3EC0202
0F1C1BE7
0A0F22AE
45C14D07
311AF1CC
2AD40DEB
3D0018EF
0CF51510
1E7EEAE7
FD01F500
232DEB11
263615F4
DB132310
2EFDD61B
CD052B46
26EB1017
DF06C92E
DBE5D32F
F435F9C1
FFFE2332
BF35F724
EB07130B
0E2CD3F3
FF12331B
F4AC2217
1AFF01D7
08E71CC4
E6ED08FF
F6531114
E4F8F71B
20041504
1B041E09
2AEEDEFC
ABCA0920
2301D708
F129FEBC
CE0EF14B
0FCE1B04
040FE901
29EF1E21
EB0C01F9
1AC6CD09
FA03F622
02E91412
FBC825EF
48F22E3F
F3AF1117
14EBC504
0513DCED
EBEBCCF6
D24F18D0
BD230424
181041D9
053E5011
4BFF059B
0CF5C205
0FB00509
06F5D9EF
D20AF8FE
FFECD11C
31DFF1DE
E9EAE710
F108FEDA
112CE4ED
F411D9D9
131AE4E7
F01BF5D4
E8161EEB
01BEE4DC
1B0D1F09
03FEE501
E9E5B2FB
10FC0107
81241BFC
1345F1E7
0F14D2EF
D804F125
F3342D1F
34D71816
19E0120E
ECDCF300
1F2AF00F
FDF81310
DF06F31A
091EC907
F723EBEA
0FE8F30B
010303F1
130C10F4
EA111C1C
ED5AC705
EA1FD6DF
EE121910
0CF50611
E0091A05
01ECE8FE
E50510F8
02013DE7
1917F723
0842FCE0
2CF00102
F8EF15F8
21F6F5EE
1AFA0514
0A00FC1A
092C09EF
070BE300
EEDEF912
E7F4DFF0
F72B123D
DD2004EE
FFE3FA07
E7E1FD20
F536EEE6
0132E609
DE19DF13
F0F4EFFC
0AEE1FDE
FFF70B00
C2DDC7F2
E7003931
CEFF084C
2A12F2D1
06182511
31DBF913
C80E1703
18E90BFD
E3EB1CE7
F812E510
FEF6EBEB
00FEE80E
1500BB30
1A99F515
CBED2BE7
090102FA
C1963A08
49E6F619
11251D05
18D9ECED
2E19B918
19D9F804
011219FE
18ECF600
023A08FF
1B0AFDFD
E2ED17DB
1F08EC23
DAEFE705
0C2D27EF
0232E010
FFD5070B
220BF0EF
FD40059C
FEFDDEDE
FAE1F1B8
EF01FCFF
200A0019
04E720FE
E3FDFB15
07DDD408
16F6043B
E7111411
0E22F81B
900D271F
017E050A
110BCCFC
1C25FFFC
E42157EF
1A1BA3F2
D8063528
1000F30E
0509DA29
00F4F434
FCCBE4EA
F2030B1A
2D03EB01
0F1B0B12
BEFDC838
6B3C11E8
1A3BEFF6
C41241BD
F103F811
1AD2090F
0F2509E6
E84B006A
07EF1CF3
CFF5FF47
1056F8FB
11D5D9EE
DE4AE4E7
BEED20F2
171721FE
150FFA01
C52A3628
0F1E2922
DE33CB11
B9451365
00043423
FC17E91F
D428DBC7
01D80D98
B608DCD8
F2F70F08
F70FE8F1
09042947
42EDEEDE
C53DF0DB
DB12C4E1
F6E2A064
20F2C60B
C2EAE7E7
DEF3D706
F01E00E6
06F1BF0E
31F8D13C
1931FC7E
22EBE9D5
F0E627C2
13F4D8AA
D6D50B52
FBD5F5F9
D7EC3F10
03E2FFBE
0EFB2CFB
24ED4323
E748ED15
0107E50F
43E942F2
33E1FF12
06C8DFDE
FF551128
BF99B33E
B35835FF
F21C1013
0DCFF7DF
25292CD7
051D0F07
DAD216FE
C329DD9C
0FF5D00C
BF0019F1
BA0C011C
E90C0EF5
EEC105ED
1A43F529
051FE806
EDDFBBFB
20AFA8AE
0378F6E8
FF1323FC
041E23C8
DA0FBE57
E7E22502
1E16D2F3
003EF804
162FE836
0ED51DBE
1D12DE18
E3050220
04FBD805
F612B6F2
1C03AC27
F3E5122B
1DE4EAFB
F10E0423
1C1F0429
1AD70926
21061DF0
EC03EBFF
EB1C1004
FCEC0C0A
082C1501
31DFF6E9
E236E220
C9F71AFB
C4DBAD22
F108021B
FEFDF309
DDF9210C
12DA61E7
CC17E2DB
DBD4D6F0
4833D5D2
21F2CE03
01FB0724
F2E9FCEB
FC230F02
43AEEFE1
F6ECBE18
EB1E07ED
DBC73212
000E12ED
CE0EDE2B
BA57FAEC
9EE21101
E81E1CD8
E0F0FE36
1C2BFA07
1849FB0F
0925FF11
E60CFDFB
D8FB2BF0
F6D525F9
40D0D0EA
43121ED4
01DF4EFB
0230FE1C
E6E90727
CF1D120F
06FD3A14
07E021EC
04C0100E
E91B039A
F008DB0F
3A09FCF5
CDF4C52A
21B9DDC9
1EDD0427
032004F6
19D8F0F9
E10412DA
EDF11C18
032DFAEC
20F2B1F2
13C40ED7
CCAD17CA
E2F0F12A
EEEFF71F
CCB313F9
33D512FB
FCE9043B
1329193C
E0F30BFC
F4E7EC08
F4CFF2FC
FA22ECB8
FFD6EFF9
2614BE0A
263B24F8
DDE6C334
E5B43F27
F3F40510
0BF3E8FC
F92C1E0D
02F3EC06
F32628E2
1303B0C3
D20DDC07
C74107FF
091EEBF3
E20616C7
07E03619
08412135
F4092545
1A252E00
F351ECDE
2A08E8F7
D328FD04
B31EF9B8
FAE300E0
1216EE07
22FEF306
12EDDDF4
A83B1CF8
EA25090D
2FFADE19
0231E329
0EF6B5FF
F0511D29
F2DD22FD
0F191DE9
DAB80AEC
0B1A1AF7
DC24EC29
D9EBFCE2
25F021FA
E4C0FCFA
E60514DF
10C403F1

