47A5E9F8
DDF9BEF6
1B12EB13
C44D1F06
EEEB2B02
1D200D07
153EF7D3
4CA914EF
0712F9FA
793CEE0A
1720D803
C6031F21
FA20E600
3546F10C
E0C0FB1D
1A7E240F
0349E11E
24FF0519
2AD8FA06
0F13C4E4
F32DB000
DAEBFADE
FB7A2B03
0EB5121B
FA2013FF
F8E9EB08
302FF843
CB0DF403
17101DF2
20EECEF6
0100DDFC
F719BAF6
083937D6
F9EF0D15
1E152243
F2250D09
06D1FDFA
0CDFE4F6
FEA5E7EB
2924091B
210BCA05
3FC4F5A4
30BFECF3
383233EE
093301EC
08A0EB10
C70722C8
03FEF5E9
08D92F19
FB0517C8
F426DCFF
D7FE39EC
C31119E0
05CE21CD
32E026FE
18D61D3F
EDF30F22
DC07E2F4
01ECB5F7
02164A2B
2911EE1F
E8A6DF08
3C9AE426
E82EE024
FBD50405
2BD8EBF2
CCDEFCE2
2008010B
192E10BF
18E8FB00
F0320E2F
D2811BD5
FCE60C2D
BEF118EF
04F91310
FEF5FAEE
D73D1510
D125D909
DFE1FD03
FC3E0CEF
EEB159D4
DAD9E2F0
0B22D7FA
E4F4FB31
ED1BFCF7
043FF7FC
0C3C27FA
D4150263
FC2F0E0C
E007EDF3
08E1C401
2BBBF5D2
C816053B
45DF2B2B
FBF6D5FA
30210604
D74B2EF0
011E1A0E
EBBE161A
2ADE1407
0A4717FB
02C435E2
0AF2FEAE
D3FF1B14
22D5250B
F6C81112
F5D7DFDC
12EDEDE7
03BD01DA
DBE71EFE
0614EAFC
21A9F103
F1D6B0D5
EC4CF126
B6092C5A
C8E8FA18
1DEF0E07
F4E226FC
03E605C3
42F90FE5
0001F707
09040523
FC09D917
08F0FD0F
E2F11A38
F90E17E6
153C123E
0B170B35
F212CFEA
EBCE10F6
F4EBFE03
181220F6
07090FF3
E8FBECF6
ED06EA02
14F3291A
06F60017
16FABC12
0D00133D
DE2F3A4E
2C142CDE
F5DB1EFF
FE072130
12E2F5F0
EFDE2333
00F5E3E3
FDDA10D4
0603E2F6
03E8F7F1
B619FBEF
EB3FB7EC
FC2AC200
021C162F
9E0A1102
1912CE21
02190F03
FF02FC1D
E6F523F6
E2351BD5
FE0DB3E9
09B8A104
22014F06
F026ECBD
F5EB23F3
C8B2EBE9
0F130219
0A02E451
FB0FE923
F1FE19FE
E8DBF22A
9531FD12
3CD419D6
085D2953
D1190FC4
E2214C3F
C62EA4EB
17F1FB14
16FEF8FD
FE06FBEC
DBDACBE1
1EF20FED
00FD1CE2
F35EE5FE
1FED06F3
18EAF022
110D08E8
051E1AF0
0C0052E1
6E07EDC6
E2EE9823
D537E74B
060631FE
EEF816E2
20D407E5
1603E11A
0DFBC8F7
01E8E9F6
F1D9E8CE
FCC52423
F2030617
2CF7E807
29130EEE
2F132CDD
F4F32B05
26F506BB
1019E325
0603081E
16DF0826
C00519E2
B9E809EE
CD33070B
F5EBD9DA
A403EEE7
E9E00406
0DDCE313
E333F6FE
F00CF7EA
24CB02E1
DE194BFF
34D50113
0A13F65D
11F1EC34
ED2ACFEB
2616D70B
E4F6FDEE
E92C0236
15FD0C23
180402D7
D51213EA
F7DCC8FE
04D9E9ED
F7D3D227
F227E931
0605ECF6
AEE61B31
F308BAF3
FCF002AB
0C10EA06
F709030D
340AEE1B
D9FA9CFE
20D3E4E4
990800F7
08032C0A
E11104E5
42F6F6EC
ECBF7A46
AF16CF32
464C2507
DBE9E806
FAF5A4FB
441DF2D1
F21E0BFF
0BEF1202
23F513F5
25100DE3
B2F9481E
F60FE507
D728FC08
07ED100F
E71D590D
EDE2ECE1
D0440FFB
CFB2F7EB
18A6D310
14DBDCE5
E92811D7
D91CCFF9
F5F0EDF9
E3151901
F0D41411
06EFE10F
F02B0F13
E8F90EF0
F6EBE4DE
111EE216
DCC51700
0FC305F7
1F93E51D
1A6F16E5
D610FCFF
1E8B17FB
F3EACA05
BE5E10FE
E55801FD
065D1909
E5C8FAE3
C9FEEDE7
E7DD000F
FF810F11
FBFD41D7
FE412A02
213A2507
32BC1A13
0FFB3732
19B5F221
F2FDDAE1
F63EED37
09500A0C
0117F7F7
21BFE123
26ABEEDF
1F4A1DD3
E1CC23FA
0887C63E
E1C40AE3
F8FCF0C8
F7F21D09
01F6EF01
0E60F00D
EDDC1DDB
06DD0401
F2350312
BEF3F9EE
2A0EEEC0
1737EF08
0F05F7DC
0AD602F6
ED25ECE7
FAFEE4F9
01EC3005
20EDF705
4EC2EBFA
47422820
07EAD420
331DD400
23EC2ED1
3AA0FCEE
EFFBDCE8
6013E621
15C91EBC
C11C28F1
211C08FE
F2BBD0F6
64EECB13
E406E519
F7D3EB2E
17044622
E2044814
EF12D516
F109F3E7
FC2C0FEB
332E974D
30322926
FCCDE7EF
2BFF250D
D439F3FC
154EB93C
F31A1AF0
230F1A04
16AF02E2
32BA160C
F83E0900
2F13DAF8
E415FEDB
DF400BEB
0D43F820
0238F1FD
FE29EDBE
A70E0CF0
39D6302F
44C3EC2B
E12CDE16
FB33EC2A
13A1D514
09141D07
FB730003
1D24EFDA
01AE40DC
FDF2F9F7
D214EF10
08432102
4AE4D407
E406F8E1
F0142EC9
4824F8FE
07391131
45FDE114
14EE24FB
0A3542FA
E0F8EFE4
20FB2F16
06ED3F12
14D4F824
0625D309
24F934ED
F5DB04B7
41091429
1647E424
CB0EF93E
DFD74C04
DC23C10B
F0FA1C16
D41FE701
930E2211
C5D02E19
1D0AF6FF
02E3F3FD
B4970A16
F57E03E0
161B1307
D4D00EDF
25DCA7F0
030B12F2
F103F5F0
FDEC4AF6
F6D9F5E9
18DA0ADD
0CF70ACC
C8F4244E
1525DCD9
D31006EA
30E0C700
D30C3C28
0C46CAE4
FDE72B10
41F11A4F
5B0C270D
D6F8FD33
F3C4E509
17D65114
C8DAF12B
CD12F30E
C8590513
E71BD2F1
F4A91409
0B2F5908
CEFADA17
42CF14FA
12E920F6
11A72121
FE4C190E
08252C0B
FB010F05
0AD90405
DDECF309
4B0CECC9
CE0D0DDE
E11AF00B
E0DFF94D
F23DE837
1930E3ED
3FDE7E2B
FCDEE848
3B1C1F30
18E2FFF5
0AC8F9E6
3230DF25
01FC1205
12241B05
0E0FF2E0
0FDADB03
0A2DEF29
C91E0314
F7F6E8F4
ED001E08
1002FDF4
E9EFFF2E
001AE800
FDF3F522
06F7F2F2
071CFC0D
F8ED0103
F3EBFAEF
18F9FE02
E1EA15FF
F718D60F
F6E91502
F9EC07F4
F709CBEE
D60B17E9
3A17F908
050B1708
D6D8DE00
FD01D104
1303D0F4
C403F200
06DFF30D
BAF3EF14
30DF0E35
2D1EFFF2
F9DFFE00
090B0908
10F7E4DF
4B071415
1F1D0118
0614C605
29F2FC0E
0CF40CF5
13E30D00
F2E41BD0
0515EB0A
0FF81B22
AB2913F2
F2FDEDFD
1FED0EF6
FFED190B
FC012D06
02E6BDAF
061418FF
020E1702
E5020006
05070AEF
0F19DFFA
EFD5CC2C
EC32FD0A
EEE55930
D112E410
E70F15F8
FE00EBF0
E3E22BF8
E961570C
CBCB0EEB
FACF1EF4
1DDF0430
0CE3DDB2
F42B2AE4
EFE504E2
044212E3
E4C104E3
121FEC13
3E0D2405
A8F7E030
3E18111D
F570D6E1
D6E312EA
322122ED
2C0A16EE
0FD3FE43
10E81311
0310F1DB
F507D61B
29170B0F
2C0C0740
13E73A1A
E312061C
ECDD08DC
F902EFFC
D7C6EF03
14F950DF
E43025F0
D9EDF507
11CEFBC6
09E9D5DF
304C173C
28EC3317
20F2C4F2
F7E3FEE0
DBEAE124
F505F901
10ED1344
1CC5180A
E37ED082
D6F8C21D
FF2AFEF5
FB231CFD
EBC0EFF5
3009CF37
08DD0143
0017FEF9
E52EF313
FDD8E6FB
FD65FAE4
D2DF0004
24CAF615
DF1E5B18
1EF9DDFD
EF031015
45D6FBF0
1C19D40A
27E0E50D
10E526E0
09530529
07FA170E
1832FD07
DAEF0622
B604055B
C94E0BFC
2FEEEE86
0EEC1FE4
D623D8B4
A6FA3CDE
6BEA05B6
3C5100EB
133C0AE2
EEDCDAF5
A20E0113
48A30601
E6EE1549
17F2AFD7
F1EDF9F0
40F22CFF
345DFEFA
FA0932DE
F3D00805
3008073E
D1DF08E5
12F03E21
37FBDFDD
B4E5D3EE
F03A0B2E
FBCEF340
FFFCF1FB
3404FA0D
52140D0F
EF0D28C6
D7DE31B9
FA71F206
0FD9DDFD
DAFB063D
C41ADE19
36EDF009
E3020902
301CFA04
F9EA3EF7
1043FFFA
CEF227FF
4B1602FF
EEEFF23B
052BE940
EE03F213
13C8F600
481EE5F1
AF0F202D
0829DA14
161210D8
175CF643
C6E8013C
E926E51B
11F1F5F8
160B3B08
0F0BAFED
1627A129
BFDF22F7
DEE0D8C2
EA49FB47
FBB6D50B
222818F2
09CBFAFB
073A0B29
20F6E6F2
FA0E0709
FAE910FB
31C2F3E7
1B01EC3F
AB1E0A4D
29D8BC19
35E82001
E304F6F6
F3FC0DDC
F8D8E83A
EEF1FB01
080F6A23
E9130FF5
2FFC0C2E
B43A0E27
FF14E5DC
041EFBF9
E401EDF6
0712FEF6
C9DEF7EA
CBEE1AF1
20EF02FB
EB23D504
0C2B3ABF
12EADDF4
FCDD01EB
20FF14EE
EE0800FC
EBE0F6F8
3A1D9EEA
3BE20CF3
FCF7D701
B135E8EF
FB121610
1BD7EA01
1F1314DA
1A26F900
1D20F504
FCEA1A05
F009FDF9
DB2305E7
D6DF0DDA
12C103F3
F02DCAE8
E633D7F8
E32620E3
E5D30EE1
3BDC1F0C
F6382515
EDE9D511
40EDFDBB
BADD0007
01F60F10
31272317
11F0FDE7
C6FAFFF8
CE3731D8
01EB25EB
290DE4FB
142557FC
D1E220E0
FB03C01B
091A0411
E2C5152C
D90A0102
F1E33C21
07111C21
E016C8C8
EAF02BFE
DEFE3BFB
3FDCCCF0
DB1323DB
13240931
15DFF001
FE3E51EB
E7F7180A
E8C00DF9
F3292D32
FD2FFB2F
F94AFBE4
F61333E7
06232237
0FDF05D0
1DEF18CB
F95001EE
33CDEB3C
DB55019C
09F5D8CB
2C24FBC8
16F7AA2D
E41F1128
F1340BF4
04FC1DCD
11D6CB15
E9262814
EC05FF02
DB0C1F07
D625E9EF
FCFA26FB
DF5DF419
D9011C18
EAF4F4EE
E602171C
11FB4946
E51CE4E9
12F60FE7
D5F6E1FF
FCE537ED
1AEE1009
1411FC0A
06E6DDE5
042AEBE3
BE2614DA
422E0EFA
1BB6DBCD
3D13E11B
03BD1439
1101FF08
12BCDA19
0608E6E9
33E5FE1E
F83BED17
C2D84915
26094826
C3092C09
20EB2255
19F51B10

