F1E027E2
07302244
03F629FF
291ED8FD
E5FC160D
D4FCCAEE
C7E01C13
FA4B1FFE
290D5027
F7096E12
FE24EEDA
F6DA0A1D
58F0F85D
30F81F40
A5BBE9EF
FF22D801
DA3FEB06
1A57FD33
12D338FA
DAE018C5
20BC27EF
FBD70247
F1BCFDFB
F71247EE
FEF62B02
1202E7FE
09FB72C9
D20707E8
CE56DE25
0737E21E
06C8E10B
E90307E6
E151CDFC
AAF8FC2A
F9CF3C0D
E9231BF1
D8E70DDE
EA09E533
106CDA28
EB33E7E6
DEEA1326
0D1105DB
C11956DA
1612BD0D
10F30AFE
301F1E08
020F10DE
25041FE1
1201BD35
EC2140E0
A800B3DF
F9050B2A
0A0CCAF0
1A2306C7
E5FFD1ED
A329172B
0C2E1F15
1C030BFA
E217E510
C22C0817
081F1D15
1BE52820
EBD2F511
29CC22D2
EBE715F4
03FC1B07
5EDA0408
06FC32DB
FA190401
E60CE1E8
04003108
DB000D1F
EEE71D14
FF0126FD
040802FB
1FFEF8ED
2244F7EC
29073127
E304F60A
1105FB0D
1BD70AF4
11FF2712
E6140F0F
EEE828E9
06FF11EF
FA04EEE8
3B930CF5
09E4C9FF
01F6C723
BA54D821
F20F0AF7
0211E5D0
DC2DEF22
15FEEAFC
0BE809EF
C700F7DB
052E0FEF
F4090204
19392A14
DC0DD451
01212306
FB1F1613
0434D115
F8160BF7
0D382C09
2C170925
08DCE238
C60A1407
161C2633
3A00ED07
06F2EFFB
220FCD17
BC0B0FFC
DB02083D
2014EB13
00D8EBCB
DF2B0704
1CF300FF
1738FEF8
0820E326
DE000D0D
16DDE831
EAF7000B
06F80514
28D518F5
F41D22EB
F5A1FBDB
08EBFDFC
000AF709
F1E60603
FE090311
EBE20992
0C030802
FEFDD203
FEF110F2
02250416
42F210DE
E9EFA4BE
D5E6CEE5
ED041022
2BE01535
F508F80E
0E10F307
07ED17D2
27040A0D
09E91CD0
F025FFC0
F5DEFDB9
121B16F6
25E33109
D2E6F1ED
E228F2E4
283A03F3
FDF754F4
05C6F6F3
061626E3
E2C91215
4104ECEC
E444810C
E3C7E7F5
E618FB0E
130FD9F4
04FCE701
0AEA1720
DEF1EB22
ED0B17E6
20CE1371
07D0A701
1DE0100F
E41910FA
00E32603
F920F28D
3711BD0B
FD9C1A37
06DCBAD7
26079356
ECDA02F7
0A06F700
0E1C24D3
214CCCF4
D83124ED
F31C040C
0DF5FB0A
152FED19
0629FFE5
2E100007
0DF8DC05
0C2428FB
1625CECC
FDFF21DC
FCD6F039
0F0BE5EA
3427EB0C
DD09F9AB
05A1CDC4
1715E9E1
FA17DB11
EBF70410
E7E89C06
1102CB2A
0DC0DE0C
3425F6F3
13B51DE7
29E30AEA
0CEC0AFC
CBD501F8
D4E9051E
28FFEF1F
2204ED34
0A121D23
FCEAF6EB
16FD0828
E935F5AD
D8E91D2E
F10031B7
DFF1F4DE
F830EC02
20E8E950
16E2E8F0
F31FEB23
08DBE81E
1516225B
DA14E71A
FBF808F1
23B0F108
FAC9A3F8
5A27F616
33DADF0C
E2D005D9
1517FAE2
162823FB
E5FB0918
285108E0
FFE8051B
EF28DF20
FB14E316
FBE6EED8
E5031B04
E238C00B
110114E2
F2CB38EE
2A13A6EB
35161B04
EEFFEB15
00ED0DEA
EFDF03E5
E207DF7E
CF1AF91E
D9C62500
14E4FAE6
D921F7CC
2AF8F91D
F1FF11E8
C6100908
F6DEF717
36E5FDF8
180427FC
EFCC2731
1F020EFD
E6E0E731
EBD50A06
D80BF817
F9E501FE
0809D2F2
1216F6F8
EA1302E3
0B0FD5EF
EFEEE342
10F7F005
F900CDD6
E8FBEE05
ECF720D8
E82B13E1
F204FBFA
C9FB10F4
1503F4E1
0C1407EC
17FDF410
2CF0FC16
D91711F2
02F40808
D41CCCF6
FCEF0A08
FCF7DF09
FAF42EF4
02020836
EDF91CF3
D00A06F2
031AE7D3
ECDC050B
EC0624ED
D0EBF6BC
1EF3F3FB
F1F51104
10F51710
17020A0C
AA0313FD
2005EDD7
051C0001
EFFB191E
1508001D
FD140CFD
E2F8EF04
08DCDAD6
EE14F1C2
FF1AE2F4
51CD1602
FFE2F0C8
EBE6D904
F8FA4625
0C1906DF
EDFFF831
FF1C01F1
05F90312
21073F15
05193AC5
0EFC13F7
F106FAF8
0E15FA03
0AF3E7E2
18271CE5
20FDD8F7
391CE9F3
01E622FA
132107CC
F6FD120A
11FC0FFC
07E20702
F0E7220C
D0130FE9
D32237CF
0ED9482C
E24154F9
08FD37BA
3828F523
1A0DDBDF
C70E290D
0A29FEFA
F8DAEDC8
F038F7D7
F9220A30
D046FB14
E5021503
F030F100
0EE1423C
004115DC
FBEF0FE6
D4E1F5F1
130E0A1A
EBDE08F4
D22F0B43
1103F4D6
F8E923F6
C614F827
1D17ECD4
D1EEF213
1A463105
FFF61F17
0CF100EC
FCD6FDED
0DE1DA37
DCD6FB1E
1E14DE27
030D2D28
01EC0709
01DC1721
FC3416F8
D1DADB2C
12C61B08
ED11F623
0FF4CBD9
1BF82D03
20F7EDE9
0437102C
F9E52718
0BE7F411
E40022F4
2B2CEAC1
DD0FE6D3
28FEC049
F3272C0E
FD0BABFC
D910E4FC
0FD4FE21
0B0703F7
1AFB36B4
2FD70D2A
1EF06925
DEEAEA01
13E6FABF
F0E40F19
09CFD8B8
53D62CEA
F51D0C0D
213124FA
F2162BBE
1AF5E31F
F0E10D07
FF4C13DB
D81D2910
1103F036
FDDB11F1
FA4316DE
2BE709FB
FBE9CF20
0B0B151B
1808EF03
1FE007E8
FDD11CDD
E1FC4BE5
02E50409
ED0FF2E9
30F611E1
9553C28A
370BE822
2213F0F4
3247D3F0
16F20AE6
F6E2E803
DCC0CCFA
0DE21FFC
F35BA7D0
15EBE7E6
D20BF2D5
F3F032F0
18ECFF37
FF0E3D02
E3E045F7
FCF4E410
F4BFD11C
D9080A03
F8EFFED4
27001FF8
F11DD0F9
F5B5E9F8
22092AD3
23E8E30A
16EF380D
FAFB19ED
29221600
DF0501E2
00AA43EF
B501E40D
0D13C5C5
F6E54003
CBF6E915
48040B25
21E91FFB
F60300E6
FA0BF6F5
1826F83B
3516DCD9
231C1F00
D000E0C7
F4DD0E2A
0304F9F9
0700F006
010118F3
000AE6F5
E9F6140E
FDFE060E
150BE109
EBEE13FE
E8151504
F80B1402
F913FC0C
0D21E114
0FEB10EE
21310DCA
FE00CD11
1925E9E7
F004FDF2
4DC7FA58
DFDAFC0F
06030F03
41D3B715
0E020C23
24F1040C
0C461041
FCC2DA31
06160025
ED0F06FF
DB0DE1F3
1801FBF1
1BF1F3EE
E51D0F12
F8F5EAF9
2BDAEAF4
EE06EB07
20011CF5
F90700E6
FB2BC9FA
00FD0207
0CD130B1
101BDAE5
DEEF0AF3
F10612FE
1CF2090B
FBF10F1F
E721E92C
04131D11
05F9D5FB
01020CF2
F1F2F011
3E0ABEF7
21021CFA
E210DAF7
21D2FF08
F7FA18F6
17F103F2
E40E0BE5
2DF7BCE2
D3170202
0FF82F26
03FD3331
02F0CEE4
021AED09
0BEBF411
EFFDFFDD
0B1CF303
DEE8D6E0
0D3EF6E3
2EFE0E0C
1A20080D
DC170B0F
9D1624EB
0E580FF4
51DDB5FC
23230211
E5F6F6D7
2A02010E
EF2D1E0B
3B3DCEF2
E9B9F5BE
FFE8EDF5
2AF03FEA
F3FBDA14
01E0FD21
0111F203
131E3EEA
33FA3714
E8131C1A
F415F4EA
1503F1DC
DCFE08FD
1CF3D5F5
CF18E3F3
3EE5E4C7
1CDFF8CD
1DFEE7D6
F31427D5
E2FEEEE3
E92B531D
CF3004BF
D2E596F9
CAD518D2
F637BB15
1BE09B20
D8230EE6
1B041006
E608EB04
082A121E
EBF1FF0C
33E0E9ED
21D7E1F0
CC0BF3F7
F1C4EEE5
0909E90C
D601DDEE
0FFEE811
0AFC1B24
1816F533
15C000DD
1402F1F8
8DE7D5E5
24DC1CCD
CDFAD309
E61CD615
FEF50703
2DD2082A
343AEF06
0BE3C6DD
E10EC215
0A1E48DA
1D0B1123
2005EFD8
2407C1BF
0EDC2FFF
FEF30036
DDFBF43B
D9D309B6
C6EDE329
FA0AE6E4
E1112112
F1291003
D7F802EE
0BE6DAF8
23F92716
11D9F9F5
112FFF21
1D162818
F7F8091D
F1F9E8D2
E60F20FC
C32A1BD3
F1E11252
EBF211FB
ED2F1FEE
F81DEFD6
00D30E2F
23C5BACF
C14DE5FC
D0D21C0D
FC1AE71B
EB39F807
C0FAFAD2
D81ACBB7
BB02FB2D
D954FAF1
ED0FEFEA
0710283A
02F5C23B
FF2BF0FC
EF2CCFFA
C9DB2838
3AF31AFC
05F8EDD5
0712EB35
41E60801
193CED24
D9810A09
17311E7C
264CB815
31C74F19
EC36510F
DC14E3FB
28E8EED9
1F0AFB3D
EFF73AFB
F3EED617
12E4D008
0D1532ED
1A271CEB
E9130E07
02F0FA18
DAD9D13C
F6F019FD
E6EBE408
FFDCFCF0
21FCE319
20E81BE7
FD00E1F7
F8191AFC
F5333410
EF1541F1
B8D6EED0
F6E9EB19
2209FDFD
EC202401
E816D126
A007F018
0BDAFA0F
DD0AD0DB
EDECFD10
E9B72C17
D1E64BEA
E42A2F05
14FDE010
BB17FD0D
1EFBF406
112EC149
B9FCDFCF
1B22F006
E3F006C9
F5070909
12E4E232
2BFBE718
0E31E816
ED3FE6FE
F9F0F21A
ECEC3E01
FEE51007
DC032907
0806112D
F90931E8
13F002DB
EF1F1A0F
E23CBBDF
0627DC08
FEEAF5F5
0A242AEF
FB1BF107
D6FA0FF2
FEDDD62E
3125E2DD
0B0D1810
0414F50F
1DF80311
09022900
FBFB01E7
31FD0215
3106F907
14160EFB
F0EB010B
B606EC29
F6DDFD31
29F9DAD2
E6F2EEF3
0405420E
1AD50FC0
F2C11209
005AE5EE
E7FBEDE3
00F3E80D
E70AD5DD
01EB162F
DEDCF350
02FBE3FE
FC2A00EF
DE20EB09
E9B6ECFB
2F04EB02
52100416
9D200B00
E1FD2E17
29FDEBCC
CA05172B
EB0A4304
103CEEE9
2BF809E1
1824AEEA
37085911
082C1D2B
03F12B0A
260BEE20
3ECF49E1
DEFCE60B
38F4E81A
4ED30ADC
FC1E0F22
FB0BD523
2902ECCF
1D1AFCFD
10FCFE17
17DCF308
F2EC00B9
21EB0EDB
DCE4FFFA
04092F09
FE1BD000
47013E10
10C1D816
1113E6EC
18EF1108
F61307FA
FCF6121C
2639C113
4AF338ED
F8C9250C
05DB062B
0E04F4FF
D11F00DF
0D1617D9
21F83EE7
FC0B1BED
27E307FD
BDF551FA
BAF603F9

