291E2835
F71BF947
FBF4DB16
591259E4
160AFF1A
FBC20A7E
02F61DC5
EF0CE1FD
FDBEE114
CB3EFCC9
E6ECD616
F2FFFAEA
28DF4BFE
ECF1491B
D206062F
07002305
DEDDC40F
0712D20C
12ECCFBD
18FA16F4
16404854
1009F809
D02F2641
B9EC1EE7
F5E6E119
12F00DE3
F11837EF
C5C40505
EB079AD2
E1F0E6F3
DD1C31F9
0CE12032
E4BD1F4C
1FD930E0
0F25183E
A7053EF6
EA2702D2
F61CE99E
3A034834
FE10BEC8
E11C5500
F11D2AE7
03140F29
EC2F0B23
F3D9F723
201107B3
BEF70412
F3183515
E721DB02
E4DC27CF
F4F0F0C8
EDF5F5FD
E7211C2B
D91A2F04
0418CD40
EE0AFC32
11F9D911
9CF0E8D7
DEE1460C
F4EFBB1F
1C0ED04B
2002FEDE
25F144F5
9CCB2016
D5E5080D
E1EDF2D6
0125FBE3
E1071431
12EB0F39
2401E5E7
06021B39
EFE159DF
CC0A39CF
E632F0FC
FF1D2511
0B02FFEA
E623FD1A
EEFA0CF8
09E2F205
24F4091E
D6F4EF12
EB151DD3
161EF9DE
D3FEF67E
F7EBF5E1
FBF03E18
EEBF1C19
EB02FFEB
FB03C612
F0136E27
08FEF2F3
08FB1B1F
3405F02F
1C0AF88D
1706D60A
0903242E
12F3133F
E5D612E6
EEF01B23
1EF12738
0BF0FE0D
C810FAEE
F9E2E481
F9FCF526
1F461318
F8F5DEF1
3BF0350E
361E031B
F6E9FB19
EFEBE90A
030200FB
F2000708
EDF6E707
1AFAC9B5
3927D6C9
19E0D0C2
F10A0CA6
2C14141D
042516EF
080E0CEF
F7CF0B0C
F9EFDAE9
CAFF1E16
EAE0FCF7
DD180AD4
13EE0122
1FDB2B21
D414BCBA
041D0529
28F20B39
160AF1C9
F3470FB1
F7F3ED05
F2FBE72E
F0F22F25
ECD9D805
2AE8E1F9
13FAF91A
D80107C5
DAE0D7CE
E3F6E12B
DCFBEB24
17F6073B
F31600FC
F4EB2300
2B3105ED
2C00FBE8
03FB241B
D5D0C1C8
D8EEBAD6
ECEF1729
0ADCDDCD
E6EBC06F
FFEAD629
F41101D6
F6DCED35
13E8FAFB
F62E33CC
13F2E4F8
B3E01D26
0CFC07E8
11F2120C
FE022DE7
02122216
00FCD510
EE23E01B
03AAF82D
41E52CC1
F41BFEEE
1001F6F4
B96F0403
E325DB57
DEFDD743
DA5A060F
1FF726B5
06179CD9
0F0101D7
19E13DE7
E73E4904
0DF401F4
DF003B13
0EE7D903
D200F4E3
F30AE223
0AF1EB06
E2EA220A
F7F1D50C
D8103320
48F8F72E
FA0ABEEE
A0FEFE0B
DCD4F09E
0617294A
FA012026
FCF4E821
EC20F7DD
061C0EFB
26EBE10B
29D619D0
2F370041
F8140CFB
0712F73A
390B33D1
3DE8FCD2
E00DEAE0
0E18FE27
150AF0BC
0BC406F0
2FE10E57
3116C035
22F8E40E
0F16F430
411D1436
D2C7E908
1918F92B
BBFEFBFA
140C08DB
E9E6FEF6
E0FBCC2D
E9BF414D
C305EEEB
022ACA11
42F7F7FB
F6EE1B10
FBC5E6DC
0BFC2205
29000BD2
1D2C4C02
1DF8FCD9
EBDAEB25
0C03FE1E
07E329D6
10F81E10
D01F311F
15DBF5D8
0117E02E
2B08CE05
FEFFBCEF
0D2ADFE0
FC1A0106
FAF0F2D3
E504E205
062F3910
FA07E72F
3208E7E8
2137200E
FBC1D201
F8D5D00A
D6ED0215
FD0C03CE
CBFCF527
060822E0
F42EF433
F3EF24DD
F502F8FC
0CDB0934
1E07FB13
F52ADD09
EE3F09F1
EB0CF8DB
37F603FC
F9F50963
F408EC36
E5FE17F4
F9F51823
FD12F214
2B2D00EF
012019C3
141006EE
E82BDFE0
42F81A3D
182605FD
20C5D338
E8F60531
DDF8DB0F
F007E23D
3901E33B
0FF72242
19DDFA22
04140CF9
111902A6
14FBEECA
2EB9FCEF
F0DB07EC
21E8FC08
30F92DD8
38103B20
0D0DFFB9
1907E629
170843D0
000F1925
29DEE8E7
0D08E433
1116D410
02F110FC
19F90CD4
270518E5
2BE80FB7
FEE003FB
140A2233
0304FCC3
E3EC47FE
E0E9E6DF
F21F0FF5
E9DB03F4
CE1B102F
D9360A4A
0722CE3F
14D952DF
060605E0
0FDC2D09
0AF8231E
D516190B
D50AF7BB
160A0910
E61508C6
141012F7
060CFB08
FFE3EACC
FCC5D2BF
170A2BE5
F40BCAE8
2ECE1423
DBD9F45E
0A01FAF9
1801B723
C218F2F5
E616F5F7
F4210CB4
E0F1F5E5
0B0126E1
F61220FD
210DECFF
E7C8E8F4
F7181EEF
12FAE14B
DDFA420E
FA0909C7
240EF1F6
F2F21709
FB2DF020
07FF1E23
B52529E9
DBE5DC14
0A061C09
E60DE51C
E3DD0238
2904F51E
EBEFE4DC
FF2305E2
1E17ED0D
DB2E1DB5
4C1713EE
15030B24
1AF1FF05
171AFBC8
00ED2718
1DE9F00B
F3BEBBDC
131009E6
48FF0D14
F7E4295D
D50D01E4
093118F0
E63AE7F2
F6F94900
FE4E5EF0
F0F10D0C
022303E3
530AF819
F4D92ACE
FFEBF5DB
C71CD1EC
F6ECEA03
0619F00C
08E6ECF4
11E100DD
23FDE912
EF19FF3F
2FB4FC22
1C251633
D809D9FB
19CD23FA
44EE03F3
CAE605F3
D7B0E80A
51163621
2516DCF9
C58E103C
DE052804
C11ADD7E
25FF0D1C
0515D925
F3CEB9E0
E5FB0F06
3A23E104
F4132602
0B11F025
04FAECD2
0DF01755
140432AE
10E7E30C
B512F218
0C000A21
F92CE31C
DFFB0C29
060B01E9
3F2D0EFF
F5ED1414
30F914F9
1301D8D2
FF041E01
E4E02920
E21F03D6
BBE16A4A
07EF2415
191CDB21
E7DCF106
D20EDFED
14EF03DE
04EAC1D8
D21B26FF
F03A18F7
EC2C30B3
DCEC022A
080706E1
D2ECF7E3
3FC3A8E1
E218E011
F9E6CDFC
0E0F15E8
FCEE157E
40EF12D3
CB171527
022DFE13
170D4A27
3FF81D0B
CE41E2F0
B80C20E7
CF1AEE16
FF073612
ED98DB20
F71B0E1D
E5D0D757
11E2FC34
032008D9
3221D2F6
DAE3EAEE
0F16E9DA
17021312
1F16F214
DFECFEF6
102432EE
E619020A
E4F91FFC
FCF9FCEA
0A18F2FE
F9DEF506
0EEE0919
07FD15EE
F8FE11F1
F804E4F3
1E0513F0
2B07F6F6
2507FB10
110C110A
F901041A
040913E2
05F702EF
1819D1DE
03F4DBD8
14213E25
12D5C0E5
101FD20F
251CDFF2
EB31EF01
07FFF403
14CF0CE7
00DEF3D8
9BE1DFE4
2408060A
E6F8FEF9
F2F2F62E
0C03FB24
ED1BEF15
14000F30
F21ED7DF
DD1CE9DA
1FF5021E
F0F2FFE8
C2E8221B
44010245
A10CE90F
E2E90AEE
05E6FA12
F002F5FF
EDD4F4FB
F7FDFCFB
E02623FD
F3BEA11B
0216F127
160D0312
090408F7
FB18FDFE
4947EB03
F42BC5CB
171D6503
A98BFCF6
1805DFD2
F40BDAFA
132BD907
04F5040C
440FEAAD
F4010B8C
1D040FD4
1513FE7E
F60C13E4
E2EFC905
0B2319F0
1020CA56
1DF5F1B2
4018141C
FB20161B
27E8FDA3
2FCDE5E7
F2F4E6B7
F503BFE0
26F1001E
F1FB1DA8
F414EDE6
E7EFEBD8
EBF6F15E
F1E0EDF6
EE1C026C
040E48F0
0626D0A0
B8FEFDE9
FF05CC17
CCDAFAC7
F1F34014
0FDD2BFB
F5E6EE16
D3E2FCC6
F101E9CB
D3FF2656
14E22AAB
22D900EB
1828F98E
171B0AFC
0DFAFAB3
24D12438
F0F2FE28
E8D21FE6
0F14A312
F90A0BB3
D10BFE5B
2711EC15
2B0AC5EC
2A0B2BE6
03EA0FE5
E6EF0DE4
D2EE1E27
F9E242DD
CAF0FB53
D8110303
FB2DDD0B
0B11F7F1
F0100A6C
0D0D2E19
DB230AFB
DF12C4BA
FCF91267
FA32332E
DF0212FD
F8FFF8F0
5BD8D60F
E4F7140D
0EEE0EA6
12D6F5FD
1037FFE1
F7E006BF
3F291EF2
F34DE1E6
34F0FD49
0514EB15
250A0E0F
073F0F1E
172F19CE
E8CD0AC4
081AF9E7
CE0BE4F7
1E36BE0A
1FCFA84F
0AF2C5F1
FDAE1722
CEED305A
F5090237
020AFD12
CAD9F9E8
D603C2FD
D9192842
F01B2835
F1D23E17
0725C703
070FF044
C3EB22ED
2C290CF5
F53B334A
B3FEDD0B
09F1FA1B
E211E3C2
DEFAE600
23F3E6BF
01DA0711
0DF5EDDF
083EEB3C
04EC1115
EAF30238
06FD0EC3
D6C60934
CCEE3548
2BC118F6
340DFE23
2D1D6807
E3D01406
F2E200BC
0EB7DD31
EEECB2FB
1C03DEE8
1BE8FC12
0C38331F
1A6B4BEF
BED84017
19201313
F9040DFB
FF28AA2C
110217F3
E341F5DE
F314FEEB
0D29FFDE
EC100CC7
EE15220E
00F92622
FE0D1EF8
38E3D9F2
E3DFEE19
01F63309
160E0801
CFF406F9
F30115E9
1324DBFC
0302F720
0BFBB50C
F404E23D
6128144C
27EFE351
05E1E004
EF2B4C01
2AF807ED
2BD61FFC
20F90739
120CE800
1EE816E7
E202FA16
CBD7E4F2
F8093E2E
0EDE2B0F
D31AC7EE
07EA1206
0CDD1105
E3C0EFD2
262A10B3
F111C6E7
16DF3138
0F130B00
1107F82F
0431FDF2
0ACF0122
F04511E8
1701E9FB
0B14E5F4
F8162101
11D7FA05
FF1510E2
EC0407EC
C911F909
E4C322CE
191FD7FB
2AF3E6F9
20D7E31C
14EB09ED
DF11F20A
010C070B
0E01FD09
20FDEE02
00F80AF7
E0D819D3
E4210A0C
FC000EFC
EAFE140A
FF08ECF0
E3EAF4F8
29DFF728
F40A21EC
E32DF5EE
F710C7FE
0233C72C
AEE704F4
31E9EAC6
010CB8DC
621DCFF2
0F30BF02
0DC9FAED
F9FC1928
BDE9FA08
E9E8026A
1004F1FB
CF06092F
FCDBCF26
0BC72831
0B17CEED
27F6D5D5
0D1B0023
DEB6FA4E
1CFC04D1
1B1411F0
293800E8
150123D0
132CD1CC
15D6CC3E
1C01D5D2
165DC8E2
16363D1F
E90D0446
E00823F7
0D20FB42
C1DDD2E6
EE0208F5
F4E3DD14
E2F22209
17FCEE1A
2133EDD2
000D0A1C
292410FC
07111CB7
18C5100C
CB42D904
D526020A
F402B8DE
2803020F
44C54DE7
25172889
97FF19D6
F018F5A0
F3CFCD25
07DC39E1
00CC1321
1319F8DB
26DCCA3F
DAE50EE5
E00E14CD
EA11E723
EC1AE2F7
E8D21627
25EFD056
F1EF0115
1C10ECED
D509DFD8

