B8EC0605
E42C5704
EA13D5DF
F31CE802
F3F5D614
0B13C5F7
FBD5E922
E81CEE0A
23243D0C
DBBBFB26
0EFCD9D1
E9EDCBF5
D525FC57
3419E515
26C2F203
E4F9EFDE
CFB01105
F7102E27
0B24C0F5
24F41FE2
F4D6EEFF
F0F1E322
0C22E607
2222DEE4
3905F8FE
FD14FEFF
38F820EE
DA0421F2
001DEF04
15EB012C
2A242301
B9FDCBEB
E49B3343
1123FEF8
A3F8EB0C
E1F5E0F5
C84511ED
E8FC38F8
DB355A10
EBD2D40B
B2A8E6A1
D01FFB26
EC16FDEE
FD0403F4
2922FF16
E40309FC
FA000DFD
FB04D9DF
14FE320C
B7FDFA40
1CF40EFA
F22DDEFB
B1ABF3F5
CFF361EE
060FE705
0814F120
220DD300
0410EA1E
C420F5D6
FD62F9D3
19A605FD
04FA29FD
E2840312
04F81BFF
1827EE0A
06CC2318
19ED23F5
2309EAFE
E0F10F0E
1EFFEFE9
25E2F2F9
D2001310
05F213F7
15E92DFD
0902FFE7
0009110C
F40EF3F1
0AF90F20
0BEA0408
04D2F602
CDF4E9D0
150E0D2D
ED2EFB12
32F913E2
DFF2FEF5
1018FC06
003307E6
0C0DF401
01F00600
1C08C807
2ECEC8E9
D41BD0F2
04054D26
DCFA45F6
00182AF1
1C1A06F7
F61414EC
0DF2F207
6335F8E5
D5EE031E
0ADDE614
ED06F700
FC17211C
09DFF201
F0FF4001
DFF1170A
203F3F14
EE052E29
032A10C5
000BD726
D928E211
02010E01
F247F0D4
0700FCB2
1813F2AB
FDFC1211
C0E936F1
060A0806
B42DE534
12D10811
F1E4FADA
FFD3E808
EBEC01E4
FC09E70F
3EEB1E18
FBF3EE0C
D19411E8
BFFAEC1D
E1FF29E0
D607E70F
F21FD65B
F7F2F2F3
FEF7052A
0EF0FAF5
08173BE6
F71DF90D
F5F2DD18
62E39A11
05270CE5
23F024D1
D4D70AD5
27BF0321
12FD1711
2302E815
04DD15ED
EEE62CEF
27FEDF0F
24130A2D
210ECC24
F1C0F60B
D42101F4
EAEE01E9
CDE101FA
03EDD9FB
1507F408
DCFE05F9
B5DDF4E5
0CFB0323
09FFC9E0
11151613
31FA24EB
E72413E2
D1F319E2
0B010605
13C7E12B
40F20710
F6B3FDFA
2FEBF7F2
FFF3F5F5
1DEEF7E9
02EC1E1E
8237BAE3
182629E4
320D63EA
1D0B02F0
B61606DD
FD1022F5
2FF8E50A
BDE9E00A
DC01BF12
182617F0
C4F9FD0E
D4040EE8
02F1D615
F9D60AFB
F132E710
10051520
FEF9E81D
4144D40F
3BD71733
E9CF2FE6
D3FAF809
F6DFE6C9
E93BCF44
311B14E9
42E1201E
5DFCD1F8
91BC28FE
033DD620
B903E4E1
03211EF3
DB1215F5
E8FDF208
3CEB2C0C
1720EA1A
000FE1F9
09EAD1F6
F3F2D5DA
06F4ED46
D02A3216
D2F3E41D
BFF70EEC
0409F1F0
E90F3EEF
C313FC0C
F603FDED
07371E23
E3E61203
E316F317
FCFDF520
E307DDFF
26DD1004
1416CC14
14012009
E7590712
D1FCFAEE
E02FF20E
1304F8F3
0308D515
07093AE0
DDD718F0
0FF34C0C
F201FD1B
F8271BEA
DC0CDDC6
E50E1402
5D1F24FA
08262C02
D6DE000E
F80E1CDB
102E1B0E
E81C1309
D103F007
08BE4D0D
21DD2837
D9EDF9DF
18C742E9
3AE0D11D
2FEEFFFF
E9DA0C12
09CB0801
FD280005
D9E20A29
EE0308F2
DFEEEBE8
02FDDE18
EB5AF6DC
0E10FDFF
38F6DAFC
E008080B
13A72507
2A0FF1FD
45070D09
EF0E1007
CDDBEF1D
F70F07F4
815C0319
38D5EC08
EBDA1410
F624EA19
1FCC06F7
190A031A
1F3C4811
FB14E70B
06222812
01FE0EE4
3BEBF7F9
FEF201DB
BD00FBDE
12FDF1E9
2B6CEAF6
2ACF251A
8534F9EE
FCF80210
F06C17D7
2CBC1114
56D120FD
0312F628
F99F0AFA
111C0528
0406EC2C
FFFB04E0
FB0906ED
10FC0C18
D1BA06F3
0A0704E8
BC6EBEDE
06040304
3768100B
06EEEEF2
D3D3D3FB
0BD7FCED
3AC7D5DD
100B10FE
0D3507EF
BA24FAF7
0C1BF0F4
FBF90114
1E080D1F
FB2521F8
6F321607
10080DF8
09DAEADD
04DFEA12
BAF9001C
07E6110A
27BE25FD
F2E4FE07
F4B00806
10FDF019
22121103
F71D0AEE
FBA819F7
3C1B4BE0
2B490AF6
11380D03
06171936
E0C0F506
0A212B2E
F71AEB0A
F02A0F20
D9FEFDDD
4AAC04FE
EFF0EC15
F308EDFC
EED91525
C3F032ED
43F5080B
22F623F8
BFF8DB14
10B52FFF
E0251509
CCCDD610
261DEEF4
AD0CF349
E2DF0431
1312FFC5
15010A2A
C4FF2BF6
2E06ED29
2F3F26CD
0B00D2FE
D91701F1
E1F4FE05
26E80D0E
24FD1414
5AD508EC
14E8C91E
40F43DE8
B400E6E0
FBCE25E8
C3D0142B
3B0D12F8
07E90D18
F806D9FE
07F61CBC
FC4C1DF9
5801D3E3
34D7CCED
B1D4F31A
DEFC0E11
09C31C0A
C93FFA4C
EBEED5D8
41032513
F433EFEA
E014F1EA
0C0ED1DE
C7E8DDCA
D6EF1B1D
F51218AD
07F2BC38
0666FF09
2BFAF103
BA24060B
F4DB1600
FE20B01B
29090A1E
34F0EF05
F8E3F1E8
FBD822E0
44FE0B03
D31D1C22
FD29FE38
D5D69FDF
E0E21500
120013FA
24F4EC12
CCF5B7F6
EED914F6
C90D0920
4426E402
D7F8FB22
27F8002C
E5EEF5F9
D8D2F71D
2155F2DD
F0F0FC19
08E93209
24E53115
04E412EA
073CD90A
D32ADE1A
28E6F2E7
EEEF04E4
0A0703FC
053E15F1
F10B0FDD
CF673DEC
23DA090D
22B0DD6E
B53500F2
2EDA1A07
F60CF309
F181EC1A
ED2B26FA
1B2B0F25
E80DE5EA
FBE706F1
0BFEFF3A
F5041D04
2008FD27
F575C4FF
0F28FA13
F5F720E9
C2F2F5C1
DADFE00A
1D32CBE6
BD36EF0A
E6080003
B81F9E30
0915D9FD
50D31BE0
1FF1D706
E528FFDC
FBCAD84F
F4E422EB
F50EF0E2
03050707
150427CF
F3F0FDE5
1518E904
0ACE04FE
12FC06E1
090DF4F6
FD060CEC
05FFFEEB
EDF7F3FF
FF1C10ED
01FFF9F5
E82A1405
F5221114
E8F324F3
041E0210
FDE8EB0F
1906011E
13F20713
F02101E6
200F28FD
1402F602
11103216
0CEA00F3
32FFF907
024A18EA
F3EEDDED
E90FFCD7
F40CFF05
F5F4140F
F8040509
ECBED0EB
12E6FEDD
FCFBF013
1801FD09
0809ED2D
FD27DBD6
3217FAF4
2EEBEFCF
4B010EEE
0016F40B
1611270C
FBD9F26E
EA0F14CE
DB09EFE1
0FC408F1
FCEEF3FF
FC06040F
EE23031C
EE0801EF
0C40C5C4
F4EF0502
0608DA11
FBF10A21
ED16261F
F504F3FE
DD17FB21
0EFFFFDF
E30B0EFF
1A141EF9
F9F7FA09
F8FF0A11
011EEEE6
0717231A
F307F2F0
FEFD0A29
0418F92A
0DDC100B
EE0912F7
1B08F6FD
B31D0823
E6D4F9F3
EAF925F1
151CF8F1
9C47BFE8
F4F11EFC
E29BDB30
DCFB19DB
2D1B03FD
F0ED02FD
6A0A010C
EE1B1D08
C3F31522
D805D40C
0574C0D2
4A20F4C6
0DE6E913
2807FC03
1E0BF30F
DEDA28FA
4EFB03EA
F404FA21
D70DDB0D
0AF30EFA
CA060807
18CA06EF
1FEDBEFF
EDE7F710
3001D815
2901F2F0
044BE518
F40D0BEC
47D2F60D
E4F2F3E8
AE56CEDE
FDDFEEED
2EADF505
123FDFFF
DCF0260F
EB0513F2
1C111409
F10AF609
2F3A00FB
02FCE8EB
FC0EF7DB
E3F126F7
07EDE8F8
1A0CDDEF
524418D9
FBF8F1FB
20EFF21C
110A1207
FCFD20E2
FA2700F6
42AD0FF9
2210E706
1F16C7FC
16012A09
08C920E4
190935F6
0007FAEA
BF2400BD
0E23DABC
37DCBCBF
18D61507
00FED411
20ADF5E8
04070601
F8E5BF00
CFEF310D
18D41332
E61E02F4
271DF6F9
F9DA1917
25F20CDF
5521CC0C
32D5F4FB
FBD2290E
FEECFCFC
E3F80613
340C0AF1
EC2426DB
42FCFF00
220EED0C
CADC2BD3
ED3EF815
D6C9CFEA
10E02000
EB334B2B
700EFE01
E6EDF1D2
2CE8F524
11CF35ED
28FD19EF
D620F531
0C22E6F8
D9BCF4D4
050F10FF
5BF1C803
0A58B5B6
FDD4F712
0138E029
DDF4010E
0F0EDCE9
0E9C2DD5
F8E01900
FBF9FCFF
BACA9EE4
1EDFBBF5
CBEEF2E9
14F8F529
2CECDAFD
0D07EED7
3C12DEF6
EC00FAF6
F0D5F6F2
DECCD21F
D02212BF
E9431812
D205B10C
ED02F3E3
FEFDF7FB
11F4F92D
090B0322
EA2DF90D
E015F3FC
07DD0D0F
15E8EE06
D21E1226
F9C9D92C
056013F8
0704E82A
0324FE08
0A0906E0
D8F21CC4
13EE0A09
FDA3C601
31D2EF03
0AC2F805
0CF6DA00
00EFC8ED
EB453CF8
F5B913F0
FBEFEE19
0FEEC91D
F50334EE
DCF7CFBE
D6033003
1BEA0C1D
01E3E305
E9D0ECE6
EF161221
0BD244CA
E8E7DEE9
03D0DA26
2D0EE9EA
ECD4120F
07F0FDDE
2F21F8F2
18EECEFC
C30DF4F4
23F306E2
F3C70406
F2D8E317
FA2E0D23
1B042319
1C240906
E51C1903
02000D08
F025290B
F0EB17E7
20FEFBFB
FCE4392C
E70ADE1E
08E2FAD2
F20F1510
F4F9F733
0BF2E500
090B1716
0DE0F123
060624D1
F82015D5
332DF317
1DE5F3FB
E6DF2303
F2F5F2FD
F9F3F734
DBDFD927
4DF20B01
E90EC5F9
0C1A16E6
CF06E72D
1244170B
F407DE24
354BDA1B
12F6BFDF
020CC8BA
07EFD9F5
D2D91212
F21C66C2
01C2DB19
FCFA0509
11F50911
28F9B8EE
3A513408
3343A30A
FDDE3F0C
0515BFDA
A9E4190A
210BF8C4
21BC031B
FCFB33ED
D2FA13B7
F5B30919
F9D1E5DE
3021C8FD
C5C40A1E
F4ECF21E
F5E6F5FB
E4EFF518
E7B71613
09021E15
3CD1F0E9
0B2EF1EE
1F41F700
CF13FEF0
203A27FC
401E471E
0D1914CF
C6F1DAE0
D329DCE9
132209EF
0902173A
FADE43F2
F741EBD4
D901CF07
6009F911
F916BDE3
1B1DFA0F
0EDF0FE1
7DB117D9
0D187E1D
B41B213C
EDBC1409
C4C1DA13
E20F104B
F899E7E6
C60F42F6
F3FBCBF8
DEF71FF3

