421DC70D
E5000549
E1F53813
F1FA1A07
FE30D61F
3FE524E2
0202DE20
E7FE00FE
F30CC3FE
08B60AD7
DFF0F015
1613E0CA
39D7F9FF
FAFC1A02
BE5D3017
25FAE3E3
350E3EDE
1602DC3D
2200CDFC
DCF6E40B
F0063D32
E4F836CD
D922C9FA
BE05D6B3
07DF122F
C504453B
04FC1468
19F7EDE7
0BF5EC10
1DD8071E
F709FB1F
1200C949
38EC1815
040808DE
19FDE9E7
F1FD00FF
DDE2F907
01FE38E3
08F30920
E5015128
D32F2109
EAFBE1EA
050B3D2A
0F002D69
261210E2
BAF84527
E0DBF7FA
F4F8EAE3
FBDF03FC
1906E6E9
3E2138FD
16101D23
B8D5F5D4
1207D202
F1F6F508
0301D51C
B4F3E8FE
EDFE9805
07F802F4
02FA5DF3
56111229
F9FAF7F5
EE0003CF
FEFCDBCA
FFED1EF2
F4FE1116
DCDC0EE9
04FBF7DC
EFE92D19
E30A92C8
1CF0260A
0309EBDD
01FECD13
14100C1E
14202BE2
1B0A0C15
F9E7DA21
0916FDEA
03D4E1E3
DF0028FB
C9FAFEF7
C7F337F3
0F3B1206
01027CF8
E9EDE312
2C021B07
0DFAD4CC
F3F7DEC5
020D341F
020F0EDA
E5F1CC40
DB03E1C7
1D1AEA09
EC05D7ED
EF273C0B
F5ED2D18
12F0010C
F6F7CF0D
F710ACAF
0BF225EB
22F6F414
2012EB37
D4101D17
0E20F911
01040BF2
0A0E2616
16F2EC16
04F9BA19
04EC2006
E1FFB7F6
F61D07C2
E30815BC
DB3F00F3
04040EC2
01FB1403
F207120A
03F81320
F108BF32
04CD1908
110BE24B
1B00C20F
E606F308
E304E8FA
00F349D3
DF00D537
1404FCF3
040A070D
001719D0
C7D6F7D2
E5F540F8
11F7FBC7
E303E001
1F04CB0F
1AD7210A
F952E9FA
B9B8E8F7
F71603F9
1AFCC63C
E7EA2415
FD5D2605
14BF1148
12D33916
EBF022E3
08171F11
B7ADC7DA
FAF82AC9
FEF114E5
35E0E404
1B28D7F4
D5EB07F6
0FD01BF0
C6B9F33E
4C2DEC9F
F9FEF30D
E50E01D1
D21AD507
05DBD1F6
F54B0C07
1B0E24F4
E2010D00
F8FCDFB6
00B11B06
18192CCD
FF6A46AF
55F726FB
1EA71321
F307E31F
F50D40EB
1B0909EE
E57E2CFA
12442303
50EBE611
220BECE9
CF6A3CB6
F0EA1715
FF18FAEF
4132EBDF
3A22BF1D
FDEC22FB
F40A1434
13F013FF
FDDDEE15
0504FBF9
42A5E3E7
C41DFB2E
0A44130E
EE230E08
05EDE6FF
EEE30707
11D3EEE3
03D71711
F9E60208
02EBFA41
2651AA00
FB063D43
FC2100F0
15EFF6E7
E53B35C5
B6FF15D3
F2E3CD37
E301E2E7
231BD7F3
E3BCFD0B
F9C81746
1FE0D3FD
E316F725
A3D60409
CCE3EC0C
E30EF0D4
101CFA47
F201E9D8
06B31EEE
FF0AB7DF
3FE92E59
E4F60600
EF061D1B
EB23F94E
EED32CE5
F0F7DDF6
17EF5422
080BE414
0CFB0F35
133AD1F0
D2630BF9
361F58BF
2A07DBC6
CE0EDD12
0CC42232
142107CD
06201D96
EA291AEC
D7EBFD0E
22271F0A
E70F1ED4
F9FD2311
03D8F6CC
C50FE5E2
129C1456
C2060208
04C8EE0A
1A221EA8
F369D952
26F82330
C353EB3E
463340E6
DBF13DF0
21F1CED5
F1151204
F4E736F3
39ECE822
08D807E7
13E00139
F2EFCBE5
000C3717
E0A6EF1E
FF14E048
E5EE0919
1202116E
19DFF10D
FDF6F895
EFF517B8
0803141F
052E1904
15052C10
E9EFCDBE
FF03FEE6
F917FFED
FE092EE2
0CFE0603
3702E70F
D0F138FF
0003DF7B
0517DBED
08012881
D0E0F229
F3FAFCAB
0106F0F1
0205D937
221002D4
ECFC0FF1
EC210CEA
FA0634A9
EED904DD
00FFE381
0118ECDD
260431C7
0F13F0FE
10060958
F822D82F
F8FEF58B
E1ED0DE2
0E01FD6A
F7031010
0E03F7C2
1BF9DBEF
F1F80CDC
FAEAEDF2
01FFFFF2
1803EE3C
EEFEDAFD
F803F2E2
0D09D3BC
E404CADA
13FBDFB8
E90EFCFE
F1FDED5D
0720240C
0DFF2938
36041AE7
020211E8
0DD33276
DD030706
E422CA13
D7030ED5
2904EF15
0C023D2E
071DDB0F
14FC021E
CCF8E4E0
E5F72202
C1E12046
2A064C23
1E5EE229
C6110443
211D105D
F3E6023A
06DCCCE3
DAFA330C
FE1B13D6
F355D3F4
D22FCEDB
EDFCF881
19C7E4F6
160822E3
0CC729F7
2EF3DD6F
071F0BE8
02F50406
16331100
F1F5FCC1
0616F92A
FDFF0CB6
AC36FD30
FE0AD3A6
AB081219
3610532A
1B2F28A8
FC0BECEF
06A6311F
1A00E6A8
03DFDED4
D8F7FBF3
02100C1D
12FE152E
041ED21C
0DF7F8F5
CA370621
E9F00593
0BDC0A07
2116CE0E
B57B0112
16FAF482
B638EC26
FBE10DA9
D13C0507
08F505FB
09F4FFEB
02F8F4B3
1EE1312E
110A1E0C
3933DC44
11F4231E
5DDAF2D9
CFFCE52E
C615C4D9
F5DB1B37
E93E2E03
EF13EEBC
D119FCEF
DBFEFFCC
19240104
F7063713
F418DF2D
FCFAD159
D6FAECA1
DE0CE836
D5E4D1E9
C4F42FF4
F325D1E9
FFE4F6D8
0BFBF521
20FEFB1A
21F8D03C
00FADAF9
FFFD370E
1502ED19
0803F9EB
15F4D0F8
1209F6DB
EE060B2D
EDF32CD5
0B1BF7F1
30EC16BB
3209CC9D
28F5FF02
2FEA1DEB
EE24021A
E70121D5
FC192CDA
2BF62017
28FCC8E8
F401F21E
00E01C0A
F81425C4
1AF9C80D
C51127C8
F81D021C
EBF521ED
E81732FD
81051404
0A17DF0A
B1FFC1E9
361420EF
2F022520
292432EC
14F4002F
2500FB01
D60832C9
C4E3FC2C
19F81D03
FD0131E3
35FAC205
1C06270C
1C075847
B2F308D6
1EF8DE37
3329202C
37182815
04FEDF1E
E1FD0035
C1BBED06
1703010B
185910E7
DB0911ED
1EF71609
F2EDFFF9
F8FACBF0
F7060E32
E4272FCB
EB38D5EC
F501160C
E90E2C3D
29013426
1C30C704
F20B0C3F
E281F5FD
2DF20F23
1E26DB14
ECEFD728
16EA110A
1DE35133
DB1CFD17
05001DFC
DF6D0CFA
071014DF
040AE8F2
F217FCCD
0DBC24EB
203FFFE3
0FA1F015
E1F50315
0E2003CF
E8E31D05
117A1810
E8F50BE6
F2CF0D15
FEEC0217
EFF5FFFA
0D1D351C
FD10EF12
09050BFE
EFDA3B0F
EAFE07F4
07BB2300
F4FC02C4
F915FEF2
D9FD02D6
D5BD0F34
5624222E
11A0B8BB
F5C4FC10
1E240AF9
0015E6E0
07D205F6
01F715D0
EF11ECC4
F623E8FE
0907070D
380FF317
21EAD4BC
F7FFF302
EEDAFFDF
C9FA20AB
F921F4C3
EAF8E804
2329FDF9
05EF07FA
2346F203
092520F5
E10AFC09
D9DB17CE
169D15F6
23FBF8EB
16042AAB
0C1CF2E0
E6F3511A
FB2DFDF0
0E01D1CC
20D4D720
EFF5F9C4
F30AD2D2
FE0363E7
F0FE112E
190E00EC
272F27E8
1502100F
FF13002B
2F06D61E
34D2D328
CEFA0260
FE1712DB
180DFE45
091008EE
0DFEFDDA
E30A07F5
F2FE1630
270019CC
240442BC
F7238E2B
00151124
2618FCF7
E0001735
FAF0BB28
22FF0BE1
0B01F5FA
0EFDDE46
05FED504
D9FDD003
05054EC3
1201FDE0
DD10EB27
1AFCED2A
E82B208B
C6ECE0FC
F21714E5
F3F8FEE1
10D7E0FF
F9FAF960
D9CD1344
BF02E7B8
12F53CF7
1DFF1CCF
0E11D227
F3001F06
F4080B07
F8FF28EC
0EE8CEEC
17FFA4F8
1D06B3E1
F50E3A19
CEFAFDFD
0E079C31
0D18B0F5
05FA28D6
10D82505
0402F821
E929ECF9
11F43A02
D6F830EF
1DF9EDF2
DE2CD410
2A0D13DF
20F61BAD
1AF009FB
01180A26
2A0E0CE7
36DDFAF7
E6013B20
C942EAD7
16FB3812
B2AD1ED5
2E0C01B6
0DE0EB15
C303AEE7
41FF002D
060C310A
EE29F1DE
FCFAE1F3
4A22FAEE
17ED02E9
120ADCDA
3B0EBFD9
EB203023
042EE1CC
F92DE607
37F22CED
0D19D1E4
20CF2507
E7D3E5FB
FE02BFC4
C0EBE7CD
F9F33321
3E35204B
1612D2D5
F5CFDFFD
3F103F0D
FF0F0519
22FE1F09
3427F22D
32E0E3FD
24150200
CF05C402
41CC03B3
D902E527
CF021805
0F0E2BD7
B242F81F
F9FBFDFC
16241E0D
DA0914F6
FD1AF6E8
C81110FC
CABEBC3C
3BF2FFEF
E3295EBD
28F91B3A
06CDFA07
1505CC06
FDDADA09
0F0703FF
C9C5462C
EBC624E0
F7F20316
FAFAEF09
D1F30C1A
24F81011
11083932
1B24D7F2
16F70301
040FF2E8
0E130040
0AF83FF7
040015D5
F9F2D117
1615F504
F12235F5
13F0000D
F910FF10
190D1A16
D9EFECCF
E5EEF2FF
1601152D
B2253A13
E8DD0013
25F5BEEA
FA7E0E25
D8FAFFD4
E0C6EA0B
F1D1F8F0
1C1EBB06
F5CE0108
1D271AF9
2710EBCA
F60FF400
242A10E2
FC42DC02
F8112AEC
0B0843EB
33F7FE19
E0E10EDA
F505B407
EB26E10E
C008DDF6
EEACD938
C622E802
F4FC7D28
03290CE9
FB2DE81A
CFFCEE0A
11D9E9FB
F2F6F7F1
D6C1E40A
0FE8F801
46035AD4
DEF60B0D
26524320
EAF5EF06
FAFCF6DB
ECF31709
ECBBEAE6
080D09E2
1ED933ED
98FECF01
17C53EF7
E60216E3
E3DFFF51
E2C00AC1
1006D6FC
3DD9FDD6
F51FF001
F8E3DDDB
0EFCDEEC
FEFCC709
110C1CE0
E319EBFB
09CCDDC7
E2F00037
D2F6FF24
06F2FCEF
2514FB17
1CD118C6
191A271E
C6091CD7
350CF2EE
041E23EF
0C1E0E3E
41EE2523
F2DE0A3C
E1EE1FE0
EB20CAFF
F4F406DE
FBFBFC1D
2019EFE3
28D02DF6
D128DF26
EFD2354A
CD000CD2
E2D3B200
DCE7F808
17E722FE
D1E1E804
E50BB6F0
FA06F7F0
14FC01AD
131EE32C
4E10DB16
2612F727
EDC93CE6
0AEFCB2D
FDF51CF1
05F70819
F109180C
E7F4F406
16EFB9EC
FB023BFD
08161718
F1EC1BEF
22120FE0
D81ADBFD
0FDD1E1A
E30D14FC
D50CDE16
1A2B0DEC
F1DD21EE
04140606
DFEC1911
41344411
10F2043F

