8B1E0708
ED1F24CC
0CDC0F1D
C0F7E8FB
04FE0A0F
F0071EFC
3BDEDD13
0F1128FD
E600F5BB
F71FC73E
D4FAF2FE
0A070AC4
E8FCE814
CAB7E62A
1FE3E2EC
1EE7BB05
0103E6C7
071132CB
37F978BF
DDD4DBFD
D712EAE5
D0FF1613
08F21F0D
1406EE10
EF16E514
ED22F8E5
F349DBEE
0F2FF1EA
201DBAEA
F9CD37ED
28C9ECE7
000C04E1
CBF4EE1A
3CF90D38
C62249F5
D605DD11
0108F403
EA23F005
BEF3E435
14F610EE
10E72FD0
C53DF714
F132DC09
27DBEA53
C31804FD
F2D2F4B9
E703100A
FDC3031A
EF1EDCCC
1B1AEC1D
2506F9FD
F8232B01
06C80807
0BC90122
E2EEF1EE
2B2A0AFC
1700D3F4
06F63902
E1FAF7EA
2CF8F2ED
60F2F3FF
FC012DAF
06CDD30E
DFE1EA16
BAFF2DF8
01EDFBE3
DBEAFA20
0BF319DB
0F00EB00
DC1C0FF2
D1EFF0EC
1DFD0733
0A00FDF2
FE2E1513
D915EBF8
EA100213
E0F811C2
10E81905
E40C1BF3
0FF5F5FB
27EF0333
D8F7FB3C
C5051707
F729F620
F6FEF617
0B1306F5
F1CF13D3
05E9CAED
E52EFD1A
E41CFA0B
F3FE00F9
1BFE0FFA
1D07FADB
090EDBE4
12FCEA1B
0CF3FDE1
CDF9001E
1DF6FA2D
F4CE0B0B
2717EF3F
0407F519
EEF312ED
F9F700ED
12FB0CFD
24F6310A
151E3DE6
2F2007BB
2215F8D3
2701AFF7
ED1FF213
35FAFD19
F9ECF6F0
05162EF8
E522EDCE
1B032CA1
E7FD29EE
D809060A
EA130510
FF2EE2F4
DD1500FE
FFF6EF1A
1206FEF1
FDFFEF0A
FAFA050E
F5DDFFD7
2CD6E426
091D1EC9
1C12E30C
D0DE4EF6
D7D8EA10
2A1B1C13
100E011E
EECD13FF
09EE0CDE
FD00F2E8
E21807FB
D9F5E0F9
DCE210EE
09D92BEF
EDF002E1
FEBCFBEC
FD26DFF9
D3D50611
F9C2F7F5
00D247EA
D611DE14
C9021B22
3EC82C0C
40ED2722
1C18C0C6
0E6BD1F3
D3FEFA0F
04CF2009
EEF6E116
FDFF24EB
0C13FE15
5F01B50C
E840D241
F5DFDE24
00CF1B02
3520D6FA
EE32E7C1
1B08FF0E
C6F8FC13
FE47C029
E8470E1D
0D56D01A
D631E5F9
1D0D2D12
E8150C1D
08140CDC
2C2BACEB
04D10F27
F6F3EB00
E8693BE8
22F0050D
1CFAC80E
20F026F2
F8C943E8
DDCF141F
EFE9F3C2
1C0C3B1C
FAF8D1C0
EBBC0625
27FCE2EB
031600F8
1A06D3E8
D7E7FEDE
C4C3EE0A
18095CDA
302CBE0D
E714F125
2EFB4D2E
E31FE3D5
0FDF19F8
2CF6EC41
EB43EEFA
F102EFFE
CAE1FF0E
F6030EDF
1D1308E0
0DF7FCF8
361011F8
DC354B01
CEF42202
FCD043E6
47FE460F
F3F5ED2B
FC330C05
F6FAE20D
FB24E409
122A01F3
3D242201
C20806F6
0305BF00
FB1AC8EB
D6E52F0B
E9E211EB
21E7F3F8
16F61902
FF35F9FA
D3F4F3D7
1834B80C
ECE4F043
D7E7FFDD
DB0AF8CE
21C200DF
1BBD15D9
F102FBE2
0605FDD3
F305D8FF
FAFA0703
36EFD60F
3421FDE9
0920FEEF
F2D921EB
F1100310
06DFF217
21EEE139
E523E701
15090220
190FFA1F
0FF40903
E9D511DB
F92D0415
F024D802
0A31EDD2
C5D2E616
4212ED2A
F204EECF
ED07FECA
171FECFA
1CFF1B1F
DA0EF928
1CE3D5E9
2110FFF4
E4F7DBDC
DB0BFBF5
F1EB0906
07200DED
011FD817
4CF51F0F
13F71FFA
FBDCFF09
1AE2F300
0F02FC27
3ECAEB21
2AD5EB27
FE0404E7
11E2B4E8
281B0FCE
02160DDF
16F9100B
D328FF01
F41B25EA
D5F111F1
EADDF9F9
F1FB0321
F9E1F409
E515FBF4
E222C5F7
03E01B15
E81724FE
ECEFE406
EE1E08D1
220EF82D
0412ECF9
0FFF05EC
17FAED07
F61BE013
09F90923
07051FF6
FC27D7ED
0FF0F32B
2610FA1A
E326F40A
14EFDDF8
2A1912FE
1CFE0A0A
0E03021F
D2FFE50D
E909E306
20ED0E17
04F0EACF
EDE620FB
05201126
0BDBFD28
FE32DE09
020F1406
F6ED0CE5
F3ED0E0E
F4F20DE1
F802FFF5
D4F7FEE4
E60E15FA
F3F921E9
F80205F7
1EFE05FB
F4F8F9DB
F415FF0C
0920DF04
0CDD2B1F
AEE2600A
7E2E0808
F9FF4307
130CFEFC
0D3A02E6
F70CF907
CB053B00
0DF6D304
01FD260B
0FFD53F6
EF1339DB
FC09260A
030727F6
DAC601F1
14EFE8F6
1D10D5F9
E70DF40B
071D0EDC
D8130102
25FFD2F6
EB54E719
C7BCC8F3
F50C0D04
FE04CDE7
3DDCCF29
0DDB2D11
EDEF1D16
01E6E8DC
08E60904
19120DBB
0E04251C
0BD6FB15
E1FDDE0F
230BEF11
06F81BFA
30EC3602
F6DA1CE3
021AF819
FC1ECC63
1FD9C814
E1DDE5F9
F7E90BCA
05FBE708
10FDF723
2E14FA0F
10E6F3F0
0FFE13E3
1BDDF6E3
201C093B
BB1C000F
E7EC27F5
1206E71F
640E1609
EE27DD30
273723FF
1626E913
180D09FD
E7F52BCA
292D3C06
072BF107
F5E8092A
F006E0F8
0419E603
CF0B1017
20402E1C
D8FEFF18
EC00D425
35040E07
1C22DF2B
2103E203
D53FF1F3
311B061C
BF01E918
D388EDFB
080D17F3
F9E1022F
23E3D2D7
1E04FC29
F0F007CA
1BDCEF10
12FF27E0
1AE8E1CE
D9D7D4F8
1B0BE4D5
19D829E8
02D5FCAC
F2FC0912
2943FBB3
D0B6161B
DA0636E6
09F42600
39A2CF18
C43D0517
D0FA0FED
C2140C29
240E0C0E
1504F22A
D25DFBE8
FFC82EF2
E6DBADEB
180F05FE
06ED21F8
0916F804
0E022AC6
0656B103
C12CEDFF
CA240CF4
CEFD0735
24E4EA02
220210F2
CC3F0BE3
E1F09820
E0CA28E5
3B1BDFF9
07EFBDDB
05040C12
18041331
0EFD25CB
17D8110E
03140D14
2E413CB3
742ED0E7
DC19031A
CE06F51D
020CE6FF
CC0A27D7
061104F6
F4070212
312CDFEB
0F09F8F9
1DE008BC
14C41330
0604FFFB
FB15E50A
0AEE1804
EDFA06F3
0415090E
01FE0CFA
14DD0B13
F1EEF91D
E000060F
FB06FA16
08FFE705
FC0CEEF4
24DB0111
CC13E63E
AFF80626
DE3A0F2A
2B1E0A12
FFFAD5EA
04D12003
2F480726
FEE9EFEB
1A1EEE06
E01604FF
00260802
BFC5FCE9
C42A110D
DB2AFF21
F606F00A
FDFEE7F9
2307F00B
1E01EBE8
F0F1FBE6
02FEFB17
DF4B25E9
0B18FB0C
E908D0E3
11140BEE
F0ED2802
0BD8AEEE
110CE1F8
03F927ED
F41329FC
F7070E0F
12F5F303
CC5003F7
F8E5F5F8
29F3F0F4
12ECFDCC
00F7171B
0C0305FB
1BF3E716
EE04DB08
DD121502
D5D61032
07F905EC
15050921
05F82C26
3D2B0B32
1FFA0107
FA0EFA00
2ADB2126
39FDEEF0
10121EF9
FED5E7FA
DE07FA20
08292A1F
1707FF1F
D44509E3
FB09FF0F
FEEC38E3
1503FE2B
0203EDCE
F3D012FD
E3E8F21A
F112BDF3
2500FA13
A60BF6E4
FEDA0714
00F81717
0CE50DFA
0DD509D4
0520E323
020602FC
02D2F708
4DF203FA
01F20E03
1E09FE25
F40CD6DF
29D41F14
E8F81000
C5F015E1
E5060C17
FBFD052C
FDED10FD
EC2A4136
25F4F4F4
EC06000E
FD0902C5
25F4D025
FBDA181B
C818F2FF
FAF9BB19
FD18EEF4
E807012B
032300FF
F712F617
0CE42710
FE0202E7
D4172DD8
F82A1AFB
21EACA05
2BFADE1D
24F30400
090FE3D4
3DF73E37
D2FE1B2B
EA18FB0C
EA11F623
0B08ECF6
F71A03E9
1DF707ED
FC31F210
1BF3C52B
0613DC21
E822EC34
0EDE11D3
15CC01F5
D656F1BE
C9C1F006
F7FD48F6
EA111322
E1130EF4
0C1D1E24
E43B0033
0004FEDC
FC18F519
051DFFFE
BFEFE61A
F6F0FFFC
0504E442
F2230A01
3512281D
30031CEA
47E148E9
E130FFDC
14000C05
06E5D3FF
E2EC3C01
412DF104
F800EAE1
C2171CB4
FE0040EF
0E9A1527
FDF41DC7
EF02FB24
1C040ED9
9C2EFFEB
CF20B743
0E002D1A
F5E81FF2
F6192542
02030348
DF0FF91D
2BCBE3F7
1CF1D755
090FFF00
2301C512
DE3E122D
EC15FCE1
DBFBEAE1
0B68CCF1
1917060D
DBC9FF1D
D201F5F2
CC3015AD
D2D9F10A
5010049C
EE0BFE2E
EDE5F4E4
2CCFFB16
02232BD2
EC18F500
C611D046
F6E62C45
E00516FE
1518D3F4
20E3F001
E9F10E02
FE14E81A
FFF40FF9
E00DF9B9
DB26F2F9
30BDFCE6
EEF1F8F7
D908F3FE
FFE513DE
D4E40BFD
FCF61305
DEF42706
090C0434
FA061320
D613CCEA
E2FFFBE4
F5F542F9
040AFDFD
FE3507EE
BFCBDD05
14FDE0F8
12F34318
F6DDF530
15B33236
F9CBD23A
11E210F9
06EEE629
10F10523
02DDFB0D
12E8FFCA
0929DAFD
0FCEE71E
1F9F2E1D
16FF2B0D
0FF008DF
0201C8FC
0E2323E4
0F0EF8F3
EB1E0F0A
1BC9F2F6
14D1050A
0B16F31A
F0E8F8DF
F52EECFC
1AE00039
1417F0DD
2F09DBF2
F612DB1B
1538E8F3
EC0BF1EE
F8C604ED
C9DA0EFD
0830FFFF
1005F40E
E4F61CFC
17F1F1FC
07F313FA
DBFB2304
DF0D050B
0511EA11
1DE8F030
F3D3F5E6
002EF8E0
50E4F3FB
1E142513
F608E200
FBEA04BB
C3FF00E5
F7141802
F4E92602
E2EA1211
E0F912F2
F400E3C3
D3D9CA05
2310F612
DFE5FCF7
FFC9EEEB
0C00D80F
1901D11F
210C0B2A
FD09FD13
0FF91CAA
09F5F651
09EE10EF
13EEEEDE
0B29DAD7
E73EF3EA
0F44E0EE
06E8EFC5
EEF135DD
17AF08E4
22DF0817
F9104131
28E105D2
FEC327F9
F2FE11FA
1702FFF1
F8F10C09
D633FB2E
F4FBF011
EBEFD1F9
12F80AD4
F92029E1
CF1E050F
2EEEE6E8
1BF4F4EB
EA0D2911
CC12E01A
E426E935
E8CDF211
D820F6DD
E1E9B3F6
05270907
0EF7E0ED
14C4DCF0
131413E3
1EB8EEF2
FEE61714
FB2806EA
F6E5EC11
30061A25
F7FA1129
F6EF090B
021916F6
E1F73100
D30FE3EA
100B10DA

