4AC12AC5
FA0221E4
D9E6EFC1
5EEB023F
E4B120D5
F70DF618
D42D15FA
20F20DD2
E80117EE
C0EE9CD5
12093C02
CD08A4FE
D2CED6F2
F9DB1BC2
FFF1DE37
ECF8D9FD
2EF7D2C3
1A1F1FF1
12F6EC48
F926D0BE
E726E6D3
20E8F7DD
EAD6FC67
B0D89E16
002DE8B3
F7174923
B71015E9
FD189E13
103234E8
042C0F08
0B3523DF
042D3B14
1B20F5CF
BB2E9E0E
ECE81E34
4020FD36
401A2AE3
B2091DD7
DB360F24
08171207
D60C053E
0F22ED22
F104FFFB
2D4A7EF1
1733CE40
0200EE35
ED0F170D
2B2CBC1C
2F16E6D0
CF14B30A
1B43E02E
DB3EDAAC
1F15F906
F1270CD3
100708E5
D7E4B21F
E90DE203
E0450181
513C291F
3FD6DBD6
17E40460
36DBCC14
12FD19D2
D5E8D10F
F1FE0E1B
E8AE02F5
3033F9FD
B4EAFFFB
0DDEEE20
E408ADEC
00F3F7C2
BC39C6FE
12E85906
09D500F3
FBFFCC07
34077E01
F9070BEA
D4E281FA
EA02F5E1
3ED81DD6
0516CA21
A2A6721F
DFF0E3E9
D84DCDE6
F3EF1003
011AC207
FCF6D9F6
02BC01E8
32319FF9
1FE7BCF2
1CBC17EA
ED2BFC35
20FA1010
FDEFFDCA
FD1DEC17
0AFBFA13
1E121C04
CDF9D4F2
010CEFFD
FCC5F534
DDF0E4C2
1F23FFEF
B82F4DEC
D71637E1
CCE7D1E2
10E77E2B
D52C3B03
CD71DCF9
11FEC510
EE10F9BF
F21B310D
8F2728A4
0309E022
39ECD8F3
131019DD
F61FF8EC
CBF3D504
EFF5250C
59CCF3EE
07F30927
E5D0C91A
DA293638
1907EAEE
25F129F8
FE1CDAEA
DED8102F
29F00D01
403334F7
2EFDDA17
2B0417ED
00FE1FF9
07E2FE2A
01B7FF11
30D7FBCF
BD25F443
FB380A08
EC030DEE
DBB1E9E6
D5E41332
0C1814F6
D1FC01F8
F1E0FCAF
EB1B0B08
F22A0B21
071006B8
0F1FDE00
2D1817FA
EC29F4FC
F6D7D23D
031C31E6
38D10110
0D707509
C50DDB26
1BD7310E
D226FE2E
DA57FBD8
FF0801E5
F9FDDBF7
07050120
E8FBF1E0
F9FAF70E
28F724F2
E8F2CCF7
E7BDEB15
08D72306
05E50D36
0EF6FBFF
F6BCF80C
B934F0E0
0506E9F8
1DF108E8
18F62A35
1A0932E8
F425DBDF
ECE81239
1E00AB04
F713130B
2B1A44F6
D60BF3FE
02474007
F31F01FD
33F31829
4C1F0897
1F6317F1
C62BF031
E806FFFF
3D12020C
232C09FE
0BF90AFE
160348AE
DE14F6E2
0FDC1407
2FE1D1C0
0C24D01F
CA071AD2
A144DD0D
0FFB10DA
66D12016
07E0DC00
D316D90B
36FC95D7
C302ECD7
15F4C8F4
FECE1922
16133316
53991739
44E81D1C
7C4A4CF1
1D05500E
0CE6B8CE
2D436A28
F91905D3
CDDDF6DC
FB1B3107
02FC0EEB
F909E414
E4FBF9F7
6200DE01
FEDAE1F0
D50EFC0E
DECDD42D
CBF6E51B
14C63F09
B7C5E611
1C1ADEDF
61F6BF3A
CE004B43
1D14B808
E30C3606
10ED13F8
DAD5CE07
F304EFF4
1014E419
0649220B
C8D714F4
19041303
E706E5EA
ED17D817
E8EBEFE8
CEE4EC2B
E7E72FF1
38030DCB
0E06F1F8
1CFB1B06
E8FB7E04
1BE49DCA
F7035014
E2FCBE05
FF0D46F3
C7C30C12
2514910B
1B1F0E32
10F5EDD7
27F3EB1F
4CFD30B3
B5FB3C15
E60E1FCB
E1F506FA
F5FB2BE5
E91C432B
F3E41EFD
F42497F6
E9063FFB
02DDE82C
0C085FF2
37CF40EC
20DEFB13
7AF035F1
E529BF1B
7ED5FEE1
EFFED820
98DC08FE
F419E32A
E9F4FEF9
EF233DF6
4EE38718
08187E29
E4FFFE1D
E4FCB6F8
FD11FBEE
FA1BCC14
CD320FE6
09E9C3BF
5EDCB61E
D8020FEC
24344D1D
1CF6DFFA
D0FF18FF
FB1E2922
0F11E8FC
FEF20ADE
7B056212
160D60F3
1A0CF945
0A2730EC
0DD74CE2
F028E3C7
37F51308
18170F29
31FBE80F
D1E090E0
DF0EF7FA
1F13071C
CF0B3A0D
4911D527
C411C556
F5EF000F
B81EE5ED
F70D06FD
220DBDC2
DDFCFADC
3126E9EC
DD15C211
00BD4CF5
140BAC03
7A01C9E6
FEE597FD
02D8DEF7
FFF5AC09
88F29C04
FF162BC5
196EAAE8
1734C0E6
B8E4C220
2A222F24
1A232EBD
14CB623C
A72681E6
F1C5EAFF
DDDBC241
1712C6D9
2117F4F9
F200FCF6
D20808FB
BE343322
ABFF2EC3
02F728C7
93D4170D
E70715EE
28F01DEB
F9FFB81F
582FE927
D12407D1
1B0DB0B8
7324BB33
F1D738C7
E70FCD29
E9E711F5
152BCAEF
2DDD451C
32FB0DC9
2C0EFD11
E20C2330
B61D21DC
E5F4BC1F
B804C2F8
2D084DCB
CA0ECA52
0BE3DCFF
810C3CC5
2FCBB70F
111F4A3A
D70011DE
DEF0C5B2
F936BFF9
3AF6D25F
FB06E9F1
391C72F8
DD01BD14
E3F504FD
23D803EC
F559C1C1
A8F1E0D9
321BD0F8
1BEBC703
1B00F92A
D9FE24E9
2DFCE11E
17F6C119
09E2E7FD
F1E6FDE5
081156C9
25264103
3630F1F5
E7F8F906
21F00010
F60C1FCE
0BD0EAEB
DF264A93
C620DB1B
160D161B
D00B01B7
CFDFE123
7DBF0F15
CFF41B27
0DF4F31C
15FE0F01
F30997E0
F10AE8F9
3F0E7E0F
06222AFA
01CD1FE2
D2F00C34
D7CEF7F6
0BF819FB
441831FB
363AEAD2
EF05A743
263A1701
4D5019D0
14FD2B1C
FBD73211
FD1ECF1C
BAE0B963
10051430
F221AFD3
19F6E108
E8F4C602
1034D9F5
23FB37FF
1CFED1EC
C4D6EDC4
21FE08F8
1825B2F8
23FE142A
FCBEF641
2ACBCF04
E4DDF0ED
12FEE5CE
EB0B040E
18D2D5CB
321371FE
F304F0E9
EB37D1F5
1640FE36
F73B2803
F2E621BD
46FCC6D7
EB3CE1E2
313234FF
37620115
D92CF73C
07C414CC
55E242EA
F801CE08
EE146923
20E14911
39E13937
27FDDAFC
F6EA081C
06F50201
150AF90D
ED04E8B7
070A26F9
F41C391A
2FD41AE8
3BEC09F3
0DE3FFE3
14FBF2D9
1D2A171D
39CE00DF
05CC0FD3
F8E3D7F5
E7DEFBE3
051EFBE8
04F81B04
F720021E
F20B2825
F2EEFC02
F501E00A
191A05F2
E82A080C
C231ED16
B70DE9EE
2119EC0A
09E80A10
F7E3FD19
0AFB18DB
290612F5
28E007F1
16DA0915
062023FA
E5F7FB0D
0608F1E8
EDF6FEFD
0FF1ECE7
260111F2
00E5F5FE
23E8EC21
12050D1E
F9F7111D
23F400F4
F3EB0E02
0926F300
08FB29C4
320D0B00
251A20F6
FFEF0CFD
17FE3625
F317FCB1
E4EDF42A
FFF1F70A
D0CB0109
F90D0BE8
01F5022C
FD230808
F0FFEAF0
1812F8F9
4120ED0F
18D516BF
26ED1837
E6C8D8F6
E9E01B34
96E9D5FE
0118B5F9
DBC9000D
090FDA73
DF1C20D5
D5ED95D4
F307BA1F
20E41D33
671DFF13
D6ED5D5C
8BCDF8E6
F9450C29
4BD80E06
F60302FA
0E0BECED
F6E52823
3031F3ED
0EF125FF
17D118FA
FFDFFC49
F8DE05D0
08F627CA
E3C3220F
D7DA03E0
051EF2E5
E3FDF405
DEA8DF17
01D7DF30
55E86FE2
F7F902F1
D7095306
0401F3D8
49EF11F0
F404EE15
1204E11E
F5F023FE
3E17D8E0
E64B2BA9
4DC1C628
2304061B
50DF5E04
E308FE28
083BC8E4
04E42F15
121E19D6
CA0CDF02
3800F135
050EECF0
BCD4D8DC
FFCC35FF
09FAB822
DB0F37FE
24F25C23
E00CDDEB
B2F71BC8
D9132A4B
DF2D9415
04264CF2
C90D3AF2
00155701
C8D218EB
E10FFF2C
C9F3D909
EFE21714
E30A2748
D42A0B04
09E7FE25
2109182A
DF3281F2
EC26EBF0
292EF9EC
20D2F134
0E1627FB
DE0DDC18
20271A06
F2E8F927
FCBE0EA1
E51B100B
D41ED4F8
06E9F5F0
19E1FEDD
DE392531
DDB011F0
EB021FEC
0B3311EE
F51DF42C
E8BFF2F5
D520D903
05BF0CD4
F1E4C54A
FAC2CE1D
CE0F0AE8
06E2CF00
EFE819E5
E61EECEF
FF1507E6
FDFEDFE6
F817E5D4
412A25B6
E02D2C11
DFF9F1E3
0FECD1C2
38E9F11D
CD0D1046
E40AFEE9
D5341DDF
714A57E6
110D13FB
FE03C0E9
C6CBC919
34E4474F
21E117F1
FD04AF05
16B23433
F30EAAE7
17E4F8F8
05CE6504
40E2EC00
2F005C21
DEE04107
C2B2D7F6
000519ED
27E777E5
0401ED3B
0F0A093E
F00DF42F
060D1619
CA2F13DB
D4211A08
100AFDF0
210B0BC8
FA17E3EA
F2043BF0
1E01FAD5
04193516
00F3ECFE
0FF7FDD9
BE1027DA
E1F2D9DA
FCF6EF2F
D3E7CE05
18F92FF8
FBEEB1ED
EFFA3102
1BFD15ED
FF28C8E4
C1FB51E9
5A5715F1
F6F8D0E5
29D4F311
09F178CF
E0C6E4F8
E2CA0CCB
F4DF1FD2
F0CCE904
0BF1D749
0CBCED08
11DE081D
B70781CF
DD08F5F8
F0EA08E0
000213F9
06360CE0
E61DF00C
10FE3A49
FBFC07F8
200AA30F
00E6E69F
0516FDE2
5009F7FE
E01CEAF4
471FFDE6
FE17ECEF
EEF5CB0E
1810F604
180C0807
F4F3FB0A
17FBE5FC
1D1408EF
DCD9C316
EEECCEDE
DF1CF1E3
C9FE0FFD
F30DE7F2
092A15FA
13DCFA1F
ED16EFE3
07EAE93C
D3FAE8CE
0E37FE0A
C9CA39F9
C2ED1F15
0E317AF3
F612F8E3
240926C9
CA08D7F2
EDF51A2E
03145328
D5BFAF17
D206EA06
F2F6E002
EAC82F10
0A39E9DC
122E33F8
DFC4CAF9
01F40828
1227380A
FD19C01F
544D7E0A
FE18DFF5
31C94820
2B0EC001
D0142525
D01A031A
03FE1D18
FBEFE277
BFB6D32A
DE2A0001
390952D8
DC10F0ED
06115A3A
28FA3DF1
F9FB56F5
D40CEC39
2BC51BFF
104111EB
FCE2B8DE
EFE9FEFA
F1EBEF05
F324F714
E335D10A
FE00D1CB
D5DF250C
24130C00
EDDED3C9
0BF7E8E5
E0FEFCEA
21E0F80E
EBDE2D16
11295D0C
E92A032E
2ADEB416
452671FC
1920E40D
3AE748BA
1BE10313
E202B2F5
4817F92E
10D9DAF8
042FF904
A2D3AF28
DCF1EDE6
070F2BE2
DB090E16
0B281BFF

