29020040
2088CD2F
011913BF
F10DEEFB
211633C5
04DF01E6
1425ECF4
16DCDE0C
F232EBC2
EE5BCCC8
1541FF2C
F2EFF8DF
0208FB0B
E42FF3F6
DDF3DD16
1766D6E3
F1E01E3B
20A501EE
0E0D0427
231EFEF5
19092A0C
1344EC00
05E90910
EE88EC52
08EEEBF7
FF2018E0
D5DE0530
DFE4DDF5
F41504E1
FE06EE5A
D9E7EF06
42C8F7D5
DF180ECE
1512F91D
0EBD21B7
18DE2AE0
09271316
F2C7E62B
E2263CEB
DE02F020
13EE57FD
322F2AE6
21323404
F8FADAF4
05F1EAE0
09FF2B0E
1C23FFE1
3AEC04F6
64F5C208
10D32BF9
DAFE0CEA
61F9F8ED
D80E2AE9
E70CEF2E
2F253C0A
FD12C214
1D0B0403
380534EF
05230BF7
2F19E0FA
0ADBD1ED
0033E8DD
1F251823
1F2C02E8
DEDAEB12
F6FD1DEB
02F9E1FA
ED08F3DB
FBE0E9E8
FF2B0DCA
1E2F5A0C
DCD1053C
0CF502C4
D53CEFF6
10FEEB16
04FD1A0F
21D82605
F4F4E203
F3F10AD7
FB10FAFB
D8F6E5C7
DC25FB27
EC1FE804
18DCF21C
08FFCCEE
EBF308FE
14F70DB8
FF7EE032
FBF9FD2F
E61503BE
C8293932
010F4FED
FAFCEE25
D92A12D6
1F07231C
F6F301F1
04F3B3ED
1924150B
E102D9E2
14EF330F
2C170CCC
E00D0FC3
23FCF5FA
FC0D1AFF
19FD3A01
180CEA32
22DADB08
1931D9DA
F70DFF06
0BD004C3
FE0B08E9
F5350BFC
0CF9EA21
0BFB0025
FD401AC9
2D0ED235
FD0FF921
DCF81916
EEBC261D
2131EC45
FAE5EC07
18C0E70E
0305FDE4
10D8DBEF
EA080D17
F2F5F40D
122116CE
D6EBEBCD
2E1DF517
000FFA1E
FBFFEADE
3F2615C0
14FA0CFE
D809E906
0FE7FB32
07E93503
43213A1F
CD3BF097
2DE01407
CC0AEA13
D1FF13AA
1339E1F9
0F1AFCED
DC08E915
E103E50C
E12E17FD
01E91B32
D852E3F5
17110605
0AEFA2F5
1228EEF5
FB3FFA0F
0B27202E
0241E8F0
3310EBDC
FAC20AF2
CAF74148
ECCA07D7
33E4D0F2
E53E1320
FF06F7FF
1AD80AFB
06D51EED
0716191E
C106EA5E
1E8F4100
0A021A21
FB8107D8
0206FD04
FD16E7F0
12FE22E4
1DD91912
0BEE1CBB
EFE7271A
33FA0FF7
E8082719
26CFFA0A
E30D16EF
290803DE
28170836
22E4FBDF
1DFBF84A
E505E6F1
EB05C9E5
F617EE07
320914E4
1624F332
B5F728F5
27F8130A
FB0902DA
FAF2F907
ECC51714
070FDE24
120B02C2
F4DC33E2
EAE00205
EA11FEB1
383828F4
2D270DE9
FFB8FD13
F3F5E51F
0A1A1FE8
FF1903A9
1F000E0D
E400D9CB
E024201F
BF1DF210
060710F8
2A01CD18
1D1BDBE9
E72BABFF
094507DF
EB060705
20BD0509
07E81C25
E9FA39F8
0DCAE9DE
F9FBE300
0BC2F6AA
F12BDDEF
2E011740
F033B7FA
0C17E418
29FA41D8
ECDFE3D5
DBD1241B
1709F227
DF3D24F5
430DF1EC
2D23E5EE
F92DEE31
30D61521
09FDE813
0A64FDE5
F4090D07
16ECF3FE
EAFBF3FB
0F0CFE22
FBEAEEE3
E018FEE4
0D05F8DF
DB1A1ED0
4E23F9EC
17DDEF0B
25F8E32D
F5D10EED
1C01F222
E9F31711
E429FEC1
2812E2CF
E80C163D
44E70BF4
1CEAECFE
EDF1E80F
F5EA35E3
0BB61412
0A2FEC00
EA134507
FCE90601
E2F8080A
05E81233
04070EE5
E5F5D3DE
2EE50733
16E1DB33
050E06F1
19F648FA
13F4EEE0
35FDE414
10E107DE
09F0FCD1
DC22F42F
AFD4F1F8
DD023007
E8D82126
FCE9ECC4
DD0D1EED
E410F30F
F10D0BFC
032AEFE7
F22FDB06
EFDF11F4
05D910F1
EFEAE922
FE01EAE2
EFF90213
2F162BFF
FB1F171E
EC03FB01
F1431028
E5021BE7
223607FC
FCE6181C
FF1421F8
1D13F606
0EF601F1
1AEDCC03
E72BFF0B
00D5FEEF
F9F4F8EC
12042207
F7DD19F5
F91E371F
FE34C3F1
F4E5FAE3
02062AC7
F5FEF81B
CE3A01FC
FCE722D9
3A020911
FBC4120F
E419FFE9
EC0813E4
E4E501E6
FBE0EFE6
E522F720
FD03E206
15D80901
D821FFE0
22F1B713
140FD5D1
EDECFA18
B1F1652F
11051AE4
F821F308
EDECFEE9
45F60608
FAFDD0ED
E32E2126
03ECF318
47D51FB1
33FFD3DB
DA16D0EC
D9B81A50
C71EE3DC
E6F616F2
DFE7D94A
C93EC7F4
1913F0F7
0D171514
E50A033E
18B5FD10
3FF1D1EC
13051C3E
D918EEDF
AC2DFF1C
B3F91A60
1CF10056
19EC2FFA
201846F8
E80CCCFC
CCDEE8F2
F40C0607
DEF8ECEA
0602E3FA
4505E0F8
D622DE02
DFEF23EE
F820F6E1
E50229F4
FDC3F2C7
E838D032
06FC01E2
FA1818D8
E9EC040A
FB2BC9D3
C6F3F3FB
E3EDC30E
05DBF211
28191809
09050BDC
ECB02DB5
FBF2E934
1418D8F8
FF12E80D
C50821DC
FCD722D9
D3BE16E5
330C0540
E9040315
270420B4
368122FE
EEED0ACD
F8EE15ED
1B0CD832
FF2C0130
0F27ED48
AC0317FF
DE08331A
0A4019C3
2E241BF1
0016F4F4
E107F802
E7E831D2
121EF138
E8270923
E3E7081C
11D2F9F2
0629060C
E816F2E6
E4131A08
A4FE0D1B
DB13DF08
10E2F9E1
3BD2EF17
21F50B3A
D3FEF53C
F42005D9
25E50D12
00301B08
F920030B
1F0B2033
DE101AE2
E4E5ED14
FFF23A33
35BF2406
021D1DF1
F810F4CA
E1D9EDDD
EF02E2AE
FDD1F015
DFB107FC
F4032003
3051D408
00EDDFBB
370403EE
204BE522
5B15E911
FF2BDFE9
25CBF0BF
F1E005ED
034CFEF3
3B101613
0F023404
081BE535
AE23DA2A
E924D828
9EFD121D
FCDC120D
11D8FD21
D0B7E7EB
0E0AC3E1
BC19040A
F8EB3053
FDEF16D1
26EC42DB
F2ACFA3C
F705FA09
E8F2EA02
1801DC02
0F2A3607
0A14D8FE
1540F4FC
FD07F8CE
0B0A041C
1EFB0406
EF030DF8
19E6FB1F
120402FA
E8021424
08FAFA17
EA02FE0D
F1041305
17DEF005
0CF8E7F4
DEE425FC
1CFFE9DD
FCDAF8EA
DC070820
0AEE091A
C9194EED
02DDFA0A
1CF5DFEB
21FFE448
1EFB0425
D9E7FF4A
FDFD1002
0BE81416
41E740BF
040B171D
F1F01B0C
0BF8F7FC
F71E0908
FDCB20F2
F002F73D
2EEAFF18
C503D1ED
D5D9F025
19071201
FCFCF0FE
EA4EEA11
F4CF2C08
1A1C1A3D
09124A33
EE1912F2
040A040F
05130A06
FEFD22E8
0CF72A25
E81809D6
E2FCF1F0
2CE80DFB
FB111710
1B04F902
C4242138
B5FEFA2E
0D1F16BB
00E8D7DD
24E319F9
F0170507
2D294D12
F8040B2B
F00509FE
070C02FD
09F3EFCA
F2F0050F
F3D9F2FD
F2EDEA41
24F9FB35
19D70330
0A4DE2C4
FD3613FF
FFFD1A2C
1530EF1D
0C11E0CC
11DAF2D6
010D1EEE
031926DA
FE05E6D3
E82803DD
CC0EFF0E
EE1B094A
17D0F40A
55F408E7
FD0CFD02
FE05151D
1A15F225
112A030C
D816E4FD
06EB162E
F6370435
14D7BEEF
E8FEDEEE
369E250D
C8543E34
F7F00FF8
FC0F18E8
131C21F7
04DDF600
0920EF53
E4370745
DED4FD1E
232ED810
1CCF0FF7
0DF3F61D
07DF10A4
D52101FD
18E913F1
0015F305
ED1F1A0C
05F8F6FC
030DE3F0
ED180AE8
2CEFE7D3
15EB0132
0B1E1C16
1F07FAE8
160614E9
03D50611
020AEFF6
04DC0626
EC2708E0
03F008F8
37F4FB3A
16E90F25
0703E613
2C28CF3B
042B0A33
2824D543
F1CD12F2
FDE1A640
0F16EA15
CB020106
F6A215E5
12CCD1E3
F5BC1DF4
E1242540
1DEFBD0D
D7EA3A11
0AEDCF2F
F912C7F7
E607F9B0
83F6EC15
10CBEECF
F2E2372B
FD170BD1
0BD2EB13
171ADD0D
AD0FDBFC
E52C1BFF
13EC15DD
00191BE7
CF1DEA22
F7054505
D6F62BD3
F2C4071B
F226E0CE
E0F127E8
E8130320
E5DF05C5
0942EF06
BDA92713
0BF809B8
FAFD04E2
4F13013E
0711F668
F92D1013
F0E7391C
2FE0C71B
2619EADC
11CB1BD1
2E2014D7
F9D5362F
2BCEFD29
CB2CDC06
BEA604EA
38DF02D6
D42130F8
FFCD1DE7
E104D7E2
9E269119
FB00C3EB
BADFF549
F10C0EF3
D6010FFE
01EFCEE8
04C11BFF
130A1D10
2CE320D3
D41B2EDE
1707FF33
F1FAF1F4
041813E8
21161905
10F82AE6
C4F4C8EC
EE071020
EB1222CD
FD19F7FF
E0040B04
1502FE04
13EA08F9
04FCDFF8
240A0A32
1F0B32E5
451F072E
FF05102C
D6040CEC
0DE80E0B
02D515F2
1E380CFD
CD0F23E8
08FDC518
1313E9E6
0505EF07
2712EFD9
0735ED14
0CCC24E9
FBF9F412
0BFD18DE
EB1730D8
2C14E8E2
09BD030A
F4C0E00E
091A2110
0F1D10EC
D20B180C
20D808F7
F6F31424
151F1A16
EFF6E5ED
D921D3E7
D61408F9
F81CF404
FE0519C6
FDEADCC6
1DF425F5
0114D0D6
EC0EEDF9
0B031DF4
0404ED1A
21ECE708
2409F0E9
EB0C1BF2
04DFE605
351BF90B
F310FF02
0A02DF1C
04F8E004
26FD041C
E5E90415
D9F63F05
190B1602
10E6FB12
E2FDF9F6
EACC1F03
2E14F52A
123F050E
E4051DF9
11EE05C5
0915EBDC
F5DED639
DB0A401F
E62006E0
0E3AFF2E
EE1EF7FF
0F120A26
DE131319
02DDFEFA
08FAFD2C
03C8F8D9
FF1403BA
DC2D1A3B
D1DCF826
FBD0CBF1
F4ED0A14
0502FDE4
17150223
010BFDFF
FC94DBDB
BF29D029
DA17E532
E9DB09D1
1AC3EF11
07B9D418
FFB9F2D7
2DECEE3A
043F3F1A
172E0125
02D13D30
E2EABF13
FBE9FFDA
1FFAECB6
D627DCD9
0E060911
0604F4FA
2EF4F63C
E8B6BB42
25110FCB
23AD3037
01D6E013
DCE605E6
F322F242
EF2714D4
0B03B8F7
133A46E4
D5D2EF19
2F5F0A20
1515ED0A
0C0423ED
10072724
0DC1EE15
121FFFF4
0F1D2D10
FF09E41D
EB04F0F7
131508F4
DE14CF2C

