E222F913
1422391A
FD23FC02
FCFC3514
29F408BE
ED011B0C
F61FF124
DD220A05
1310F934
11FAF4E8
11CFF210
D9F6F41E
14F9EDF0
060A02F2
D6E9EEF0
D4E5D9E8
ECE4F620
E7FD050E
15E42833
F0250803
170927E6
24D80BCA
E3010F11
E7E6BC07
42D20622
1005E824
C8FFF15E
F71711B6
FE2306F7
F80DFDE8
E8F80D07
EBBE4109
1DE0DF0B
0CA41DEB
FD27F433
051F1411
EB14FBF0
DBE01001
F804D8F5
0355DEF8
070CDDE6
D7F5EBF6
07EA34DF
F52105D1
0213C8FA
14C6F609
53EA0A13
E80EE0F3
FE2819F5
12D4EAF2
FCCD2129
050220F6
B6D00BCF
EEE3F6FF
06F8FB27
F2DA12FB
01F2F813
010C47DC
17FAD4D6
26D1DDB2
09F2E00E
F0F628F6
EFBD1119
C6E230E7
CB09FA10
E903F635
2819EB24
FDDCF9F2
22021308
C401FE19
EE13F502
121A07F3
4BFB49F7
2EFDF0ED
EF09041A
F527020F
E7C7F105
0CD50FF7
ED371C1A
11E80909
1B2026C8
FA13E8E4
DFFBE8D9
0712E8F0
C215F942
ED381717
05F909FB
1DE7220A
0BD5B4E8
05B52115
F8F929E2
00C8BAF2
E7E8E6C5
020F1AD8
203208DF
CDE620F1
080D0E10
0CF8F810
FF37299A
E919010E
DFEDC513
F696FBAA
E13000FB
FCF720D8
082F021A
ED1FC90C
03100A0D
F3DF0CE4
0CD1EEFA
0740F5C6
DF0715EC
0943F4D9
06EE1133
F7EF33F7
F0EB1923
16ED16FB
29E416E7
09082A37
0113180B
19E0D9D7
F540FE0D
F9FC00FE
001220F3
F908101E
42AF1302
1F3AE4F7
05F5DDF7
06ECFE14
29CE0D25
F80742EF
FE2FDE1B
E1120EFE
36D713D7
CF00FAF9
1213BFDC
F8EFE60F
EF0500F0
F601F809
F6DBFB3A
15FEFF04
EE291E14
03FA1109
3C2CF2E9
2808E902
35F71A1D
F3E4EA09
22CF29F3
260F10F9
06AFB600
0711F4ED
F9270209
34373D3C
0F34EE35
EFF90112
FD26EAF1
E8240E0B
0B08FAFF
F81B2104
032DEC06
1606E416
E7E6EDE2
18D407DE
3005F6F1
4A1ED9E0
0AD4EAF3
05EBA924
F732060D
15E2EFFB
FD41F6F4
03F7D7FB
C12BF9F4
E9CADC08
07F2BADB
3B32DEE1
E3FEF347
F8EA1D2C
1CDEF2E6
A2F1C543
13073434
0E51110A
F83B2905
13F2FB0E
F5E3EE05
022CFDE5
FD2C04F0
FD03203B
26020F33
E2192024
D3FF2415
221C0B29
130508F9
161CD706
CD0FF305
1096DCD8
11E43615
E3D9F027
FF040CDF
370912E4
ED082003
FBE9F7DC
12E610E8
1CD0F7C3
F11ECB2B
16DEF41E
DEEB25FC
3DF908E5
480A38BB
21CA1ABD
9B34F5FB
090DFAD4
1AFAEE0E
17FDF8F0
F3F2EC1D
0EE8DA33
BF16F90B
03E0E51F
090A2610
FE0BF415
F0F4E820
C617E6FD
11271625
D2FAF70D
39FFE80A
0A0ACC0F
0811F332
EBE8B8FC
F9FB0AE4
F6FCF62F
F500EFF7
E11622D7
C4CE07D1
F7062EF2
FD1D1EC4
F709C3EB
31241BD8
0240F2FE
FFF1BC12
F62512F4
1B45E50C
D1E50E26
ED041827
E018D4D3
17D7FC08
193DE01C
E4DAF1F1
E5DBFA13
F5DF22DD
12370737
09FEFFFB
D8F9CB4B
1004D81D
1F2625CD
02110A08
FA0F22F7
221FF620
38E2EEFC
0235DCEB
EAF61004
0D35F81D
EF020818
0503E00A
E50210DE
24DC07EC
07EB0215
1AFD17EC
F4101733
0335DCFF
FEFD0EFC
E54BDF0B
1A14E918
FB46FAF9
14E2EB22
E73DF11A
19D3FB1D
26E60717
0AF33BFE
12F31309
11FBDC16
FF041101
2521EAC2
0D15F7EF
11F80AED
12F5FCED
0517F70C
170705FD
F5D528CC
FEF2F504
EB1FDB1F
E00BFBE5
05EBF610
FB0600FC
F4DE09ED
0613D204
0E06E656
D9FA050A
D810DAE7
F7E5FE21
31010C28
02E52AF4
01E6F030
DDF22B11
05F8F6E8
0CC846FA
F3050817
0D0CF508
F90101E5
E0FF19EB
E3F4D906
1F0E04EF
2EFE1A1A
4316FCCA
2A0E02EB
09DAFEF3
264AE363
0A07F2E6
F3FF1104
09E007D6
080FFEDE
F6F3EB0A
16E2FF05
342710EF
04FEEA33
F204D622
F5081D14
014A09F3
E7C21F2C
05F5141D
6A172905
F6CF1D38
03FE0F19
1DEFCA05
E20E0C01
07F3E5FE
2AE70916
0609F021
4509D446
D3FFD8FD
13F4EADC
E5F3C5ED
240A1C14
0B15F40B
ECF4D1ED
F2CBF905
D4D4A5FF
DFF017FE
B7031D0E
D8DC04F6
5B08DF04
E0E51C2A
D13435F5
03053B05
0501FDDD
D8202EE1
3723DDC3
0B0401E9
FB07B622
09D7120D
1BD0FA08
33DC4524
4CCAD404
32BDF1F9
32ECCEEF
5BE3E1F2
0C0EC8E5
D91A214B
1DDCC519
03E901F3
2C24CAE6
021F12EF
22FC0B09
F7CEF2FE
1AF7DFE6
FD0EF100
3127F2D3
FC0314F0
11DEB0D5
19122C04
14EB3038
DB220E0A
0BF9F00C
B9EDCDCF
0F3ADAED
DD03F3F5
C7E92BC2
D731FADC
CA1327CD
311CEEFC
1EFAC601
0F13E5D7
0818D9E7
CDE83703
EDEA2C18
45F9CEFB
A9481AFA
D8D30FE5
09F4E7E8
F72C00DB
16E8E503
E248ECDB
0C38D616
FD04E512
3DF7E71D
03E7F517
BFF402E2
FDE60BD3
D0F912E1
04EE3016
0AE4F1E3
F7E2E916
172B1AF5
094707E9
1C2A1123
1303FF3D
0AC10223
36EA0A0A
251EF3F9
F609DE2C
15260AAB
21E103ED
370F0CDE
B7CA5CE9
FA0112F8
BD2450D9
03DFEBE9
AFF0170E
E5E12FEB
FF2B03EF
06F10BFC
38F533F0
F9EE20ED
DE290D29
D8013339
F501D6FF
1340ECC5
0D642D1A
07C6152A
4A02FEBC
D152E6D7
0115FD1A
0C0DF9E7
000B1DE5
2AFE2525
CC191117
3F2A1BE4
ED2AF3EC
F3F40310
EEE1E010
03D0EAE5
0E003625
C8F603E2
21F329E2
05F2E9E8
102E080A
0B00F826
EEDF0CFE
1012FC24
06FF1703
F219FB15
F7F70E08
07EEC105
0748CE09
FB02F9FA
1AFD0831
09ECF70B
1302FECB
F311EF03
E5E20934
FF011817
29F303CC
EF10DEEB
E2DCFB11
2F121BFF
0A2722F0
FEFD06FB
15EC20F2
020910FB
1FFA170D
02ECF501
12F40814
F505CCE0
0AFE2010
F82E0635
FA06FFFF
F0F8F7FF
F2FA0FFF
F7F618E0
EEE80601
24C021FA
F31D01D0
D3E52AE5
F71528DE
020EEB0F
ECEA0A20
F8EB07E7
DBA00E31
37E1E0FA
F5DAFD07
FC03E210
021EE5C2
332B1107
0EF8F30C
F60CE0FC
2E911F0C
CC0E53D5
F91AF0F6
F9EFFF09
312C0524
18DBF20A
FF00090E
10CFD4E9
CAF9190E
002310E8
E931C2D0
311DD0E0
FB0C09EF
1B14B0F0
031CF0AB
BFFF293C
F0FFF80F
EDF7F4CE
142B06D6
0224FF0B
231312A0
F3D0FE2A
C6C7EFFA
B3F600F2
0CF2E3FA
ECFBEC06
D004EEFA
31BA17EB
17E8FD04
F90ACF04
110004EF
05FA19F4
010101FB
FB24FCE1
F8EC08FB
0EEA28E5
D7F5E002
1F1037E4
03061ADD
EB121DC3
130DFAF5
F12611EE
DDEBF5ED
ECDEE003
E915F8EE
F3DC0506
E7031FE1
2A0F05C5
DFCDF210
FD9E11EA
130CC8D9
E617EBF7
F5F0F3D3
F61B052A
1BE7EA40
0C171EDE
0A181710
03240934
C90DF7EF
1405D7FE
E3CF11E9
E5B82402
0F381003
EFEF07E5
F5F608D3
EBEC0FF1
D419D5F7
43E2F704
18E615DD
1F4AEA27
32D1F202
D802BECE
16EAE72C
08F70911
1EFAC31D
EDDDF7CE
D80E0105
2B181C00
24CC0EE8
1FC4B123
190716DF
03F9E210
EEE6EEF9
C3E4010F
29FDD8F8
2107D128
DABAE56C
3DDDD36B
D4000219
0AC5E6F9
D413390F
0CCE10F8
E5D7C44F
0FEDD71E
C1D1DFFD
DB4A2511
F70EF90D
140B1E15
372714D1
F70812EB
26CA16E0
59F21921
FA222511
CD341FE0
B81AFD35
0304B8C8
0513EFD3
120018C7
3609F1DE
15001FF4
F9D7340F
E037C4FC
36AFBA2F
C32E00F7
09F52B02
1C461D2C
0E02FC25
0A4406C3
CAEC0624
D6F82008
00DFDBEA
ECE04906
1CF92CEE
FDA8D7F5
FEF7032E
1ADE22E1
FC0D17F4
111331FF
21DCFFEA
28C5B024
EEF1340C
22DF1754
FC291424
0DF3FDDD
D3D81B31
FC10DEC4
DCF8E213
7E090902
08F5141B
12D8E4D5
140AE0F3
3A0B0C33
FAD60B0A
26CDECE3
15E6F03C
08F40006
1BF500EF
15D01EFA
FDFBDE41
FB20E02A
EE06F815
09090B0C
ED07E1F6
14CE0319
09FDFCFA
1AFD1310
12FA09F9
2209E8CB
2823E1FC
3CE4270A
1F1ECBE1
1F1A2A08
FAFC2405
B8F2F8D6
FF0AF711
121A2BFE
04E0DC32
F5F93C02
E5F3E801
0FE12B10
EA1E0CFF
F706F2F0
E41C02FE
DFEBFE2D
D80A0FE7
EA0501D3
17F20A08
E1020327
07220DB1
D5DCD9DB
41DFF221
2E30DEF5
FB20060D
12CD110C
F60CF71B
31D4CF17
130C19E1
172BF90C
0B04ED1C
05FCD1F9
32FF0521
EBFEEEE7
1ADF0AD7
F50906F4
05121AE9
E4F2C6F5
360B0308
290413E5
040CEDCC
FE56FDFD
13F1F11E
4D04CBFC
F16422F9
2B0707EC
15030DF7
E3D9E00D
10E4FA08
1EE0FE0B
E4F0020F
FFF251D2
D007E6ED
E5CB1F29
FBEAF803
030B421A
3F2DE5F1
FCA9FA14
EE162BED
E507DE21
21FB12EF
15511F0B
0BF8DE13
0634221E
263E042C
160B1603
E048ED18
E116F7E2
F428E213
22270D1C
2216E6EA
2D192501
DAE5CBE9
F1DFBEF3
B8402AEE
E1FB16DB
EA31F109
FA5636C2
02EEE327
19F81F13
EC07FB47
0102E6EC
FEC2E7E0
FFECDF0C
1A10391E
20E9DBEC
F9D5FE1E
27F5EECE
19E617E5
DC0B0006
EE0AF7F7
25F7F70D
0D17F0F0
EE4052E7
14E100F6
CBF4FE1B
2FE0F128
DE18F028
DC0006FE
02D71AFB
D7E4FACD
DFDEEF38
F9F90726
0FE51AD9
0E1CF8ED
0BD5CD14
0903BD13
E33440F9

