B5E6D5EE
1D4F3FF0
02D40310
CA12F3DB
BAF5111E
1A07E50F
E7070315
FF2D11F1
DEFD0904
00F2FC3D
0BF1FE31
F300ECDF
0B15F4EC
EDFD3EFA
3BFF121B
F1082EED
2A05F22A
02370237
EB11E3AF
E6F8F2BF
E4F8E116
FE06FFC5
090A0500
08FFA8FE
BA0BE41E
113501C3
E401F80F
E938161F
1CD9F7DF
F8FF480D
1409B8E0
02F1051C
0106F5FC
FF14FD10
05012305
DF1573D8
D9FF02C4
0004FBEE
D9EBE73D
11E9F828
28EC06DF
F8DEF0BF
F3012928
FC2AE151
331ECD0D
1FE0470D
31E048DD
F94E4D9D
F800BBD7
491933E2
D600C347
3BFDF705
3FFE01F6
E3B7171D
F10AFB25
DCE31C12
2AF61B24
DC0A001C
F4EDF5F4
F71D4D4A
11FBE1F9
1135E7E6
F1E907FD
D00BFAD2
EC18E722
F9063501
1252011E
13040A2A
E207FD19
3BFBA4DE
E6B20BEC
D926F6D3
12502B28
542AF931
DAD41204
10E7E242
F6F5050B
FFF0E210
0C81F11E
D608140A
ED573E0E
F80DC0E8
EAA22FF1
E11315FD
27C5F8FD
24F4E704
F29CC19E
3604F5EF
FFB014F2
24F0D0F8
EBBC050E
04ED3CF3
0D8708CB
1BF22938
08754DE9
440008ED
0781E90E
00F9D303
247ABF43
E825FFD6
F958B30C
E502EBC7
151C1BE1
F90F0C8A
0BE709DF
0AF53E51
238116FE
1E2DD424
161B37E4
F2FEFDFB
FFB723DF
1739EFD1
287ADE18
14F84209
F17EF314
060D00D2
DB1FD2EE
E718F5EE
007EE00F
0BFCEF11
CC4CF4F2
5DE3D726
05D8E527
DEF6CF08
DB4A0DE7
E613FA0C
B15602EE
FAF501FD
EEE9ECF4
B805E0CE
D7F80AFF
FC07F7F2
251BC9FD
F5EEC557
F1E32FE2
211E5BDE
1C1500DB
EF56C0DD
FF02DA1C
27200CFE
D8F2053E
093620E4
12F1BCE6
28EF130F
E0D9D4D4
EB4FDBF1
F4D01CE5
17E6280D
FBF6FA1E
F7EE0747
4C020E02
06CCD6C7
E61B0B06
451CFB23
06EDCB24
E30F160B
0203FE18
FB1BEEFB
0D0D051C
DDE6051B
BD0AF204
F10FFAEF
FB1853F5
1E1E0D82
171CFF17
1BDEF91B
29160824
D204F903
F42BFAF5
142429FD
211014F0
2005E50A
08101627
FFFF1E06
F7F1FD26
11E72BCA
400DD814
FDE7134B
FC34DCE8
0915C3D4
0B140600
111AECD1
27EA16F7
2014CDA0
21FE32F0
1BFEF7D1
2AF3E4EA
3301D08C
03ECF22A
D512C85A
FC07FC42
0022CAF1
FCEA18EE
11D6E808
EDD6E934
110F0816
F8FF150F
FF072F1B
EEE009C1
0FF5E607
16ED061D
15FCDCE5
CEFAE919
1CDC4474
110B3040
09E90611
F7EB0E19
1D2DC95E
04D8DBF5
17E7F93B
170903F2
B815F9D3
1FEBD0E6
DC260CED
F0E4EFE7
F900F217
271AEB01
E50A12C5
EECEF229
D6FFF000
DBEC40E2
2AF6DBC4
FCF2E8FE
FFF6FAF6
E3E62703
F5EAE3E8
0BC20630
F2EE0CE4
1A0EDD0E
F0BAFE62
E60B073A
F9F5D5FC
D1ED0BD7
34171B16
F80E0601
F61DE0DD
F61F15CB
C8F456E2
0026E707
F11222F4
F70F1A24
C20CD50B
04B7080A
0110FD24
D212DC42
DF15DFE1
EDF2EC03
C821AED7
F303E327
0D10F7DD
D722DDED
EE52EEED
0B390210
DC1B031E
0FFAFBBA
2636DB41
1414F204
F60F0EDB
DDEE061B
E90D12FB
E32EE631
F4EFD7DC
F603F9BA
0618D817
FED7DE0C
0BC82038
2CE9FB23
320D2801
F606D6CE
1DF81620
100220E0
1EF92A0E
F825EE1C
062E050D
DF650FF1
050107D2
DB10E5F2
EAFEED12
F6DFF6F6
18D8EED8
E7FF0F06
F810FE1C
063BF8D3
EFCEE928
061F2B0A
1B0CC919
17DD231B
1FD70217
F1EC1B18
F8040506
0AF60124
02DF08E9
EE1A1012
0EE5F508
D2C9F3F8
E801DADB
ED012F2B
BACDF015
EA05030E
E4E5E704
DDF9081F
C2EBEBFF
12F4EDE1
F403F4C0
004C130F
0016F4F3
E20302C7
1A10020E
DCE20DE8
051414F0
1915FF07
FCEB5616
04F7EEEF
F205070B
0E24F2D4
E3FAD51A
FB121908
FA02D10F
F900FF00
0BEA0E11
2908036C
160D021B
031538F8
FE03F923
FA1AE43D
F701FFF4
1A0B28CE
0A16261F
A8E8F020
103B0410
1F12D014
2C0627FF
20FFEE02
E5F3FB1B
101D090F
D7D62BF9
E5F607F9
0FEA13F1
F30FF3F6
21DAF1F2
F70715DB
C41000DA
F7082900
03ECF5EB
C9EA0D1A
EBE5FF36
F4E5261C
00FD06BD
C812D2DA
1405E5F4
04F91AFB
F100F30B
F702EB12
D7D221BB
F1EB1EE5
F405EEF6
0CCD3B2E
1AEAF7E2
F5EA403F
20D8EA17
1107C4F0
F332D207
D3FE92E0
EBDF0B2F
32FC1101
F7BFE85D
E1C81E01
132B0417
0113F621
16FEB9D7
5B0DE6E6
05142100
E8D83230
DCD9F81A
22082A13
1BA2E84A
2DEBE9C0
FCFA2823
F90B2413
1C1207D5
3FC80D28
CA311B32
23E51BCD
1807D75E
3B0343C4
1F0D4303
DEE8E6F6
CDDBD3D7
160609F7
E519CDE1
2BF8EDEB
05012A1D
2C088DAE
EA37C5F9
0EEE04B8
32021FE2
06F514EE
0E1B12F1
16F7EEE9
E2FD2809
10F9D010
05D517F7
2229E4E9
20CCE41A
190127D4
050702EF
4DF4EFF1
4C111D04
3605020D
080B1729
EA0A1CD6
F6F01DE3
2C0EE417
0E01D20A
192AF715
E63204FE
F0063BE9
111B1AEE
D81B17EB
080DA439
DA12EC1A
15423A22
0B00D82F
12E3E1AB
EFC19D06
0F13CED4
2412E715
1AF20902
FEF9011B
D7EB04DB
28FFE7ED
0C09EE38
AC26DC1B
1FC4E47E
0404EBE8
E308290A
2D0A305D
DA450CE3
18F8D426
D5F91ECA
3DEF07FD
2114DE28
18FE28DC
D04F0DBF
3F02D407
F9EEDB13
14F8D3D6
EEF5D214
D970E6FA
0C0DFDF7
E1021D14
182F11D3
F7EC2507
F8FECBEB
F5F003EF
340A0DD1
00131601
0B171914
00C5FB00
F701F004
D75123F9
E3DB11F2
F0EEDFF6
2CE0450D
28F4FF12
FE2FCD00
10ECCAF9
22F52CE4
E4F5C906
F8EFF4C4
EFDB08ED
0F0E05FE
112FD002
E7F1D5C8
F4FD2100
EEE5F630
330A0E0E
13060AF7
302C04E9
1A0F04F4
F900D2E1
FD2413E5
1BC7F81C
FEF8DD02
0516F10A
07EE16E8
FDA3CF47
F3CFF7F8
FD302006
0D0802F1
F011200D
F5270CE5
0016E2F9
FC0105C8
C6D4F9FE
DDF8D82B
0EEE1614
0E230BEA
1313FAD6
F918121F
F619FE03
0D0D0818
18B7D3EA
E4DCBF68
E207F1F8
F601F322
EA0B13F2
E21710F3
E10F13EC
26FED80A
FF2107E4
F018D91C
4300F107
1C3AB7FE
30F31403
FC0904F3
2A2546D2
32381DFE
EF1615F8
B4F70AE1
A8C0F3D0
F822DF1C
EADB0DF4
10010B27
DCE803B2
C2D1E8ED
E3E63A0F
0EF2C516
280419D1
12E7F522
270AFDDB
10292F0A
EF0DD607
2FDDFCF0
241C10FD
F7EFDD1C
260A2209
0C1DDC1A
1AE539D5
3715313A
00022CE0
EFFA0803
2AF41E0E
F8F4F4EE
01F004EE
050DC7EC
DA07F406
2DF9D2F5
E5F80AC9
F6070A36
07F017C4
0A00F4DC
192129FB
D7DF1E30
09EEF8EB
E8FB18F7
E6F9E85D
060820EB
D60FD40D
08FB24BA
19E4F9FC
051CF6DE
0CEF08E5
1D2529AA
0C04B2E3
F4E112FF
1E13040C
1DE42802
06F41F08
01060349
051A0CD9
10021301
F90AC63A
07F7020A
0A32DBD5
AA0FD7E1
2D1E1706
5429DF0B
390BFA33
1A1AD428
DF1D2019
1E08E0D7
BE1FD8EA
242F37EF
30524106
CC10E4BE
141DEFF6
E3F5F80B
98A6DD3C
06028359
EA24D214
D2F7F0F3
20613110
1045F412
DD5A8C00
2CA31FF9
30570707
D61C37EB
01E718E0
FDE41510
FBFFDA0F
EA2B0CFF
1907CEF5
FD01C71E
15AACFF3
0DF8D1F4
0929BDE3
D917B60F
09C506FA
EE08F0DE
FBD4180C
0308FE4B
ED070D0F
48E6192A
F54428F4
125256E5
E4710FFC
0208EF37
01ACF9DA
CD0CF1F2
1F07250F
1C62BECD
0F2A11DC
F899B940
45F428CB
EB2CF102
BD4905CF
1C4907E7
04401FE6
CFD2C1F4
D2B601EF
D54609EF
E2540FD5
2C0C0BDF
FD2302EC
0D27C9D1
D0381C15
2AF60FDC
FFE9E0E8
EC05F507
013B011C
0E2C3CE9
14DB0BFC
09FC061B
1F0FF815
E70431F6
E50AC411
0740E11F
3B34F225
D30AF0F4
FA0812E0
FA323C2F
BEF52132
F1F43AF5
0B1AE4DC
10E7212E
E3EAE8F6
E836F90C
EBDF2A00
E0F80C0E
0410FEE8
E2032E02
E8F70FDC
0A18270B
163DFF27
1C1516D8
0E050D12
22E30A0C
2F030EFC
ECEDDA23
0411EEE6
410722EA
06FD15DC
36E4D918
E836F5EF
D2E9BBE4
D51DFF27
AB001314
E820D5E7
15FFD8F5
D231093A
C163DDF3
11E61C46
19E4D51F
2209E3E5
E1BB0B3A
06F3F6F7
3FFEEF0D
FBD32219
F4EE06EF
1AE6EC1E
0AFB120E
32EBE6E3
0A13142C
15F3F8E8
2E31E61A
F4181103
1CFF1FF2
BED40A1C
D600220D
DAD22323
1F0934F8
2EACF220
EE010717
EB610DC5
2115D5DB
FB8B1133
E715F625
0381F110
00DDF02C
FCBAFDE8
F616E7FA
D6E0D018
DAC9D52A
33EB0CFF
20E4E8DF
0749E940
D70306BA
CC811003
DA02F513
1962E5D6
C615FDFA
107EDEFB
FFFAE0C5
FE4F17EA
CC0EFBDF
21C8EE07
EC1511FE
110604F7
F4151F2D
F48109E9
E6EF0234
EE29F2C1
FD3120EC
07B7E6DB
D4DA2607
2D132AC5
FC33C544
14D2E710
0E0BF2EF
164B1CE5
F3280211
2B9B0204
2F0AF5D8
207ED63E
F8F90723
14080ADD
B3E605E5
1297FFE5
FB150D0F
3014130B
F70BED26
26FED9D9
2BF7E7E9
E50B2611
11E60E16
44051B16
F03EFC24
D4DCFAF6
24241013
F381E5F7
F904261D
E9EDEBE8
F61F101D
C317F701
F2E3F2EA
FFFF2720
0B130847

