E761E704
F3360A1A
F7E516FE
FAE915FF
EF15DC3A
D3F69FFA
FA10F5E1
2B0DD70D
F949261E
D3E70936
FA070B07
4C34F0D6
FB1A0C18
11E33CFC
ECFAE8DC
E2D10E42
05B026A0
CA1F17DF
FBF2E184
FAE40100
FCF9F50F
F5F61813
01DDCEF3
16453AFE
CAFFE9EE
C8E93C28
312D0BBF
C06E411A
E448E5D9
E91B14EC
E823FD0C
0EF60DC9
F3FD2823
56FDFDEC
30F5DF3E
DF19F819
E1F4251F
C8EF2CA0
35E1160A
F5D42F15
F4FFF9C5
1E082FFB
05FCE1EB
22EE2BC4
0AD84603
AC3D5414
E7112D46
EEDFC3F4
012A0F08
0CD418FA
1C460327
E8F9E4F1
1FE73606
CBC6D228
F503F3EE
FDFACE00
D019D10C
EF3A5B02
12E1DB0B
42F4EFCF
DB23E812
1B21180B
48090504
E724E912
EB00FD0F
FA1207F6
D81705FE
F322F50C
D813F613
300823DC
04E593CA
E919DBC7
F692E72A
4FE9FD1B
0624E9F6
9AEE22F7
FE4DEC25
DAFBE10B
EBDBFF07
98D6FA1A
01D79B02
172B00C9
11C940C8
1F1018DE
E2D60A02
D3F3E80D
F8DE29D8
1BB52BFC
FE0DDB16
0C20251B
FA48D5F3
DD1805DA
F69EFEEE
01CA0C0A
C0931F4E
63361ABF
F82512E6
DCF310F9
F21B4CBD
15E9C0CD
27070B21
DB43FE0A
CD01A0FA
3EDA281A
F6D7C8D8
F6EF1F0B
F9E70112
00F3DD0A
28251A30
3FF404E5
1E26F600
D7F804E9
0BAD07E9
EB00FF17
F81B1511
0B0A0E0E
022FFADC
07FDFB32
280BECDE
0A1BD131
074E2BFE
BE27C3F7
01EEE538
FEE4F704
FFFBD11D
ED451910
2F06FEDF
C52F0B10
CEC82619
16FA3DFE
01F30AE8
0AEC0BDA
BFD20ACE
1B19F008
5D15DD11
23F703FD
092C30EC
23E3D8E6
EAF4CD01
DCF3FB04
F91CE9C2
FD3BF4E4
F0DDB20E
C088F024
D0EB13D6
2937E6CD
07E01DC1
FB201CFD
060BE3E6
CBE10908
3FFBF1F6
161602F5
421603DD
BB12D018
45E9F926
E6EDDF18
D204FB12
F03710E8
0AED0E1C
11FE0C0E
13F010FB
F921E6EF
FF0827B9
1F0A19F4
FEF72404
02660B0D
B0060304
E02A08F6
0500FD1A
03DBA0FA
DDCE23EB
19DCDC07
0805ED13
FB0B050E
F42CDCF3
EDC537D9
08E60BCF
18D9E908
D2042217
D206FAE6
111DDEE6
F90BF524
360111FB
1F64D502
1CE8253F
D3CFE921
0119310E
FEF82C1B
F2DBEA39
F415F5E3
FE071D16
FC1CC1E6
0323E8B6
2C12DA2B
09F004D3
D1F72B25
ECE9EB1A
0DE5F0CD
2F07E914
02CDDFF1
1AF50DC0
7E2BE81D
ED3ECBE2
E71003E7
E000EE03
A2B5F8C8
ED030CC8
AE5B2506
14E72C39
011216FE
060A4416
17001306
16E806FF
461EC53C
E5B4351D
EDC92D2B
D0EF15F4
0BEE2FEE
054EF8F9
2A12CE11
275F11DE
0CFF0DAD
3307520B
070B03E9
D7DF1434
E43CEE05
14CCF230
F5FAF117
F5A51510
19D39CFA
FDC13917
C1F9E118
0B100145
D9F0D5E6
EF81FA25
A903E45C
D209272A
F5D4D1F0
CE55D5CC
EC12E4F1
631A321E
D750ECDF
F32318EF
25D143FB
E3AA19F9
1950F757
21322C0A
13F2460A
C9D8EE20
0DEFEC0C
E5CDD7EA
F93303CB
FF3121E0
00E4F5ED
DFF904DA
310A18FC
1411F611
76100032
DC13EE25
4DD205F4
DADA3D15
AFFA1DD5
EA35EC25
FEFCE83A
21BC1912
D2EBEF2B
F402E31B
0404DF02
FF5DFBF8
B6E9261C
EF1931FB
A93BF132
1E5E0FED
B9DE361B
DFB00ED6
85010C0E
F1902903
38210028
0F0CF1F1
C21F14FF
03E914EE
D4092315
ED27CCC2
CC0208E0
03130A0D
E10CF227
EE682912
0CFE05D9
155BC7FA
D1ED3F00
DB4F1922
59180F00
ED982B45
D1183508
0313DBE4
0FE9141E
19321FF0
25E7F7D2
1C59E60E
BAF20ADF
F73FF9E1
36D50EE6
E43221F4
CB20102A
F6141823
9CDBD91F
0EFAF6E6
13320AEF
1CB0EFEA
6D2011FB
271ACBE7
EA070B1D
F92E0802
8C1B1030
FCDA3EFB
7CF2EFAD
FF1E0A04
6C0411FF
F6BC3928
A04320FF
DFEE0CEF
F5A8F600
EFC4E7CC
13471F16
FCEEF910
EB26195C
052CDA1E
AB15F832
EDD638FB
237E07ED
2318FAED
2A22F105
1801F709
2A24F7F5
5DE6D2F6
281E0844
1C91EFF2
D307F311
130906FD
1E2FDCE7
E3D33ED6
FE0B1613
E2ECEB18
5E39F1A5
2AC6A6F6
C3021735
052FF81B
A8101BF4
EAF5DFFF
19E406FF
EDF700F1
210F12FB
ED2BB7D6
10D006EA
DA2717EB
330CEA26
FEDADD04
7B7602E6
52C4EBE6
EBFE1F20
162BDEF5
D31703D9
300703E6
D61815F1
40CFFBF0
0DF12DEA
EFC420E3
EBE7E50E
1DDFE3E3
0BD8DAF0
463CDB00
1497F515
EC2D2101
173EEEFE
1EF006ED
F30543E6
196912F8
FC080915
D7DC0F03
62CBE8E8
E49C0302
25EEFD81
F6F0DC19
F2C0DE12
07D70FE9
1EE4B2D3
0A06E214
21D2E40B
E14D052B
46E619FE
00D02BB7
0514073C
E83E0001
EDE4FEF5
0B05F412
3EFAEAE3
0A1614E8
1C22D423
0509F70B
A4E42733
ED1127F9
6C8115FD
E3012BD7
301ED3CA
0712C233
DACDF7FB
15D3F109
1F27D8EC
01FAFE0D
EADA0118
0AFCF7FD
1A261D16
FB043008
C24FF0C8
25FEBDCF
401C0DE9
E04AD9EF
E2EB5AFE
FCE617FE
A01ABC2D
0EDE121E
1F31C3D0
DC222DF6
FEF40AD0
CCEE0DB5
B6FB0CC5
DB1FDB10
E83225FC
C2131C25
3E0010F7
37E41AE1
DBF715BB
EDFAFC0E
F0731544
18CD142D
20D70E06
C40FDE08
322724F5
DFFF01CC
29160BFC
0DEE3217
C5E504DB
39F115D8
16E1F4E5
FFB2DB12
50C3F209
11EEE500
27F912FB
09B92C06
FEE8FB28
1B22F308
2C0913FD
1C451B05
D6C31226
D53B18F1
F40835EB
F81B070A
25D01CF6
F3030D05
04DAFBFA
05C3FAC8
2D0F23EE
130D18F9
171229FB
06FAFEE4
E610EFFC
FCEF132E
0F04F925
DE1308EF
E3E80CD1
F5031D13
0A2505F5
26EFE9FD
3BE4CEE1
06EA1F17
FEDE30FF
13DC15F7
1C0FDD05
2920EB0D
02040C12
38E6CC1C
1CD9020A
E502FD08
0200DCFC
1DDEF20A
D9EFF51B
1C0D0DD2
182EDFD6
D003D623
EEE6025F
F42A0501
0C15E8EE
F9EEF00F
1124ECFD
EC402B40
CE01F007
1B09FA05
24FE0BEE
03E1FE2D
1D39DE02
E4E5EA08
EBED0F04
D741CA45
EC1709D5
0D0914E0
E4F90DFC
05EAFA29
FAD4F2F0
07D8F5E5
DDE0E31B
CD0DF4F3
0407D1F9
E73966F7
1962140D
07031EF1
F42C0D05
13055101
09EDF80B
E9560711
0EFC19D7
E1ED4CCB
592513CD
13E2DF0B
FCFC00FC
F4BE30F5
E8F43020
0E0CF6F5
FC02C604
20DEFC01
D11D0100
1F4AEDEF
FD05210A
18F7230B
2ED72206
F5C9D909
170601C1
0C119C17
DC1EE003
0D02F316
DEDDD43E
FF13F5DE
5F261BE7
161DF902
2713FE35
101B25F7
140D0DED
F7FCE525
D11CF721
066AFB23
CBFC11EF
F20EE62A
04F536FF
CB033635
24E0FF2A
0BF91FFE
DAF22726
C3C9FE09
D590E92B
F2450210
2ADD381A
20FAD022
C1000309
25EBE20F
31FD040D
075317FC
D10302D5
FE173AFC
CD4EE708
14FE1CF9
CD21DA33
FA08F704
B3FFB121
DB211113
11EBF02A
E7381EF5
CFD9F90F
0231E7F8
C6F319F5
1FBF0BB4
212602FF
BC411A08
0FEB31EE
1519F31E
B3131A15
AC23EAEA
111806C3
1A142005
DBF5131C
FCCE3610
0527E858
2B13D023
10D5CDDE
191AEA29
E72AE525
2842EF03
553236DD
1BEBF2D8
930FCED1
19FC183E
16E00B41
F4140930
1705111D
F6EAB3E5
BB02CAC8
2DD7F2BE
EF0B0FF8
1A1636FF
F6C4E908
E3FC040B
0A01EF0D
F1182AF4
BDC71217
E25DE904
EF2527E7
1CEDEACB
FED9432A
52F8EDA3
16640738
3C37E3DC
FBB7F60F
DB30FBCE
2CF9C51F
B6F21AE2
EB330F0C
A62B0FEA
F3E90A07
BA26BE26
5C1DC3E2
CC17EFC4
0BEEFD29
16D54333
DB9D1DD2
2005E21A
E71709CD
E6F42241
3BE6FFD6
E5D6189D
EDFF3B54
03FA2A02
2224F63C
3236DBF3
F8571408
1A212213
CFF9D311
3F0118D1
EA79FBF8
DCA113F8
CECDD6E8
372CF41B
E2F3FF06
C7CEDD10
14D6F7B1
320F0BFC
26F82FFD
02F61BF3
08DEFA0A
00ED0401
EECE31F6
FF1AF402
1812E6DB
2CF8E90B
AD0FD927
20BE19DA
08C10AF4
9A1A21D1
F6180022
E80BE80F
04F708EC
212AD81F
13FFF61F
53EEE2B8
14BF2FF9
1EF202EC
CCFAF715
E9E129FE
0CF5F816
F2DEF300
31142512
030D24BF
FCF502B9
1200D2DF
242D12EF
EC18E113
B40631D9
F65341FF
E025CC5B
E1EE02F8
DF08DC25
041500E6
212BF7D7
F6FD1008
CD23ECDB
EBF03E07
EF31F313
F64C01F9
39131C37
E1E604EB
E6E9FFE9
21E4C0D7
05C51DE0
0EFDE9FF
010C10D4
0C13E505
0BD7F4EA
03E3E7E8
D7E9E50A
E0E038E7
1211EB10
3CEA1A15
27D3E9FA
C00C1632
FD4DD5C3
EEF2FED8
014BE20B
CA281E07
DB10E9C4
0102F5F0
39351AC5
F11FE700
E10A03E2
14A42B22
E81B0BFD
BFFD2833
C2F30AF1
00DF5527
E2F437E0
39D7F9D3
1116080A
42C743F0
EE38193D
FD0EE515
FDD809DF
14F01CF2
F24210FA
0F2F1FFD
14EC3119
3EB304DF
C8AC0C60
0BF618E4
6AF2F4EB
3440C8ED
14B8D9E3
1A0A2C02
0917F224
0A07B808
E6212CD5
12C738CB
562A2CF9
0BEA07E2
FF110C36
F2EAFFF8
EDDA130A
10FCD0D1
2AD4D429
0BB3D527
F33900F1
F809000A
2311DBF9
11EC0DF3
FF41EF2A
F0F0EFC7
312AFEF9
F402F705
A93FF227
08EE1C0C
051A2C2B
05F3CBD0
DAF52200

