CB0EDCF9
202E4D1F
E7150D01
84071AD7
EE43D4F1
C8D5D1FE
10FDFA1E
DC0FFA2D
EFF70D30
E3FBF314
0FE6E010
27024CEB
040EF7F4
EA2C170C
16F4FB04
EE1EFA1F
23E309E3
15E1D6B6
E4141710
10E17DF4
EA3DCA33
E4F80B02
09E8FCE1
FBF80966
15982AEE
DE1AF7EB
041F00E8
11444C18
F6F80B1E
2DF3F2B9
FCD1FF1F
FAC3D329
03DEF0E4
0CF1F7B7
DC14F41A
E71F0B17
E6CC0B53
D50A2A3E
FC060522
F81B1ED5
0D52F6F6
22ECF7BB
F656142C
12DDFFF3
28FFCD08
DCCCDF10
E6210422
0AE3F714
0813F3D0
0E2282EA
1D192459
E8FBE803
0F35D82D
00C3B811
03FB0104
DCD2C316
DAA4E33D
283223CB
CC1FF9FE
E21CCA16
E9DBD710
1A141F13
320BF8E3
2AB1FF28
0BE202F5
C6F8F901
F506F908
09100105
FDE5F800
D90A9AE6
07EFEF24
E6D25A75
130A06FD
DF33195A
10E80DFD
E92793FB
0EFDE7FB
FDFEDE37
02DD08FF
D5E93817
102609FA
1EEE04FE
F22523EA
0B2D052E
0BCE0EF4
481AF8BD
03162C11
352BC922
F617FCFB
EBEEEC23
ECE72C07
1404A666
EE2E1117
EB1E01F8
FCDEC3E3
E0283EC8
DBE90A14
01E6D319
03F00607
EDECF22C
38CCFD2E
16FA6911
EDD9DC0C
CCCE8B07
E5D40F1F
1506453E
E92000E9
01F42BDF
03FDE714
E20EEC16
CADA1FF0
E41D96F0
D80805EB
DED70281
13F0F20E
0BE4F6E3
0D06F0F0
03F7B7E1
EF04E40D
D9EF1E27
F63819DC
264FBFFC
EAF8080F
FFF22119
CA2F0326
4E01303C
21F7100B
05CC0313
C3EC31E4
CA2DFE45
EBFB17FA
EEFD0803
0200E6EF
D1F731FB
022300EE
062DED43
27E001F3
2EFEE297
372BF230
151AE0E0
491DF326
25E534F8
2503EA27
663B0EFE
13312218
E9201115
0B1629E8
0610CAF2
FDECDBEF
43FA073F
E44200DB
EFFEDB4A
1FF81E00
11E20DC4
FA100F0C
DA2DE804
F50E10E2
0BF60002
EFF5E7EB
FEEBDD19
1E04112B
2E3AFE3E
D1B83EC7
2601D01F
15EEC706
F8FD03E4
EBE4F3E8
0DDD021C
FE1EE103
1CCD0F03
FCD6BDEA
E6BA1532
9F0A22FD
1B1CFF1F
36F9FA37
FA00F4EF
EE14E52F
D30CD1C7
2F1FD00D
13E002E9
0CF22106
22F5FCC4
0D0C20E9
1459FDF3
BC07FCCF
14DEE4D7
FB34F6DF
F5EE0CEA
2929D61C
F81A232C
3814FB04
25FD14F8
2D0CD0F9
4DE83DF0
05E505EA
090D06EF
0DF3CDF3
2109E7E0
0714EDFC
FFF02BD3
E41C19FC
240AD3F8
2FB80EE4
DFBA0BE7
F1FF0ACE
1DF7E8CF
06251FE1
2EEE7820
FCF10FF5
CF17FC14
0F160D21
E0ECEE02
4500F505
D8BE09F0
040BE930
DFE805F1
1BF5F700
1F052437
1DCA0B22
0EB7B3EC
F4E9FB16
02ECE35C
11D2F210
F127D51C
F4E90E15
0BF00CF7
F1E3DBDA
EEDCCF2D
F216DAD9
AB132EF8
101B1F15
4351114B
03FA2611
A04EEC53
02FA0015
F31CFE23
2014011F
4E0418B3
E8F00002
E2F0100D
DC01CFE4
DAF64B2A
210BF7EE
E00BF93E
E61004F4
2B0CE44D
1FF73C13
E300E302
DFDAF238
EDC3ABFC
EB211B0E
1D036BD3
F9F016FF
FA06030B
3DA6F207
26EAC6CE
01EB1BF2
13F0E1D3
E82704F8
1706FDFA
FA1FF707
1ED845EC
FC280F24
DB03AB02
10060D03
F2DD77F6
26FF13F4
F11341CF
1BE4FCF3
2F162A1A
110DE410
F3023FDD
F21E06FF
00020CE5
FD1F1515
2803FE19
D3EC10FF
081DE0E8
E4ED0811
E4F0D2DD
16E30407
C40D45E5
EE0921FA
E222432E
FC0409DA
18EE6B01
1B18F630
D6B8FB1E
15F8DE03
0110FB07
F8180BFA
C60AD0F6
29FFF6D5
16DC9FF0
F7E9E7E5
E2E64ED5
EF1EE612
130737DB
E9EB06FE
EDD37918
2001FBF5
01F9F527
F0260610
EAE02128
FFE111F5
FC0D8F28
23D7F5EA
E8192AE9
FD000A01
FAD84E14
FEDBEE2A
28E9DAFF
E12FF4FB
04F91203
1DE9F3F0
2D2F8127
0B0312EA
F721C804
FFFCF60D
E004D4CC
DED5FBEE
0EEC0809
17F002F0
A9390CF9
0633111B
CE1CC405
14BAF7FA
F90C0D18
EAF41602
3B5ECE01
02D20910
12F322DD
3302ED0A
06DDE9F6
F90DD40A
D5D11209
A6200AFB
D919BC10
F70DFE05
F9E146FC
21E8F52A
201D0FEE
0A030F19
0E1DED49
3EFB21D5
2E2B07F8
F6E3110C
BBDF14CF
C6D20D0E
55F6B70E
18254624
32D7040E
D3313E05
E6EF0120
4DCDE107
241E5E24
5A01F1E8
2125E9E5
AEE2F53F
CDF3E42E
2CB906E6
0EB01EE1
C60411ED
D6C73A10
B1DB223B
F92ADB3E
00CA0A2A
F440D341
0CFEEE14
FCC8FFDA
234C2C25
D9B9E113
2AE8EC1E
FE150A44
29EB2817
EF67E698
0538D220
D1D60708
391C2A0F
32EC44F6
670FEBF1
F41D5828
E4D91DEC
0B222C16
1CD210B9
2EF5E1EC
DBB6F008
EAC718BB
E0F70408
03F92FFC
FE22F915
F71DF652
121CD90E
E821F50D
0708EBEA
12E4EA40
0CFF0203
E6D9FE0F
0B120E16
F8DC3015
E603EE15
CEFBD1DD
0725F3D9
E4B8DB16
01EFD5DE
17E4DD4C
1BB0F203
3614D6F6
E6E60038
0DEB3138
17DFF61B
193F1E36
02DAF020
2AE0E4FF
CAFB0E0F
E4140406
ED292E09
F40EDF35
F81CF9F2
ECD2B507
E3E9DFD6
E3F6BDB3
09E5E821
A6FEFDE5
0A28FE07
38082D1D
1511D90B
F3EF1B02
26E6DA32
0916FF01
18F202EE
CF1BF189
D82C08DD
B90CEDC5
F8221116
F3EFE635
0CE4FD02
2F2E1207
04100709
E0FC47DD
20060214
E60107CE
DB01CE12
1716F1C6
030FECD4
00FBEDD7
1844F140
23FB23F3
ED15FFD0
D8ECEEEF
03DBF222
F0E3FE1C
DD0D0002
E6120621
0424050D
06100912
D821F505
D623FB47
EC0112EC
05060BE9
EF0E2606
20FB242B
B3E0CB03
0AF80603
F4D7EFE8
EAFEF4E4
1E0D14F5
DFE810E8
12FEF1E7
120801FA
FFE4F711
F4F5F4DB
EC2AF8FA
D7F9FD1E
F6F0200F
06F304FA
0CF1FC0F
F0E604DF
EDE1011E
F6011704
FEFF29D8
F6EBFF20
0300F707
13DC0302
0C02F6F6
E8F3F610
18FCF520
AA0835E0
B7E7DC07
26CD0EEE
2329F5FA
05EF2904
FFD2F2FC
16F10FF7
E4D31C3B
073412C2
F7070919
121C1A0D
1209E00D
5E0E06E8
E80FF911
1EFE0FF5
C0CFD8EE
35DA11DC
13FAFED1
EBD5F93B
0EFAFFFD
F2EA22EB
BDF90CD6
40122C47
0C3EF31D
29E2E73C
0FF6EA00
F4EEBC1C
22D710F0
FDF83B04
F4161CEF
CEFFCEC8
F50AD60E
FDD50BF5
0CD71504
F3FC1BD1
E7BEFFFC
F725D209
00E610D1
D6EE0DEF
F7E0EF07
0EF9042E
E9E6F2C4
C5CBE6E4
29121524
0BFD21D5
120803EB
10F1DD0D
D41318FA
EBCCFDFF
FE0DE20C
F8E2B909
0C28F114
220F462A
27E80C18
E72245FA
F8DF0001
1020C13B
FBFE0808
2403F308
000C02EE
110716FD
0623FCFB
01EDB1D6
FFE2DC37
1BEF3808
DFCA0F08
1028FE0D
0BFF1DEF
0521F30D
EA1108FA
041E6F0C
FBF51819
FFFEEC02
DAF1E4D6
13ED2AFC
FB13EFEB
B915FC1E
000907FB
0A09DB1F
00E414E3
32CFF910
27E7FA1B
1628FC07
06EFF6F7
0CF54F30
0BEA17EE
02F61B03
0B03F612
092352EB
081227B4
F2D011FC
EC20EA05
C70066C9
0BE5EDF2
FB1EE3F5
ED20F0D6
06F702DB
D5E0B3F4
D3DA323E
FEE3E1F4
0E1111FC
3C0AFF17
FF28E3C4
0EEFC2CF
2223D025
FFFA191C
164FF7FD
F3F5B908
8E56F8CD
F0BE2A40
22EFD7E3
DB25E2EC
FFECF5E2
19D52A0D
00D50203
ABE1D4CD
3501F5BE
4E35EB37
1111DD15
DCDE1112
165E660D
CDEFFFD9
3028201A
DAE3EC2B
C01AB1D6
FAF017E5
53EBF244
A80CE9DF
E7F4F101
CC41F6FD
C7E5DA08
1C2BF216
E8F20A17
32E7F8E7
C5E607C1
28F842E6
150A2849
3034D914
1919DF5C
C95B03C7
4111F5FC
DAF92228
E20D43E3
3C27ECF9
E0FA26D4
FB16D025
BD2539FD
FB0BD7B2
F631D920
EDD2E0FC
2810FDE3
F1FE05F4
FCEC1F0A
46CFD720
D7C72054
EB201D03
FC1D24F7
FD05E816
28CC031A
0E1219D5
F316E7FE
FF3FC5F1
06CE22F1
48E5E7CA
3B2E1AF5
EDFB10FD
073012D6
200F1BE1
F11BDD0A
F10219E3
FE1A10FA
243B080D
F3D51310
DE29ECEC
0F10C336
1DE50B25
F013F8E5
39E911F0
CAE80738
09EBF819
FCFAE70A
18050D3A
FF1C72B9
0A19D203
D701CBB9
DEE018E9
FDF7DDFE
0E0A20F4
E6201AEA
CF01C3D5
2D06F6D6
24091E4A
13EF17ED
F815E6F4
D6101AF2
DF21FBF2
E613E306
ECFA002E
280FEEF5
130E371E
EE1EFEFB
05F7F118
0EFBFB1E
F2E6031F
EAE41FEE
1AF3F90A
19CCEAEA
E5DC1213
2DED37AC
17F808EC
0708F405
E3DFF9E4
FF130EFC
FDBBE9DA
F9E3EC3B
CFF2E308
FA06E708
E7C1EDA9
B402E3C0
0ACFE1EA
E9161C0B
18D915F3
EC1E11E1
E3E7F607
36EC2825
33071CDA
E20EF9C7
22F42912
4FCEF0FD
F30AEFD5
FD12E0B2
FB064FEE
06F11439
E5E3F82A
F0FC3694
02F021FA
00E5FBD6
FC050F0E
07FBFCE0
1F1E1AEA
E1D406EC
CF11F7F8
E9BC1715
0BFF31B0
32EBD602
EB170EFB
0FE95C06
38190C0D
D6FE04F6
CD252CFD
D9DF4B42
FA120B0D
FB00F6DE
F804DCED
1BEE100C
E8DDD321
4E04011C
E62D1DEB
22FAAFE9
DD242235
FEBB23ED
19040619
280B3C24
0AF5E61E
070312E7
001C18ED
16F2151F
2D04EFC5
10091F0C
05E1F1FE
16E625CF
05ED08E0
02EC081B
55EB1BDD
F31DF301
F020FF03
12DDE6F0
06EA0D13
E21135FE
D303DACA
08F106EB

