4A291F30
260731A9
2BC1DF1B
3E090EF2
FED8FE0E
F500E81D
CD0522FF
0D110BF6
F3EDDFB1
F90DD62A
0E16FAF9
2B0A07F7
02B31021
00150FF1
E235BD2E
01F1E5C6
432BB81F
FCD21D11
4E19DBE0
04E7DF0A
E22214F0
0201E300
19F5E514
10204512
F43F4EE8
0BFCEDE5
051B16EE
C074FA39
080C38EB
FDF834EE
36232600
D0DBCBF9
051BF3E1
10F7F007
3B15F4F9
ED0EB8FB
3503EB24
23F306D2
D04628EC
FC012A14
201506E2
18070129
D2F30A2D
182AF1BA
13FE2ED2
3A0432CE
1534E522
33EBE109
EEF31335
0C09ECDB
1D18F208
3D140A5C
EBF3B0E6
24C653FB
FAEF19F5
14120602
3BB526E0
E2E8F117
F4DA5FE6
42EC04B3
36E6D6FB
E8FE09F3
96CF1050
D6F30112
EB2C2105
03F022EE
F31CE3F8
E8FE35E2
18C3EB10
B20F1233
EAFF04EF
1010F1EE
EBD4A123
F9D6EC26
20FCE616
05EE03F0
EE1BC708
1719DCFF
2C0F29FE
F4F5E50F
3A2BD0FB
F9BC531C
3E14ECBE
EA3E02DA
CA10252D
E009B746
F93A18E1
FCE237FC
482507EC
0AEFE3E2
E2D901BD
2B3BC7A9
2A1EF5DC
F3EBF9FC
F58100FE
5398E1FC
E30314FE
F7F7F734
F4FC1314
0DE20F02
24204E0A
1A0EE1EF
0113F3D6
EA0439BC
32EE0524
B906F3E7
040206F8
10E303FB
010200F0
0622BEE3
2BC91610
F5EBDC04
11991303
3514F82F
1AF90D02
F5F9D807
ECE941F2
EF16E914
DCE02DF1
C4FFA2DF
E1F92826
A1EF1ADF
FCD8022C
F515EEF5
2B4823E7
F1471EF9
F5EE03C2
D90BFA1E
D30BBE1A
E6DE4700
F902FAF8
091707F1
F6ED11E7
540105FC
0408FFE3
BE14F10F
3715E90D
F1D3DE1B
0604E921
28F7300E
F8FD39EA
EC0DCFFD
26EAF329
1CF71ADF
3CBF1F08
B5E829E9
00CB0A02
D80C0721
ED281207
F8E6E0BE
2AAF32E9
D6220225
0A1232E2
FADAD24A
0D37FC01
F9E8F7BA
EE21F5EE
09F82309
26F70DF4
D5FB0DF8
F310D33C
1AE5E9F0
12195B09
1AEA3331
F40CFC16
16F8B80F
EC1D1AF0
F014E703
0BE50D17
F7EDE61F
32F62017
F60014F6
0C231FFF
08E80AD9
F603E6EE
4A0C36EE
DB1FDF26
C60E04CD
090A1548
F6161C2A
FEC02BFC
D7F7BA15
05F731DE
E41F2ECD
F5FB000E
15ED2F29
D02114DB
E1F9FBC9
1AF90007
FBF71DB3
06F32D1A
05D0050B
1B37190D
D53EEAF1
73E0F907
DD0A09D1
301F1401
F4F405F3
25B8FFFF
F4F60008
550901E0
D9214102
BFF7042D
DAABFAD1
0B1425FE
3DEB172D
FCE51E27
1F17F820
1CF0BD05
32011632
FF070225
09F001FA
E164F2F5
D8CA31EB
FCDDF8ED
181334E0
2038F31B
F9D6BC17
0717D81B
CBE8240F
E1F91D29
BCF743DB
00D4F105
10F5E7F0
F3FCF104
4126E915
FBFBE209
5DF827AC
9716CF30
E10E2A19
111EF107
28E83D18
FC16E1BC
15E6F1EF
22EB0D07
073C19FF
F764F127
0BF60DF9
C5FBED3B
0200F40F
0C10FFEF
42DA1C11
10011BE8
E601FDE8
08F131F7
FB06FCE7
F2E624F6
DDFD200E
FED2D4FA
C70C000E
04E326C6
62200F2E
24E814F2
F1E40BF2
044108E3
B1EEF01D
04EDF9EE
F1FB28F5
DAC5F709
15F9E418
05F41308
F3190EEA
F4E10F10
0D15F1FF
13FE071B
DD10E2EC
FBD3100A
EC24E822
293A1DEA
FE06020E
F7EA093B
3FF6F20F
DCF01001
FE01EEFD
DDEAF1F8
080F14F7
F8FF12F2
1F01ED16
3AEBFEFC
1001EA27
0A17E912
EE0412DE
0DD31B16
0BE11FF8
DBE5F414
D704E4DC
0611CBF3
0D090CEF
FDD6D21A
23FF05F1
D716C917
F9EEF8F5
432A00FE
D31DEC39
25F21CE1
010F130F
FE03F614
DC0FFEDD
130EFF11
2015F4FD
DBCE22D6
F8E81B5F
3BEBE90E
1EF828E5
45FC3B05
1809FE08
FEE51DE2
F2E7E4EF
07F3DDF4
E90312AC
E1FC0EDC
15EC2BEB
EF4FE7FF
E426CEF1
FB2AFEFC
D91F2519
27F31BC7
01E1E5F0
E6391815
14DAE4E9
0B42E703
10EDEAD2
08ECEC1B
01C9DDFA
FAC9D5F5
23151404
FB0BEE10
E514DD06
FAEA0723
FFD7580E
E8F01C01
1EF4F401
0A29F0F1
D514D7DD
0403F7E1
C01CD399
E307E11C
FB070221
22FA0F0A
FC0EEED7
1308E5E8
E4CDDC08
D23F2CE3
04F9E8E8
CFFFFFFC
DB23F7E0
03DE37F6
28D35B0D
1010C7E3
E1F7FEE1
E4183DF8
D5F2530B
EA065A04
0D3AE4F1
2A101311
FDFF0BF3
A9E110E1
241E2AE9
F217FC37
13EDD818
F2FCE9B7
1B140FF3
0FF524F8
380E09FE
F4D216F7
0C2F5F01
08D51FE4
16E2E511
2912FF24
FE2305ED
B60BD00F
1420CACC
35D9141A
D6DC22F5
3620EA10
15071215
ECFDE80E
140101F6
06C9EFEC
33011BAE
1B05FD43
24EFF80E
3543DB09
0008C90E
8C3FCB50
F4CDDFCC
241DD9E3
F411F1F9
B61211DF
2423011A
E32CE2C7
0620E8B6
73011543
3FD6F9F2
24BBCA0B
15DB2015
0429F3E4
2C0704E4
0DFD1A05
0EFC090F
E12DF908
2FFA19E7
A94227F2
F80FF510
1F01282C
E9E6F52B
F0FB0712
0E0DFD05
39FF28D9
05CF0BFD
F6E02202
0F2BF9FF
FEE10EF5
151E0500
0E0733A5
EC04F328
26E70BEC
18070904
EDF503B2
20E20FD6
D710A50D
1C1412CD
FD13232D
DFF03013
2F613C17
CDBFD089
D041DDF6
E83217EB
F30F1229
BF0B0AEE
DAE531C9
F16A074A
E02ED7F6
FEE5134D
22F9211B
2735F2D4
CD16EF2A
F01104F4
E4F72821
0AFAE8E4
1115F70A
DC20CDD7
B602E302
001BDEE0
F4D4E336
0DED0D16
15150FCF
DE03F427
ED2302FA
F0EFF41C
080314F7
FBE717EF
FBCBC9EA
E9171500
E3F1F5F9
1EC722DE
0CD8EEF6
2DFBD616
172009F8
14E4F407
E4FC271D
0AFC08DF
D42E0604
24E9F51E
04F620ED
EE171425
E3CEEC0C
072C1BF8
0921F30C
FC1512EC
C6E0EF0B
1EE9F5CA
12E3D5F8
F1B4F84B
02EB11FE
F7F0F1FA
09FE0AF2
26FB3A2D
2EE0DD0A
1DF601F9
E2FFEC34
02F00B05
F409F915
E01BEBFD
0B0A2E20
F20EEF26
E1D2F8DD
0211E617
0125D6FB
E310ECF0
F8ECEDF8
E30FF618
EBF22004
FDE0E506
020922EC
02F024ED
13FC0EEE
FB050F05
EA210009
E42A0E97
200A0DF1
EB06DE05
DA6D421F
E4D9EF1D
FF0E05EA
EFF2DD1A
F3E905DE
0202FAFE
F50E370C
FE01FB19
54E50408
070FCFC8
36E8D806
30FA2ECF
053A1120
111AF62B
D43614E8
25130DF1
D70F1FD7
1FF60EFD
33E9E433
2BE7DC0B
3207F004
ED0EE5CA
51FFBD11
4DD2E73D
07ED120A
03181E07
16E344FB
260AEEF5
194BFCDF
1FDF33F0
37FC031C
CD11F91D
0304F2F6
080D030B
FFE1F601
08081305
F30904F0
D7182F32
44C9F2F9
0BE9E3D1
2AD524F0
080512EA
F6F91304
0EF6200A
F8F91CF2
1A322311
D00C27FD
11094827
1416E629
03F11B28
060DE710
39C5F40C
1C0E181B
1CF0EC06
27BC0306
CD1308DE
25022AE8
C800ED3C
1831DD07
F00BE80E
110B08E7
E414191D
0FE1EDEF
1B08140F
1AD20008
DFF4BEEE
09F51EE7
12C038D3
DBE0CB05
F70DED1C
11EFFB20
0AFECD22
E6CF1411
1116ED2D
02E7DBF2
F1F8F524
25D92ADE
06194D20
DA18FDF6
081417F6
1F024112
17ECE704
D871F6B1
FDEAC2F8
DA01EA11
03262510
6B0FF513
4B20AA00
D1DB3DF9
0E06E6ED
42203D04
3DD2D50D
151AEFCD
4504EFC7
5B0541C5
B4250317
04F9C608
F947EC24
F5020904
0803FC11
2340D00D
E6F813C8
F7FE2812
21CCCD4E
0840E9AF
07E610F2
57F809E3
04C7CE15
150D15F0
D808232C
E101030E
08E914C5
E31A021C
D7CDEE69
2DF7F405
282DF0EF
E1F24BBE
CB03E9EC
35B4CEFC
FD26200D
DFF8FF0A
D4C4CE2E
E32BD7F3
11E87407
C730E8BD
2FC2B8BB
D0120DF9
F514E902
F411FAFF
06DFF7EB
CE230003
3A6BC1ED
40030823
32C527F7
D30AD3D5
C3CCBAD8
F6EE270B
09E3F0EC
B5512D0A
0204F2F3
15FDF708
DDFE0700
04382DDA
0B0F14D8
DB35F607
C5FDD9D9
F51A40EA
18F620F2
C9180605
272BC805
F6FF0045
0404FFF4
0901F9F3
08FD0D04
0905E014
0C1606F9
D80CE7CD
09FA0930
2FEBDEEB
F7D7F6F9
64E6EBF2
E901E901
09231021
EDE9FC24
130E31F6
F90A0AF8
C720F8EE
18E60A08
0A3DF7F2
05EB0237
16071235
ECE1FC0E
F7E110E6
14F40D28
E0F81B04
E61630D4
13FB53E7
F4E1D805
1719C3E2
2215F0E8
E8BDD4BD
28E02408
21F1E6DA
DCFDFD02
EA29F702
EAE2051A
FA0FF907
06082D11
0E0CFEFC
11F6F8DF
FAFB5D3F
FCCAD3FD
F7D8F3ED
D10C0011
05E6D7F1
F5FAF206
DA09180C
280721C2
CBEA371B
FF00D5AD
EA080417
170ECAE4
2F9E2747
E60D0411
1FFE2C20
05F81801
1F032B1B
F015E6FE
E60A23DB
F7FBE80F
E7DBED0C
C604FF22
09CC0FDA
2B0FA31A
14E2072B
44F0B709
1631E1E5
14111401
4252EDF1
E2150618
0E0406F3
EDF9F40F
0FD6E624
15D002E3
3DF50B3A
1D0A1F10
27C4B4F9
EB03E703
FDFEE32C
DE061DCA
ECE708E7
CE2F2107
ECE3F3D6
F20AEF14
3BB7C7E3
F3210124
E900DFDA
0B1FFFED
EB15E1D9
2328EF0C
D2072E14
F1FA500C
F6EB0A2B
130824CB
D108BEF6
1B132225
290B093F
EBFACFF1
08FEDCF9
FB0AF2FF
24FF3212
11DF4AF5
D216024C
ECDED017
0810E1E5
0BF2CFD8
EC21F0FF
E811F2D8
D504D9D3
094EF6FA
2AF0E8DF
E509FEF4
F1F5F7FE
FAF4F213
D81512D9
0017021F

