3CEAB149
211DE539
0A0B1DE1
EAEEF7F5
D0F5C5BA
1BFD1715
16DBEB15
EA17E50B
CFE5BB17
F2F83A31
E51806E6
3C07101B
0A9E131A
08E51052
0613F7ED
0E0907FE
1681B4F0
271A2409
05D565C0
0EFBFDEF
0EB80BDB
EFF8E20C
24BBE32B
0D2D1866
EC3EF4F2
E6001409
323EDF37
18F2E9B5
4EECFF90
0A0FE6C3
12EFDE04
0D2EE6DF
F8FF200B
E3BDE9EA
BE08F6F4
03FE020B
05D503D3
3415FA1E
0209D1D5
24FC1BEE
046825F8
38E5091D
D0F1DEEB
02EE1639
FC350ADC
E619F9E1
1DF3EC2C
FAED02C9
ED8BE6FE
E52CE13C
2B052109
E91DE91E
21E4E1FD
2C16F90C
0F42C3F4
3E231A49
F6CE0BE4
17350BFD
0E2EE7EC
2013F62A
0D26DD0C
CEF8020E
D202B0FC
0A2C13E9
0C27B90A
FF12061B
04B8EE03
FBE0E509
FE16F726
FFE629E6
DFCE2AC4
DF2101E5
27BCE5FD
EF07F90F
00DC0C12
FC0B02DC
05F2EA03
0AEF00FC
E92DF6F5
0811D30F
39E80FDE
0B0CFC21
F9CC0D1A
F3FAF4D4
141E2722
FAF0FEFF
043801EC
0EFC30E8
DD2A06B2
EFF404BE
12E6E6DC
D902D7E7
0130F9BF
E910F3FC
DBF5110D
06010120
10DEE4E1
29FC003D
E7DC131C
0717C8FA
E00B1DD4
D80FF11A
090A1AFF
E4DE191F
FEEFDCF2
00021111
0000D621
1B16D82C
0DDF1BDD
FE1D0FDA
001E0FC4
00FB04F1
C8C0F1C1
0301F8E1
EFE005F2
1800E11F
D8BAF6F0
F3F812EC
F1E81FB0
0D27EC00
FCDADFFB
100B02F7
08DAD1E8
0FE80F0B
FE0BCE11
1E0ED91F
DFE92FF7
471A1003
F102D9F6
18E3D321
ED2C2101
D1D61248
F7FF3725
01001AD7
EC1AE301
080A0219
2F17F83D
051D13EF
D5FBA534
19171A26
F730EF94
21EE11ED
2AD8120A
06060043
E7E915BE
F60DE3F9
F4ED3533
F5E7CA02
24282211
05EBEDB6
EFEFD813
15F9F3D4
2418E4D9
FA2D2C1E
F3EA2E20
F3E3F311
E651D0FA
07071005
0AFBB525
2428FB29
BFE0F0E0
212ACAE5
F0200C03
FEF41AF3
E7ED0206
EBEBCFFE
0A5107FB
F721CF31
1513E614
F9192A04
0CE10698
14281420
20C40534
E2ED4E4F
1DB4E4DD
D72035E8
03E4100D
0CECE2F6
220411FE
F20A3EE1
0DCBEDE4
FE030FF4
FF1836FC
10D9E7CA
FEFDE5F7
221BE1DB
DBC4DFEB
CB19E3D6
E937051A
DE074726
37E7F1DF
E7F3FD07
F3BA4CEC
48F0D80E
3A12F9DA
99CE0B46
17FBF7CF
2D1FBAF6
1C42CAC6
1C141DFB
0C1F18EB
BD271CF9
F1B6FF12
F70916F8
281C0611
0003F5FE
0D16C21D
0D18D9C7
B63F31E7
12FFE6DA
F223EAC7
01EED60C
D652D2D3
07EFC7D2
1C1E20D9
07DA19DA
F7130B0D
D9190CDC
11191EE9
E7E020E7
143C3324
F5F21A16
1500D6F6
EF051908
08FCE235
3F29F806
ECEF1B24
2B340DE2
0B33DE27
FFE20024
1C14FCFC
F498F9F8
00530D0C
FCF71216
F61DF031
D1F2DED0
160FDD2B
FEE5E911
E6070CF5
E1E60C10
1C171998
E3EC1506
0479BA4D
05EA12B5
ECE929FA
EE16FB1C
E338D31B
0F0C3417
DDFABE2A
FDDD0EFC
C5FA0D0F
F216DC14
E0DDC1CA
E904E5EE
14DF0821
23E704FA
CFF5FAC2
0C0E1433
03021EFC
E0FFFCED
C703DBD1
01FBFE0A
0942F6F9
03FFBDF4
1ADADB34
F2FEF0C0
CB4326EC
FE00083B
2202250A
F5131D25
F109050D
FEF7101C
212E01FC
1E282731
F2F80601
0F1BC816
11E50203
0D1EF123
02EE2707
F60AED28
38FD20F9
0DFBDC28
284E32F5
2C072EF2
CEED03EF
051A0810
191CCEEB
EF0D20E0
DBE6E6D8
092EFCF8
04A5153F
191A18E4
DBB7E6FC
1BF11231
04F0FAE9
F3F10D06
20F513F5
0001FB0C
2EF6FA15
06E9F313
C30FE717
E90301F6
01921828
D71A031E
1418EDEC
02FCED3F
F803D4E4
EFF60B33
DBEFFA0D
0109E0F9
0F31D901
EF15FC1E
D2C300EB
EFECF611
DEBAEBF7
10ECF409
E6EEF0E6
FEFFF8F2
1FFFD9E1
58F6F7EF
130005E8
27D4FD02
D338C10E
213BF1CD
11F8EF17
EFA5012B
10DDEA12
F2DA0D07
07EACCE6
B6F152F7
16DE051B
F4FCF2F3
EF05CC01
FF1B0703
2DFC3607
F3F31B1E
FC12D256
FF05F5BD
2906E502
0BDB2613
25ED0000
3000CFFE
DFE203DE
25152D0B
3001FF15
0C2FE1F6
EFF4FDCE
FBD5141E
191BECEF
2921F0F9
D7DE0607
1D0A0F0C
1026E60C
29132DEA
FAEEF715
07DCF0D4
3D2113FA
F6E1CA15
3F2E0123
001FEB1C
E31CF5BE
EFFF2026
2C18F020
FFEEEA02
10141CDE
230C231A
2B1DC2FB
442BE60C
EB090EB7
0B212A11
D0084204
2F03500A
139C23B8
FCEFD5D5
3739ED57
DC0105F5
D709ECE0
06EFFC28
F902E319
2F1DEE11
04D740EA
FDF6CC03
CA3A34FA
191216EB
D2EA2300
DEEED7F8
FD03E728
F0050D0F
A853125A
FBAC3BA8
0528D7D2
DD1427BD
1F01F62E
0D17EC46
20ACF71A
1D3BF92C
0ADE1130
CAE500EF
25061BF3
2D03D8DA
51A4204C
D718F0DC
D7F8DF00
C0E1EDFD
05A617D4
E6FD08D6
1F3DF8CA
F9F8FE09
F83D1C2A
33EDDFD2
FCE19E63
14B716FB
E4411408
F0C01513
F9CEDEF8
F6E8FFFF
14DB06E0
E10D193B
FAE43DC9
F9BF00FD
2CF9C57E
43D9DD26
0F33024E
C3CBF723
FED3D5F5
D7FF11FA
C4C916CC
FEC9CDAF
F806052E
F52C4505
F259DD01
ED06FA2A
FC37351C
FD19FDD2
C801F127
FAFEE2E9
E2081CFA
2817EE1E
17E400FC
27DED521
7242FCB9
003A3CE7
E2581AFF
DC012FBC
0DD2F109
F6F93425
01CA1D38
085FF50D
FA2513FD
000115F0
F307E5F0
E611FEF1
E01B961D
30D914F1
09F40E00
DF0B08E5
F3F206F2
EA0404FF
100517EC
E4FCF9FA
0CF51B07
F6F0F631
0BF71404
0B060F01
DEFD19FE
02FB000A
E9FCFD16
0FEE0D35
CC120B37
0B1A1213
1BEEE7E4
FA1F25FB
E9CDDF0F
19350DE5
35DE31F9
09DF051D
E71026E0
021DF6EC
DAEE2EDC
DB21E70E
16EDFD17
0508CA1E
0702E4FA
0900F12B
CD58D1CF
1DFC012A
D23241F4
D6F639ED
0E03F3FC
1110FF12
D00EE62F
0B1725F3
ED0D06E0
F8FB29DC
EDDE0DF9
0E200133
2A0E0103
1E0FDFFE
0C170637
141719DA
02EF07F2
00071ED6
24F1D718
0AF6F6FB
F1FEE02A
C534DC0E
E529C501
D21D14DF
E7160FFC
19EEF61D
DAFBEEE2
0804F5F6
1E3CE63F
15F9EED8
E950C3E1
E506F80F
F3F71206
08CFFFEA
183D19EB
C11917F7
EDF82AFC
110912FC
DEFA4FC5
1CD6FBF8
0316CD21
1C0B09DF
2301F6FC
07FC10E9
F2D815DA
201ED10F
0026D6B4
34ECF2DB
F4FA1669
F9222111
EF074B02
05080706
06D3D212
05F7E1FF
11F7C5F0
E10006F7
E1FD200B
FDF30E5B
27DADF01
15EC0D1D
F7EAEAFB
1601FB2E
15D511B0
CE0832FB
0F13011B
11F3F7FE
F1252F09
F1FA0636
F508C4EB
16FCE039
C62C0617
1B2A28D1
ED22F8F9
FBF72742
FEC2F5E4
0E0CE52A
0B012FE0
050011D7
07133B24
FFF32D22
D0BF0BEC
0706FFFF
11B8FAF4
08F6F015
F00B0619
ECDCFA22
EBDEF4FB
EAF231E0
24D910F8
EDE9ED11
FCF0D0F3
001E09C6
0E1F3129
EE15ECF6
063E32F0
0E0BC72A
FCCB1AFD
3E19BF0D
A3C0F35B
24D0FDF1
FBFFC0BF
F9DAFD09
13D3031F
1517ED0C
0FFD4436
F2DE47F5
ED3A0870
EE0131B8
011BF345
C8164917
E751DE19
F218FEC9
54BD1E16
E029F8FE
DCDF05F0
D2E21703
0D2EE010
D7FEE0EC
F9E104F8
E7EE11EB
EDD1F3EE
1EE9E2F6
0B5CB7F4
3527CBF9
F008D5D8
36020A02
D8F3EED6
F727DD24
E2EDFAC5
0201FBF2
D402B902
F42CBE56
DF24E2C8
37F200F0
2C0301BD
BD0541F1
D725C3C6
E50B3725
2401EFAD
0BDBEBCC
15E12808
E8FF14BD
D8FDD9F3
012E10DD
100ED017
D5EF4B27
F7CCD9E4
1417D838
0ADF424C
D006E3C3
DCB3A418
301B44FD
E9F2D0F5
F319DEFB
10DD1C18
EA3AC831
C9412030
E7F1E119
C9E017E6
F6F9F117
0FDD33C8
D2FBFFCE
164B20D6
F4E8EB0D
050708EB
28E4FDFC
122F0A14
CA10F534
12D2FD26
10FA0719
FDB0DC0C
3CF5F0EC
F7D11718
0EDA2606
0A1D0406
F9200BE7
1D04E8E0
EF04E4F4
E3422FFC
0814CE0C
C23FFAF9
381C083A
E1F907DB
1D09232F
211AFB02
F820F8F8
F4E022F1
1711E236
F8F32815
0131D012
FFE3DFFA
1016F9E9
E0BD2514
141B2703
CCEAE0B8
F8090CE7
1A25F5DC
33EFF7E4
E00C34CD
15D314E1
0CC21832
D125E823
E7ACFE05
0A2504EE
0EF40618
F20FF3F6
FEBB08EE
0F15E40A
4401FEEA
051628F6
0107F507
0A13DE15
1F0DE728
08FEEA10
E10AF83C
FE23EF14
0026FB24
120903FE
1E06C6EF
0CF70DE8
0F15F616
E5F5290B
F2201425
28E0E81D
13EFE51C
0CDC1D26
FAB5F3E3
0E171010
C8400CF5
22F0F2B8
DE40EB0D
490640EF
C61616E8
04FAF6E3
DA18F11D
DCDC2FFA
D6F7B8F0
DDCA100E
F3E614FC
FBB7B7F7
E7CD2CF2
00F4FFD3
181D2708
EFC1CCF6
21F7FE1B
FAFFF301
3395362C
FF19CCD6
18C6E316
E8F30434
23C31A1C
B1EFF2D9
2BFD0DC4
002FFBD9
F7D20E07
32F7FA00
BDC70CE8
CA1044E5
09201821
14F2B40F
EBE00A09
DB14F321
2D46ECF3
2AF7F534
C00FF282
2A1B0E04
0128131F
C8E616E3
154D520F
FF0F1B36
F94D2313
CCFDF513
12FD2F43
C8E0F4C3
D8390607
DEF20E09
FCC0EEF9
FB04EF01
1CD12A3F
F2F5E8D7
E321C117
14EF10ED
FDD5DEEB
1ABD4EC2

