050029F9
DE0DDA10
0CDEF41E
1B281E00
D515EBF7
F1080CB5
FEE702E9
E9FEC4F3
241AFD09
2B11E3B9
E8E8E6D6
D0EFEBF3
080A0116
15AB4623
1446F306
FD1F32FE
FEFEFCD3
19B3F518
F12E5421
2E0EFE2D
3C1EF6EB
D630FBAC
0F4E0923
DF280320
1103FCF6
0E1E1B10
0E09FE37
1E36D2E3
FCF8F82F
0A01272C
2EB21AF3
1BEAF5EF
FDFFEF2F
F6E9DC31
1E12E7F2
13DFEDDB
17E80DEA
FA160F04
160B05BA
F11BFF32
29DF06E0
E3E0011C
D5E71E0F
21EC351F
2DF3E4DE
070CFC00
0EC2D52B
270F21E5
E925F8EF
2E100326
D6202FF0
31FC15DE
C637F5F7
E2FE02CA
EDF2FDD0
DDBF3243
2081C508
EEE118FA
26F2F5CB
F4E3E71B
022A190E
3BCFFA21
24D126EB
0147C403
0BC6EEF9
0963F5DE
F8F212FD
F71CDEFE
0915FEDB
E9F5F3E1
121B261F
FBC7FB29
E1E50409
142EF3E3
EB25F418
09060300
04EEE608
F7F40CF1
1906F5E9
232500D2
09060413
06CAF5E4
09DBE604
D2E50506
F2F20E00
F5F31A12
DF9E1903
F002F5E1
1F3114FB
EAFAE712
E260FEF6
D2D406E5
F917F5EA
04020721
E909F70C
DFF8EF16
FEFBEF34
FBD22F00
2021FC19
121318D8
F11F0702
0FF7E5E9
22021320
00F8F610
BAE81B18
FFF0DECD
38F21D12
601927F9
03F718FA
0817F315
FE0E0CF7
FCFFF108
0BFE0B3E
CC0630A8
2532FBE8
FB28F1FB
024114DE
F729140D
16FD20CF
E0010DCE
E7080922
ED060DF8
F9F1F0F8
2406F018
0D08E8CE
2416EEE6
BDFAF407
1E18F3AF
30DFE845
DF5DF8BE
DFE12712
EEFB0320
F302F502
F30C0618
EA233404
07DC2DE2
FF36E807
C2BFFBE3
0FD3E7DD
2205E6CD
090CC834
092AF0F8
F730FF0F
E8F920F1
1404FD11
3A2AFB4A
1E43F738
FACA1E07
CF7EFA1F
F7210B1A
FB24350A
E717CA1C
38C9EDDF
FFF7ED1F
05EA02F1
F4E2FEF3
04BFFF30
10D7292E
E208C65D
F7035724
F71A1C17
4C18FC22
FF10FD0A
040906F2
E622E91B
EBFE23FF
C7160506
E1E80216
20F61908
05FF06FB
EED52FAE
FD36F5CC
EEB5C9C8
F52538D8
A1C405BF
D0DDCC1F
FD13FC7E
F3E0443A
3FF91CD3
C077DE28
2B0400F4
0B1503D9
1034FAC1
E307CE0B
0404F81B
2A05F818
BFFEF331
9EEF2031
E90EFDED
F22BF4E6
FAF40400
1D04D1E9
05F2EBD6
51C7252F
B92CE4B8
05EAFCB7
0F08060F
FC1F0CEC
1309E61E
D75619D8
0530E808
D5FAFAD5
E0F50411
042C1404
27DD01EB
FF030014
ECDFE2D6
03F90106
CB24E21A
DD180EDE
1108FC05
114ADF17
1BE6F602
53280A23
D32107CF
F4BBF2EE
0A09EAD7
F04ECFE2
40D622CE
DC0225F5
DEECF2E7
0619E8FD
F10FD02C
D52DEEF8
12D60413
EE2C3C14
0AE2DD0A
F52105DA
FCE63301
1525FE1A
FC07D6FD
CDD22828
BDF1F718
E609FBF7
FF00D118
1B0BDF06
15050DD3
08E4F881
E52CE204
05FBD820
DEEB0B11
0AEFE2FA
27E7E6DA
0E1D073A
EEFE1AE8
F3E130D2
FAB4F74E
42C73203
C807F1F9
27D2B9CB
2AF1F019
F7FF1109
0F03F1F8
03E03A0D
DB0A10F7
2EE1E809
11140B1E
EBE310F4
1723F6FD
0CD6EEFC
FCD4D112
062C0F0C
05E1F61A
1E2217FD
0BEF0021
25E8FBFB
E8351601
F9100C01
ED02ED29
F7FA0C19
0CD3120C
F0F1E508
101FFDE4
E30CF4E9
38F302F6
1CB517B6
181B0FF9
DAE1F229
0CE8F90A
08DB2011
D6040AE2
FA25FD06
F81EFAF7
FCD810DA
E4B8D1F1
F6ED08E2
022EE6F7
D6E923E0
EC0B0C11
0F20FAD4
0AD01C33
F902F007
203AF70E
09170505
F6F02704
18F5FCED
F1EDEE1C
05F305FB
061701FC
0702E503
FCEB0206
032107FC
06140BF0
1E01E7F2
01D114EF
0DEE0B2D
DDDE0107
F5040B1F
19213325
14DC17DE
13E30207
E228DA2D
ECFBF7EE
14F80F19
0352F40F
D4E003F6
E2E80DFE
FE1616ED
0DE806FA
E356F70E
DED5F40F
14F00A1B
C8D1FC1D
CDF828F8
B00D18EF
2EC4FEF3
F40EDFEA
241300E8
00390BFD
28291AEA
E927D309
B5F0D72D
170CEA9F
0818BB45
22240728
021E03E4
0ABED450
2A09DC3F
3BDAFB1F
01FC2AF9
31EC1C00
332A1AF9
1BF1111C
12FB1A0E
E02ED80C
18ED0F2F
F8C6FFFE
F43F0CF4
39E216DB
EEC8F613
EC354B11
E80B0B05
FC51F8ED
EBFE061D
20F11906
09F2E8FD
E00CE2C6
BD0D19E4
01E9ABA9
FE01CBC1
1411C4DE
4CEF1930
F2DBF6D7
EF0D0ABC
11DC0BE0
1A312DEC
D51D0E33
100BE92A
0F11E4A8
EEBF0AE2
E2421209
01E948FA
0918DD06
360C2ED3
CA122014
F0F639E2
F7D4E42B
2A371521
DBEA29B1
C4D4DFDA
EFD0C5FB
3C043110
D2BFE210
FBF4EADC
E8FB1D10
341DDC23
CA39D8EF
E72CCD4B
EDFAED05
0529E9E2
001F04E1
F724314F
F71ADDD3
35EAF109
33CB1502
3022CFFE
ED08FD0C
15E8E80D
DEA7EB51
07BA1B04
FB4100F7
E0CEE41E
02150101
E2F8F4A2
F2F21000
291EDF31
EBF70CF7
F3D1EEFD
0CFE05D1
0100E5CC
BF28CD03
14B12C1C
C8F9F0FD
EA2042FF
321B13E2
EB4C12F0
E2FF1612
07BC0C0E
BB0F2EE7
B3F84E0E
9BE5FAF6
0324FA3E
1AE013EE
0624F32E
F40804DB
0210FC00
141D1EF5
4D210EF1
DF1628F4
FB09EAFE
E12FF314
1311FCDE
191DF6F7
0C3FE515
2917F5F5
43FBDEF7
FFD9114A
CBEBFF0C
1408DC12
0C36E922
C0C2E1B7
F32C18CD
D5E4E6DE
E29E1D48
1A0CE9F5
20F1F9F0
F3D705F9
2F243811
F318F80B
F914FD07
F81126F9
C90C11FE
E4221DE6
110413CA
F034170C
11DB0011
0601D8FC
06EFF9E5
E50D02F9
0B07FDF6
0227FB02
EEF00624
EC04FC0E
F5EFFD0A
1005F9F9
F213FBEC
23FB05EC
1008E8FD
FB0FFBBF
D1220712
2FF6C9FC
0C340356
08E7EEFE
2BB40AF6
DAC9CED7
1D05E9FF
07200505
F208F7E3
213CF5E7
DBD9F973
05161CE8
0C05E8D2
0C040BDA
F7F5FEF9
EC0CB606
250819CD
B6C1F3FD
2136CBE1
01F71DFC
0D02D716
ED2A481F
CFF40523
445CF4B6
03E2F1F0
1807EDF8
F621E509
F80915F9
06F303F6
0BD404F7
F7BDFACF
F4FBF4FC
DADE07D9
04E3E7E8
1404090A
1752FF07
E0FF37B3
FA1F5009
FD22C6FE
F5FAF017
00E10507
ED0ED82B
E9EF1ED9
0218FEEB
F42FEA17
DF0A1409
D0F1132F
FE41222A
1724F3E1
2F160A04
F25110F0
D5010CC0
E50AF4FC
1CFBFCF7
FCD928E2
0515F114
D505DF09
16DEF9E1
3AEE30C7
D6B30720
F7ACEFEF
190FF506
0109EBE1
08CD06DE
09F704D0
081BEC0C
001B3643
352CEE15
0813F200
01DF160C
EB0907FA
19F1110A
EC0DFA33
E81108F8
0E19E818
F70D00F8
2FB01912
0BFBD4E1
15E6F401
E8F5EAF9
04F60AE0
07E82D1C
1E0BF7EA
CDF7FE26
F1E9F722
01FB03F6
42FEF942
E03B03FF
18FFEFF1
EA1605FC
14D92C07
0412FBF5
15EC050C
08D505E0
0B0E10CE
02C8EFD1
00CD2AFF
0F1B01EC
0AB41E04
15171BE9
26CD0DFA
2ADEECEA
FA230EFD
0722F0C1
F52723F9
1D0605C6
F556000E
01EC02E4
DD2E2D0A
1DDBF2FE
1E0963CD
F4EFE4BD
EAFEF70C
FEA0F8D7
FFE03822
FF44290A
080DF9DB
0B14FBD4
31A636CC
C7F9E8E1
2AC8CF23
0422CC1F
2AEF4935
1DF833FE
D106E777
0BD010BD
27E06CD3
92E83212
18B916CF
31F3FD03
FAF704F6
0A2A03FB
E8D3F0E5
11F4D7D0
D630E00C
32F1F3E1
F914FF0E
39E6F61F
2819EA14
BFECEBD6
0410E4E4
10DE0AF5
B508E4DA
E9050EF9
052022EC
5403EDF2
EE2D3427
D30E11E5
E7F8C315
E10507DB
3B0B2CDC
21140521
363B20EF
D704EB34
F71BC614
0819F7D9
012A0705
F9F2E601
DF5E2230
31F410EF
2FD1FCDC
062B0E15
F1D3ED0D
1219FF3E
20CBCE27
222CEEE4
1B0A041C
11D1FE4E
5E0809F4
F20B08E3
F411E6C5
281804F1
FC36F3EC
060BF8F4
1024ECFF
EE2D1109
D038C425
10011C04
0E52F2FE
24EC1002
18D8FA06
0210FE16
0AF90106
1F0D14E2
F6EA1F06
1238AE25
2238121C
CC090E29
E1D8D3EA
0814FAFF
EC1DF60D
080F05EF
F55CE1F0
1CDEDD1D
26D737F8
D3F3F3E8
50EC6A05
F125FAEB
04EBEFCD
1AFBFAEE
EC2D14F0
6108F34C
0E3935FC
0BD93BBA
D2EB1802
F90CCBFD
0406FAE1
1DF9FBF5
10E843DA
E736F309
0AD81404
F9E404FC
1212D1DD
EE1FF50D
140F0BF9
17F81F17
FAD1F1F0
F4F90107
FED80F30
E302EAEB
D51C12E9
F51EE8EA
214702CB
0DE312E7
0314F81F
2300FADF
017EF70E
FBE61C09
EF59ED02
1A060104
0AE80FE9
D3EC18E7
DC070CD2
FBFB0E09
03402225
E20817FD
3CD61823
E4DA14FA
29C529C6
07DCCF23
31CDECF7
F4F03DE6
D8F921DF
DDF3FF03
C51DE9DD
1418E50B
01DDE7FA
F80C25DA
F0E1F20A
F514F30C
EE05FDF2
00110DF3
29250F12
FB221B19
22C018E4
DDE6DACE
122D00DC
383C384E
2938D752
DA1FEFE6
1B2BFAFC
02F9200B
D3D4DA04
ED401B26
1311D80C
E7302139
1DD3D6F1
0D11D2F5
06E62326
02FAE3FE
EDF3ECC5
E5123CFA
F30C08FA
CAE5001D
04DEECE4
0122170C
FB210101
EB2901F6
D6EDF6E9
1F310915
37430AB2
F2C80DF1
250A0200
1DF906E8
F42C0C23
FE0B21C7
FEEAC644
0A19094D
0EDFBD15
32180C09
D7CACD2D
F4F51E01
99FC04CF
D022FFF9
070DE60F
FA090D05
FC141204
F3E936C1
FFFAC9F2

