032126FC
01106302
EF121D10
E3082429
FCDBE908
F468D01E
C30A0CF1
0E106303
311AF5DB
DB0DE8C9
D1030D19
19041B1E
DC273BFB
0CA5E635
E207DD0F
C018E4F8
40F2130A
AF10CAE3
E117F239
D22A51E2
4B10FECF
24B0A409
ED150D2F
04EEF225
E8FDF5E6
FEFDDFF3
E1D50948
28BCECD8
D4DE04B9
FF082EEA
1C110836
2E1932DF
BFEF3EF8
FAD9DE17
1A141A24
050A020C
F0F8F606
040EF406
DA3416B7
F10B1AF5
1BC0EBAA
E7DABAEB
02F21101
C328F608
09130B07
1513C6F6
FDEEE1FB
02D1E50F
31061DF2
F4F00DEF
5BEA2C06
DD225D01
F200FB01
2639FA16
E21A1DFC
06BCFCF4
035A67FB
00EEB305
E2F2F421
EF44220E
061D1A11
E70D21AF
0FFFC831
D7EADA00
1AD0E3D0
EA1DE8D7
EA18F7D1
26FAE698
18F50C0A
EBE51CF7
01F0E11C
0DF7014C
18020913
0BFBFAD3
F411FEFF
F8221011
02FD01F2
0130B414
1711040E
F91F00F6
C1D1D819
FFDB25F3
CBEB08ED
EA122F03
E514050E
08F0EF0B
BB18DAF9
192B141E
E2E9DFCD
1C0E3BC4
D1FF22D3
F9C5F505
D8EDF609
FFFCF6EC
D8DE0D29
18E8DCEC
FE1228F9
23E5F8EA
1C17EDEF
EFFBC3CD
121233F8
F80504C9
E52604E1
1DEF08D7
2447F4BC
FD202A37
07FDE65B
F8AB25DE
D9FAF318
DBECF9FB
FD04DE10
07FAF2F2
FECFE4D5
F40CF122
F411901D
31FF7ADF
1606FF10
05FB2707
FA08F3EE
01CA02EE
1B0224F6
1BFFE1FB
0F01061C
E816D722
08090F0A
0819ECFF
12DDEE1F
2E00310A
05F0E5F5
32FAF2EC
4D3F1CE0
FCF6FAF9
1E06DF16
F7FEEBC2
2009DD2D
F4F4FCFE
30FB08E6
27D1DF0A
0FC20131
001F1AC8
EFFDBD0B
3E0503DB
E40EF9F8
15F7EAF7
DBE6DD14
01FA1CD6
26ED1CCC
1CF5C2CD
FDD803DE
1A1B0904
E846E418
F50AD80B
0424BBFC
0BFED703
E8090838
F4EC17D4
11EF09E4
2E14F9CE
DCE50019
F21D0DC7
0C06E21E
F4FD39EF
070D18E8
E32709EF
0158ECDA
F1D71AE4
332ED2D3
F2E7D3EA
11F31002
E512EC06
0CEB20F8
E9033815
F026049A
BDBADEEC
0316FA1F
DA32DE44
2AEF9AE3
1E3DF7E0
B5E027E8
F62B1228
EE332A2B
02FDD7EB
DCBADDBC
38D42353
F81CFE0F
11071501
0838F43E
EBEA16FD
1617F0F5
FDE6AF01
08E60A06
DFEE1DD1
16A32015
1F34D6DC
EA112A03
0A03E711
F8E1ED07
25FEF8FC
04E453EB
F3D5BAFB
F108E7EC
F6F8FB00
0834DFE6
F1DE2DCA
080BDFF1
145681F5
EC22DD12
FCBCDF24
39FF2301
F2FE0B1A
E5E7F115
061D0124
021D45FF
D442FB25
E2F669F8
02D9051F
10F4E2D1
F1DB3BEC
40FD0727
AEFEB2F8
21DC1735
F425C114
F503F5D3
ECEF0903
13F62313
06F01909
D5B5D9D8
F6E9F5D0
0316F52A
E412FA19
E10AFDEF
1708FDE5
05E127FE
FFDCE3E1
D1D8F2DE
D9E51602
16261D27
E698F214
F0E00FFF
0BFF2A2D
D7CF02D4
2BF02402
08FA4CF1
3A0A1C25
1D07110C
E220EFDD
17EA5C00
8E151CE7
EDF5070A
190CE902
F2150F0B
2E18FBE8
D002E7F9
D8D11621
E7D4211B
0B380304
E8EFF818
F6EFCE27
F5F0092D
E6F8FDF2
DD09CD19
E0FFDEF9
16E7E70E
F032DCD8
03E420F8
1C0434E4
2CD41519
FA1BB6F8
ECE82606
0D06E80B
1AD9FDFF
162CD216
F1021401
1A25F7FA
44F0C100
FD0A2B4A
2309E7F5
010BE7F0
F41D0605
EDCFDF28
F6CED0FB
F6ED3D39
E5FFF5E8
F43116E8
F514EB30
1536FC08
ECD0EBFC
F1C71122
F003C8F8
FF0EF5EF
D40FFEDA
02CB3FEA
DBE2FF04
FF11F0F9
1003F4F6
F30A2105
EED90806
2BFCD3E1
FD0907E5
060B1B09
EBCEE5F6
FB0AEB05
09B63D11
2CFAE709
FCD1E2F8
CEF8F712
0BE2F214
1801F7D0
0914050B
3F04F5E1
EEF9EC0C
01DB0F13
FDF11A1F
ECF9050D
E3EA2C14
10FCC6F1
DA0BD10C
EE240F18
10F8030C
1E0DF518
0F1303F6
F8FE0A32
E920F4E6
D5F1F9E0
662F07EE
DCF3F527
F532E332
EA1FDCF4
00FBF210
2436C7F5
03CA12F3
0EFBEC23
BE07EDFB
32F215D5
1D2D1C39
F6CB522F
DD230701
25B43C05
FE19130B
35D21529
F2CF0DDA
ED0CD5FB
0510B9E0
F4010308
F1F5ABF5
DF39FF1A
27FDE001
072DFEF0
ED31E0F5
05DCD7DF
0FF61AE6
FA2A2FF1
20C4FD02
E407C6F3
05F7F7FF
0DF80537
E5E538E0
FD00ED28
F300D91A
DBE3000A
1309C01D
D8E7EC04
DFE108D2
09D3EA0C
FBD73EF3
BD36E5F8
FBE79DFB
390BA718
F7122129
F49DE603
2E0B48E0
09FBD549
3AF5D6F8
0D09E619
1DDAD0E5
BDE1F1ED
0CD7160B
3505E4E5
E20EEC0C
38E0EFEC
1AEB1130
01F43AF3
12F52202
DB2F0D2C
E927FD0D
FE201BD7
36D728DD
F6F0F9E1
F71001FE
EEE7E3F1
0351FD0A
E20F4E30
2C15DBF7
EF0A04F4
09FBFE13
E1230A01
2DF41C0C
F0EF3217
0FE91109
24B2FA1D
C6F0DFF0
F1E567EF
CD24E8CE
E3F20CF0
37FCADE6
D809E810
131BDCEA
F208FDF2
E8F51B17
ADFA0C12
D7FD09F7
F2F821EF
46D6FB24
0BDC0114
17E1E907
063C1452
E70BEDC7
14201101
08F41815
F1FDB215
09A7EA34
31FAFEF8
EE15F0F6
12BAFDF1
022F0F16
321124F3
F027F63E
D722DFE3
1FD352DF
DBEFF8E1
0F152AFB
E914FDF7
18E41CF5
25160439
0D090502
EC0F1F30
2CBF39FA
FDE50E55
E501FEFB
2ADA1646
EDFFC61D
F008D4CB
052914FB
D417CCE2
EA1A2F22
CECBC7E0
F9E010FB
E3133404
EE1303F7
09E5F404
12F223F9
FCE2FAFD
3CD7CBCB
2D27F8F2
050AEFEE
22E917F8
0E051DD5
0EFA0001
F8EEFE07
1A0004ED
FB10FBF5
F3E4FA08
FD0EE0F3
0507EB11
F205E9F3
F2EEDA0F
16FF0809
0C060318
0337F400
12F036C1
15D94142
F803F0E4
D7F01603
EBE4E323
0B17200D
00071E07
1006B3F2
E01AD813
AEF0C8FD
B80BCBEA
F1FD04FE
0508FFE4
011118F1
FEEB1DF5
1CFFDCC1
12371AEC
2EF10CF1
FF216037
CAE814E8
050CD610
4113DA2E
F135C615
E21FFC22
24EE2406
180CFB0E
E3162413
07E1F3DE
FA00F8EE
F2EECBCF
0AD40902
19F1EDFD
EA1D34F9
050119F2
0A0AF004
C4ECEFD3
07D22EE2
1FC9CEEC
0EE2CBF0
0FF3FFFD
FCFA02F3
D528F11E
DBF12F0A
1C09FC19
0DF6CEFB
172DF906
FC00080A
06131701
01F5F709
FA2EFB19
D7153D37
C923D7F3
09CD0FAD
E81CDCFE
F53400DC
13FEF70A
EA20D5DC
0122F4FF
E6FA1D00
1DE2F7E0
24D5F7ED
EFF0DF3A
DC2AE3E1
D7B3E6C3
2610ED3B
DD3203F9
03E1FFB7
17EE0CF5
12CD18F8
FB0A23E9
FFEFDB2D
D8EDEBFB
EB9A2DE2
F120D1E2
FFDD1BF7
0DCC06E4
171C0500
E9F3EFFB
CDBE1F02
04F62AE8
FE342F28
F2F612FC
0BD6EFD5
C3F6582B
14F0FB0C
0B18FD2A
EA26332B
2703180D
F8D6E4FD
E11A1AF0
FCF203F9
1B02CD11
0AEFDC04
0FF1E206
BEF309F7
123CD809
F330E4E2
0EE7DBF7
F1CDEDFD
ECEF17E7
F11D0CC0
15FAFF1D
FD36FB27
0AF12028
19D32113
D7F52619
DD38F31E
DEF02B0B
2FA3F7DD
20E51EFE
DA250FEE
0B0EF002
06FED8EA
3C3030DC
47BF0805
F9D0D6FB
F21A022E
3141D11B
0EFDD203
ED6004EE
CB4F4221
0EA0F114
CA0EF2D9
0AE12AF2
D1200F01
C8DFEDF2
DD1C2229
02062508
092E5ADA
041404E7
D0D6CAEE
0310050B
FBFB07B1
27E6DBFD
D4DB37FD
E70A0911
2901DEFC
1A1CFCBC
C6040F0E
05E616FB
0717FF52
D9EFEAD5
F46F0275
FAE9DD07
1E18DC00
3E0CFC09
2A0DE923
FC2AD414
35F9090F
C319ED13
CF3ECCEF
FAD302F3
F42ED808
F3F014D0
162722A1
13FAFE00
2E2DB807
DD27DD15
0435BAED
F1EBFC01
09D1E8F2
3DE2F22F
F0FDEE10
2D24780C
2A8B70FB
07BCD2F2
F0DE59C1
D8D8BEF9
07DE9A18
F7D8311A
39F5F313
0429130A
130B0FE8
1741FC17
F94B17ED
0DF2A82B
10120338
0104E3FA
0D260AF5
25E90B11
FD260BE5
0A092001
EECE290F
1C1308E7
D32817EC
E30422CC
110C0CF3
10F9100F
1517EDEB
011FF40F
FEF618EF
BF190B25
19B1F1FF
EEF118FD
F2C5F4F0
171736CC
DEFD3523
0CE414FC
EBED30FE
0C000D41
0D141009
EF1E12A6
FEB7E034
C409E712
0724F51C
17D20A1B
EE091503
00FF1CC7
D6171902
000818F2
00003DFC
E9CCE320
350111ED
0BF7F12F
011924EE
DAFA0FE5
1228FF02
061938CF
10D44521
FB13F513
01041805
1FE812E0
E4FF27FC
022F0114
21CAE71B
E3F6ECD4
F0FA0823
08DFFFDF
15ECFCFA
020810D4
D320E3E7
16FA05E8
081C03F3
11EBFD18
00CCA910
19EBF437
EBBDFD26
EC4A0802
F7F841CF
ED37FB12
1D0C10DB
DE00C8FF
F150CCDB
E5FA011B
FA4AF146
22310A06
06BC2133
23100DEF
F10F31D5
130420E9
F02808E3
03DF00ED
C54DDF04
31E7EE00
D405F427
FBE4E426
FAFDECE0
28EC00CF
2FB3E8FB
17F9DBEC
F2402104
0E1F2234
FEC645F1
DEF73104
04D538EA
37F90115
0BDA430A
032811F3
FAB70905
1909EFEF
0C00FA22
0B20FC2E
11CDF5FA
01EB2AF0
FBEC02F9
FC220930
26F6F8E6
F40C1A0F
27DB2801
D9B2051E
1F54B328
DC2E2CC1
DE1CF6C8
F7FF48F9
F88E1A14
1417E8F1
2FEA13B7
2221123E
1FFA40DF
27480FF1
F6EDCFCC
F617FF07
23BB4A44
F2FDF101
090BD50F
0FDE12FD
0C3319EA
CDC4FFEC
D016D534

