EDF7D1F7
F5E0DB18
27FCE525
1614CE0F
1E392231
B810051B
2114E2DB
F22EC9E6
F312060A
190518CA
FF211110
0DF50EF7
34F82116
1C0AFF25
133E132F
F8EFEDD7
2D45F8EA
07AF0027
1F3EBCE7
F22000D9
F9E6FE30
1AE0E83D
F6FFFC00
EFEE0CFA
204B0FF2
5C201D0D
E2260909
ED15FA60
F6F23209
F9FBE707
F620DF10
22E01E05
EA1FED3A
D31FEFF8
DE09ED1D
27F10AC3
A440F20D
0B12F01C
030032E0
F5532CE2
063EF400
B840F11F
2EF43414
FDFB2FFF
18DC0142
E81E0003
E7D6D726
14CA08E0
F3FFCED2
2416E61A
CAFFEF20
0E0B28DD
D3DED307
02FCD333
F817E90E
F8150F13
09E409FC
ECE039F0
FAC3E724
FD48EBE1
DA111419
FBDAC7F1
FACE393B
FD24F303
08E9010A
09EBE8FC
0E220EEA
F2F20AE5
AD08F1CF
E927E947
24FC05EF
3BC5EDF9
04EB16B8
F41F0600
00F01710
FFF9ED0C
080FF604
05EE2516
F4FFF3F1
FA0D0E0E
12E3510F
F8FEF406
0A24FB1D
EF0B14F6
D5C2783D
F4B525DA
070DCCFE
EDCC14CE
45233F13
F80F1FE6
14360A15
FE0924F3
0A253326
152CE64D
0DE4CFEF
E1E3DCDC
D7EC2628
DAE5FA16
380D16DB
F7E6C8E8
3F9E10F0
0722310C
FD32F6FC
F9081AFB
FCE20B33
F3DF2029
E81BFA0A
0DE3FF11
0428FC1D
FF30D6FB
21E4DFF2
E4E3DB28
0314F0CA
140B0122
E80F110C
111CF402
0AEEEC03
04E7060A
0303FAE3
F95DF804
06D115C0
D7D20FD9
F5EEFC03
0E14DB14
21323ADF
15E9082F
ECEDE6FA
07441627
18CF0305
14041318
21E90DFF
ECE10CEA
C51334D4
051A1607
F5060104
F80304C5
0534F70F
33EFECE8
EC0B3A12
F20DEB04
3715112E
16F02321
EFDDCF08
D4E5170F
3100F25A
1739BD26
E5DED4FB
DFEAEDD7
040C1D25
241C11F7
CFE5D531
E722CEE2
FEEAF424
2AD7F5D2
00EDDBFF
E939F73A
1A0124FE
21FD17F5
AFEF17EB
F724F3E5
E8CE2E12
090C01EA
15CEC707
FFEF25EB
F4BAE1EE
01E90E0B
131C0CDF
1DE72BEF
0DF8BF44
1250E8E3
EE23E0E9
0D23EA04
160107FB
F71A4BDD
F6E32BFF
D4CD2D0C
1B2D083E
4824EAF9
E825EFFE
EE1C1554
DF261140
14E3E7D5
DC1EF3E1
1ECBEA03
F9250FCF
E2E7E411
18E5F403
C91D1C2B
F7141B31
00F8172A
0111FA03
0802DB16
EA1BF0F1
1AB70EFC
B9C630C5
E71EBEFA
04082F05
02102AEF
34D9FCEE
361916C8
F3FCF1ED
FE141AE7
F0AE15E7
10DD0CEE
F0F0E91E
17C611E4
A4BCF4EE
D8F82CD1
F3D308D1
F60B100B
FE1EF627
0ADC0ADC
2805F6E0
FE043A07
3CCD0F07
13FF15E2
0E091716
E010EA1F
20B33720
121503E6
F9CE3DEF
FCD907D3
DEFC17EF
EE203BFC
04FEF911
FB3ADD4B
E70C3818
FBEDE314
1EEF24D2
F8EEF8FC
4AFD07EC
BF24FCE4
2AEAE008
EDDC04E0
193DC2C9
1332BCFD
2714E3F3
272621E4
26E43505
2DFDF5FD
084043EA
21F02053
CED1DA1C
F803FB05
152FF8FA
F842522C
BCF1E3C4
FB062B12
64FB24FC
0A40E3EB
E2F8F416
10D9BAFF
18FBE612
ECFCFC02
2A04D735
1305CAEB
16E11B07
E11C0EEC
E10309E8
D52901E6
FFED14E5
08F7DAC7
FE0520F7
0A1EF82C
112DE710
0419D1FA
02EB01F8
031E19EE
0AFE2AFB
DFF50F4A
06FB12E8
0E0CC629
03180414
F628F1E8
2011F6F3
F4DD04E3
E7F7F309
F6E204E7
FF02D00B
0EEC0416
F2E8F916
F3FD2DE3
D4D71022
26C21015
05FCFBE1
EE392736
0FF3E302
FE131BFC
E91C04F7
F522D2EB
E2071712
11030624
17F108F7
FBE6E3F4
0DE81B0A
E015FDD6
0AFC04C7
0BF5F9FF
0014F8DD
1ACEE132
082F0801
0FE3220E
0901F3FD
D1FB1116
F1F9020F
F5D2E002
E6F82321
FA1E1625
052300EE
E8D137F0
02F9F6EF
E5EDFC25
FB19C5F5
F6E0F8CC
1500CCF5
F6D2FF13
0E10FCFE
083208FE
0DF21222
FB08FFD3
123BF5FA
061E0CFD
DE17F812
FBEE0EE5
EFCAFBDC
DA39BECF
3309F4DC
1D0D190C
EFF805EB
F31101F3
F02BF4FF
090024F8
13EC0403
08FDF218
FB3AF448
1F34262D
033C0206
E2E50234
F8E5FF22
EFEEED28
FC1AF8E7
40090416
DDEFFCDF
DE06E0C4
F3FC1B20
13D7374B
0C13EAE4
1005EDD4
0DDBF816
B80B1820
2865EE02
2D472B0B
08B9C9E5
072E1A26
E20C00BF
35DAF2F9
2F38D71B
40E60D4A
6C4F0345
1A0DD60D
F410EE15
E6E1FCEE
3032FDDE
22B222FB
F8F947E2
1A020A07
1A0E19C0
FC0620E2
12EEE2BD
FEF80137
27C934CD
25F20744
F246D3EB
D4C4DF26
E2FB3733
18E3BF0A
DA141B20
FFE2EF16
04EAD7E9
FAE6C306
F5ED11DA
35DB1422
2CBDE51A
092AC603
212CDB54
CDBB1AEC
F72DF50F
EDEB02FB
19F62826
DFD9F8E2
240FEA0A
DCF6E6B9
F0E8E0F3
C0EA40AB
26CC083C
2C1602EC
06FED3DC
F34E1542
F704DC09
E9FB43F4
F8EDFAE0
FB11E51D
E30D4A09
F1F0E40C
D7EE07DE
AC11CA1B
EA0EAAE9
C935FAED
E7FB04F6
E038D5FE
E9E6221B
06130AF8
D10A0C03
F5FD3A13
E1EFEBE0
D40DF1B2
2310F3F4
ED013BDD
EBF9F7D2
FCEBFF50
EFF47EE7
26F1470F
F4350CA7
070AFDC9
12FCE2BF
E6223DFD
05190C30
1909DE05
F702D1EE
22490AEB
1D2F61E4
384116BB
F1E72EF0
F90C049E
E9CB0503
16061800
100B1936
EEFEDEFA
0207EFF6
0EC3EA21
02F7FD13
14E4F210
1503D152
0CF20419
F7F1FDFA
DEE9E7F4
F4E70E14
0123D2E4
191103EB
23F2E60F
DD2C1E0B
EC19F4FD
02FA05DE
E912F0EF
EDDA11E8
12EFF4FE
16ED0F21
2DF120E8
F7EEF700
0D0605FF
3C03F21B
14FB2623
F7FFF72E
1FE01EFA
13E6F7E2
EAE7FE23
D80EF21F
DFC9FC1F
D9FAF7E4
F8F21125
0AFE26F6
140BECEF
E9EAE0ED
2523D70F
0BF30314
272CF505
04F9F8EE
E4F7E702
08EEDD1A
0B07EF19
F5EF02F4
02E509FC
0405E509
11FA07E8
FFFB0616
0DF205F4
0A210A08
F31B0B1D
DB37D91F
EFF9FD2E
090C2205
16F602E3
EEFF0609
01FAFC15
E7FB15D1
1214BBF8
0A06F710
0AFDF210
1AF0BBF9
1A1204F5
09F7F321
02E5100A
F01AC00B
F4F9DF10
F500FF0A
0AE9070C
F0E845FF
FA131816
14E41920
E2F3F322
0A172BD5
E0F825F9
FB25FF10
1EAE2BE9
E3E21100
D4042B21
FF1AA527
F4F300DA
12DC0EF3
100EE215
05EDCEE6
D114FCDD
06F2220A
10FAEDE8
E82F4827
EF082204
E5220011
FEF9F60A
E300F5DC
060C1B33
101DCC0E
16F708DC
E4E8EFF0
DCF50A1C
03F80DFA
E70018DB
EB00E7F6
11F3F1F9
FAFEE7D4
0E1D4410
FA420711
00F6F5E6
FB13FF06
E7081104
0BF9FE00
0842FE07
F211F517
F1091FE7
05DEEAE5
D6E7FACF
0DEAE517
E805EC01
14E5BAC7
F23BE7E4
2402FCF3
EA05FFBE
D6FB1721
0E42DC39
FAF6010A
0224FAF6
CD183107
ECEBFD3E
0D1E03F9
0322FC00
0314D5DC
14E3EBF1
E5F3DA1A
0CED1D13
1602DEC5
EA080E28
09EEED22
230C0418
EC0212FE
E7EE1E21
100624EB
EADDDD14
EF2D25B7
D0270321
3D462801
2B2104D8
EFEEC6F4
2EECF734
F52429F2
EFF02006
CBF0F90A
D3280711
CB09180B
D2DFE9F1
051E2A00
E377E5FF
1C0D43F8
B8DD0DB0
EE0CB6F0
01D12B05
17251E3B
3227F405
2BC4270B
29160F34
BCFBF1EE
0514E202
DDFF25CD
DDE7FFF3
14F20C35
E1CF190F
1F00393D
0014F810
1FC504FF
1CE908E5
0FFCF20A
FCDB2CF0
0717ED09
FFFE07ED
1A0CF301
F107FFDB
CFF2AAEC
3BF215E7
0C000312
00FAD6DD
DBEF1B30
19BFA422
03E5C2DB
F5012202
2501E7F7
172F220B
55F804FA
D516C9C3
40153617
121220EB
021B330D
DBF11CCE
04E61208
DDF808CE
C8050300
4AC023B2
02FDE403
1DDC2013
47DB0FF7
E4E5102D
E7D64BE9
0E04E40C
60090C09
89FE0BC5
161EF312
090B0AD7
1004D0EB
E0F20AD3
ED1D2E07
140E1719
F01A1510
F808181B
CA05190C
49DFE7EC
C5EFF80E
FA0A06FA
E7FA231F
120FFAF5
600A0D05
F7E908FC
F5093500
06071E04
C0CDEDFB
1F0EFAFB
F69D0320
36FC34AC
F1ECEE04
E8FF0F2C
53E500EC
B70000FE
30E61EED
5ED7DA32
3D3414CD
07FAE7F8
B506DE0E
D4EB0DF5
1EF0F10C
F1F30CF9
85EC09FD
04CDE80D
F2DA02F6
F3DD51F3
C5F704F4
5EE0080F
F7B7F1F4
020217DF
1DBFE3E3
0A0F02CF
0822FCE9
021BFDDF
17ECE70D
1001DFE5
FAF0EE00
CC1B14C7
2C3DF0D0
FBDFEDF8
3CEDFEF7
030E06DE
0CFE0425
05FDE715
F7F60A09
011EE201
E7DE0109
D1EDFCEA
CD100009
2207EC0D
FE0AEDE7
38D522FD
404EEBF7
DD063708
19032708
082202D4
02FC080F
01FB26CB
DCEA41DA
FDC4EC0A
C613D6DE
04F209F4
38EBD712
E7E3EF31
EA0725EF
EC34F502
0D353EF7
1906DBE4
1DCDC806
26FE2400
FD0503FD
DD090230
DCF4F1CD
E9F3F541
F10BF512
270D51D1
FC2D0A0E
E1E9FC14
0BF31F1D
E9E5F935
16113A2F
D4CFE200
2C104A26
F0F708EE
F826E503
1227F1FF
20F6B708
2FE926B4
FFD5FD17
F500FE02
15FD0728
E210D12E
CDD1CB09
0A05082E
FF15C42C
F412E4F3
F8DAFC06
13FD05F8
5B1F1BC4
D520E6F4
D7EF0CD7
D2FFE614
F1E3282F
0505D4CA
0220E60B
08F5090D
32C40C02
E7EFDA02
D3FF0CF4
37041F20
0308E51E
EE1401F1
BCEDCBE0
E3F5EBF5

