00BFE6D0
EB26EFA3
EA141102
0E32E5F5
F218EEE1
E1FCDA1B
05EBDE0A
F1F431F3
EDD40EE7
131D1CF3
1130DABE
18EFFA16
C2DEE8F1
6417C8BC
1712EE09
DAE85E30
D1EDCE07
FC0EE6E8
10CC1931
EACE4709
F02A1013
EF021C2D
060ADE08
CCF0BB94
EA18FC09
ECDA09EF
280C0725
09B60037
F9012211
1A0CEBDD
FFEFF0F7
CF443301
03F01BF3
DBF3DC54
DD0BFD2D
EEF1ECFF
F2F4FAE7
4206D429
E81A210D
D12FFA02
06EEFCD1
D47DD4A6
110AF10C
08B7D8C3
EA14FB18
ECFEAF16
22FCEB1B
EBEC20EA
DB350461
E5B8E35D
B9E629E0
1C00C9DE
FF1005BB
D6022418
0E10EB25
D219F147
E9190900
3DFCDB39
0B04E211
EBF03FFC
FB212721
0A2310C4
1AE7E32E
2C1D1201
E7151105
02D9F7F5
1FDDF7F8
16CF13F8
12E71D03
DA12D6FA
0CD92726
1D09C8A5
EF0CFC14
ECE1301D
0CFEFF0E
1004F523
D0EF19E8
DF2A06EA
C8140306
E3FCF0CD
FAFC1D09
22E8FCCE
ECDEFC09
03E419E7
04F6F20B
E5EC4F0E
ECDDF6FC
DC054EC8
F0FAEA03
04EC4AF1
23F51F1E
1AF1C609
0F263D33
D3EED8BB
FDFAF308
DDF30816
1605D1F6
07EE24F9
11C0FE13
DC3EA91B
0E0FF307
15F7EF06
F3FAEA06
DEFDB406
D9F61302
02F91116
DD1C0031
FEF81524
F003E422
2C07F6F6
14FD0CF4
0A16D82E
14FA291A
F6F9C707
091721F6
23D555F2
FDEFFDF4
04FAEC37
EEEA13DD
09E216FA
F4EE0C06
1221CB33
E508F713
00E5E0FC
014202ED
0B0442EE
0DF82809
27EF1529
F3020A33
C6F82408
09F61502
DC07F9DC
30ED0F1A
F30A0D25
FC0FEF11
FF000D25
2E16F217
09130C09
4202EE07
111EFDE9
D0E2FBC3
6AD1DB24
0EF1F6FF
1BF1F6BF
FADF01DC
FDC90410
F8093C0B
EFEB09D5
1C370E0F
16E4F1E6
0DECF6F8
41CABCE3
F0EC2315
E724FC1E
670DEF28
E5F51ECC
D4E8FBE0
161C0B2A
242CF5F7
F53C156F
9E2C04EB
01160BE2
E5F707F7
DB130201
E9F11C12
061302FA
D38B2ADE
4539C81E
FD16E3F1
E412EC05
4FD1C30A
E2BFF6AD
FCF705E3
0A1CFA16
23171F18
00FCF604
1AFD3E0C
F30DFD0A
3F0FD529
F417E0CC
B80E110D
070EEEED
1C1AF50B
D41DD7CE
C34FE519
0FEE2B30
3D1B1E13
EAEDF40C
F2F328F3
D71EF315
F3ECE6E4
3A11141B
E7DA1D00
44EFA215
FA46E51B
4B1A20BE
1F08F103
1797EFDB
0AE8D8F6
E0F633D0
D904F1E2
FFFFE211
10DD4BE3
C41A343B
22D70AFF
DCCCE426
C5F2E8E9
DF083014
F0EDF305
FA13282E
27FE0C00
FB030426
FEB62C01
F6DEB102
E4F21117
E8EFFCF7
09E606D8
0507CE11
FD3D0DFA
1509044D
FE1AF6FD
28D6FAF6
F5010FF1
1308E800
F10CFDF7
03F3F8E2
1C02F1E1
CC18E42B
2303FC06
FF27E3D8
28EDF60B
FC02190F
0AEAFC35
13D4E116
1E00DAEC
FB06E202
FE08E5FB
EEF559FE
F1F3DBED
43E2CBF0
0BEED3ED
29CFEE49
FFE12B0F
BC0144C1
E2E5FDDD
4FFF5FEF
D0F3E0AE
E844D4D0
67E30048
E3067EFD
0D2B05D1
02DE2224
0822FE1C
28E227E0
DF0E00F5
2FF5D7EE
E1F70A18
EBF3E007
01F7F3FD
18E3B9CE
1A08E212
071E47E3
EC1D0CFF
011F3B17
130F11E9
24162004
0706F6FA
182D27F2
1AE90500
DE0EE50A
DF07EB07
DA0C590E
20FD0FF2
E8F0BB25
04F6FFEA
E0D57C01
030D04FD
F227E1EE
E900F10C
1F14A2E8
F502FC18
CE060C24
02D709F9
34E29735
EB151FE1
04E31EEE
1EF1DAE3
EF232721
F00A00F0
1B12C711
FD171707
EAF5D0F5
EB0D1C0C
06F7A90E
26080402
F1EBF3FD
F7E4F306
C31B54FD
FEFFF9F6
F3F89AFE
00C41000
C9073914
FF0C0B06
0915DB1E
FAF3E318
0614B2F4
01F60100
24E93A22
E302101A
F8F8C916
0BF902FE
18FF4B06
DFED0B24
13C57AF4
E9402401
EF24D012
F5FAFFE9
03124C2D
EFF0110E
08E32B13
E10CE507
08F9B8D4
03CDF9E7
E0F7FEF7
8103F30E
1322DBFC
001313BE
2C250D27
A819F834
1000CF20
3E0D1FFB
0CF7EEFD
03C7FFEA
E8E004D0
E6CAC3CF
E0F62608
1BD206AD
3BE007BC
DAF2FC15
FA0BF326
D2FADD36
FB2E3EF5
122B11CD
DB105BD2
0A1CF5ED
D119FC28
033AF4F8
1EED42E4
0AFEF221
0EE92A20
1118F1D9
EFF71ADC
41FCDE13
F5E3DAF0
0AE7F318
FDF6252F
CA13FBDF
E8FDF83D
F2F924E9
0B0779E1
5C243F10
DB0FF1E9
03F909F7
0FE4DF1C
D30008F0
1419FE52
49E50DFB
B9DF1008
16E4DA15
E9DEB831
1504D211
F7D0D302
22F5FB0B
FDECA2E7
1B2CF220
D9317601
4C19E6ED
1113EA04
0209C6B7
ECE4025A
29AD23E3
BCDA8DD0
F51DF011
01F9E8E2
CA0626F1
DE35E6E2
0BFCE5E9
05F406DB
FE0D1FE2
FAE13CFA
CAF8D14E
03C5F314
F83BE100
441DB605
28F9E508
2214FCEF
FD032325
E812D6E7
2DD8E309
2E165530
09E33F41
020007FF
F914F109
260405D1
1AF3FCF0
4534DEF9
080F0501
2DE32710
DAFE14F1
ED181D42
2B15B6E5
47DEE0D5
E3EF0807
E5DBC6B7
CF35FE25
E2BDEE2B
1022D6ED
00E7F5F3
264E2E94
B01C1040
285723D4
F3D71FC4
DBF2140A
16E5642C
F22E15FB
DD1DF500
10AB061D
0F042896
0807F3C8
34FBE424
EB000614
D601370F
3327D804
03FE19C7
2838FA0E
0C42E3EB
F6121638
163803E0
E819061D
05EAF52A
64F80418
1DF5C911
F01F2BF9
E641E916
D90EFFF5
01E7DAF2
FDE91000
2C081E31
0DE9FF05
0DF20CE1
E321E7E6
F9F61D16
520EE7E6
352846EF
181603F4
2215F200
1E0000F0
22E4F423
FFEBDD06
0DDDEAF1
01040C10
0AF219E9
F40CE708
FB21EFED
03EBF511
ED1EDE05
EEF3F3E5
16FF10FB
08F1E8D5
18D6C8C9
C521FE1E
3A2C3023
E619E004
F7E003F2
E41002F9
E9E0F9D3
DB140AED
EFE4ECF1
BDDDE512
C214090F
ECF8EDFD
120DE7F3
02F300F7
EDF71020
26B700F7
FCEB1BCB
04F5012B
EE17FAEA
DFEFEE00
0F15EF01
132FFB2B
0020E61C
2A02F1F8
E122D504
FD051524
03FEEEDD
03F9081D
0A1B0312
F70015F2
8DC0FC01
031B11ED
F11704ED
D3000C01
19F8170D
EBF8D7E5
07F81F39
FADD1CEA
07DBF305
020710F5
EFF22107
F71BF7C6
34091B31
0310EDF9
E0F7F2E8
FC091B11
051CFC10
1807FBFC
EDE8571E
FCC812F7
194ABA27
011FE5ED
D4EC1324
23140BFA
FEFCDF13
12FEFA0C
E22510E0
F60D0DFA
AE105D2B
F7FB0B14
17C4C907
0BFDEEF8
2CD3E6AD
08ED110A
B5162EAA
F4FF2AE3
C5DE411A
F9FDE117
03FA0E1F
071A0DF3
D6DE0FE0
F714FEF5
2331BAF7
0FFF07EA
BEE72EF9
DFE2E611
11D941C1
F2E51AEF
E640D30C
FA18E813
061C2700
FD100013
21E6D2F8
E82EFF09
DBFB233A
FD0DE90A
FA19550A
F730FEFB
E811EFF6
FCED041D
0EEFDFDF
0DEAF6F4
F3F8F016
0704D9E8
2C027E0B
210D19F5
EB403221
04F404E1
FA16E5F8
F4CC28F1
01CE0316
0700E613
E7128D25
F3E50516
DE134DE8
F61128EA
B30728F3
103704E6
11F948FC
FED0382C
1D17D4E7
F51C1128
404307E4
C007D310
18F1040C
CFE8F90C
D11BE281
C6F52E33
EFE5B0AA
0D110622
EEDBE2FE
0224FFC5
D7C5F03F
3BF00B15
2BD0F3DA
FDB6F50E
00D360D4
1405F8E9
DB2DFD05
F6351522
210EDC4C
061DFBDE
01FCD21B
C7EE2B23
37DC06FF
E500E203
C00EFF14
D4F50CF2
A9023CC0
F325F8D4
B7E7F11E
CCD0CBD6
C1DE2701
F2EB1507
DAEB0BF7
27DFD5DC
F32F11FE
02010305
F40AE02C
CCFEF141
F5460AEC
E107182F
D1CEE12B
E0EE172C
FFF91800
F4F605EE
A5C81210
F5FEE81C
2135B4D6
E222F0ED
EEF52BAA
1FFDFAFB
DA0ABF63
29FD2540
040122BB
50E40C21
0C2908C9
F518D427
D816F81E
F8FA0CC1
64D41B1A
19E10D1A
FD0902FF
2DC6070C
0DEFF20C
09D20A01
E1D9CA2F
33F11D28
EFE70810
0E0B0416
DD010E17
2BF51F0B
0111E1FF
F12907D4
DA0FE83D
0CB80919
1313D1F6
EEF5F904
04EF1A16
F2FA2EEB
EE1CBDEC
2DD0EA1B
FAE3D8DC
0A52E6EC
E3270DCF
2039F623
070EDCE5
E5290100
FFF609E4
0D0BFB1D
D516E9DF
FE16082D
F72AE5B3
26FA0B3C
C6EF1DF2
04FCFDFD
ED0AD8FA
F402E8EB
0917240D
050729FB
36190CDE
12E9EC47
F8E55B1A
F01F090B
21031719
E620D411
32E0FDF5
BFCD051F
DAC3D4E1
26F219FD
FCE00417
0CECCB1F
13FBDBF5
0AFCFF13
F5E606EF
12D2F3E3
DDEFCB14
E718090B
2E0309E4
F40400EF
1308D435
12DFF7EF
E6B22605
DB160C25
FC0F102A
DC3A0A05
F717F20B
FD27D6BA
2B032E23
4A0816CE
F42CF9F6
F7C407E8
FEF4B413
0221B6DE
28BA0920
1702FEDE
F625EF46
3020FDFF
26010D02
FD03E318
04111CCD
EC160CE9
0F57ACD2
02C61518
08DBC605
0815EDEB
072919F1
260DEC38
08EA4216
0E0BBBFF
D5301705
43E32A06
40181C06
F1E42E1D
A9ED0CB1
18FD1526
E62D04D8
2FF0F337
021B1219
B8DEF0FB
EFE415C1
E5ED1835
15F51AC3
2FE62EFC
FB123A18
24200AE0
E2D1181E
F6F9FBF5
E70EC3BF
05201723
E9CCC1EA
F9D31C34
FDCE45DD
241AEDDC
14DB3112
09420509
18C3F036
2C031C37
4547EEE1
1FD1FDDF
0F2D2DF5
D2F1150B
14C425F6
08000D17
ECF0BE09
E72D0DCF
DDE205C7
0D15C712
FC51D011

