DE4039FF
3350EC30
16170610
1435D3E8
16E20BE5
FB140BF0
19E902E8
100EE308
300814CB
346800F1
FC03FBF6
22104035
363BFC09
30FE033E
0A1C070A
DC2712DF
02F212E6
024106FA
1CFEF30E
09131ED9
E42001D8
F2F628EB
F71D0BFD
A0D410D4
0004090F
220FF5F0
0F0034BC
B3CC02F7
F9F4F816
E4F4EEBC
0402DDF6
EECEC8F0
E6E5CEFF
3206E118
0A0710DF
1E0D0928
FF200901
F4F300FB
0BDFFE19
DEC299F4
20FCC1DD
3DE7DF18
CDFAEBDF
DEF7A71D
1A19EC0F
142AEFF1
42FAF71E
F703C3FC
C101ED14
DF1D1FDA
B5CF27FF
06D80E0B
1617230A
BA3FB9E5
1DF2F1EC
43D04703
1BD0FCFC
E1D2EDE6
D502242B
F417EB2B
F20312FD
E9012303
3AD1F4BF
EBED221B
0EF8EBF4
DF24E214
02FFF9D9
F9E02112
1D02EFDB
05FBFF1C
0B3EF807
0FC616C7
D0E2F700
F5DBF700
2E07100B
300A10D8
1B2501D9
F225E617
07211AFB
F62DF5ED
12F5ECF5
20C3D511
F0FA1CF6
28E808FE
F5F4FE01
36EE1AEC
E9062FD7
D7CEEC24
F6CDE93E
1914E9D7
F31BDE05
E407FFF3
D4F81305
2108D206
D81FF228
F1010C06
E609EE0A
E9D7E098
E7010AFF
1C2704E1
F7E3F709
14F406BF
06E91713
04F301CD
221619DD
010CDDCC
1BED20E4
EEE8E311
0A1BEE18
4011FC00
010904F4
1C20070A
DAE503F6
EDE50A29
13FC4310
E0021701
24F70417
06122316
08EF031B
FD11B3EB
E90420FE
DC0640ED
06F5E8E1
DD0E0907
E60E08E9
0BEB12E9
0AF2EEC5
27F3E302
F608E1E3
D401EBD7
EAF00BF0
C21113EE
FC08FF25
EB09220D
FBECF53A
DAF9F9D2
0B21F904
04E023F1
F2C7F635
F5032430
F71DD8FE
19FF12EA
0FF817FE
1209F109
05E5F9D0
F70C2DF9
1F15B70C
05F12308
3D1523D8
4206E3F9
E7F408EF
9D22FE02
41F50D2F
3A000BF0
C8EB021A
DDEEFDFC
FC2E0EF2
031706C9
21F30747
30D80910
200C3EF7
101432BA
02F90205
000B09FF
DF15C7E6
F2F227F6
200D0EDD
130DE9DF
DFE411F0
1605ECF0
E698292E
7106E7C1
2C01C2CF
1C250CC7
E1C9F8FC
0E27DE3C
16F6FBC8
BF36DFFA
BF0EEF02
33F4E9B5
F508E53C
1116D0EF
DE20F9FD
EAEADCDF
032E101C
CCE0DBE2
21D9ED1F
2CE639FB
0400D20F
3BC94915
E5F938F2
EDFC12EF
EC1DE5F5
4E0A07F6
3DE8F931
D61E3E16
F919BC17
D9D908F9
1004F409
0B0A0DEF
E82BE9E0
E5FEC3F4
F7123603
EDEB03FD
FBEC03ED
D704DF03
ED20F518
DE15F704
272C1BF0
1F0A0F0A
09D418F2
E01B04FB
1629E02E
E10D9C27
0D23EB23
F82227F9
E4F4F8E0
4C170FF0
FB1A0BEC
03F00EFF
F3190DCD
14D5DF2B
06F8FA07
ED0E07F4
11F50804
E8E310CC
08E523DF
CFFFF9F0
FB0E0F0C
F9FC18D9
FF0EEC0B
F4EE210B
04070632
D821BBF0
0F0B16CF
DA03CA23
F4E6F817
4ADCD23A
D9F9FB05
2D0608F7
EDE9F50F
F5CBDA26
2DFAD917
F2171C12
EEFBDF28
17FA14C3
FFF10EBA
4CC1F742
C509ED04
D207E22B
E001C2F8
F6BF1BF7
ED16F1FA
E0F405F8
1BF7F50D
D9FC2110
12092EE1
1806E804
FD0F02F2
DCE40F1F
0504F908
23E51600
E009D3FD
F5FB0F15
CD120CD4
1FFEE8D8
F505FEFB
ECDC0551
C10A260F
10FBEBF5
D9EBF00F
3309EAE7
23F1F013
0C0F0BED
01EE03D6
04012509
0404F0D7
1F08EAE9
00F90217
F9FBFF16
E200D9DA
BD151BE1
08CBEC20
EAEF11F0
0E1507C5
0C06F90C
0FF907FE
0F030915
F90FE2ED
16131CCE
E533F7F0
34F4F816
00BD0209
C8F8AAD2
0919FADC
0EFFFBD9
0308F41C
E61005F0
C6FC1714
E1190701
0C27DFEB
FF0FEC05
0811FB03
FDF0F700
1824DCF3
04F1EFFA
28F9FEED
FC16E6F5
D7FE0EF7
08F5EDF5
28EB08DE
BC02F913
18E7F0D5
32D92234
420E04F2
13EA0035
0FDE06F3
0A0AF3DD
0312040E
F51410DF
E9FFFE2A
F71CF1EC
FAE50ECC
1209D120
191513D5
F70A2AF8
16F61803
111DC70A
C2120D20
ED03F538
140B260C
19EECD0C
0CF21B0E
EB2E1E4E
1011FED6
F01C13F0
13E5DDF1
FEDE2237
F7E2EEDF
13F308BA
F54ECA11
FD0301E3
3003ED28
58E733C4
B41AE225
C3DFF301
2C1118E0
3D020306
1B2C0111
0EF115D4
F740DADF
D41809E5
00092CD8
F34BEB1D
0EE828E2
EA030DFF
1AD914F2
0BE3F0DC
0A671F1E
10C30009
BF03F419
F1F4E9D2
07F4E518
1645493E
E51F10EA
3B00F602
D88AFF41
F109CB22
E10F033D
18113A34
11FC0EE4
E501E529
2DEDFBA8
061ABA0C
111926DE
19EDCC0A
13D808A9
020AFFE1
25F3E514
0C0E310B
40FEED2C
04ABF61D
EAF30922
1BFEF3E6
9808F4D7
E600FF04
0DDCCBD6
D4F70BA6
E61C13ED
3F0FFCE6
171ED60A
EE0E1B0D
E71D130C
24240D06
DC372E3C
EFF1DC17
FFCEE2D3
F2D0F1E9
ED08011D
1C40222C
D3F7F314
D31D3AF4
0003E610
1526E042
02FBF712
CAEBEBDB
FE0C0FFC
D8E8EDEF
10F5EB2A
19EFD5E0
E617F6EB
5410E7E0
DA02F8FE
2DDFBB19
00C4FE12
33CBB2F9
13E30909
0CD815E2
07CF4707
F354EF3A
27C5100F
FBCB2B79
1B040A2B
EBB4CFDB
EFEA0F02
C9231F1D
E30CFAFC
1CC3DDE5
25FDD1D9
030001D1
08F51205
F9F00FF1
D20F0130
5900F13B
EEDD17F9
2AE9EC14
21F61032
FF36F8FE
EB171019
F8BCFB43
27151EEE
C418DCC9
E1E7C733
FA021614
C82E01D0
23DDF9E9
13D7DFD4
050B1F0C
F5FB05DF
0EF208FF
D302D807
2D1108C4
DB1DD3E8
AAF32021
F4FCE427
0AEE050D
06E9F9FD
18E70000
010303F1
011C09F4
F9180BFD
ECF202FC
FFEE0501
FD09F12C
18EAF900
09FFDBFF
000A0A20
1B11F00F
0F1DFFED
1BED1507
07FF1810
0DFEF748
FB02F8BC
22EDB8FC
ABEE0E08
E0243FEC
12F1E90C
1C172206
C1E00FFE
29EB59C8
EEFB0313
E20515FD
04170EF4
090702FD
59ECFCEF
CEF2002A
25F405F1
F7A4440B
17FD16F9
F5E51A00
08380EFA
FA1DF622
EC0708FA
01E0C4CF
E7040607
17E543D6
E3F817F6
1A17EB11
21CEFCFB
11CD1A2D
D8050D0C
E3040E07
FFEBF000
F101D507
FDEDD838
140619D0
28D8F8C6
D2EDDFFD
1710F000
FF18F306
E1FD191C
03F7B7C4
DFCD08FC
EE02EE10
EEFD0206
E4ED07FA
1019FCED
AB06E326
0921CDEC
1C15E9F0
12E70A19
02EF0225
2C1025EE
2A20EA15
DC07F40E
C4DDDCF1
1B07E6FF
0D15D4FE
EEE1F7E0
D3DB1A31
2B23FD06
120FE218
09162CE2
9E052F1E
12DD1BFC
0BFAFDDC
2409030F
09F24F17
E4FEE4F8
060BF0F6
05DD1BE1
0212E3DB
1DE9FC03
9D07D2E8
E8DBF4C7
F52B38D4
01FB0E04
F0100413
1218D606
F9EEDB2D
F6EDEA17
021923DB
BD28D0EE
14A327F9
0A260BFF
29DF0EF1
F3FEC305
F84C0D00
280D01FD
F005EDFA
310C020A
FFF702F7
F80D0AF2
04D42DEE
16CB002C
FD0118FD
F6BE3FFA
E5FB11FF
0D0FFEF6
FE0EE303
11ED000C
F5CEEFFB
0C0EE7EA
DE05D3CB
C3EEFBE3
F11A2929
12600115
F4E813F2
3FFEDFFD
DF0534FF
BFD9F35C
1AF0033A
F93810CF
D90B18BC
000C0A0C
F510DBF4
0B02D8FC
EB17FC1B
29BA0335
24FF2507
3A1512AF
ECD06522
EA180620
12F0D020
0ECE3ADF
06EF23EE
252515C7
B8FA400B
EAC3E320
D7080112
F40606E9
E8FE43D1
E526FC06
3602001D
F135F903
DB16FE1B
F1C0F5E8
E6657E0D
FC200E3C
221D1618
2C270501
283320FF
E218F513
D50008E3
0AE4F5FB
DD0BD5DD
1BFFECEA
382E18CF
45E804ED
13270D0A
FCE80E0B
F205EDC5
F5A910AE
0CD4EB04
DE09190B
CBD80431
27FBF8D9
C85AE5C2
A0EF00CF
10F0470D
18FBF8E1
32DA1E00
C4F0D502
24D83037
08CEF0F7
FDD9F12D
E4040C0E
BAF4D4E3
1E2316E2
F80D39BF
0F0700F0
EAFFEFF9
0820E71E
1E22B0F0
35E20201
E6052209
F9E8201C
C0EB2519
1EF0EBE6
0EEFFF05
0B1901F6
0B18FE20
DB0F2610
1E18F60F
DB3FE8EE
F22DDE16
0808DEFD
1DF1F9F9
01160817
0F0CDCEB
F8FFE733
EB04E1FA
0C21F4C1
FAEF051F
00FE0F05
0BBC2221
00F1EBF0
F5F808E9
F81214F2
E9FEBD00
FD031713
39EA3DE1
051102D7
F2E107D1
FB0B29EF
0A0EDE07
F8FF04E6
18E2B8ED
0CECE512
0525EEF8
151D20F7
EDEB0C1D
1CF3EAFC
F0E63405
0CFDFECD
1A022C1F
F8121142
C6F2F31B
E1E70509
080BDCE3
C942E7F9
B6EF14D4
F40B102B
0AF9DE05
02EFF505
EAECC7EB
0E0909E6
F1FE0C04
FD1004FB
2212D4DC
E9E7D7F9
02F216D1
FDFC123E
0E2135FE
36FE0330
E91BF817
D40B11F4
1F110DB9
C3EB2C1D
FFFADBE6
2E2302D7
B90A01BD
FE04EC2D
2610F00C
04DD0DBE
56061FFB
DE332121
F6F81EDB
151618DD
F1FFDABA
FCFDEDF4
C2EBD1F1
3CB70BC2
FE22E0E2
F10D3309
CEFEF2FB
1416D8F3
51CDFC0B
1CF1C212
03190F16
E533D015
D5E74727
CAEF0D14
E0D7F7F0
C220190F
100D1634
0EFEEEB6
22E8E9EB
0524120A
E6EBD0FA
EB2BF703
F42205ED
180305F0
02EBDCE7
CCF81A16
21D6DCF2
ED2B14FF
11E42623
FD20E312
191FB9ED
01150C0B
1022E9EB
F313F52A
3A120514
FF5FF006
35E904D7
F2FBD2F8
F8D1102F
16E4EBF6
0A4904ED
DCEF2B0C
10C9E9F1
FE11051F
EBD1ED01
33CF12EC
093DDC13
060C10DE
0C2506DC

