2FE4CFC2
282C0DFF
20160D2F
DE02050B
291DD89E
39E90DF8
430E0306
060AF9E0
1A3D524E
2C1EF1F0
D907E5FD
E918FAFE
1F1F13CB
1B27190D
28371143
E6FAEC22
38DEF72E
E1102412
16251AB0
D91D04B8
FF17FDE0
FDF7DFFE
F51A58B6
C3F228E8
1210FE14
09F2DE05
3AFBED25
281D41FD
54093502
210F0CF7
15D9F7E8
12FD32F2
14F9F58B
B708D00F
14ECED01
340734E2
D6394F0D
071615F2
07FB32D5
161EF4F5
ECBD97D2
BA1AC1DF
E6F624FB
2403DA0C
0FF7DFFF
C908D102
1A161D24
7EDF0FDE
6E28F32E
0AD3350D
10E4EFFC
FC02D9F5
F1EFBD25
28F522F0
DD4309D0
0A252605
19033ED2
DE1B0911
FD0B1BB7
03DC1FFC
F5FFF320
1AEA1715
FAF9EC07
1A201034
3E0E390F
0A2105CD
07FC0222
2202F8EB
270D3FF0
15311C0E
21D21CE3
2A0BFCEE
EEF7C5D5
1C0EF116
FE062DDA
172BFE0F
0AE12EF7
240F010D
09CAF312
1BEFDC06
15F3DFC6
E82DFAE6
E4EACFD2
2D10EBF3
05F5EB23
31FF0AF4
E6E2D9C0
E8D004F3
D2EED109
0E0C05D7
240722DE
DD090EFF
F5E0EBC0
08F1DFE0
FD0A100F
38FD03EC
DBF111FD
F4F5F12E
E3E01821
F72325F8
E0FB05EC
26090B0C
FBF6F2E4
C22FEE23
FDFA2602
01082DD9
29FEE7B8
E6FEEB0E
1001F3EC
FB19EF03
FD2A1C03
F2F509F9
10162146
3728EC0B
4DD107F0
DFE820F7
E1E8FE0D
DCFD070E
06E9143E
041336FB
0C1305FB
18FD0ADE
F3F308ED
F80016F3
DC0215F7
06D7E7EF
0DDC2FB5
0706B0E2
0F10E7E1
FE0404F8
F3E4D6AF
D4E51D0C
0E15F6DE
FC0CDDF2
F7130612
E6F6050A
D003F3F7
2803F920
EF16E3C5
FE0BDE27
42D0C10D
0DE6F5EC
FA071CDE
09190700
08F513E4
32D304F0
F5CDD109
10E2F60E
12E7474D
F7FDCBEA
E43C3EE7
F42800E2
BAECE3DC
A81CF1E4
E7210107
F423181A
EBF7EF07
12D1030F
C8021D3C
301EE515
040A3E02
E4F5EE02
F9ED05EC
0A082204
FAD4A7BB
D1FC1702
0E02A8EA
D8FFEAF7
06F02AFB
2FFD0C12
DE727E12
AA30EF19
FB05060F
E205E80F
F71B17E3
EA13CE01
95D4F43D
DB090CF8
C60839F1
FE5EFEF9
37FF381A
1BEAEDD0
0E41DAEC
E32732FF
FDD2EED1
FFD7F203
D9E33C08
1D13FBEC
1FE40026
34FCDD1C
F5E9DFE7
F60DFEEA
F8243AFD
EED72C27
19DDCEFC
D101ED19
D81628F1
36F2F2F1
2DF8DD3B
0F02BB07
0BDE0098
F2F91D38
1D1AB9F7
FB152AEE
132DE318
D213F6FF
D834F2EC
FEF431E5
FC11EF21
C1EC1703
46DAF5B0
F50C0AF6
05022B0B
F8260B1B
C9500511
56EB21CE
F90AE841
03FC07DE
1E09DCE0
D33B18F5
080918D1
A5F10CEB
E1D2D40D
F103D214
26F9F4FC
F4230FF3
EAD9BD13
DDE2F2F1
E90FC80E
E522FA12
FE00D316
1011E507
F3F40B41
4726201D
06E6BBFA
AFED0C07
15CD0226
F10EFAF4
F41A15E0
09101114
080DCBEF
C902F1FD
35FEEDE5
60DE2405
DCCE18F5
E7F11D1E
FDC31C39
08F5DC1B
010AD1CF
E2380518
45F6F505
FBFCED37
110B0125
F7230B18
0EFC111E
F100FEED
BCE90715
D5DA0E0F
01F7D81A
F904E5FC
03FA022A
1CF2F806
030EEDC8
29E403E9
17EDFADA
1B26F9FA
401DF441
1D173AEC
D3FAFD06
2EEE12EF
05E107F3
F930E411
2A0CE105
FEE50603
BD031012
10032300
C9EDFDEE
33FE110B
F9ECE0F8
24FA01E9
3A52D4F6
F910FD1F
E6FBF4F8
03F637EF
0C0FF8C8
1104DE0A
2CF105F3
041E10DF
271DF801
1321FC05
18BE3915
200E080F
37E30AF6
1316EC20
190D1113
05FBF0F7
FCE7EDFC
06E51506
02D8560A
0001EBF7
F4F1F318
290C21EE
0C15DF35
E0FE0704
0C0DC034
E61DF6FD
FF15E9FB
F711E9ED
0A0CE7F5
0CD510FF
F1EBFB03
03160DFA
12FCB0FC
EC0921D9
BC2406EE
0F0DF90F
ECF4FA01
DCFE0C01
13FBD5EB
00261614
29F61DDA
EAF9D8F9
210100C2
FEF4FB30
F806040B
F91614F0
1A29CCFB
05F3F101
E2F93BC0
FBF5DE0B
04EF10EF
061021CD
31CAFB3A
23F916FA
DFC8EA1B
D0E3FD26
D5B80ADF
06F31FDB
EEDC08DB
FE0516DB
19F82FDD
EA160FE1
3933CD63
51D39EBA
DB02F021
2D0FF1F4
D52F12D2
3507E3F0
10EEBDF8
F005F20E
B9E7D8D8
02E9040E
E0FDCFCE
20E4FE12
0EFE245F
01341A1D
36F0FB22
2AF11DFA
E5F000E8
1F06D8F0
0F011351
29CAD103
1729C0DD
F1E00708
195117F6
E0FCD902
42F211F5
253400E0
09122AF9
F0C40423
1B17FF15
0928F5FA
0EEF0F52
F4053305
20F4C617
2840E0F7
220C0BD0
10C5DADC
07162FE4
101E5301
4709FD22
1BEE2012
DFFC373A
13EB001B
2A261120
213B05D6
3DEC0BE3
F5E92607
2500D307
F30BDCE7
F9E5F6CE
14081EFB
0DF514EF
09CC0FFC
0130FCEA
ECD7FE1D
F5E10600
E90B14F2
032CFCF8
DE0F4707
341D0B3D
F948480F
03231C66
BF37163B
1C2CF3D1
1F2B0D2A
DB35242D
FE07E510
29250A1F
DAF91714
290AFDFF
042BED1D
080800DE
36EFDE0E
08CDF7FE
FD07BADC
FE040B29
02E4D718
E35920FF
DAC30A11
E708F342
07C7121F
F30518D0
340C10E3
02EAD3FC
1DFDE3F0
090B18F6
0C0585F8
2FE40001
E8F9D02E
F9FFD3E0
F8E106FD
EEBBCBBA
71DFD705
1FB2120D
D6F814F6
EC13E12C
01E404FE
1FFBDDB7
F122F90C
F500E1E2
C80FF119
36142522
F2E6FB1D
20060B1B
20D80600
ED25E90A
E813D702
C7F40B2F
1D130FF2
0104E109
19E7F70C
51AF3B0C
2A0031F0
29F0F8FD
0AF61800
130FF70F
E8F4191A
FB0402DC
F4F4FF14
F6000126
EEFA0F01
E9F703E8
F71311F1
FBEDC9FE
E90409FC
F30AF8EC
FC0C1C04
020EF4F7
212C14DA
391A10F9
2BF7DDDC
151F4D1E
C4E9122A
1703CEE1
D2061015
FA02E52A
12080607
E70C43F6
5AFBD5E7
1AE20811
02111EF6
F5F7F615
FE090C10
021FFB1D
4E212E04
06EAE32F
14FC0025
0D141202
F2F71400
1007ECDF
F80E04F8
38030CEC
DE17E31A
E63FE8FA
060FE81C
F1F6F8E6
1B130EFD
FC04F7D2
1FD9E3FF
F00CD119
F8EF25C9
FC15FEF3
F4FA0126
282829D2
E8313238
D1B6CBC2
16EAC42D
F31800FB
07F8D7F2
19F0D53E
13082EF9
E110DB1C
EB00F415
FC220D16
0C050E02
05F9E8F0
DA042A0E
37EEFFDA
28BE34E2
0029F6EB
E20C0619
23030203
0703FCF4
24DDF321
0014F409
173007F3
BFE3E90C
3412052E
0BFD08F8
2AA21147
D21CEBF0
552103F5
12FE2617
0D31D7DB
F3C8F205
EC240705
F7E4DBF0
2EEFDDF3
25FC0E04
F21212CE
E80115F3
E8CFC8E6
06FE0405
E332C915
F20909E3
F4173DEA
0F141619
0FFAF1F9
29191A01
28001EF6
170E120B
FA1BE300
0720FCF7
EC251FE8
F0FCC335
F7E5C0DB
0000E4EA
EAEED314
4003EBDE
02F5D1D9
051A060A
F009F623
370236FD
09B9DD03
46FBA60E
E02E0AFD
04F61306
FC3F0110
22230E0C
F7EE24EB
FC1AF10A
F4E4140E
EE2619FE
F7035A2A
01F31102
D5081D25
040FE3F7
DFA112E2
CA2EFA16
0D20ABE0
FCDEC309
DF17DE3B
2FF30016
1AB0DCEA
EBDF03FE
E9242032
360EBE05
DDB9DAC0
D04C62DC
F84C2331
21D0E8F9
05D0230F
1BE30EF0
1D1C37CD
0DF7E00F
0AE3060B
F62510EA
D0581405
C9E325FB
02FCFBD8
2C11F011
EDFCF82B
3BE4FACE
FE130615
E2152BCB
BA07CEF9
422BDCFD
F8D3D008
E2FCC4F1
46075347
EE14E703
0C1F23F0
21DDE50A
F0EE0047
03F81927
F3D1EF9E
12CF1DDA
0D44001F
ED48E515
1C3B33C0
13E6EDFE
140CD7F3
FAE51CFF
022CE900
CCCCEB04
FA11F40F
1511D40B
03D8C121
FDEFDBCD
05DBE9E6
2965A506
CFAED54D
9F14E70E
F4C5D8FD
16F4FCE5
31580CAD
FCD901DE
E51E28F2
000CF325
EB120B01
F6CD08F6
05FB0F0E
09161E0F
D8CB0BED
E927B8FF
E7F0B7B4
11ECFA0B
19F726F6
F903EDE9
FE08F4F0
1DF3ED3B
EC0B5CEA
DFE5F21C
FAF4E7E9
2ADAD816
141329E5
F405DFFB
2AF4F40A
15000E0F
E50BF80B
361DF4FE
1029DCF7
FDEC0FFD
031FDAA9
A9E30A30
FDFD130D
EFFC0EF6
1010F0FD
F9F313ED
BD2928D0
E2E914F9
DF3339F8
E9AA15EE
0E0F031D
0B0AF0FE
D414C82F
E01425FA
E80A15E9
F4E2FDFB
E2F80CE9
100606EA
19DF18DC
E313FDE3
15ECF42F
450706ED
F3FF9ADF
E116F1E0
D9F4F117
0D04FDE8
CA0DE016
25152A11
2818EB18
CCFBED16
040BEEEE
EFE0DCF4
FCC3242D
D7FCF901
DDF00516
12D90111
E3FADEE7
F7E318EA
D206EF07
040DFCF5
E033ED16
E4EBE839
FC07BCF7
E3FF1916
114C1620
FCD3FDDF
1C1E2FE4
30F51602
ED0001E3
0B36DEDD
D333E015
DFD5FAF5
DCE116B4
F7D921F7
28E4DE01
10F513EE
E817F914
0ACE01FB
0DBF2AD3
F6173CFC
56160E05
DBE90A07
FFEE12F8
22EB1213
F4FFC5D8
FFEFE42A
BFC1F25F
CE1C0E17
44C4E9EC
3E361E0A
F9DBC238
D6EC23F0
2F301924
30FFEEE0
44F71E1D
E0FBFDEF
D2D1E916
0F20F313
09D0FE31
0FD6FA0B
F121FB00
24D02914
E9C3FFFE
0F1E38D5
181E13E3
3F15BD01
E10D0042
FFFCCC23
11EEEF19
D22ED911
E9DEFC17
E1D4F323
EDA0EE50
C8EAD112
0C1C1BDC
EA4BD40C
152D33D9
22F32BE1
EA0F0919
3011F71C
14E222EE
E2C6FDD3
DC141250
FEE706D6

