0C0CDBFC
DE20DBE4
EFCDF5E7
09252517
FDCEF6D2
1CD309EA
2E151A11
EE2125E1
D0F3B722
142A29DD
0AF41102
E5F20E00
E023D8C1
0BE420CA
11F6C70F
DA1F2216
27511A17
1807AC03
171F02B6
F83F2EE0
FD58FBE4
26F1E806
F5E1FB42
06192D03
F90100EC
FEEEE8E0
05D1ED12
FCE9F938
0EF5E5EC
FFCEE42F
E5E6262A
DA0CE4F3
04D72139
03000FD3
D43BF63D
F6391F01
ED4705E7
020F09DF
F27E1518
310CEBF4
DC1E1040
1E25F71D
E8FADC20
D6C4000D
06DEB917
F133F1F3
EA19F618
FD350905
D81BFECD
BABB2824
F260C4C3
1AE20A1A
0F69943F
13FD3202
EEC7EFBB
F0EB03AF
2B3405E5
0506D823
FF07D9FE
D400FE13
F140B9E0
F00501F1
03EDD0EC
EB0B020D
44C543F7
EBF9B614
41071DDE
09EEFF1C
F1D904F5
FFF11E0E
20B64C07
F50BF6F7
2A5014F8
FCFBF602
08F1D3E9
FA0409DC
17182206
0A13FA1D
04EEFD03
E4F8D62B
2A060614
241EE51C
0F10DD1B
10E1FFEF
0803E5F7
F7ED02FC
DC27FB1B
0FF6FFF5
1C353726
2016FE0C
FBEEF325
EF2F01F8
120FDD77
C8F1F802
FB1AEDE3
F7EED5FF
131EFC32
09CEFECF
EADCEFE6
1918FD17
D4010733
04160302
0BD0FAAD
2500E80D
E8CCC8F8
0CEBFAC7
E1FBE308
20F3E928
F3F20AF3
1EF41706
0ACFD905
F6110905
1E46F3FB
E9F70A0F
EE5E2E15
FC01FFF7
D0E72109
05FC1BF7
00481611
0E041007
12ED0ADE
EC0CEB02
ECF9101B
FC09F91B
01FF2103
07BCC6E7
0C2232C0
C901E424
ECE2F9E2
140FDAD1
09FB23FE
E820F1DE
0906FE2E
CC011CED
0B0FF5F6
39EEC8C3
0B360011
F5FAFDD3
F1042FD5
0CF63AFE
09C3DC32
D4D4FD08
0FFB01FD
D317153D
E9C9EECB
01EF1E01
EFFE02CC
111242CA
0820150C
DF184070
191502BB
D913E60D
00F236D0
C8E10CFD
FDFB17FD
0BFC021C
F2FBEFF8
D916EFD2
C9D4D208
F83242BD
CBDA19C1
2F31D30E
F8DCF3F0
1AE9E910
24EE06C1
D715E6CD
0F0A1199
E0D1F111
1D1CEDF0
1EE3D4EF
30001A22
FF21D344
DEEFEFDD
E2070326
55142CEE
300E08FE
5A4353D2
FC0E10D0
121AF008
4A05D1EA
FF11F51A
3F0AF7F0
162EFF1E
BA07D41F
C1ED2716
5BE7EDEB
32141910
CFFD1DCF
10F01CCF
FFEE2807
C9171AD4
0F19FE03
F8DDFB0F
EA2BBEFD
19DDF607
EB15F7FE
40D3F243
F5F2E01E
EF321BF3
E2CED9DB
B3EDC3F5
41D635DE
1D163F18
082C42FC
3431E8FC
FA0DFC34
2A18E7F2
E31CC9F2
D4FE04FF
1CCD06DF
00E815E2
E3AA0C2C
04114A03
E6DD302B
E3CDBF16
E5D31008
EF2F21FD
21DBF507
DC1CE614
E1F40FE0
E2E8DD00
080001F6
2363E9F6
02FF0701
0F2A1AF2
FD0D3D12
ECF6E803
FDF2ED15
07EB0A0B
0215003E
1BF90D1C
0EE93709
144CD8E6
F50019F7
D9DD07FE
F1F613FE
EEE22A1A
0406CA04
ECCB25E2
1D3020EF
311F2461
F1210B3F
01E52DE5
14810038
E42DEA0E
27CDF705
E719EC04
F58EDA06
F71A1AE9
CDF420FC
238EFEDB
06272BDE
FECAF0EA
F8FC0D06
0908F410
F4F6C835
E9B00606
F1C5E620
C1DDFA00
EC20270F
F721C6FD
1C13050A
1B7EFB08
1608F31C
FC1062C3
16EA0718
BEA844F8
1FF21401
E05AA2C2
EA0717F7
1AB25332
35FAF1ED
00CB4EF5
1DF00300
11A6340D
DDACEF16
DA124A3C
F1E5FE12
FBC6AD0B
0420FAE7
03184419
0406AEE5
D6BCBF0D
03E4F408
0212EE18
FC37EDC5
F3A5D9D9
EEDF17E3
EDCF2A10
D3FBF702
ECCE85E5
DFF2F123
20136121
0BEFF6DA
03A0BEE8
0FC007F6
11D69A38
1C2E0D00
F7D697DC
F60FF336
1C88F8EC
F512E30B
F385DCEA
040D0613
01E4910F
1CE20E10
F613E018
0FE00EEF
ED25C2E1
00FA181F
DDEA930D
C5F4FFFB
EEBD6ADB
DAE6E9E4
F917A8E7
FEE9E723
01D41FF6
F205DD09
0ABE0717
091BF6C7
F55842F0
FAEF0622
F162DA1B
E8F7280D
1B342C09
0D0DDED4
1E02F028
09F7CDE4
EDF5AFD0
173C4BEF
E2FBDCDA
CBFCF5D3
FFA4DDE2
201C5001
EAD91A15
40F9CFEA
A53128F9
2D0304FE
E600D3CF
E9200C0C
DEF5FE11
021507FD
EEDC85EC
3FCA04CB
FD43F42C
F2020921
0303E50B
E8E80101
0DA9EF15
31FED1C8
4F273428
E424270C
0B00DB2D
04F2FAFA
217EFE10
F7091307
102BDE2C
FF23F3E7
F7FA0ADE
1501E5C8
1F7EA7B7
092F0DF2
2107EAC7
F11123E6
FA570FF6
03230DBA
E6BB89C1
0EA9ED13
D0D1E016
05270AD5
FF06D71A
05FAFED1
49B401FB
F3FC08F3
0520FCF0
0BF4E3CC
C0D611D3
1CE8F036
CB06C8F5
14F47EE8
BCEB2771
2422C5D9
09B92ECA
03EB1CCC
DBFB210D
38D04712
DE072A5D
F2313BC4
29F3BE40
F43DF904
10F5EBCB
07FEFC0C
38E9F0F1
02E40D06
0C190F02
000C1D09
0CE82F0B
FC0CFFF9
E905F6F1
F5F0FC2E
0D24D5AA
DD2C0BD8
094F3E41
11CCF7FD
011A14D8
D72C0FF0
060601D3
F1F815EF
F60A0FE7
F72829E4
E50F311D
E32AC619
11D82011
12E30F19
0E0A2011
F80BE0DA
DCEF26E8
101708D9
1FDA1163
F1101D01
E33700FF
2E622B52
F90A43EA
FB15FCF1
EC31C1F6
F6090924
14D6DA62
3D214216
03DEEFF5
01FAD0FB
0FCED605
FCCEDD1D
F9C8E233
3AF814D7
23BCEBE9
FD05DF0B
F62B0EE1
EAD042F2
F61E1328
2509FF10
093B0E75
C68FCCD0
C60B0540
F6140511
02011E0C
1A000727
101201F1
24CC1AD0
E607F2EB
F4E61003
090AECF3
F5F4D00A
A70DEB51
FF222115
D5EBFEDA
E710120A
F0190606
060E0E03
0B05F00F
FC0E0A12
05FA16E2
E71400DE
14E20DDA
FC09FEEF
DB0410FC
06090E17
15EBF31A
13F403EE
18EF2AFE
F1171105
FEDC1EF6
F9321D04
E3EF49D5
3BC11909
FFCCE103
FDBCFCE4
34F0E3E6
18ECE715
12E5ECFA
BB4DD8D0
00E1FC05
F60C0A0D
120FF6FA
E3F91AE8
B83BF4E6
CFFA54FB
F6F8D9D7
0D12F0D2
08F01AFF
EFEDEAE6
06D9F0F7
0E17DF2F
EBF3F136
1C3B01FE
2AE7E6B7
0C04E3FF
F2F50201
11FDFB13
C6233E01
FFE857B3
E3090F1D
10F6FFF1
09051724
FF16FD08
15E606FA
29F0B80D
A6DD0AD5
09ED362A
EB05EF01
F805C906
2F03F7F3
0F0E0C1F
21A7E802
0E1AFCF9
FD04FB24
E8E3EAED
F7012DDE
F72CEAEA
EE0506E4
27C921EA
FFD8E7F5
E2500211
0711166E
1328F1C8
E53EC20C
0DE50EF7
01ED12F3
090309CD
63372A01
1CEEE326
34B749FE
06E30EDD
1410D4D6
F90113F6
12B6EDC9
DF140C1E
0A21E9C7
02DBE50A
FE15C023
05F8F830
0227D8F3
23D9DB0B
15E51647
0D0E21F8
16D52711
233BE1E9
09DB4DDC
081D0307
FEFCF2E2
0E3C03F4
09C2DBDC
09F928EE
005FA409
08C5160A
FC04F12A
21BF1619
47F010BB
ED37EBCD
301E364B
261703EF
21D313D3
010ADF21
18C9E01C
E0EAF6FB
15292C41
0FC423BA
DC2F1CF7
05030AE3
C849121D
05FA2618
FF1AE8F1
F8FDF833
EED08210
EE27FE09
DAC3ADFE
D40019D7
F3482D03
E61704D7
08FB09F6
EF34FB07
11CEE2E3
30075B03
283842B9
23D89A9F
E3FB1010
0F0D0AF9
C726D906
ED0C011E
24DFB1F7
28C3F527
EBFAF3E2
2A2FE1EF
C6AEFAFF
36EFD1F5
CF4EEAD5
ECF60DBF
E107E912
1E0C0234
D801EF12
07BA26F8
1A03D814
3D2A6210
F3EEE9D2
2A02F229
136AE72D
002055FA
CFBFF141
11FE0DDF
05DAD1FD
D9F40DF1
3C0A3A2B
2A10513B
F406DBEF
23E206F1
FEECF7F2
DB2CD917
BFA0F515
F61405FB
EED9F7E8
14EC1915
0AE621BE
24E3DFC1
F954083C
B3C02330
35F52DDD
210D0128
28AA0851
E11518E9
E9CF18FC
E3EC0E49
9F040C2B
FBB4ABFF
23070B42
C852E06A
1600F108
3AE8C233
E9022BFD
11D908C7
0002E5CC
D7213A16
FEF60DE5
0B000314
EB1AE1E7
10DF09E8
2ADD1607
EE0B0102
F80F381C
99134303
06F71402
FBF80C00
07F6E922
0B2B1300
F9130204
EA20F6DB
E020EA16
0B2C08FD
2905030C
00FEF121
23F9DA03
030E1AFA
2DF3FD08
0A1E1C21
8CEF08CF
0CFDEBE2
930404F7
D90E3DFF
E01313D3
1207E705
F0F7F315
092300FC
E4F30EDE
0218AD38
F6E7F2F6
F41811E1
F90DFB0C
F95403E1
DD41FCF4
0913E1DC
0F08E7FD
F8FC09F9
E40D00F4
0D0E1E36
1CED0D0D
EFFF2409
F42F05BB
F625FDED
F1E3D4FC
17F897CC
00ED010C
02F7ECBB
E71ACFF7
E2EAED05
22EE0C15
0C0E0C10
E81605DA
0631CC06
1B0301FA
1601FF14
D7E1F3FF
F42218F6
0C24F321
D7D4F6F8
090CFC1D
1C23D029
FCD21DC1
08FBEDF1
F6BA041E
EFF31004
12F90701
2400EB0D
0BF419CC
36243BE3
36C80CEB
E6E904FE
E29E0706
FE23FB13
09EDEB14
19022202
16EF0A24
03491B20
41AA03F9
E62AF0F9
EA99431E
38FFFB10
FFD530EF
200F01FA
FB26F8D6
EAFFC81A
43FBC5D9
F1DCD610
1B1FF143
EB3E2D5C
F61EF918
FDCAF80E
F40A2DC9
FB230918
E72E12E8
E903ED06
06150107
150DF5F2
F1393D06
DFFF2ECD
F0480BEA
0FE8EED8
260EB015
FB02E5F4
E7071A42
D2271600
DC0FE30D
FEDF08C6
3647F8DA
E314E7E3
FAE30D01
DEDFF50D
15BE1ED9
D734E6D6
07E4D44A
BC35F945
110BE90A
EAFDE0E3
372326E6
03EB0BCE
F8BB0E11
10400A11
D80EDD23
200FC331
F15DD708
0D09231B

