3FDB1ED0
27070F27
0BE5C604
242B250D
FBF0FE28
DDFE2EF5
1DF60FEC
E6E4F217
F9DFFF0A
09FBD2ED
111EEE03
150CEEE7
0405F3F6
060D00C0
ED35F6D9
0B172AC5
AF04EB0F
10BCECEA
F7EDF308
870D26C8
DF18F001
021ADDEB
E4FF22EE
44281CCD
2DFC2A13
01F9A838
EB3FD1F1
B2E83105
DE0204EE
06F62B08
1C21172E
EBCCAEEA
F91000EF
EC00FDE3
CC2EF211
220A222A
D337F81A
EDDEF32A
D72B00EE
C52BF81D
EE09ED24
74C8B62A
DDF1F11E
B1F00216
1CE6D721
42BF0DD8
E6F12404
17E21F09
10F1F6E4
C6240512
0B10FDCD
E9F852A9
3F300DDC
E116D0C3
FC031C16
0DE6F413
16170D3B
D72E0EC1
26E10C23
2EF52F01
E1EDEB16
240170CD
02D4E109
0832DC12
ED00ED18
021CF301
D9C2E700
0E13D303
DE24041E
ED060FFF
0BEF04E5
5DEAFBDB
CD370D32
F781E006
EF1F1220
ED16C8F5
20EE0CFC
0400D3F0
1C061D18
E6102507
F4FE24F6
19E4CA11
DBFA08F1
D1EA1EDC
F0F4D6FD
01E0C9A6
0AE913F2
3C12DCCA
3317F2EB
0111F705
E4BA3608
E71B25FC
0D08F80E
2D12EDB7
CE30D2FB
223A13FC
1500051C
04ED1108
201EED1A
E9210DFD
004CC9DB
17F703C0
DDCCFE13
FCE0D7E6
142511E5
0A10FD13
19D9F8FB
EDE70C05
00FE05F8
F5FA2FEA
0E0ACF39
CC3DD4F7
BF020031
2518FEF9
02F40805
080A0B11
0AEC08E1
D2D71A0E
F7F4E6F1
FA1718E3
08350DED
E02A1B09
28DE08FA
F9EEC0D6
0F0EF209
18010C0D
0A1EFF0F
F4F320E9
F92D1E1A
F907AEDC
2AF1F9E9
0017FD01
CDBB3F07
55F9F71E
013B00F7
FFF227F0
0EC00318
5B0A2F2D
FB01EE26
1AF92DF4
CAAB3421
F119210E
EFFEDE24
2D0AF2C7
0314FEFE
E616072D
28260307
CE03E212
0209F4EB
5109E418
23120417
E6DC19E2
0710EC18
1212390A
BC1B081E
D728E001
F6DEF603
030723F2
F92AFB2C
F9300B06
DDE5C940
1A130911
4C0AEFB4
04094904
FEFA1C05
33FEEBF9
1D2407DD
D81FF333
E601FF25
02F20AE9
0DFFFBBF
11F2D818
18190937
F42FD2F6
BADC08F9
06DD14F4
E821F2F6
54F0E8FC
F1241803
CEC41600
F703EC40
0FF6F105
5140E4F6
DE092AF5
09F0F016
2CEEE1B0
1529E5D3
C0F0F01D
FBEC1617
DFD93620
E2FD0618
F8E6E404
22BFE4F9
01E23F27
24CE1505
D5C7132B
E91F0309
FA05F913
D115E4D2
D0E90DFE
36E2FB0A
D4BCD32C
3FDEC2FC
01E6FCD6
040FEE03
0F1F11F3
F3F3FAED
15315F1D
C7F9E717
41A1FCF4
09FBF410
0FF315EA
E2E9C8C6
E9F8F824
121904E6
F6FC1FF3
0D0F13F3
14049F01
02E4EB4A
27FD43E3
E5C6CBFF
0D7EFCA6
ED120BE4
B9EF1C4D
BC42DA3D
113F301C
39DC0425
E2E0FFBF
DC282C31
1201F9E0
C0150228
222FE4DD
070D0310
092114E1
14F20A2B
E05FF6E7
2FF8E32A
CED43A0A
FAE5FD1C
2E2A12F0
EAEE0B0E
DB193709
37DDFCE7
00D1111B
0B0A11E2
2C0DD627
26C4E0DD
E2FFFC08
EEEC0104
2C1E0CE5
16F607EE
32351ECE
1809F2F0
01F2E7E5
25E6F7E8
23F61C09
26F003E9
FF0C0EF3
DB00F2FE
DF04EE09
110C1FF0
F2EC092A
0100F11E
22DDD200
E7FE0FFC
01DE0305
230D080A
F9003D09
FCEDF3E8
35E61924
E4080613
12F5FDC9
FB3EEDE6
16EDE7EF
FF1AEF26
FEFCF310
0DD8F7F7
F00B0814
00043911
020A42FC
16ED0904
FCFFE51E
F7EBF0FC
1DFA1F23
EAEAFDEB
15DA12E6
E2FEF6F3
22F0F7FD
EDF40808
2C08F0F1
E40EE4DA
FF04042A
E0382400
CFF1F0F3
F10706F0
10C106F6
0019040E
12FFEEFA
ECE3ECEB
ED3D2C35
E6021828
F6EF1413
EAE2FFE2
F200D20A
3DF00E0A
C50CEC03
E30BE8E1
CEE11AE4
1BF62909
EE0D0401
10E6F7F9
EDFD09EB
24F5EFFE
DD0EDCF4
FA1BF9F0
DFD1E2F5
09123404
B9F2FF00
EFE3F409
EE10152A
E72BEACC
FC11F2F1
C2E619B3
056209D7
C8E041B1
FB11F4FD
212905F6
CF1C5BF1
D70CE000
F316ED1C
06EEF9ED
F6C4290F
F5FEE9F8
083003F8
17AE2436
1645D1DB
2D14F810
DDEC1BF7
F9FCFBFB
05EC2D26
06EF14C4
09F4FEF7
E7E6FF14
E1E6B811
EF10E407
E11CDF46
CE1B9B17
0946F517
D32A0717
0CEAFD0E
D512F928
EEF9C106
16DAEDEE
F0D0FB0B
F60B2019
2DDB131D
E8010BF6
1E271AE6
ECD7E1B1
02FDFFC7
0E1C2B61
EB21FDDC
2C66E3F8
F3EC27F1
FA0EE2E7
230EEC14
ADE3F9E9
E2CF162A
ED1CF8ED
F103E001
C20C1817
F3C9B305
0BEDF6CF
49D6DDBF
FFEBFF28
0D25000F
1918CED6
1D220C00
E9F601FF
07C92011
0803E121
EA20CD00
C3E0DCB8
A32D2100
2D5C1F28
1516CD4A
FD291C22
C6C913EE
210BF30C
E5200A13
EC1F13EC
10BE04F2
A7C511F2
F9502D41
C811E317
19A70BE7
DD0CF9F7
1AB1F820
0212FC12
F8F12707
FF0CFDF5
EAF8F315
17ECEDB8
2F1FF90D
0DF9FB18
F9EA09FB
101307F7
4159EAE4
1709F512
EC20CBC3
BE0E0EEE
4D1FFBF7
F625F827
3407F4EB
DFE9F3DD
2419EBE4
01FA1926
16D700F2
E9EA0600
1E3F473D
BC121B05
3B1D25B0
EC2F0CE6
ECFD201A
07DE0490
2C3AD3A9
F518F4DF
43DF0C03
1AF731DE
FF0C2835
E6E018BF
DEE8C30E
15F613DA
F0F507E0
030A2AFC
F5FBE7FC
143BE908
2B0FFC15
F7190D0C
F103F30F
29D3E63B
071DC838
FC29B22C
F7FB06F2
1E22FF04
FB2815D8
DBFA2BF4
C8B30F2A
FA02F6EB
E2330D24
02F504DF
220024E2
FCCCE21D
CCF307FF
0203F704
240AC32A
070EE8E3
FD3BFE01
DB0E0BEB
1FD6ED19
16E20FD4
F702EB1C
16E012E1
DC123BE3
2226F60C
FFF0D9E4
35E1BCD2
C813F307
0B32FDF1
DDFD0BFF
14DD0402
00160BF6
D8EC0DF3
E9D80138
EAE21ED0
F5FC0EF0
150A0E04
03EB0DE3
24F9DB0A
02F81605
1F32F5F3
24FC21FB
1500F6E6
0712D9FD
28F309ED
22F5C606
40FC00F8
0F01FD1B
0D2F4814
FDD44FF2
27FE0E0F
F914090B
19050A07
EDFEE2FB
F0EA060D
02ECDB36
F1FE0E06
190A18F4
1204E007
2EDF5817
F72EFFF9
FA0C02FD
E5E80903
EB402909
FF041A07
F4F9FC05
22F1F62E
090706FD
0708E8D9
2123F7F2
22F90127
EF06DBFE
4FF104D9
942222C8
2AFCFBE1
0EFEDB0B
C4190000
1B030FFF
0ADF14F9
F9E22C14
EAED1CF3
2FDFCCF9
132F0900
F3001922
9AF5081B
1FE3D2FF
F2F6EC08
FEF9A721
1912F2F9
03FF09F7
33E7FFFF
C4200F4D
E6EDEF03
1B1810FF
0CFDE8FC
11E01ED5
0BFA2BF9
EEF1F7E9
08D118EA
D63DF0C6
060DE90A
EFE3DA07
0BEE020A
092BBC01
E3EBF8F0
FC09031E
0111FBE8
D8FAFA04
FAF205FB
2B12F218
1C17200A
1E1D25EC
092DF800
EF0405E1
03220EDC
FF091600
1004021F
EB1036ED
F60BE412
D504303E
14273CC9
BFEDD9EB
04D514F2
D10AF2F1
FDEA0C28
07E2EFDD
11F530DC
EF0FC7F0
E5EDFB1B
F62E2622
0EBD0DE6
CCFBDC0A
E4DEF324
10E7F31F
51142717
F3F7170F
E6001319
D72A400F
3D1E2CEC
143CEDF3
2048051C
EBF30EDF
E9050021
E7F204F0
ED07DFC7
361B2318
C713C3D8
0B10EE0C
C1141730
2A3215B7
DA9101B8
0419D325
D5DC0CEA
35D1E1EE
28FA2C0A
06C388D0
32380224
5400BF28
11F61DE9
5522F21E
41DEECCA
C321051F
0322FAD7
361EFFF1
F5042B0B
080E062D
090E021D
0DED072C
F3E9C6EF
FBA7E1CE
0D0328CE
D5CBF4FB
FAEFF9E1
10C32CBF
DF28F02C
F19BDAF1
E0C01918
D5FB14DE
28C7C90A
E7F9E6FA
EE632974
F8EC2B09
389F2A29
E5E420F7
16330F0B
30D2FA32
E8C80132
06FAD1E8
020D2514
0EF0F7AD
F2FC325A
210F3812
F0D1E32E
D91CC94F
1CFFF51B
C62A1502
0FF00F23
17F80813
F006DBE4
F022F50A
11DC0233
E70AE2FA
FEF9F7FF
131512F2
2B12F3F8
F5F60C4E
5816DDF8
FA200023
1C1813E5
11D53A33
00F307D3
1625FCDB
E626F71D
0002F1E6
150CEFF0
20FF0DED
08E5FF0C
1136FFEE
1624F4DF
F6F91AF9
2441E1EA
34EEF9FA
EC14EF9E
22F9BACC
07F50BFE
0A1ED1E6
01F4F3F7
02010300
E1F62017
F1270CD3
FC13FAF4
2BDF3604
160C1925
DC15F821
F3FFEBF8
09031BFA
E0E73D17
CCCEE3F2
1D27F1EE
0D1E1521
E7FFDDF8
D8FC1FD1
040ED9DD
DBF9332E
1D18F8EA
ED1DF3DF
2E2AD719
EDE401FC
0D17F80F
11F423F8
11F1E2EB
02F708FB
FA01081F
E82C13F3
2AEE3003
48CED1FF
030AE7E8
F3E81B0A
1FFF0A20
0203D80A
E61A3324
FE26D10C
F02F1D1D
1508E9D3
D24038FB
BE13D8C0
15F90015
17F20DFF
01D4D829
E50213FB
F7FDF0F3
17A700F2
E413ECF7
150C141F
D7E1C717
D9B0A800
1715EDE9
3AEDEC32
DFF30137
DC0A1BE0
20F5D7DE
EE27ECF3
F8F1F8F6
25E8E0DF
FC0EFB13
1B2A14FA
25FF27D4
CE123235
08073E2D
401C060A
FE000BDD
D5EF3723
120D082A
E6002E23
EEC0E20E
EB19E7E4
F0F50322
14FF15F1
062721F7
00F40304
11F411D8
43B21C09
1A13E90A
02FC1A0E
C0F4EFEC
D208E4F1
CFDF0606
15D3F904
13E101E2
E1150831
F5FAF51C
E5150D12
22FE2409
FA23EBDD
0A10F2EF
C1FBFA27
F319EDFC
3DE7D0FB
092120FF
FCECFB09
02CAE8F9
F4D5FDFA
C81016ED
1E18E507
E908FC11
E626F3EA
29360D2D
3E09EC10

