07C10103
0739170A
F8EE10EF
3FE7DAFC
3DA900DB
1ECBE219
AFB51FCC
39F1210B
DEE2200D
B4C3283B
441A05F0
0AEE071A
EB1A1543
E20B15EC
FEB4F314
05F8EB17
3C9BF6FC
F60FE3AC
FE2915DD
D2FF0DE1
2E03DDEE
1F2A5133
C1EEE7E3
F8433103
E9020102
EC09F6FE
FBCDF6EF
F6F67917
57EE0FEF
06E806BE
1CEF1CCF
ECFE0437
43DA01CB
C0AFD138
081B21E6
2B402AD6
142104E7
FB1B0CD4
E9F1EFFF
21C938F0
325A041A
C2400C10
06FFF6AF
CEE6E7E8
FAFAF0FB
03FA0FFB
44E3F9B2
F82EFA41
F8E0061C
F6ECE2D3
1BECFCC3
1728C9F2
25C8FB20
11D91CDD
0DC0F024
D9CBEF83
000200FC
2D3D1106
019B0AD8
20F2EB36
B7CC07FC
0B05FF9E
1EE7FD0C
CF4CD727
E613F811
18DA2409
EC011E05
F3D7F0EC
15E6E605
F216FEEA
4A090706
D12E0908
FF09F45E
16E7F2FA
DFE9F00D
0D031EDA
01DDFD11
E5230617
1D300AEF
F820CC05
0B07F806
C75F220A
E66919E6
0D13FADD
D91503FA
04F21E0A
1655EF12
2012DA51
D4A7040D
CF101219
F714F8DB
ECDB4D20
D83BE9F4
32B530FA
CDE209C2
F4F80F36
EA0208F5
01DA0439
E6F009F3
02FE2225
23D7F703
E135DBEA
0D0EFF3F
F818E7F9
DA33FEEB
13FEDB05
4AEE0D23
092348FA
03DDF63E
F408153F
13FCFE0C
19D7BEF5
FF0BF7F8
E706FE4B
CBD01B0A
1E0A75D9
1D1C0007
F2EFF0F0
30190FD7
1C140FFE
23CFEDE4
0531110C
FFFC0AFC
1730F40D
E83BFA0E
F4240A10
08EDF209
FB0FC3F2
C7E8000A
210C16D9
0E2E05F0
F2E5FC05
114DFA16
0BFAFFF1
1DDB041C
0C03EED1
03551100
D8E8E49C
D90A1CF9
1053F2D2
ECFC320C
213EFFF2
D6EDF4EC
010A0615
1B18F7F7
05E80FD5
1C4AFEF5
E00D31F1
E20222AF
B5FC1AF6
FFCF00A1
EADD37E4
F219251C
213F03E5
F908D418
0CFD1157
44EC1BCD
E4F71DD3
EE2E1CF6
D8BCFD28
10FC03ED
0A3D20E2
0AEFF6FF
F004DBF1
E5FA13F8
DBE1FE04
FB60F719
0BE9EBB5
E2EF0EED
13E9F2CD
12F4BC28
3509D908
14DCF70F
EF03C743
2EDFE9CD
E7E66415
F5270B04
99A2EDF8
1CCAD9F0
1CDFEF35
0D030640
48EF0D36
EFAD07AA
170BF105
12070310
ECFFEF30
013E24EC
D4091953
F37613ED
B5DA0295
F3EB0600
C937F5F3
FBF51BDD
E4231210
13121547
A3E22C30
192FE733
CF01050D
E63B30F7
F000EC0E
181F0510
0902EE7E
D026E80F
191F33CE
0A23F913
45CCF3BA
0DF115E6
10E0DBE1
FD02F3E3
CCE6D154
C32DF4EA
EA03061B
22F6F6D1
913BFF1B
D2150A07
B3F52733
E90609FA
21170912
DDE90012
0310FAF4
0E0C0602
0DD8170D
C248FF03
F605E10D
13DAF5E7
1EE9EBB9
06050C09
38D3CFD9
24FBF8C7
15281BF7
A5BED0F1
187EF0A9
D704F030
1927E5D7
0001F4E0
082F0EA1
D697F0A1
CDC821C3
4C0AF108
E41BD819
FE11E016
1B1AD1E8
DA05060D
2CE4FB91
C206EFF3
1C46E424
113A2A02
24F5C51E
FE0DF323
21EBE1B2
FD00FE05
DB01F4F8
FF4C011B
22270023
0E22EFD8
BDE40CFE
00210BDC
0EEF1A42
FC15E606
E5E9FA04
E2FE0201
E7F72813
1DD60D40
15FF05E6
07EDF508
0503D9D1
0977150B
FFFB19DE
FB2AFEFE
DEF1241E
0605EC1F
F9FC04F5
0F051BEC
F4E2FA14
E62C14E9
17E425FF
DA06F2FF
0AED0AFF
14120111
F73D1CEB
07E10FE8
3A00FDF7
CDFAFF38
030F2623
3CCCF0E6
F82D0C5E
D319E4DA
0FC8FA1A
2011041C
12F6FCFE
12F3FBFE
0F0210EC
FDF8FC18
D6222A0F
0CFD15E8
01E5D918
E111E620
08D6E703
3BEEF4F7
1408181F
CF06F623
E7F027E3
33DF0AD7
D9F2D4EE
2E371719
F808EBBC
F00E0C36
E9F13539
2ACF17E4
050C18CA
2BDCF0FD
F6DC0D10
20D6FD38
20FCFFF7
F417101E
F710F5F0
22FE0CF4
3805FD40
FF020CF8
03D604C3
F400F2EA
D70F24E0
2EC0F844
F8EDF1E4
19D6FF22
151A2663
BB0505BA
15E400FB
2C10D7F7
28EF19CD
DCE00AD6
2B2411ED
CE50D8E4
DC03F6A8
C3F40604
F5EC0AF6
C2E6D4FD
FFD4DCDE
0403210B
25DB2917
2BF907C5
E0310AB5
2D0EFCAF
F20517FA
08291F23
E0EC1411
010B0803
D3E6F010
4209F6FA
0EFE29BD
F60319DC
06E7F2FD
F8D21C0C
09131DD6
07E9DAD1
F6FA37EA
EC031EF6
1406B122
E0EBE2D4
D01A25F2
E2D4FAD5
DE14E59D
DBECF425
17E50333
0C01ED3B
F8DAE34D
080B0131
C64EF720
0A0500F9
0C0DFDB3
0925F924
0AD6C9F6
14B9190B
ED0511D9
DF070EF1
CFD12BD6
05ECD40A
0DDAF18B
32C6FEB5
E8D607E3
D71615C5
C72F1304
F30C12F2
EF0602F7
DCF3E436
3AB9ECE0
F7FAF8C0
16CDF317
FBFF024A
CAF7DCC5
F4F9FC46
EFDC14DB
05F7F610
21C0B613
073CE0EE
26F72C29
FF05001F
FE18B909
48F4032C
E0FB0DDE
E22EEF0F
0DD04441
55CAFEF1
F828DEFC
362B1EDC
FB350016
F9E9F2FF
FE0B15FC
1020ED0D
33002CC7
D935D61A
C0B8E3D5
F6F81C32
D3F0CD32
EE19FA01
5E2DF427
29C0F3F0
2EF2E219
365CEA00
D42B15F3
E99E06D1
EA232CDE
B7F4FCF8
E7E922D4
CEDB102A
FFE020EC
512D04DA
0CDAF682
1AE2FA09
F7F0D4D7
E6C8FE30
20CD0720
16F903D6
1211E91E
2EB1F919
37121E3C
D21C01F1
EC201DF8
DEEBEBEA
F9BC5EF5
F716F7E8
D80D02D7
D7BDF947
0B031FF1
FA3D1115
0C4D1338
E8ACF513
23C7FF59
0C1AFFEF
FAF7F109
12F52006
FC0DE2DF
DFCAF3C9
09EC23F8
EADEEBEE
0AF819EF
04F20003
EC1003E6
EB10FEFA
F4F0EF0C
EEF80F14
E005EBF5
DBFBF7FB
0A05ECF0
E5FEF8F2
E9E506D8
0B0F02DB
EF19FF13
14EFE00C
E4E10B32
1B060CE4
2C1FEFEE
43D2E803
1CF1F025
18FB2E1C
C514F2E9
DCF30407
FAE52B23
D226E8ED
E7CBF3F1
DD0502EA
D405ECF7
1C01FFF1
13ECFE1E
2FFEDDF2
22E7E22A
11FC041D
FF070AB7
10EF13D2
001E2A08
2F0DF5CC
EE20E3B1
EF11DCFC
F2F1F2C9
FD03F814
F40BE3F8
EAED1004
FFCA0D04
FDF00210
C7EF00FB
18F62300
09EFE8F0
000FF714
08FFEA15
28D2F50E
E5FA1F41
17B60043
0D232D42
E8E80020
0FEF0B02
0EF3FC3C
6A221EF3
04F6F010
24FF2125
EAEBFF28
F72BFE19
E51101D9
F2F02716
2502F0C5
ED0E221A
D5151AD8
FF2EC41F
F600FCFF
CE07F6D3
3EDD01F4
123F253C
E6DDFE2C
FA0FD719
0E0A1713
0706E120
CCD0FE28
FACEEB40
D72DE2FF
2245EE19
1CFDD4F7
0BEBF3CC
05FBFEE5
24062F35
0C180BD1
D307DB38
08F9ECF5
1618CCFC
0DFB0EBF
1E19D929
EFE40701
0FDE1E16
04F6FC02
2ED6E8DB
EB2BFE18
2BF9EB07
DFC90C16
FEEFD6FA
289D0224
1AC9F6DB
C11DECDB
CC63E21D
55E2ED0A
1E180ACD
081213FA
240AF2FE
261E0225
CE11C40F
03EC090B
25F2FCD8
EE071CEF
1DF53345
4101E6F1
20FD03E0
C210FEC7
0CE7DFE8
0408D7D7
10E208FF
E9EDF70A
F81D1712
26B2F70F
0EE5D300
01FDF805
E50AFF08
EA081F06
D122F0FB
13971EE7
E90346C8
1C2238B2
FA07EC42
EBF819D1
FC32D923
293810EE
3321C92A
1F3E1DFD
ADEB19CC
4A08E910
00C1DBA8
FF4FE6BF
B8450DE8
2CFD0223
C5F21D08
E7E1ED27
DC0456FE
E6F5E021
E8E21410
FBC9FEDD
EDCEF6DA
01372231
25DD2CDD
10222A07
17072BAB
F8B10DE7
210A1026
1ED1091A
1D0CDB2C
154817FF
0B1542EE
F9F60CD3
0DE402EF
A8E53731
E99DEBDF
3ECC065C
27EFE4E7
0D28E702
E1DA196C
DDDAEA02
183DE8F1
07360800
FEDF3EE4
ED261004
0925FB0D
4DD3F338
EC09F237
15CE1812
F5E1EDFE
19A3FBD4
DAD7F0A3
A11E0153
1E6229F7
59CED4EE
FD5ADCF4
E04FF811
C620FC35
210DE60D
10DB41FC
FBF111E8
D0EC0423
241706F5
031317F5
0009F91B
F62A073A
F226F4E6
DB03E1A4
01FC0014
E4EEFCE9
EF13FF01
24FDFF0C
11E700C4
E0021C25
EAF7001C
CCFC16BF
E9FEFF0F
EF06C2EC
2AEDF0F3
2806EEFB
0FE10801
FDFF28BC
F6EBEFE2
16DA1146
0B0CE50E
E9F5C5E0
14FCFFEA
07100B06
F0ECF7E9
1FC6033D
27570405
3410F3D3
D1F811EE
02D31034
12E4F9B6
1D12EEF1
28D501F0
06000CD8
E8F00EE6
FEE2202A
C70806F5
0ADDE99D
10130905
DCF7FA0C
9D0704F0
0815F5D8
02EE19F3
4CF81F94
13E206DA
F929497E
EB1A16F4
0DE4FB8D
0400FB0A
08F715D1
10131B28
2F231A05
2C04FE22
FBDBECE4
FAD5FF0E
FEFFD1EC
FA2BFF19
03CC0358
14F20E2B
07EB2BF5
DFDBB924
040FD9FD
04EE07D7
F9DF3B16
DADAD0D8
E6272911
29F6E0E0
D8B406EB
3ADD4F1A
D4DCFB48
3CCCDC36
3BF7CAF8
F9EB4E02
3110E699
14CEF20E
101400F7
F1D909D6
1527C7ED
E3D83616
C3D6DB1C
E1DF1332
E9313014
CBED0EC9
1A53550D
3AD928EE
FE1BDA22
F038F22C
FED72B05
C9F60C04
FDEC40D4
E200F91D
3716ECF7
E3FC62FC
F7FF04B3
08494EEE
DD283C17
F22CECF0
EBFBF327
C80A1DF6
F8C718CD
BF0D3447
080A1006
2DDB1A14
1A1E2E09
0FDDE709
003EFADD
D31CAE12
E22230E0
EA1EF30F
0B072703
DDFE1807
DFFCEC1A
D736F433
0E3D08EA
F1F8D1FB
C9EAE9DB
BD00EFBA
41F637F9
E9F4F3E7
160626EB
06DAE61B
090FE1E4
2D14E416
12D533B5

