F620EE1E
09BDFAD2
F8183513
D5ED06D9
2528380F
3CD3C0C6
DD1C1A16
1BE7EBCB
6BDE2022
F136F6B8
D7F1DFC2
0A14FCD2
0223FDDB
EFF907F6
301DF5E3
1210C631
BDF80EDC
F63242F4
B6FAD805
0E22E0E2
E50F34F0
0D3B1158
211BEACD
0EF5CE05
E31B1EBD
D1E8F019
09FFCECB
28C2FF15
29FFB6EF
1AE7E041
9B06F72C
F0030032
04051041
D0B412B7
19E4EFD9
06FEC6F9
380F0FFA
1CEAD5CD
ECED00DE
1D3803E5
150ABA1D
1DED3AD6
E12121DE
E8F02E0D
F00AFBF5
B92AD109
F320E4D9
15EF1D23
2CFF18F0
1105F651
CE261910
FC060764
8E0B14F1
0EFD1408
F1FB0519
00D4FBE0
3CEF421D
EB16EEE1
02EF1C92
130B2230
F00FCDF9
EF4605D0
11F82BC2
02A215F8
F0E4B7F5
35E514CA
28E3FC1E
33DA16E8
13E11FE3
D5F8EFE9
62F25641
1322A8F7
D22442DB
F4BD06FC
D4F5141A
EB2BF246
E2130C00
F9FFC703
BA09310F
0101B401
0C2419FD
E1CAD12A
0AF7FFED
1C0A35FF
CF0A3C10
2628F55E
1EE6ED0C
DAC4F730
ECC4CBC8
4CE6D425
C302EAB9
FF1BF818
D8DCFCC5
0A0343B9
FB5C0210
37F3D2B6
D90FF4C1
04FA25D6
D2FD0BFC
06D920C8
EB149DFB
40D3E01C
30EEF025
F8F8041B
FE1FB8C7
08590C3A
FADFEEEB
F6FDDEC6
F00A23F1
061E09AB
E2314EF9
23DE1C3F
0FFCE9DB
FC0031B4
0A06020D
D71C0EE9
11F014FE
E3F63012
77FCDAF3
EFEE11F8
FCF832FE
13EDCE08
04320EC9
DF0E0602
1AC202E8
0814D1DA
E2FEE0CD
F3F719E8
F11FF026
09E62B24
1EF71B17
0715BCE6
12EFEEB9
099EFDC6
DCFB30B8
121605EF
10E9F938
109124FF
24FCCAFC
2E15D3FB
2906EE0F
1121ED0A
F92FA1E7
E0EEF518
F7036C26
18190C21
2C10E7EC
24F01D65
E1D0E915
01E32A06
15E213B3
BE093D24
F812E905
F8F5C8DA
D50510FA
273FBDD0
1901ED46
FA17F504
E60CE90A
092E1909
A0DAFECA
3304F716
3A001813
E7ACC62D
1B0AE7DB
CF0045D0
0420140D
08F4F514
180B12EE
DB0A1909
1B36231F
E7E5A438
FEC71F2B
140B15CD
2F120CF7
0518CE0D
3FEFDCB1
1AF93EA1
2114FA3B
E1FE1CD5
211CD2CC
D5132EEB
26DA080F
F9EDC918
CC1CF7D2
EBF8D5FE
07330B13
CFC6F8F9
F740F007
0F07480E
09052612
F1DB040A
0F1B0DF3
D3024C18
28EC0D15
C82309F2
E3081501
35E317FF
F0FD070A
DBFFE234
3A0D06F1
0FF2EC10
0630DFCA
17EDD52F
142DF4EA
FD3B1149
E1F3BEEE
C8F9D31A
1FECD1E7
1DDC241B
01F3EF19
F7D4E40C
F418C9FE
19F4A015
E4EDE4E8
2BF5B746
11FD02EF
073842F1
2D28DC9D
3B25FF35
081C14EF
2D06E708
76320AF1
BF000307
41D216EF
07CE0BDA
12D8E112
35E120DD
D61AFF28
EC0EC714
F4F0E20F
F6FAD837
19D8EB08
033033C4
25F65CCE
0AE42514
C6CE2E0A
F60CD026
3A06E4F4
F2F3EE15
1012BE08
FC6DCDFE
15EFF3D3
C8DE541E
D4068CDA
1208ED06
CD0BEFF7
21EC29EB
250606EB
3D070308
BC14FC4B
1806E7EB
03E4F812
390E501E
1F2BFCFD
C0FED3E0
F1F30AE7
0504FFE9
D90907FC
F2FE30F5
FF052238
18F85024
200C331A
022AFF34
C0133E06
0D0528EA
153CDDEB
18F81C1A
16FB3802
254CF5F7
EDF0EC07
0004000F
1CFBF1E7
0008FF12
0017E8FF
FD10D222
D9191A07
01EB0615
F618FFFF
F0043A08
1E0ADD40
03FE11E0
F4E2E000
361DF4E0
E30D0005
1A0F15EC
FB03F70F
07F518E6
FC16F3DC
FBD14C20
F5DF22F9
E4DF0132
0013DDDD
0F2812DC
16130C0E
FB2DF3BE
EDC34016
10F3D7DF
1C00F21D
FD09F408
150B0B09
DAF1E321
301A0116
0FF2DFF2
06E642EE
0322D405
160A0219
DB172E05
19F2FFCC
F510E41D
F10A20D0
F5FAF3FB
FCE51505
EFE700ED
17DCF5FD
1014E1CC
2115FA10
E6F93F00
0B00F6FB
02F40E0B
D902D420
3012CBC6
CFEF0C24
59472914
2FDCFF1C
20E0FCB1
E003D4F2
C1E01BE0
C5FD05CB
D3C7D3E7
F7E604EF
3820F611
E02B2116
CAFDBFF7
023F2E39
CB29D417
FB380C15
0106150F
F1DB1A0A
D7F1DFF7
25F203D7
0F18E535
FB31FC09
C01E12E9
131C1754
251937B2
03D21806
260EFDBD
06C4D1D9
ED28D534
02D412E4
30E4E5FE
CAFDD5F0
0CEB090F
0F14D90B
EC0BC8EF
F9DFEE21
1E13FEF1
C6032DFB
020FF3EE
F804C318
28E6D2EF
21F817DA
1B3E0A0E
E91903E7
2122EB0A
D14245F2
0A2A1C2C
0CF608F9
11E521F8
FA5B2908
07E8ACE2
E1DE30C4
0030C2E5
59ED1932
EFEA0607
17F6E0F2
FA10EAFD
ECD40206
DB2AD1E6
CFF2EEE5
E130AAFF
17E8B30F
FBCF22DE
00D7CBF0
EAE6DFEC
DFC20816
B9E2090E
2C0CDFE6
1320D323
1A1BF13C
1805FDDB
C7EA34D8
449EEE0D
47D60812
FD064939
0D050FF9
0D1D1AE9
01F8F0D3
F917D845
B1F60CF6
06F70612
DEF103F3
1FEEE802
F7281101
08CD0AFB
FC37254E
4BDA04E6
E725BC1A
FAE003FD
B903F604
F0E9280B
C420F7CC
1AF6E8D8
F4CEE041
E7F903C6
EBFD00F7
DDE2FB0C
E7EEE71A
2FEC0BE7
0A37F0C9
0EBE0CC2
08C527EF
FFF1D2FE
0CF8F221
E602FEF5
20EA150A
F419E8D2
37E9F2DD
C2C3BEC5
DAE2F82D
3BEAEFFE
0AFFF50B
EF06B3BD
2328FC00
269E0709
BC3F3325
1E3C15DB
F308024D
F5E72F38
25F6D5D9
D8EAB437
4A231AD8
E835F1BC
F4200FF2
EF3C1732
34F2EAFE
350537F1
EF0BF4D0
05283207
F8FD39F9
E501D9FF
F01C1700
F537D3E8
FDFDE230
DBFAFD31
F80D2407
E41703AB
0AF303EF
E710E7ED
3511F504
ED21242E
27CD02EE
05EBFB29
15F7080A
0A1AF3F9
14F425F7
ED1AEB1C
D6E50BFD
EC05D102
ECE2E50C
19E6FDFF
1840E4E8
CC2E1D26
190625E1
0F0E0A06
FD08E50B
F7FB0DFB
2CF30105
FEFDFC08
1F010002
F6E6EB1E
F7EDF0D8
24FBF808
EAEC1B04
DD11F81A
E010FF02
03E96C03
B12B03DB
08EA08F3
EBED08FB
140F000C
17EDE207
1A0EF103
05E00EF8
F20A0D21
0AF811FC
FE14F9FB
04ED0EB6
08DF2402
030AEBF6
05FAF6FB
ECEAB1E8
00D62A1C
1C17F317
F711F917
020AFE15
D10CF5D3
CA18F536
F5F23AED
EC080016
1EC51817
2DFCC206
01CBDC0A
2CE63216
04F7ECB6
31CC0327
F5000118
DDF4EF02
FD15ECEB
EF041212
0222CCBF
EDDA3BE0
0AF21DF7
2F13E6EB
1C042009
CB2202FE
F3BCE0F4
58EECAFD
1FF0E00E
1FD5E1F5
17E840D8
FF0A0708
F6FA04CB
FCE9203C
1402FA13
D5F3F1E3
ED18FDDE
12F44A14
05E21FE6
FC24BD0F
0A012635
F6F63C11
EFD4F117
05F50A01
0EFA1313
F600E924
042FF314
200AE3FE
0A43EC0E
F1E7F114
2E13E008
0DE54AE2
4FF218F6
E4D409E5
2AFCDB21
C21E0340
D7F6F637
990A12EE
04FE3EE6
1A1F3CFB
0EA7F915
DCFA2A52
E2F51F1F
57DBEE1D
0DFBB0D3
E3E6D7CC
E6C2EDF9
E5D9D7FC
13E8F708
FDFC0BDB
EFF5DDEE
2819FF7E
09E6D013
E80B04FA
D6F9070F
0BC0B0CA
FD2826FC
160404EE
1DC93014
E4FE3306
F4C7E20D
F70EFAE8
E6E8070A
26D3030D
21DA3CF6
01F7F320
14F106FE
E0A5CB34
E1E717EE
2EEA151F
DD11F2E5
E410F8B8
030DF70A
C43F0EF8
DF2D0DED
090445FF
DAE3F2C7
4FF93013
F338460F
C70BF035
19CAE92A
A1DCF9C1
F6C7092C
F1462016
37F7FC03
E2E2E4BD
071DDFE1
EC34EF09
F8C8D7D7
25F53724
05F2FEEE
EA37F4EC
2706ADF0
151A26E5
F6D22EFA
26FF1AFC
E30A2409
0BECC809
F1153D40
30D1E2FB
0BF50EBF
CBE1CCD1
E8E6E837
2109D4E4
5318D322
42EEE850
DF1925F7
3AEAE0E3
F51900FE
3EEF3A08
0B05D92B
2E38CB17
14EC9E1F
3BE512D2
2D05EA58
4D3FF410
EFFAD5DB
F9FCFFCE
EFF10FF3
1E13F2CA
0FFCA725
0C0927FA
13BE1A06
08E7D207
ED15DFF3
2B3C5606
EB201603
F7CFE807
F5E8F318
ED14FF25
FE1CFA27
FE17EBE3
08EB2005
F907FAF4
0B0AE6E0
1E25DD29
03F601F7
E6FE0509
0B0939E9
36E9F32E
EBDF08F8
10351541
CD1725F2
321B09F4
2CD305FD
F2F0FE08
DD21F0DF
C5BD441F
13F612CF
F2D5C2DC
22F71442
C6FB2C06
0AD01A24
FF08C309
03DD22F6
BADF00F1
FA2BD626
0DEF190C
E9CA0EEC
F10506E1
13FFF0BF
B52D0127
E8E125D2
3006F424
F6CA02FD
2BF823F8
42DDE9E7
F20C29D5
FFF3E80E
CF20CAED
EB1AFBCF
2E1244C8
27CE06F6
FCED09D8
D502143A
A9F228F3
0DF7FCFF
BD260EE4
F90B0302
BD162F0C
F214E020
C2F30823
FA033CD8
2BCBD807
CF09EB02
FC2C11E9
110222EC
D7D81AF8
09F80101
34D1ABE9
34D9A3DE
DAF60127
081212D6
C7E9F01C
DD060AF3
E8D2CC4D
F7DB2AD3
DAEFEEDC
C8E3F021
DFFF1E1F
DECD17FE
D9F9EB09
05D4C514
FC14FFD8
0714EBF5
0CDD04FC
35E4E936
E1DE1FAF
C62A360E
0CF5C922
111BDA01
41F4EF02
261AF823
51080724
EB3A0E0A
23E8D50D
EC032F40
FC0BF51E
DF05EC05
2616F8CC
D103DC34
0ED7EE0B
C8F403CB
C3F7D9FE
E9C8F736
2BB5F826
EC1547EA
E92401DD
1229FC01
E918FEF2
0BECFA0C
2D3E99DC
32BC0641
CF2B2B35
F70216F6
A915F010
15213DDC
101B1E35
1CE20AE3
D2E72AF9
28D1E3FD
31F40824
14133D08
23F008EE
C52820F7
E33BFA32
151406AA

