011AD526
41C207D7
2C40E80B
FEE4067E
0F42C51F
F95FCDC2
0F2D0517
02DF121F
165B16FF
FE420821
19CA0A01
FB26E91A
1FEBE1E8
1F13FA09
1ACCEA19
EE242D14
E73C2BFC
FA2BCE4C
05ED61F6
0A2E452C
02100034
0CDF062E
134D030F
F606ED0F
CAEC05D6
E53D05D4
54D4ED5C
BDF8DBCD
F3543FD4
CD0F01DE
0F0710E8
E1FDFC33
E8E90424
0409FF48
CCE8D80F
B5F3F808
3EF6D4CB
4818FD54
D3510103
E7161CDE
16EA4200
360D1AE5
D8F3371A
10D8B9D2
81EEBFC9
F8BEE1DA
1CD23D09
D21CF42C
EB6C13F0
33DD2A11
D3F8E5F5
3D0019D8
04FB2DE0
FCC73AD7
0529F646
0CDB0DF1
EDE129FF
E107A6FE
10B441F6
2DFA00F7
0432FF01
25E2FC08
17F309C2
2C14FC20
39004AEC
A2E3FCF1
1224F81D
451B2BF1
0F41F50E
B6E4FB12
1681160B
043DC1FA
FBE7E7F5
0A1CDADB
14FEFBED
04FAF412
F63EF0E4
22E325FD
1BDF07F8
FFED0712
E430F729
06CEDC05
B9283913
0EE6E923
04BAD4E5
2DDD2A45
DC9704E6
B803C4EC
E296001F
F51C0CF9
23DD33F9
2317DF11
050C0915
D3CA122E
C604CEE1
D9E9FFEF
FB03F431
D3EAF8E9
3A3EE117
FD121DE9
03CD2D00
4F09E401
B93210F6
FE4C04EE
3EF32B00
D2FC04BC
CBCDE10C
1A39F839
E5011702
241B26F2
E01CF911
1DE69236
020110D5
EB1303F0
12FEFEFF
FF0D3BFC
E51C371F
23101AE4
FCBF2FDE
15FB10EF
3D021711
0E27D6C5
D7D91303
E8F4F614
170515F4
0817C4ED
EC053821
EA12AA1D
FA02DE07
1E27C525
F315F0FB
E1D90BF1
F2ED01F9
E81F25ED
C9371E17
3BF3DB0E
1E2D0DE3
EA0E0CC2
03EB11CF
07EE1DD7
EE15F4F6
4FFDEA24
EA06BB0A
11F34D03
F1EAF31B
0F371507
ECFBFC1F
FA3F0FC9
083A2E05
A400EE11
F5D0E4F1
1AE91C0F
01F8F9F0
E5BF01FD
F601B9F4
16E5C6F4
02CDFCD7
130510E9
D6F5F30A
F6EDF50B
0EEE20F5
2EE40800
200E1A26
0D08EE07
25E91239
26EFA3F5
FC1E0DF6
F80DFEE9
C30CE810
2FFF18F1
3038280F
09FB23F7
D9F8E61C
06320010
28E3F11F
E007FBF8
2B2A0640
F7EE0707
1DD8FDC3
DCC710E9
23ED04F2
12101619
F4F2160A
FBF4DFE0
DEFDE7E9
15F337EA
F1EEEEDA
2EF5D103
134523E5
0DEB2203
0AF2F9E9
171E15F7
031214FB
82FC04EE
BF220FCA
E8DEDC15
1F48FBD2
B2FD061B
F6B802DA
0BF0EDBF
EFC82206
0108FBBD
38E2DBE4
EE07041C
1D63260A
E016E208
F1EC1FC5
CFE1D01A
DE1ED7F7
D0DA12F2
0B5318FE
0BFFD12B
F147EF05
25B9EE0D
2411EA15
11FBF6D8
C4B910FE
E126D11F
2B0B0F17
20041AEE
1B19C822
15211036
D216FAF9
32091F25
14443ED4
050B1620
F1E1FCEE
1AFF351A
E80325C8
33E7E316
FCDBEBDA
1E050A04
071EF0FE
F7030505
C00EC731
422138EA
0712EBE8
E32518EE
FB03FD1B
02F4F2E2
11CDDBC0
F102B3BD
DE0CF4D8
0114FB3D
0C0335E0
CAE41F59
D30201D0
A21DDA24
E4C93A03
E810EF0D
FBD41A1D
2AB614C7
F8F4FA00
202AFCE4
CD1EF2C2
DCD724FC
0610FA0F
1C030D1E
1651F1F7
E5EBD12E
021AEE0A
02EF2801
CEE3FB24
1E1910FC
0C45DAFF
33101806
FF7A1919
0B01C5FB
DCC415E6
00ECD615
2561D4FB
DE2C0CFE
13FA0BF6
060FCF1A
AB070221
01260FF4
1D8DEEE2
291D04E5
08EEE4F6
01352AED
FAE12029
24F813FE
03D8110C
DEE01F2E
13EF3EDC
FE0515F5
07A913EE
17F7EBFC
EFB51510
ECF1B81A
19C11A0E
EC23FA01
0092E80F
FFE14210
DE9AF812
F5E61D2F
F52007FA
E003E822
04891F00
CBE719DD
FA4EFB09
0B01060C
EB73FF07
CC091FFF
2481F61E
01000C21
1B772028
D6004BFB
F14229EC
C3150EFA
0D85F11C
1725FB35
2AD1FC22
D0FE2DFA
4943E544
3FFAFABE
F4BAFF0B
FEDD061E
02EB01F2
25FBF9EF
25532B14
F1FF02C3
0DF7ED1F
1BDEB112
0635ECFC
1E223E42
11D80704
BD190A09
0551D402
32D1F0E6
D5152813
E8CAF20C
FDF805ED
F0080DF5
42EA37E4
1CD3F6DD
0AFECB2D
D600D607
05EC02FC
D8D7FEF6
1F053BE7
081ADB29
3CDF13E1
05FF0BFA
F457E7E4
43B6FC27
0ADF02F4
2436D537
003AE4F3
EBEBE91C
F3F2DE09
1DF6BBEA
F7180C35
CCE222CA
FFC02212
2657F3DF
F90FE1E2
E6C4B226
0A06220D
24C21A43
F7255A01
FDFCE3F5
C21B081A
F9D4FDE6
0513FAE9
38F30A18
F414F02F
FE0B21E0
08BC17FB
23F205F2
E612520B
031F3C47
0F203E0E
1D000A20
3003A4E7
302901E0
271010DD
1C12BFDC
FA0F0012
FFE949E8
ED2739DA
D3CF04D2
1508130C
CA011216
AA00FEED
03D7381C
3DE6124F
1C1F0C1D
02EF1AF4
C427E5F6
040CDC0E
FC24BD3E
C5D00AE6
168BC2E0
2D0C2ADC
1AE91F1E
1FB8F2E3
1824C72E
0C12EFEF
1AF20FF0
ECD2BBBD
0FEF25DE
24EA2D03
3EF8AD11
FA0FDA30
E42F05F0
4A1E182D
F6EEFCD8
F6CFF2FF
0D2808F4
25171CDD
F9DECDCD
302D1AE7
0703E4DE
22EC341E
EFEC2131
DFF603FD
D6DD0DFD
0066F82E
0612DB07
8CE71621
35F83708
152FE1DC
1AE6CBE3
13F5C33C
F8180543
1CEBDCED
09D1F60F
1A0E0020
F907D9EC
DE0439CD
C2EE2B1D
FF0EE531
FCC70CFD
C22C1F0F
C81BC842
17DC3FEC
DAD9FE44
0481FA08
D9E2F8F4
2FE9E506
1E1D2412
07031FCC
21230D01
2CDFF40E
E2F81704
00E60E0E
1B513D0E
05E5FD1A
E933E9F0
0DEEFE10
1B0C00EF
1FF6EEDF
092B19ED
37F306D2
FEE90108
420008BC
3106FA10
11FA1AF9
0ED70AEC
26DA0ADC
0D04FE27
BED814E7
D5DEE91E
D5FB16EE
F9F3FBED
DA21ABAB
F60FF3E7
0100FC04
001EF60C
E723FD05
011007F3
1C0D13F5
4EEA1029
F6070703
040301F7
D9DFEBFE
0A0DFF0D
F5F52903
DB0AE10E
EEEF3A14
F6D9ECF0
2D05FEFA
1A1AF7F5
FDE9EBED
08FB1506
0505D922
2DFA1E2A
0A0A2F18
1CA0E2F1
2E07EAEC
E6F41B04
E0ECE226
DB040705
0C4DFEEF
0F07E22F
1214EE05
F90FEB13
3EF0D2E8
B0E8CB19
EEDB16F8
00DC1D0F
0FF4D320
B702EBE4
03FDF9F0
E920F618
F7DF040F
072C1909
F7CE3CF6
0A1A0BFA
32EC2FDD
1F200DF2
EBDFCAE4
DFB71402
EBC10530
E01DF6CE
05C31AEB
291E05BC
111600F6
25100FFB
F8B10CE0
C5DF042E
E0420AE1
E9F504DD
F573E916
33AA1116
F90AF5E2
E9FDE11F
38F00011
FE29FDAD
4004C6FF
EFE2C808
DED9060E
DBEEF323
0E112309
08F220C9
03F4C8E3
EB07FA04
24292ECE
C818F602
21CEE2D3
D9E4D7F6
EDE2F5DA
E917F0F4
FE4602F1
EFE9F631
1532F5F4
ECF805DE
1648F3F3
09F0F921
E3F51012
4A0B49F2
DF32EF04
F6F6F21B
0416F50C
E1FD2307
E5E8DF1F
1DF85CF3
58DD11EC
05221B0A
F0D71ED7
FFEEC012
FE81DDF7
0F0EFEC1
3DD62B15
0EDA23F9
D61707D1
EDD1E24F
23420FFC
E3FEB90C
0718D60D
D5FD0BF5
EEB4F80B
1BF529D8
EFE601DE
FBE825F9
0F42F303
E00500D6
08B32814
21EFD4E8
DC1910FF
FB2513F8
D4272D21
C82AFDE5
FB13394E
F4F85604
DFF4F0C7
EB2115EB
E610E5EB
285105E5
E21FE1FB
173036F0
23F2F0FF
EE290529
05EA08C2
36182714
1147F4EF
040A1241
49011B2E
320A21EB
34C2CEFC
C50AE3E5
2428CC1E
09FC0FFA
531B0F66
54531119
C1FEFAE5
07E41FF2
45FE1A97
21E9DA46
034B2106
E5F9193B
2D2233A5
2E39E1B3
07E51D29
E3FD330C
FB1BFBD9
03F5EBDD
E5CE08D2
D06612E3
EAE4F84C
3D36DA5D
08270EEC
35031F2C
CF2CFC37
E8E7F11C
4FDEF656
E627122E
00B1EE52
BE241BF0
20E6BBDD
082148ED
1422D901
3FF8D933
F6FFE720
37F5ED3B
FAEDDD26
E6DAE1E3
DA10FC23
04FA26DA
061926BC
F7EDF605
09DACE34
01110CFE
09C31CF2
F5F704D5
E0BABFC1
06120330
04000028
FBA62617
D2E60EBC
2214010D
ED283E02
0D2BDF1D
D035EC2C
17F00A15
E818DDEC
09F30816
10323300
25F4F016
F220FF16
081235FC
27CFCFF2
D12EEFF0
FF0B391D
FF070DEE
F90513FF
12F00DF3
58D7ED01
DA170B10
CE3E35E1
E828E301
E018071F
CAEEF4FE
E0EFEA2A
F7F31C00
D81EDBF4
0700DC60
37D4E91E
ECC941E0
360F062F
001F06C5
EAFBF925
FC0D25CC
0970CDFC
DEE7F8FA
F9B11414
330DE702
1DFE2B00
0AE4DCF3
08FBAFE1
2EFFCCC9
31D81508
CFC63AF3
D312D6F3
FEE01A05
10FD05F9
ECDFF7F6
ADDDE9EA
FE3FD30C
191EE3FC
0C0FC705
24D4C02B
D6D9FED9
0A1D5037
D7032959
FEF00FDA
BDCA080B
DBEF00DC
11272525
EEF3EB23
0E1DDAFC
202EDD10
FB40D104
22BE15D0
D1520320
0BCD2E17
FCAC2211
E54110F4
14F20518
12C1E6F2
D6ED27FD
EE27171A
01C3F714
1A10FA3A
05F10FDA
F0112113
FEDD0CA0
1F1C0A25
4FD8E500
0FF91D01
DEE0FDE8
EEC6E0F8
E822D2C4
1BECFFFD
E50D15C1
2ACF16E8
20F5B5C8
3BC406ED
F0D90508
09BE0445
05F30200
01E9191C
F00FF213
0C1605EF
E4EDF1B0
149C31FE
27D40FDA
DF02E2FB
FF0415F2
F91CFA14
F5EF24F2
D5E20222
130AE6DD
03A3E5F3
00080539
12C3EB00
F00E2AFD
D9E5DB35
2E1DF5CE
0018F903
F7A8E500
34440A47
090C1BF0
F4DF0FF2
F812E719
1F45EA20
08110EE9

