223DFDD6
E82711F2
DB0F0002
F8C8E90A
EEF7F5FE
DB41FFF3
19C7E208
09D6FA0A
26F3E308
21141714
FBF6FBEE
03150A06
F3E90564
08F91009
EFCBE20E
0EE4C0E7
F228E9D6
C7F048F6
EFCFAAE8
341CE5D9
F407CF1F
2022DC0E
34C8E706
F2CD2031
F20FF425
24D309EE
D4090C37
0700ED09
ECFF07BA
F2530405
23EB00F1
E800FBA7
0BA33216
F9DBDBFE
FBEA3BF5
B9DCE0F6
FCDE39E9
07E30DFF
05EA332A
04D8EC40
E6A9F6AB
1B03F8CD
158CF103
2AF732FF
1118DE0B
15E4F80A
DB4D1CF5
FE090E24
F1EAE00B
D7060018
11D01112
C8E83416
EFCAFEDA
1640D4E4
ECFDD8CC
2CD206FA
0EF500F2
E0F4FBF8
11C7F821
BD10200F
10FE1422
31CE1604
171A3D0C
E7DD191F
FAF200EB
F2F6EB28
DF0CFDDE
2DD2ED25
FD02E9F6
F6F2F3E8
0E3B1405
FCF9F016
03F6FD02
0217E40F
12FD19EA
E5FDFEF0
1214D6F7
F71AF11E
0BE31103
DC09131E
0BD60B14
FDFE0AF3
23E207EC
E2EAF817
0AF5F5FB
060D0105
ECDE04F3
E6092206
3B003EE7
E90D159F
F5F828EA
E3062814
D2149B00
01131B11
E6F004EF
02011515
DEFEF133
1CC3D5F8
1A0BFC12
0F0B0AC8
032B120F
F8E318EF
F227EDF8
043618EF
F321FBF2
0D1C1A05
F7EB06FF
C41A23C2
1510250B
01F3F6F6
FCF61D11
FC00FDFE
010035EE
F50FC927
E5FB37DC
E077281A
FBE60AE2
05FD1A0D
02080CEB
DD2DF2F5
F206F80C
0C00EE1F
EBFFFC09
0EF4F60C
06F9092A
E506F9F0
21D52219
2FE43CEC
20F46402
000003F1
E3152B05
E7EA0F02
16160EFF
F9FF0BFC
18E1F815
15E82323
17FA142D
01E5D020
1AE92DD9
0C0523D5
FA01C3DE
DAFCE50E
EB0048EB
0CBAFE20
F202D50A
EE071BF7
0EE86747
E4E6E832
17F608C1
C32610ED
E9B9B0F0
C412C919
0ED50D17
EFC1E20E
ECEC50F1
17F408DF
0E2CD226
01C3F5CD
09FA2D18
EB1DF200
26F79609
021C2206
14F1352F
0FE10B05
D8DBDCED
FA81F02A
EFF1A6FE
F6DAB810
03EE0BF7
06050C0A
E28FBBD9
EFE3291F
0517E8F0
E91436CD
E50BE1F4
D8F91E33
34E64329
DFDBD812
06EDF5D7
F3EFFFE4
DE12B70B
120B04FD
DFF302E3
1700C92D
1728810B
0A172EBE
0CE62FE7
F9E70108
494E0B00
EBE4D8FF
17E8B70A
DB1314E4
FFF3FA2C
DAE41EFB
27B409D1
2E29E90B
DFE7D76E
E317CC2E
E2D5C720
B445F8F4
0DF632F5
F9F4F5D6
35F2D3EF
E5050C25
02E5D70F
EF3F0AEE
E4E6841F
EAD114E4
B1F20111
D516EFD5
00F3F303
D9392819
15CF0F29
172A160D
14FEE0FE
E355EBC4
DC130BF5
FEF6CCFD
1DF8E4CF
F2FEFB01
F90545F7
D7F7D9D3
050C2120
F5E5FCE0
05C7DC08
D2C1140A
E1FD27F2
CA35FA03
0007D1DA
EA0704DB
FEFF54E5
0FDFF5FA
20D2E0DC
07EA2828
1DF130FE
C841DE0C
FB2AF2EF
06F90B20
080F191C
FC0C37D7
19025DF5
1D010D0C
B311F345
0F3AECDC
F2F41C29
28FCDF1E
070FDC1A
F008FA01
18CE05DA
F6F901D9
034131BC
3CFD00E0
0BDBC5E6
EC200F33
F9260D22
1238F4F9
DD4EEE38
2BFB11DD
F0FD15FA
F0E515D7
182FE70F
FAFD01FE
0DF203F6
DAC7EE10
E4C9FEF0
0FD4F603
F4190607
23F22527
CC0C2127
B4FD11FE
0617F0F6
07F41DE0
DA36FD0D
04F8F30E
F90A0EEB
15DCD4DD
0D20F913
F725F528
F5F5DAF8
1D1311C4
11E0DA0A
F1500AD9
0E082326
092DD81D
FD000AE1
F8EE0024
EDF70205
EA0114D5
F7CBFB17
05FEFD06
11FCF024
29E51110
E6ECF4EE
131F2311
0DE60C01
0519F6F5
1117E9EF
270A26EF
16F80D01
EB02003B
0A2D11E0
2C18E020
0ADD1E09
0AE71DE4
0A51FD01
0018E2E8
F1F62603
03E5E6F2
0D082600
FAEE0CF9
1AF219E1
FE16DCE2
14444EC5
E5DA33BE
D11EEFF8
D7ECECD3
FE101101
0320FD1C
08F0EE14
EADBFB18
021D3003
E7120341
51260807
E728160E
13010714
17DCF594
EA17DD03
190FE12D
CB5106AE
A8EFF3F7
FEEF15F1
2104DA67
FE47DC27
2E012410
33D58AC6
0EF448FA
FFEFE9D1
1EB61A28
DBF6D8DD
DD34F7F0
41FA1402
FDF50A18
F3D125E1
F4260CEF
D9E4F8EC
E7331F0D
1433040A
1630FB23
31FC0F0B
F3F5EBF3
11ED1817
CD21F20B
260BF407
1FEDE73A
E5000DD1
05F3FC1B
0128BD1E
EF1307EF
06EAB4EF
10F010C0
2E1152DA
09FFE654
F8CEFBF7
D80902C9
0609EFF3
D6FCCF0A
4DE4FA07
640CC8D6
D91521EE
38F3EAFF
11F400FF
09081DE1
DDC2EF2B
E9080D12
180202F7
F51C2846
41F5EB1E
15F12B12
F8EC07DC
1A301426
1ADE2D39
CF0A3AB9
E4407E0E
FA28EFEF
0CCF990D
0EDA0402
EFE506CE
F9082AE8
2D3E1C12
B310CEF1
E00E1BD7
0708DEE6
09161F00
2BE6D6D0
0404F007
08E311C6
192C100E
DAF1F518
07C3F8CC
C7180C12
FA200408
200DF519
EAF52D15
FA0822F1
18FFDC1C
DB03F8DC
EDFAD403
112417E9
C416FD24
161A27FF
D62217F9
FEC1E726
F84B33FE
EE02C2E9
E606FF43
F4FE1EE3
D32BEBB9
FD2D29F8
22FEEFFA
E02D0210
3F2ECF00
1DDECE19
0412E62D
E8CEDE09
0B10EF19
E50DDF2C
E9C51013
0AD6C41D
0B1E10DD
DCFEFF2A
F3FAEE1E
131D0709
FC08E307
F6A926AE
DDA9FAF6
4231FCBF
060FEE12
BD0703EA
D0233129
CFF4F80C
E21429FD
08264B2A
FAFC182F
F0EC26EF
36CBFDE8
EBFE0215
E8F25007
37DDF605
F1E734F6
03F209CE
0A05FEFF
40F210FB
F7060515
BE3725DD
F011FA10
F90B00F8
060B061B
FD0A0AED
E4F9EF0A
21E6080E
0406FFEE
E2F009FC
E408ED07
170823FF
FDEBFB08
F0E40A29
EF13EE01
FB03FB25
0AF3F306
493E06FC
E445205E
DD12FFEA
ECF92AFF
32200A08
0CE02EF3
05260FFF
00D91E05
EFFE02D6
D42708F5
AE36F522
03F8E1F0
14F8EFEC
F5EAF70A
051DF00C
E4F04A10
FBEBF0D9
F7C30EE8
FDDA0AFD
0106200E
F8F70BFD
24EA1034
E61101D4
D00DFE0C
FC0F3028
EC24F729
D0FCE8E8
170102F9
1002EEF4
F7F5FFD2
0DAE0F4D
0C1818F0
D7170711
E1F9F60E
1517FDF9
D8FFF2FA
E317E4F2
E40CEA1D
F53EA700
07F7EB0A
0116FDFB
0007002E
061A00E3
EC2EFF01
19F3EA31
0C0953F4
F60A0CF1
04E9DDE8
F9F8EF1C
DA08FD02
06F8EC38
F70001E4
F71DEF1D
032203F1
44D6DEF3
01F53B1C
C5CFFC16
DEFF10DD
1EE00AEB
1A0A0DF9
0B09D8CA
01C9AC11
EAEC0B1B
28FAE8E5
A617EFF7
23F0EB13
372B041B
0EFA0C20
EFFBD517
071922FC
0E002708
12EBD9FE
F4FEDCFB
F4F30FE9
F7051FC7
16FF19E5
02101BCB
0801171A
1129F711
26ECE3FD
F710030C
05FB250B
01E009FA
4B1EFE05
A4ECF411
FD22F41B
FD0AF068
E7F61536
EC02FC22
10EE12EF
E7E2EA06
0DE6EBF0
23D80BFC
0EF602DE
D3DFF21E
18F91914
DEB2E5FC
2400F704
17050CED
4508E1DD
0E42FD20
E506C2F6
2BF9FBD6
19F432EC
F72910FC
32DB16E1
1516E4FD
DE0FEBF3
31C802F6
0818BED5
0A39BDCA
E2D2E809
041A1FFB
F0ABFDDE
D3E20F27
F93137F1
E5F10FDF
D8EE0DFB
F2F1C3D5
45E7C6E0
1795C7F6
CD1A1222
06D42929
0C05F0EE
C313D721
E308BBE2
9E6A1817
1DFCCDCC
0635E211
370908E2
2CF8C1F5
B357FADF
1BF0E80A
D041CE15
D31023FE
C80747D9
08F52211
0D5DD6C7
0843E1DF
11DBE70A
1505F7F2
2DCDFA02
19D0E732
08DA1D0B
2A03DED6
11C90A10
FF032D1B
1C1DEFFE
04050CA6
E42FDB2A
C7DFEE42
F313EB42
03E007F8
1015FA0C
04E50DE9
E4D9FBD9
01E70CEB
10E70CF1
F7FB3016
D914AAEB
F0C1DB4E
27ED1317
13001129
381AFF1C
DAE90C21
0A57FDDA
FA10FC11
E00527E2
E7EF41ED
FB5013FB
0DDFAFE1
1F17E715
F71FF2F3
E527C42C
FB1D0CE2
35D6EA13
ED24F52C
34EF8A1D
E91600EC
071003FE
350A11EF
0307FD1C
2EE1EB11
2F16E204
F40AE317
1BD6012C
F9F51D05
1C1701F6
350CE52B
01F8E0F3
EFE6F20A
17D1301E
D606EF15
AE21FED4
2AC737D8
BB201D16
BF1E56CE
F72210EE
0A2015DB
0416E20D
C50B18F5
C9E2D80E
0314F222
330BFB05
01EEE2C5
F3F5F4FA
D9EC1B13
C6F5FF02
F5E5E404
17D005E9
EBF4F127
16F41304
E41D2BCE
0DE8F301
0AE6090F
172DEBE6
1EF02CCF
12D7F401
F41028FA
2014A3ED
C4F7F70C
081B41F0
0DE731C7
FF021A22
09F0D01B
1DE6C73E
E4F2FCDB
E71C10EA
EE150BF7
013A09FE
F31514DE
26CE06D5
11DEC907
F1EDF405
051EF721
1C1EDE09
F8D7BA2A
100BF7E2
302CEDCB
4B090CFB
01010604
FA0E24B6
0810BA00
101EF7D2
DE0DDC04
CD11DEDF
070BF6EB
C7ECD9E4
2D152A05
FF090E03
E6DCDEEF
D3FD14FC
45ED01E5
26D2C714
B9BF03FE
0C31D726
0423F3FD
47F12545
FDDC00C6
022F09FA
0024160D
26EC22CF
CB11E826
E9DBF3D4
F20EEAFB
1B4C1E18
F0012F1F
0CFA19DF
FFF3024E
120A03ED
F614E3EC
D6E4ACEB
02BF0904
EDE6DEEF
09F20801
0640FCE0
CE080AE4
2FFF02EF
F31A33E2
F0F51337
0AFF0CD5
DE02F007
EBC8E856
03D3F204
FED2FC0A
DC20B525
12EAF8F5
19FA07F4
C7FEFA16
4C35F339
51D4FAE0
EA0E1FF4
E5290509
EAFD0FEB
0BF6050D
EE0BEC28
18F1F6FB
08F0DDD7
D6ACCAFA

