64F000D5
FBDF0DED
0328EFC6
DF5BA20A
CDDCBAE4
C9DE110D
0110E8E1
02C912ED
EDBACD08
F3CF033B
F9073A11
D91FF80E
20073206
F0FDF4E9
0858CFBE
0DD3FF01
E3DB2EF9
D5080CAC
DE26ED18
05E8F0B7
170EF2FD
E9162CD7
F91FEA2D
15170A1A
011626BB
EB05092A
ED2CD5E6
19C8D832
F1ED63DE
2509E2FC
D2C3382A
1CE4FF05
EA0C0ECF
07B7F1FA
FF23023A
FDF91BFB
F3EC071E
1AA41A17
F746271A
D6D22BE1
DFE9DAF0
1AD7EA05
5913FDFA
190B2D18
9BE70505
DF0516E7
0332D7EC
159D2CC4
1010110E
0116271D
E8FBF0CF
CAC0E6DD
35E9D614
1E162600
FF3CD607
E9FAE003
E9BFDF0C
16FD3D25
011D2FEA
DAC0ED20
F00032E7
F0A42BF1
BF31E2DC
B7F50E13
223DF630
0A2ADAFB
06FAE5EE
F2EA0CE8
D833F1D7
FF191D0B
000DEF13
152DEB23
420ED913
F0E42C4A
0AFA0AF9
FD12EBFA
01E506EF
12D013E6
1FD6DBF0
21352516
B30748EC
24063141
E4DFBD23
E0E3D3DB
D6F4A6FF
1E3121DA
06DBC721
E51B1C57
DCE53ED8
299AEBB9
F0FAD8F1
0136F858
DCD3CE13
0A28F6EF
2DEDB00A
07223C00
14F8F0F8
07BAF509
F21D1327
E0222A12
A01066E6
15FFD0C9
DB361211
FC0CED05
02E8D501
D9040E13
0A0AFD14
090C08C9
DE141C27
02EDF7F3
020FE504
19EB03CC
DB17E0CD
C82905DC
D5101C07
0E0C1C04
D6E24402
162A27E2
1EA7FCE7
F22F191C
07153200
E35CE211
FF2E3EF3
E4FF30FA
B6D63D06
F922D0F1
E214BFF7
07FBF01A
0409FFE2
E5EF1926
1903D721
EDB8042D
C73EF8D0
28E300FA
15CB13FB
CC44D6E6
FF20F301
FED9EC04
F6021112
1CD40FFD
FFE0B8E6
F8A03EFF
F2F6E910
171C33F0
0902ECF3
C8D6211D
3B20CA05
FEE5240B
04F41AF2
E9FCDB16
341DF4D6
D01409DB
F9EB221E
160A3923
C8F7F723
E1470CED
EFFBE008
15BDED14
F0EA08E0
3EFFDA0D
DDE00C09
1908E8C3
00200C5B
FCEDED0F
2612F0CC
F91CFB09
DF28010F
1AAECDAB
D6F21CCF
26DEEBFC
09FA2043
08000B04
F1C9EAF8
12FFD5EA
DA011026
10024923
18CCCBED
E70CF436
EA2FFEFD
2E233143
F2F332E7
270E04E2
F6F2CB0C
F44C2BED
B80D1CFC
DF1D28F5
151C0610
EBD80B07
E23E120A
191702C3
D8F213ED
0BFFE2F0
11E520D0
0AF4F1D1
FD962518
10ED371B
EE01E403
10FE3311
F1250711
C70A5F4C
1C0F0702
E3074709
08DC0337
28EBD552
2107C50C
2204C781
173C2BE6
E20026BE
18F7FDE2
FE48E5D2
07040DFB
E715FEA6
BE81EBFC
F010FD3B
4A15E603
E3EB0EF6
E7040E9E
26662160
08F6F42C
E22FEAF4
DFFA510F
FFDE1E18
D9E7F3E5
090EF2E7
BEEAD9DF
2440F7F1
1DD0E5FD
2BFDCDCF
153FDC02
FEDC0AEF
EA1ECAF6
01D512DC
C3F90603
0A21070B
B615191A
F30BF7A2
FB121BCC
D467FAFC
090E23E4
F8D717BB
BF27170E
03E0EB65
400A0303
42C408CE
F3DBF4CA
3FDAE1D1
0DF01AFA
F034F805
460FDB30
F1B804F8
13C62A15
FE03FFE6
F61DC9EB
FC1AEEF5
5E0FCFC8
1D94E11B
EEFEC9E1
0C390A10
F5FADB25
0FFF130D
00202803
0EE02ECE
FEEBFD00
FEBF01F2
05F13CE7
0ACC26DD
F4059622
FA2404E7
E6F7CE08
ED03E3FB
04FA73E8
1A5E0061
14073F00
E52BF6FB
26156A10
1BCFF41B
D710E2D2
E0280426
26E1F6FC
F8F9DEE7
1F057E0D
F7170ADE
EEE31915
FB13E205
D7033617
1B1207DA
012724F7
F4B21B18
F7121902
06152A11
FDF786E1
F7210725
FBEDF512
1AE30EFD
43E5F5FB
0C051319
321542F7
F4D80CC9
DEF6180F
090829F5
1BC6C7DB
E7EC01FF
24FCD2EA
161E250D
2F15DB07
0F1A15F2
D201350D
E208F4F7
3A1A220A
FFF3F2EC
1DEE2604
F908F72D
1403AD0F
E0DF1A09
104192FA
EE320605
2DD07E0B
FAD0EEE1
FBE4FE1F
FBEEF2C2
F1DDEDFC
F01EFF0D
F331EEF8
E72BE31A
EE0B0F01
DCCC1EFF
03D2BD06
12F8FE63
2535F0FF
F1521DDD
FD045110
19F21EE9
23F3283C
0D0CFFF7
0DC10024
E627B41A
E9E683FB
C62C0FFF
0D2F080F
E8F002EE
DD290CF3
14EED720
18162201
04251CE8
D5D9ED03
2B2C3EED
1B141107
EEC7EC07
D92C4B04
C50310FF
EEF61812
0ED2170F
E6FCDF03
292F0215
F5E9FF24
D0CE1712
F61EE5FC
12D70F08
E7464B1A
1AC0EEEF
24E3DFD3
261631C4
0E3BEB0C
190F5005
1F4519FB
FBFE2BCC
F4F52C25
3A200C2F
14011317
07EEFCE2
4D0DCFEB
F7073ADC
26330559
F42F1295
DBE00EB3
F3A5FEF1
E51F19F4
E7FC11D0
F9F7F5D4
0CEAE62D
D0112E29
B6EBF5F0
C8CF3B20
2CFEF120
98811815
FABFBAEF
26EE21DF
ED0EE116
E9F0432C
07E415EA
FE080407
231DDEFC
44F41822
FAD5DC1F
DDFB0CF9
C00C2419
EEF8E0EF
09C8D722
07F3F0E4
3C04083F
32FD44F7
E7C518D3
0BE5F9FC
18F4D2E0
FC23F0FB
F5DF19E2
180912DA
EBF4F726
FBD50605
E3E309D8
E6F6251B
E4FF1010
2A33F4F8
06F3EE0D
03F5F9EF
0A04F610
EADDD107
F6122FC5
FCECFFD6
0AF74EF4
58E4F7E7
21D42EF7
291FDC03
E3022929
D935E6B5
DA1D0BDA
0FCD36DD
2BEFE8C6
E05A2845
26DD87E6
E5C122BB
18F2F7FD
ECE7B0EE
042D20F8
15E6F401
0CFCF6DE
F62FBE29
0736FCDF
232A0F10
15D6020A
9F502E36
FDAB18F6
06182FD3
0CF1E6ED
F7FB74F6
0E06FB08
FCB0213F
F539F030
0CF7B6F2
0F1F1CFF
011DFDC2
E5140305
FBD615F7
09E244FF
2A2848EF
1F1AC42F
25FEF5F9
071AEF2D
01070CF1
F9FB0714
DD22D6F0
F71A22F9
F5DEFEE4
48D7D92E
17020216
F4F200E1
05CD2BE7
F6F82422
E2040D0C
02F107E1
00FC04FF
0006150D
BE3B0021
FCF128E4
F217FE26
06FE1DD7
1C00F7FD
E7F4CB06
EB0A1D00
04B90724
D5261301
0B100B0B
26DC0801
FDFDF202
1101ED0E
0A1EEDE8
04192A08
27C52526
D21CF1E1
2CDE5E51
11DC1310
140EF6F3
FFD7DA09
1C30E5FB
F3052131
E72D10F4
F01D0CF5
F8050A0A
D00DEEEB
0626FB24
0504F3E3
080CED29
BE494253
1922CAD5
F6CEF015
F312E91D
02E9F0F3
1EEAFCE8
0FF21ADE
281BE919
ECFC22DB
F7DF08F6
41E4D7CB
FCE4FEE2
02F5410C
0C24F5E4
02CA26EE
F723FC14
DE1D1D17
EBDEDC2E
FFF3ECF1
0E16ECFC
1BC7D6E4
DDD60EF8
152623EA
0D17F4D8
DF0EE3F0
F3F1E91E
06300FFD
C45DEBFA
FD07EFFC
060EFAEF
1F19DCF8
F2EC1FF3
02CC36FE
F32C0320
E52CF6F2
09F6CDEB
E7CE0EF1
F5290FB8
F70F55E0
0BEECCF3
DCF43AFF
02FD12EF
1A121D02
1400DD0B
0CE2DFF5
ECE0FC15
BED4261E
22241ACF
07061814
11F9E0D8
C05D32B7
F2E301E9
09E6DE11
EFDBE212
2A0A890C
FFF11917
EA14B616
F6E30E23
F6B8D013
E22FD740
E2C0AD08
0F25EA3A
2A14B3FE
050FF8D6
190010F0
F7510AFA
FA069ED5
F8F2DFC6
F4EE36E2
FFF2F4BA
3728250E
17B3F5FB
05D30FDF
041C2A04
DD0114E3
EAD6F532
C9E81612
B72BC9F9
411CE502
00094805
E001F3C5
F6022624
1F04E728
4414391E
F605FD12
06F80EE7
E514E8A0
F044F316
D1A139CB
EB12CAF6
1917F514
E86CF6C6
D6275EEF
DCC8CA09
F3FB3332
12134AD2
D0EBF6C6
0DFCF25E
1C1F15E6
F1CFC5E7
E46115E4
1545DFFE
E537D2D5
EF130B10
F203EAB5
B6C8013E
32F3F4CC
FA330EEC
EBEDEC10
261322BF
E0103003
EE080206
E8951522
430718F4
17C50510
D3EBD4EF
1BCD51F6
E1FCC8F0
2313FBF6
FE06EB31
FA0A1D0D
D7294329
C5FEDC16
F833F704
FA170AC2
E3FEFE3E
F505E213
D5F6CDDC
DDDB42D4
FB210A10
E3C7E71B
23CFA516
E913113C
0AFBF808
EC0CEC14
460EDB1A
110F3615
09E0E711
22F235DD
1502D502
F1DF1109
F9123310
F8F8FD22
E4083B13
23CBD120
20E027F2
202FF3B3
FA3021DD
E7F3FC3F
281FECE3
0CBEEAFA
10FBC80C
EA06D406
E105F206
0605F82A
D404E3F4
146611E8
1806F602
E219DC3A
F91752F7
0806FA12
E3C825E4
BCFA159D
E11320C3
16F1E71D
0FF402DE
EDE54115
C8EC091B
DC8BF2C1
F9C5E61F
CAEAF7BE
031D05CB
160A0C1C
E0CDF1EC
02D2DBB0
4A16D40B
F018D1DF
F8F005FD
082F0FA9
CF34F640
6D0418F0
FAD12C0D
3217EF11
DA36281E
2A030F3E
E2171014
0811FBFD
0D23EB2A
46FF1227
06C1DA10
1ACA2DF6
11FCF1F6
44DB21C1
19ADEF1D
ECF1E313
00EE0C05
0D32152E
2C9EE016
D5C833DF
1BDAEA13
F9E61F01
38F7F7CE
D0C51501
E815D929
22C8D5EB
F12702FA
F4E10E0A
FA0ED7F3
0F01C953
0EFC9118
11F407D2
F21F0A24
D7FC1BE6
DC180229
04062CF3
20F7FA32
EF0BDEBB
F41B10E2
19F220F0
2309EFFB
E904D9E1
2F4F000C
FFF6FCC8
CB411412
11550EC7
00DFCAF4
CBDAE1E1
CB45ED3E
E2EB42E8
E6FD0413
06C306F3
0BD906FA
24D852DD
0FE91CF6
BADB9FD6
0DE2D72E
370F08E0
11E6F2F5
1AFEDC00
FCF40907
E60FEFD7
F2032736
E210FBDB
1037C1FD
DCC6F9B2
E5AC092F
1E07E341
F50FEFFD
EC16030A
170CF6F4
CD35F844
BB33F5C5
0F1DFCCE
F5122FE0
F9C86ADD
F018C8FD
EDFE81D3
37F1FE10
FAD91FE7
2FD5F9EC
D514CDE0
0D31C33C
0B02D6FE
EB0F0301
0B06001B
0C2BDCD9

