D7D00301
C50A1805
21F9F4EE
09F61AD7
14F6D512
F6151EBE
1FFCD1E7
F9E5FEF2
0E2CFE02
E80E5107
FA00EFF8
2313140A
E0CFF35F
FEEAE413
EEBBFD07
0702EF0B
F9A911F4
F1120916
1A102B04
B7D1EAFA
F8FC1421
2615EEEF
0136FE12
E5174907
F4DD2323
F62FDE39
03F0EB49
190C262C
FEE81233
0CF71F20
0E22E601
2B550338
FFE51FEC
0E1B414D
1AD9E2DB
2007FB0C
D8150F23
1A0EE814
0E011600
2B0EFAE4
15D31FCA
FC0FF4D7
43DBDE3C
17E6F812
EC3218EB
F105BD0E
2C130558
F1D50FD4
E2D2EA0D
312A12DE
EF0DEA5A
E2CFF303
2A020B58
C4F7EFF4
1600EB2F
E2D555FA
E0E8E614
1827E9F4
170607E3
D1FDF703
F117E1C7
09CAFCFB
DC230B12
4101254D
06E4110E
E800F301
24FF2BF9
04061AEB
EE1405F0
DFF54207
04BF1E29
08D31E39
1BF8FC2D
F7F34BF8
FBF3FDFE
EADEC2E3
F407020E
1D2160F5
0A0E013F
19F9C9FE
33DBE8D8
040E13E3
170DEB04
AD0DFF03
EE08F903
FC1F0F30
2FD4FC81
FBE5BAE8
2633FFFC
E0D1083D
12D4D427
31071D36
22FEF435
100BD210
0EB7EEBB
0707BB08
05FCFAF7
E3E817DF
EEFCEF09
17D8F317
EFE9D5FC
110725DD
F704EEEB
FE340AD3
F2F82414
C5CDD007
010DF9F9
180BE801
0BFA0703
FB1319F4
EB32EBF9
F11B05D2
1C31112D
17143D09
FB1108FF
FCF4F915
0202FDEF
FFEE1E27
0A0C143C
40E9BF4F
0023FFBA
F70C211B
09250CE4
27F081FF
F923EB18
280B0BF1
F3F00605
0109E8FE
DDBAF0F8
C5D97EDD
0E0813D5
E20C7A05
C1F1EEEC
EF197EF5
FC0726F5
B0F98111
FAD440DF
0614D2E8
1B091CDC
FAE6E2EC
5E5802D0
D3296D37
0ABDBF1F
E1EA51EE
193CF0FA
F7AEE00B
2B1023C0
2C0E89E5
300D4AEB
F929BA01
E90857B3
DEAF5731
2F2502BD
FE0D500C
40E61955
DE1B9915
E907F8F0
042AE5E9
18F9F637
EB297E2B
E01E1FE8
F4EF4107
18F20BDF
0AD234E3
280302F1
1603711A
F7EF0CFC
0E2283E1
D5EAF5EC
C1EC782F
061A8F00
31153838
BDD7EC11
DA0517FC
2E02C5FF
01259CF4
0CEEEC50
1205EDC8
E5E412F2
E51A7EEE
AEE4FE0E
F3FC201C
354C14E0
1D1C02ED
FFCFB714
C72242ED
161BE2FC
CBFBEBF8
F3F23923
07CF5A00
04D41B05
FAEDC90B
11FC1AD4
05380F1A
DC064DDF
0B094828
1AF54D04
19EC0606
DA31FAFE
0E37F24E
192305D5
1004EB0F
E7F9FB24
04FC440F
12EDEDB7
1D0A349B
F0235F07
C3E4BEE1
FC0C1615
C30901DD
0FD8B7DD
E8E7FFE9
CFE4BBAB
F21F98EC
E9FCFF2F
FCF433FE
34D61107
F9A04BBE
F7F7F705
F2D72C49
E617EACB
EC0A9C22
25DE0BF4
FCCAD905
C2260F4E
E6C931BB
AAF0E3F9
021B8103
0EE42338
FEE42008
C204292A
FA13B4FD
161DE10F
E6F5FA0F
D830080E
360418ED
E1E737F3
BAFBF5DB
1908FA16
09F439ED
3D02DD1C
E207DCF9
E7D83AEB
1918DD0E
2BDE08F0
D0051805
FBFD0816
1134342D
02F0F909
49DADC1E
27C1B7DE
FFFF34DB
00ED23FC
1EF77E02
12011C10
1930632F
FEED0F11
23F3FE33
20F6F213
F0F6ECF0
E60BEEFF
14D6E3CF
FBF6F7CA
292D26EE
ED0EF619
0E0F07FA
05D00326
EEED1242
2824E421
DEEFEB27
13F31E0D
03EEEA0F
14F9F6F0
EAFA20E7
F702EDC6
E305CCE4
FEFCFE30
06D216DD
FF0A1C02
FAF50DEE
210CF417
05F9ECF4
E404DD20
10060B19
F41E0101
EBFBE121
1B140F14
FF0A30EE
1BF0E6EF
CFE00EF6
FC0A00CE
FD06DAE9
1DDBE70B
2EFE0A35
FF0FDC41
04E309CE
FC0606EA
E1EEFD0E
EA1FE0F1
0BEC13BA
0EF40D1B
063215FC
FC063130
E91A00F2
05E42103
22D2F005
EB091711
EF09EECD
0AD806F9
000412EB
E8FA012B
F3060E0A
0CF10F02
DC05ED1C
DDF803E8
F412091F
0323D7EB
1703D619
F932FDFD
E6DF2901
1FFE2BE8
E8024104
FC40ED3D
2AFBF416
F1AD35EB
14D307CC
EDF9EF31
F2F213D5
EAE6D1CC
1CD438FD
EAF42CF4
061CF91C
EEECEF0A
EDFA0D1F
4B14162B
EB26D1E1
0C591A63
F900FD1F
F50102FD
E217EFEC
002B0429
21F0EB13
3F1D06B4
27DF21FD
15F70D22
F80DFC13
332CC259
1DB8DE02
CC1A3912
32F1E106
0FDF03E7
06D8EFEC
1BF44146
EB16FCEB
F1CCDE10
373034E9
07F527F8
D2F73216
0A1A2E03
F0EC0B9A
CBFDEDFD
D1C2DCFC
190DFA3A
3F292314
00F31E28
FD07D229
ECE30EFC
23D9ECDB
FBEDE713
1E0AF1C9
A6C40E2A
E3FD11F3
CDFD141C
01171308
6815D7E6
DDCAE739
040DE50D
1B0A1B06
D1F033EA
BE300701
0115BC0A
3236C7E5
E3F7FE0A
E6C60C0C
F3270ED9
101A0C09
F7E785A1
F9E50AFC
010A13E9
1E2D11F2
E4E51524
096E10F4
331AD9C5
D1F00FB4
080E15D1
0CDB0EE5
16E5F100
FCF8040A
0305FCF1
0BF8D3DD
13FA2CEE
100B17F2
414627BF
DFE7F712
00F6040B
28F91802
F811F2EA
D5FE12AD
F5E937DC
27E7D111
DFE8E80A
E7DB0710
250611F9
110F04ED
F7DDFAE9
AD0C1EEA
0014F303
1EFD1D00
2221DCE5
02F5FE02
F0064024
EB22FBEF
E80E2C38
26B50916
C326419A
E3420FDC
03D72100
E90A0B07
B1F2EC0E
ECCF1202
FAF5FA1B
E1ECEB0B
0CCE12FC
E626EE10
C83BD119
2EF4030C
DC1AAD56
FD16F7E8
FC0B11E5
09ECEDEC
C6F924F0
FB3203F8
EDD01EC3
F310FCE3
0C031322
2F43C1FA
F6CAE92D
04320A00
F908EB13
0D11810C
E902F2EA
1C1620FC
F11E15FB
D90A29D8
04D030F3
21C2201D
F124E019
F9112FFD
E029F5D9
120D32FD
ED00EB08
E31F95C1
3300E2FB
AD1BCE08
0B0CF41F
0418E003
0EDAD2EA
1411EA30
EFF6DA3E
0227170C
03160A0A
E9F42CF8
FE08FEFA
0F15C338
0A00E70B
0BF02E27
0DF9FDD7
1206D8FB
0E09F0F5
CF03FBE7
210EDD0D
DBF331D8
041CF31A
08094CFA
0DF80EF7
0A09B720
17F3EDD7
20DE471E
FA04ED05
F022BDF7
09D22EFE
01D70FFB
0EF61121
FBE7B8FF
F3FCFE12
2419F80C
EDDEF714
15EA1B04
090DF41B
CD2C0AF5
FE11EF1A
0BE3C90F
F9090A1B
06F24F46
E801FE12
F52EE7F2
0505F6E2
FC05B108
F22708E3
0729E84B
2CFC2B14
E136EAFE
041DE52E
202EFFBC
F8E4FBDD
0B0EE408
CC2105ED
FDA7EC1A
E4FC0A37
FF04FE12
E0FAF516
0DD81A10
EE044044
CDF110DD
20F7BD01
DB0E1BCA
D10F1703
00071302
B1E42CEC
E8CFF414
F6E2D1E2
E9E62D0F
03DF21EE
FC0AE20C
0A14131B
150FF801
0E05E911
F8EE191D
DD18FF0F
161E2BA5
26F0F5D9
FAE9DD01
10FEED15
FF00DE07
15F3FD00
ED03F4E7
14F806F5
171FF7FF
E0F11410
070BF600
E901142A
EFFDDE12
EEFD1AF2
FFD0EBE8
05E810F6
F7CD0D18
FEE9ECE7
1E0B02F5
F71E03F0
14FFE424
0DCB10FB
FFD7E3F2
FBFEF9EC
F1F3FEFC
210700DF
FE1428FF
2CE6040A
E0FA3103
39F3DB3B
062A26D7
F0FA0B10
D3D6CBF0
FBE2E7EE
FE310BDE
DA12ECDE
EA39122F
F1CC112B
25D22B5D
F0EDF40A
FAE8F332
E2030215
16F130E4
E0F0D426
1D31EF28
9600C6AD
26212209
0B141E3D
EAF9DA00
F91908F4
FF3B0046
1FD928F2
3EE1291E
5B00AC12
E438060F
02B1AB07
16F02118
FBDDCA07
0FD9EC2C
0C46F933
ED2D2FFC
E1D41C24
E7DFE000
EF461413
CE060BD7
E62EDD1C
E028F902
0D1212DE
FF23F817
16D5F91F
1A24EE22
1C12DD15
EB050CFD
FEE02199
350B25FB
484120A3
DFE71412
B7752AF4
15331FD8
EF233118
C1E9E7D0
FCFF015B
FE2B391B
ECF9D905
F4C6E70A
1BF9CEC3
0EE02E15
DB29B411
D1EF2ADB
F506112D
04E9D918
C50E01F7
1EE7C41C
EE14400F
FA0702E1
EEF621F4
ECE4BE09
CC0FB6F6
19150119
DFF9E41E
0E06FC0B
ECE3FB29
FD106C2B
0316E613
07EEDBF0
0DEEE4F7
071D7E07
03F202E2
05CF77C3
54F02615
03EA4325
F0E110F3
E6E7E50F
22D73022
21D08118
190C1105
DD168114
CEA01E23
F8E1DCBA
0F02F339
F10C06F2
EF51E7E9
2EE402E3
1510D219
FE067EE4
20EFD2B1
FAE23A0E
F206020A
1620D004
EA20E2E2
18C650FE
BF0436FD
1204E007
2FECFD08
DAE67EF7
010E1BF2
D5027EEE
7EF00802
EE321819
06FDBEC4
05F69605
72D02DF0
F34DA201
1FECD806
E54235F2
0207BFCE
070F81F1
E0092B17
FDFA7E0A
EE05F218
0F04E634
27F9E928
01FFD5EB
C733219E
2400761E
1608F7DF
1900E40C
14190A04
E8027EFD
E7C8FEEA
F7C23816
D4E60DFE
3435811B
F805E311
461D14FB
08C2D889
FF00B233
1902E71F
F6BD14F1
11011BF3
FC0826E3
F90C22F3
D6011015
F6EDCF2D
15291A1D
F334EA1D
BB1DC803
252DFFEC
001CD039
0802D124
13D0270E
00E9F937
D4E7C5E4
C1F3ECF3
1623E51F
3FE403BD
08EFF70C
FEF00365
1509F2B2
221DF61F
DFFAFFCE
0FE014DD
F3BCBD1F
FC120A00
02DDC22B
1D16EAF6
CF25E1F9
41310E37
E0DCBB23
360A2C03
DC0D0F0C
0E00F3F3
13F6F8DA
08DBE104
F8D02812
19FCEF46
F7F2F3E5
1C291305
F5E6E2EC
E1F02621
CFEF3DF9
051404F4
D4FF1DFF
D2E6FEF1
24DAE713
F906F3E5
1332ACE1
E4F7E6E6
10D4E300
E7F4F4D5
F2DB26F1
0115DFEE
0B0600F8
E60AF939
D4FB3716
2404E400
F620DB00
0C28D2F2
FA05F113

