EB2DD525
B4D2371F
DA155D4E
18171021
E00110F8
38D816ED
BBE9CEC0
022F224E
88C88C49
083906EE
1AEC1EDB
7ED1D01A
F3ED250C
21E4E9FB
2EF5F6FF
F41ED727
FFF7FA32
5AE9C91A
FFCDE598
C51B1C14
1BEFE7F4
2AFE3BDB
EAD33C2A
7BF00926
FE0F01F0
7EF90BF8
F20A2014
E91EDFEC
0DFC29C8
1303C630
39101402
07F5290C
0FCC11FE
531EDCF8
D31BF7F1
DEE50929
2C0D0CD2
F1EDE014
DFF3CE1B
D7394221
FAEEB3D9
100DC9BE
BCD6FCDE
FC143443
E9F31301
ECE82004
0A0134E3
FFF3E9D8
F818EDF4
01201AE8
06F01BED
E8C0F92D
EFD74CE4
FEE4EBED
F9262809
B2E9FBEC
191B20F6
E406FF0B
0E9CF415
C4F4D11F
FB0D0317
C53720F1
E0EEEEED
05FD1A45
0FF222FB
ED040FFD
1A12EA24
E7E0E6ED
2EEDFC11
15FF0309
0C2707C0
0B4ED9F4
37162A00
E6F901FD
E6FB1702
0D00160C
E7FB09FA
F22A0004
0BFEF81B
0712DF13
2B2A07EC
08E2F10A
E3F71741
0ECACD33
21EB0A13
D707F719
CAEA3808
ED1D0121
01F00DF4
2DDF0435
20FEE3C0
24FFFA0A
CFC6D831
02C8FC1A
E4E6E722
FCF5E7FC
EB0EFFF3
24F3EDEF
27C0D4E6
1F162DF8
FBFF16D7
07FF111A
0307DDE9
01FF0E1B
124801EB
01F93A08
EF170F42
CAF0254C
12F51A16
D508C1EB
14FDDCFA
F5F3FCE0
2706C303
080BD5E8
C9E9F60F
E7193212
001F2CE9
19FD251A
F107FCFA
EE0E0C0D
E9FC583B
1B0B0428
11220F06
31FF0503
EDF9F9DC
FF15FB18
F817D608
25AB41E9
CF181428
45100017
4FEBD3F3
22FA3EF1
FD26F1E4
CC0324E4
F902F1F9
0933F1E3
F320F91A
E6F924D8
D911D1E6
17FB0EF3
280AD91C
14F7CFEB
00F4DE1B
1CF1EE04
233342EC
5CE90FF4
08DEE21E
020639DB
30F00FE0
D9F041E9
15171B3C
03CCE50C
27221C0E
C6D9F0F9
04F4F001
E1EB4122
FCE523F9
3AD3B032
ECCF06D7
1B0DF4FE
C9F41D0B
0729C7F5
FBF2FEFC
0812F20D
0ACDC8FE
31D92A16
029E1037
1828C610
FB252616
F7120EEA
CFF9DDFA
DE1BEFF3
36283BF3
E8129EFF
E021F50E
AC0A152F
ECC5160D
1DF20606
0323DDE9
1CFF46E1
EC10C9D6
F11FD408
251CEBEC
02D0D41C
112116C0
04040709
15D3BB25
24CFE4FB
1617D5F8
EB06C8F6
0BE01EE2
13F00709
FED4FF11
F3DBF4E3
DAC0FAF0
20F208F1
F63127E0
E4E80714
1F0609F6
09071BE4
0ADD1308
111BE628
FDBB1622
FD24A920
E60B0515
BFC0F612
0910111C
FAEEF745
1DDEBFF2
28FF1A02
EACBB416
DCEE37FD
FEDDD3DF
EE314D43
2CF7E80A
10F03235
B3D74CC9
EA0513E5
1A13F831
332E0E03
E9D715EC
1A1909EF
CE1DFDDA
1407F831
0B1CED0C
ECF726CE
1A1A1713
E0FCF403
0EDBF0F0
17F6F919
F6E30815
2ED716F3
1CE9091E
FEF70C0C
ED070105
E907ED3A
F122F52F
0815DA0B
2B0509E7
14F70607
D515C611
2C0A04E3
CF3AEDFF
0FFB362E
EA3FDA16
FFEA0EDF
D01DF5DD
0C53E7F3
D5062F01
FC9EE402
E300FADD
DDC7F233
F2EC000B
0E16FBEB
051802E6
FE11181D
0D13FB1D
06000C0C
C83DE0ED
09ED1C06
F408EF1E
0CF8F51C
FAEDFA11
F62A0211
F6071B0D
E7CF0EF6
CEEB14F0
F911FC12
E6EAD7D9
0812F708
DFFC0CE6
01FDF40A
13010F0D
0E05E7F4
EEF508D8
11121CF3
DEFFD9F9
F0F7EFEC
05F2F8F0
FAFAE4D7
B9CBFA28
09EAE7D8
E1EA01E0
FD2C061C
2D1D14E6
F7E112F3
FF0B200B
F8E0FBEC
CD0F0E0E
10211CF3
241006FA
F2F73C0A
FCEC0304
18FCF4D8
FE1EF31D
FE05F0FC
261FDB10
FBF5E60D
F92B0BE6
0DEFEB1F
FBFBF0D7
FD19E618
07FC08C3
0BF5EC14
F60009F2
09F6FE2E
1E25F72B
05F7100E
160FE613
04FDE0EC
ED2012FD
FC0ADD41
2F1C0A2D
F9FEF415
FE17F9EB
15F123FD
F7FCFA1D
08F4F50E
EF0D3C13
FA2CD918
1909CEDD
0CDB050E
BDEBEEE0
E6C108FB
2C08FCD8
DE1C2EDA
1936020D
F2220CE3
29EF36FC
FD2EE2DB
39FC122F
F4F82202
0A1C4109
3BE90D10
D7EBF522
10040BDE
102A2DEA
28EAFBF7
26DBF8F2
08111609
0C23EC10
00320304
F2EDAD03
13DA05D9
F53A42DD
E531D209
F923D4E7
FED1DDDC
E2FF05D2
030EEF21
2E130EF3
ED2306FA
2EEC0AE0
0104322A
0EE00205
D6FFF723
D7D1ECE8
39F4FEDD
0802FAFC
17E70909
EF0F272A
F53013EF
04E016C3
EFDC2CD9
F20311F2
F7EACD10
C7212401
F6C2184D
220DF30B
E1F0F416
D5105610
1B23DE23
DCF113E6
1E001420
E85718F4
E3C5F9FF
030FE340
E60B0A08
E819DAF2
C794DDE1
10152E04
09F7FCD8
DBEEE605
E4EB07E2
22077EFB
210F2A16
19F108F7
F106B807
C5B336F3
26E1F02C
341732CC
EF100634
1CE3352E
FEEF0AF3
3D10F01C
12181B49
EC0D0834
7E2C21E6
F82A0718
EEE8BFFC
C1C81BFB
F1E60062
2744D907
17CD0CE5
BB0B1CD4
250AF2EC
FFEA0D31
AADEFFDE
E6F616CA
EDFAA7C3
13080CF9
F3BFF1F3
2BF813F9
0BF2DB32
07C711FF
CF0833CF
0A28E921
DF05470C
2DF71E23
DC0FF12E
59B940AB
F5EBECEE
5ADB01FF
290DFD11
21FADBEA
FE0100E6
32E9060D
D80BE1DA
06035AEE
0A06F3F4
E80EFF09
991F17EF
2E2EEC0A
C04008FF
03F5D8D9
301A41E6
F603E60E
FFD626EA
E80ADAF0
130218FB
07D22AE8
07EDD917
3C04D4AC
100624D1
0924DBDC
F7390CE9
EB290FCF
EB320BD4
09F8F7EC
B2FA1D0C
EF1106E6
2E04C2E1
FD1CF909
E6241108
E4F1E715
810C0EFA
DFF507FB
7E1EFFFD
07F8F704
5D08E7E6
1B20EC0F
810A15ED
F0F1FB09
05F204F3
021402F8
81F4113B
F704183B
81F5FCE9
2313EF09
7EE0D5EE
3BE4E74E
8914FDDA
F02A050D
7E373FFB
FEE1F4F4
81E9E0DB
17C41507
7E0C060D
14F6D0FD
862AE601
1EEB080A
81FE050B
DE03F917
81FAE400
F4EFFAE5
81BB230A
10FC17FB
4DE2EBEA
1A021705
7EF705E9
E45709D0
F9031317
ECFFEF00
97D71208
DBD41623
58E8EF21
0405EA0C
7E0D0A02
30DCDE34
8FC9FE0C
00181308
4B0213E4
06EEF90C
8113D80C
E21FB6FA
4E1F0A2A
E81CD7F7
81F821F0
FA04091C
7E110505
EDEEE00F
78F60801
1CF0E2CD
F5DAC525
FDF9F617
10EA12E7
FF0DF300
020C22F9
CF2B26F9
FAFA06B0
01EF21E3
09E1EFFB
1DDCC7DA
E826F935
C8F12307
120AEB26
ED08FAF7
EF0612ED
BA19FF5C
D0F3BF07
27E0E332
EBFF1A95
11FB4A2B
0E17B110
CA0E48CF
27F63B12
ED12E1F0
D7080AF1
DDC8EDE8
27E60C0F
01F71BDF
FE0611FC
0AD82C0D
18F438F4
37E7B537
0F071F0B
03D10D01
0FF0BCEF
EEE514E1
CBFCC8E5
00211205
F3101F0E
060D2CE9
25351F2C
003DE2EC
15EBF201
410AC812
0618FAE8
1B0F052E
0EE1D4F5
B31BF512
F612F21B
09FDE826
D31D1AFB
09F82101
05043CD5
FED53B19
1A00FE0C
D6B9F545
ECF706CF
F3D82119
1800E51B
F4EEFCFA
0BF333F6
05F019F9
09C50C01
1A0D13F5
B1F9B003
172D0724
F4B6DCD7
030A03CA
141BE42F
ECE9D22F
0A1131CB
13310CF9
0A0C4DED
42C7FEDE
FED012B8
D73D01DF
C103DE09
1F25E339
0DEE17D4
9DDAFA46
52C2DA23
DE1049FB
B9244FE8
F9F2F238
7EDBDFFF
FBF91810
E6F9E612
DAF1251C
F021E3FC
9A041705
03D90FDE
1CF317DE
22CF072C
24CB0462
E7F7CC9E
DF282400
81F8EFE6
2C0822CE
ECC4DE10
CAF3D9F5
ED1C2D06
C7F1D81B
EB44E6D1
142931A6
6AE51FDE
23F11518
28B6E22A
D12540F5
811A23DA
21CE140D
13F30001
21F62EED
50181501
2F9FF3CF
4F2ADBFD
FBE3FCFD
2EF5F7F6
624D44BE
FEFB021D
E6CA1F30
4049F80C
F8D1FC15
0C3CD818
161B38FF
044C08F8
EBEC1FAB
1412B90C
D1DD09FF
C5F939FA
DFCFEA16
F20A0919
E0E60E06
15112AEF
07D50AD0
2EDD420E
020EF521
EDF707EE
1301EBE7
DC0215DE
1F1EFB16
3A25F32F
F1E41E15
05F0D6FA
2816ECED
EA17F60A
03FEEED4
E012F219
08F0EDF1
FDD413F7
36F016F4
D0FA27F9
7107FFC2
20F1F34A
FDE7FED8
CA10E80A
180F07D3
27FFE810
08FAE60B
1EF31323
192AE027
07F00EE9
DB03220B
DD00BF11
2DF9062A
09AF13D6
36201DF5
34040CFF
F0641B1D
E9ECED1F
01F3F5FE
E0ECD2F2
DFE3271A
CEF6E9F1
F8EEE2FA
2401FEF9
22F0F407
08E944E3
BBC8D3F9
1737C425
15F1D100
FDE71812
FB001806
F7150A07
F602FF19
F4DBF8BE
0601F50D
05DB1710
0D00EFCC
E510F8FD
110AEE19
1E2127E6
FA73FF22
7E42F1DF
32ECF7EA
84EB0CEF
2719000A
09FF16FF
19F4E3ED
C6C10428
22EF09D7
7E0DDD0A
0DF61FFE
21B4F4D0
EF03E111
81070409
0BDE02EB
1517C3FF
2B37ED37
7E2B10DE
D4F9F20F
7EC60BF2
2903CEF9
A70E0223
07F2E1FE
01CE1A3D
DEFF02F4
54D311D8
38D9EB24
8D1BD031
E3FF0118
D40D35FE
323FCB45
8F591AFE
05F422DB
7EFDD412
22D311C7
181DFF18
25F21321
7EE50408
D6D10102
7E2C080F
EBEFE50A
7EE8EEF8
55F4FFF2
7EF50700
E01818D0
39F5E73A
F1EBF401
B905FAF1
C9063BF9
74E6DA1B
1325F4D8
BB1EF342
EADEEC31
D5602315
F9E7D5FB
C81B44FD
F3F321EB
ADF0FC01
0CD4FF04
81EBCF22
160136D2
7EC6EBE8
3EEF00ED
7ED9E72A

