071F0454
EF07EEDA
27080D28
091FB7FE
25F5FEEE
2FFF3215
0D18F7F3
05D1FEE5
81C52F1B
2F1DE1CF
FBECFA16
F9F3D9F4
50F412DF
DA2AEF06
E52D1106
0CF70DE6
0BCE445F
E7091CE2
CAFD1916
0D1819DB
CE361DE1
E9F609F5
0ADECB43
05487620
16140BF1
05EDDFF5
D4CF1F40
59FB2D29
F20405D2
1F102A06
D22606F5
E3D32DD7
4E0F07FB
32CC1C28
E3C71DD3
00E64B16
32EA0705
111D1D25
2DB62549
21EFD712
2CE3D325
F0D3DFD0
D7123532
3F41F3EC
D7160029
0AF021EC
231B0440
1CECDFB7
07FB04C2
E029D0DE
140CE9DC
DB25E7B1
E3E40B1F
25152E0F
D6F909E0
FDF5D26B
F008E536
1EF3400A
12E90BE8
CBF28115
3ADF1EDF
2200F8EE
FF27D401
2F0320EB
EB2C06C7
22230FFD
E2FDDCD6
F112F1F9
F6F7FAD7
FCF20601
EC33F207
DCFE2330
1FB8E33C
1823232E
D9FBE7F8
25EFFFEB
F2FCCB00
F607B33F
251D15FE
F90F32DA
EA0F0078
DB0A27F2
00F7F428
D114DAEE
2BF1E9DE
D9DCB3E7
49E0F1D1
2A272CFF
D2D91FD6
DF2740EC
DFE01208
1BEDD618
0CC6D81A
C0ECAAB6
EA1F0E08
9A00FB28
EC07FCC9
3823B329
0019E02A
B2C9D514
28E41A37
FEC10602
08150517
FB06D8F5
F412EAE5
08FCEF20
16EEF61A
9929EED0
F1F2010D
CB03D7EC
0A1106E7
080301FB
1512E8EA
09EDE2E0
4B274C01
291927D3
150E2503
2FF8EC3F
04A8F7C1
19E9230B
FFEFEEFC
15E300E4
0620001D
070AF5F2
F0F1F818
D51A1B2A
001314FB
0E05E8E8
FDFDE713
0A012DF4
1AFA0F1F
2C006AE7
FAEE0407
2812D506
1819FD1A
1610FF1E
2C10C6C3
0543E8EE
DEEEED73
F51B8105
D2E21E02
EC171802
0F18EDBE
01DF1413
F32C13F8
E8EC0829
EE31F7E2
14D3FBCB
F8170AD3
EE244914
E80FEF12
0C58EF1C
0EF5E8FF
13B8EEAE
21AD030C
D1FEE518
F21CD259
DC31CCF4
39184934
1A0E8829
D9182E12
26151126
F315FDF9
F20E18D7
06F9E955
ECF722E9
21E321F3
CB210301
0F19F319
F011D9F5
F4AAE72B
03D901CF
E8033BAA
1A9B1831
43FD490B
E4E3BF25
FEE8BDE0
47133DF9
02EDD801
3AE2C8E1
260C332B
1DF7CBFB
F7E5FD2C
04FED511
F1211217
250DF005
25EDEE12
22EFF5E4
E13AC8E3
034458E7
F9FFF84D
FDEBF31B
1247E4F0
DC1534FE
FA161CE7
E216DF07
0FEEFA3D
A32C2820
EAED1FFB
FD0E21FC
4DE014CA
0DE919D4
E0FCE2F6
12DDF00B
3CFF0606
34F535E6
19E9F5F2
C7D4000D
E4E114E4
D1EED4E3
124111FD
C22B0A12
D822FDC6
11E4F8FF
E7CB143E
F8DE1C00
20E4202E
0EE2FD33
2215EDD7
35FCC3AC
F2EE03EE
06D9EFDF
F8FF00FB
A81C2518
E6F82E25
D615AFEE
25F4DE13
27260A23
E4F9131B
160802FC
1109020F
150FCEF2
28F50EB9
E5C0FD0B
3503EAC9
FA4AF723
2A0F0607
030D0C1C
29162507
BE31F1FE
F9F313F8
07F00BEA
DDFAFABF
14C835F5
2A5510EE
F91D32D4
F9EE27F5
2648CAF6
EB450AB0
0F24C241
E110ED36
04C6E91C
FF0FF9E0
D7CDF820
F5180B29
D718DEF9
CBE7FE01
ADFA2009
0E2D1010
0A0A0815
05F712EB
041AE609
02FCD5ED
2708C92E
2FF8F6DA
08D3E23B
18FDF813
3AEBF915
FA00E2F2
2400B216
04CC0E0C
DA0F0623
02060635
33F8E402
30200424
DCC4EF07
270AF3C1
25F3F7F6
E1F33A1E
EC1BD206
15260818
E70A1F01
301102DD
29FAE305
0805EBD6
E21B0BCB
DDFA27F2
CBC9F50A
26F41DEE
FBDA0D08
02E1FCEE
F7D848CE
021602DF
3D1B1ED5
16F3FFF5
222A1139
0C06FFE0
EBFBF423
0B15000C
F3C0101D
270FF733
C20DF913
3516ECEF
D6EBFB02
F0E9025C
D2180E0C
29D7FCFF
F501DB1C
F91506C3
10A62D2D
08EAE3F0
0D03E7EB
34DA01DA
CC00CF07
481DE6DF
03F2DAF0
15FFF0E3
0FFF0705
17EDD713
E10CC2EF
EBFF4CF1
F6E61013
09041301
D0FF27FF
FE28FD05
D84DE113
1515F806
34D5DDE8
FC02F325
0320D11D
D513D33D
3410FDE8
D8CF3014
DE403010
F2FADCE2
E3C2CB4D
EA2026F4
35F3D752
EB0E301A
E4FECCFB
31CA011C
1DEA321A
C3C02A00
09C413B6
DD1CEAE3
4D16DB28
DC0AF10A
00F5340D
1DE016FD
F5CDD520
32083DFE
1DDDF6DA
CA06F717
D42B1D29
F134EA0A
EFFE11FD
EC5521F3
DF03B8D2
38FA044C
FA29FF0C
0B21CCE8
DF0B1034
F602D2F9
CB1212E5
CED4E69F
08FBDAD6
FB00F4F8
07162843
E7D7FA1C
BF3502C4
FBE3DE30
F71937F1
04301250
0A45EEDD
F8F25FA1
E300F7EC
14D7DDDB
F50710DB
E90F111B
D1EF0532
062DDF33
450DEA10
09CE0B0F
0420DFF1
1FCFCCF6
20162409
F4E02BB8
2FC4B0FC
CA0829C2
A923F0BC
2BBEC7F6
0C22152D
FF1CDE1E
CB22DA1B
09FF18E3
EF10F8F9
F5301EE3
F8FF1503
E1EAC8F1
10040D24
C32300D6
E93424D2
FCE6D9B9
28D4FFEF
00D31024
13E522DB
1AC3E6FA
E916DEED
06FEE6FF
F04A0AF9
031E073A
ED3E019C
D0F614ED
FB16B2C6
110C295E
3BBFDEFD
05AC0754
FA02E5FE
20D8BFF3
E3F2CA02
08CAF800
D1D320ED
E2C610D4
D100F612
0B081609
1328F8D9
13C248FC
130B1400
7E24CB02
CE1A0BCE
E7E5FDAE
F9F4D912
CBF7FE08
FAA00007
0110080D
51E92413
27F8EA00
080223F7
FCD02808
9A12EB04
E7E271FB
1701E2ED
2D3123F1
E51FE510
31DFC4F4
ED01290A
0B16220F
D6D9F8DE
07FCF9D3
F2EB2108
05001E23
3BFAF616
F2FAF2FF
481C0105
0518FCED
ECE1DEFA
0A08EE1C
00F30B10
0DF4F7F7
F606F4EE
FFFEDFF9
EF120B13
F80D0201
3011EF08
04FB0C06
F10A04FD
0D041D1B
E9FCFEFB
2CFF1715
D9271838
DDF71E2F
F51707C9
210925C5
F7F12CFC
F0D8C8D1
24D80DE4
DFD9F30C
E000DACF
E3200424
CD3226F7
EF07F801
FDD70C18
FFECFEF7
FCF3FD06
3C2FE015
E5CAFDD1
22020918
4FD5F936
0F05F1E9
EF0507D2
E2E8E2B8
00E5F240
45FBDB21
FCE309B3
114D1DC1
EFF910E9
0BF926DA
FEFF10FA
2144361B
28ECECA5
F3042C0B
14EAEDFC
290816FE
0DFFFEE9
E21014F9
2FA72EF6
F10B0DEE
E3090841
F0EAF3F6
F106FFEC
E5F6D9F2
E5D9F63A
2632D4FC
16ED1932
EF111CF7
09F5C9FB
2A0DED32
01DF1207
C3F10C15
2E35ECE3
E405E223
F11A2905
2E130ADB
18E92814
F8EE1255
F91A16CE
EE97F200
E5FCEA28
001D0032
F90E31F2
0CF5F711
FC0BC208
32E80CD0
E70C29F3
E0FCE918
080314F2
1CEC19E6
011F0E01
5CE2E8F6
0424F913
C927F9F3
C217F5FD
1000F428
15150D11
F30CF909
10180429
0BD50C09
FAFE0D09
F5FBFFF9
BDD3FE11
1743EFE1
311FD81D
F8EEF5EE
140228DF
0E10F4EA
16FEEF22
FEF1EA3A
E0350607
E60C051A
D6252D12
06E93617
DD0107E2
0AF7ED25
042C1CFC
1AD5FFC5
1B12EE13
11482204
42E53705
120D25DC
EE2FFCD7
1128FBFA
190B29F8
EBE70D0A
E2232CE3
0C6312E8
E8EE19FF
FB46091F
0122FF3E
162B2C34
FDC9BFD9
FC0A31E6
EAE3F225
14132594
0AF53BC6
2217F2E6
24FD5DCF
2AF52660
172A3201
EDDE2411
C5F523FC
0A2E34F8
F7F8DB92
35D5E029
1CFE3C30
0F09FCEA
DC0CF201
D513FA12
E2231A03
10E95BD5
1AE4FD29
F113FADC
DEF9F2EB
E40AE3F9
E5F4D3BF
03E22214
21D35CEA
F4B62A21
1C23CC03
041A2009
41FF27D0
2609E4E0
E7D9A017
32072201
FE1F1004
DBC817B2
09F40B3F
D91225DC
DB1F0926
FF38BBE1
EA042F03
3B2B0EF7
42D6B21E
3D0AE722
F7E4AFCE
FF320CE3
D7DC52D4
C82716EB
1FD8CAC9
B11F1752
0217E002
EF263A99
1AE5F4E6
9AE60FF4
E6C5CEE3
F33938D3
F0FDCF51
FF2E0628
122312CB
E1F4ECEC
112426CF
D3D709FA
FEF6F8F7
2210FCEE
2CFEF61D
53FE1EFE
F90FD2EE
23092731
2706DBE1
FB0EFB09
E0DBF5EF
18E20BF6
D923A126
1EF9E6DF
3A0DFD09
E111F8D6
E909FC22
35F4EE0D
F90D18F4
03E411FA
13F742DA
F6010A0E
ED1CF6F1
1301030E
F40C18EF
2823EE3D
113BEC01
20FD05F8
F4EE25DC
17120B25
F6260BD1
165FE2D0
DA2D30E6
D1F50823
031EE119
33070B16
1007E500
2E30E40A
F0D5F91D
D610E8E2
F3153FFD
F811EB26
FA0A2BE6
2524E1FF
DD19960E
FAF4140C
D2F9BA03
D4FAED3A
0CF53E1B
0B0610E7
F6DDF1FC
FE11F600
1EF80BFA
11F61CF0
EB30F011
25001C19
1E0B1F0C
01AAFEDE
2613F4E6
01F506FD
0802ECF8
F6D4E9E6
24091B21
E20513ED
0BFA7E0D
0532E703
2DF6E801
05ED3EF2
CDEEDBF2
2AEE38EA
FCEA1A0D
1EE0F324
FB415904
DE1814E6
D4E4CFFC
C71FCDD1
E4EFB80D
F613EA00
EFF5E826
0EDFE7EB
FAD43E27
02234E03
F53028F9
C7102C90
FBD1333A
CB022917
F2E93BC7
19C3FCB0
DFFC0318
FE022638
1A0C1312
C4DDCB34
D00A06C0
F7F01916
F4072EFC
EE0E030C
47FFFEDA
E32F270D
0517E303
F21CE921
03ED0FF2
EB41E507
0FDF4AED
D7DC04E5
0AF2C700
EFBFEB22
FEC1EE37
EBFEE7F9
1F191427
370FFD33
42D211F0
DD05F505
0DFCD7E6
E70013FF
FABDA90C
DD07FBD2
1DE2B51C
DFF6EEEA
C4D4C3CE
18F218FD
D7F1F801
27C7030D
E715F1CC
E9E90C09
31273C2C
F3EE0FFA
35FEE7E2
F1E0A204
04F13028

