FCDFF0DC
D2090A3D
E2D20D31
E02BDFE5
BEBC0903
62CC012E
F310F4FA
19C827FE
0EFCFDEF
EAC8EF24
EA000F0E
0DFDF608
110C120F
033202FF
26051DF7
FF190900
0BF2C9FD
2F3FC2ED
1104EB10
EE03E308
04F3FCD0
1CE50EE0
F9F300C3
38DCEAB7
0FA42914
03D0A2C9
E411D4C7
17DB5F10
FD0B1FFE
DEF84709
21E71C0F
B3F5FB41
E4F51722
0F0836DB
D0E5073F
060A490D
DB0AF406
F8DBE7FC
250CFA20
3B26BF23
1A1EECF9
4C2F11D2
11EEEC13
340DD106
142A030C
140BEB08
291CD7E5
24E211FC
F4141417
E406000E
F50A2CED
E6F243DC
0C2606D8
B3C4F549
09021A29
2A31122B
EAF4C9D3
1AFE00F9
DBDCF73B
34E21200
2901EA19
DFFCD54A
15F847C9
DC0FBF02
18140D04
EC300627
E51EE604
BEDB02DF
FEF80131
272649FC
EE17CC16
0617E3DC
05EDF205
26FA5831
EDE12709
121AFF0C
FAF033F2
F8ED0DED
0D1BF2F2
2C4EF4E7
2BF802C1
F7ECE609
EBF30215
021A2AEB
0B090E38
EAFC1C1C
13EE190C
C016DCF2
0711E70E
DEF3DAEC
D01AF6D9
25110C0E
F2E70611
F536C6D4
FC48DD00
B2CE2547
CFF127F5
121B08F4
FE1A1FDE
CE04173C
FEEFC4EF
FC300AD6
DBF2FDBD
E3FE01FB
F228FAFF
BF30DC22
05CE27CC
071731F3
E50530FD
23F4FBE3
2DE4484A
FA1628FD
FC03D7FA
18FBD2C9
00FDFF26
1C1407FE
E0E3D92E
DCFD13EA
2716E2EE
31C7F7E6
0613DE0F
0B2AF837
E5F8150A
F7E50BEE
14CA0E04
F1C2F0A6
0EE702F3
3605E4F6
18C013D5
08100B2F
06FB0324
FACE04E9
E8E1FD0B
0BF4D3CA
1F10DB0C
F8252E11
B5FE1B1E
FDF20428
E214FAE0
1AEC1C0F
BBFBF6F2
0DCFD3CB
340D2F0E
F2000F2B
0D170FFA
1AEDDA18
F60DDFF2
0B11E5F5
1DFB04FD
E50CE837
01FF0EF4
D2E7333A
CE561D36
D4FE09F3
ED14A5EA
CAC8C10F
F5FA36F6
EA24030C
0CF1F71D
DC0E02E0
0DF23EEE
3DFADE1A
310813BF
FB391ABC
F0C6141F
12FDD4FC
16D7AED8
FD0BF9DB
E60F062D
0D28F1E2
11040C21
CD5A0DD6
42052DD8
178ED300
EB3D0FB2
1AC211D0
1A2F065C
08FA04DA
EEFD3716
F20B02F9
D0ED211E
000B1111
18EDF19D
EB012AEE
DB0EF23D
E400E4FF
0AD20120
CF150CF5
1F28E6E4
14F10E56
150E371A
42FE0921
DCFC4F05
0C09FCFF
DFFF18F3
FE032E2F
1CF5EBD7
E517FAF5
2F191527
EA31F7CE
D7F918E5
0CAADAFB
0E0F4216
323803BF
0413A339
1628F612
18AD2A06
10FDB918
031839CF
E3D11DF8
0900FCF6
AA091D1F
E45D0346
F4FBFF0D
04F6F116
F223EBD9
F5F6D922
27D1D6D1
E3F12809
C4D7F7FA
E514021A
31D9EC40
00F2F40F
0CB34727
0EDC093B
F439C7DD
FB20FADF
24190ACD
07F81AF8
09D62106
1BE8D60F
EBE3185D
01F003DD
F4F00C14
FA0CCC2F
42C838EA
21C80EF0
0629C902
F2F016F2
09F4E209
0BE5EBE7
13F201FC
09F91F06
CC0EFFF4
EFC21C2A
17F6F9F9
08143B0E
08E1F6F6
B9031F0A
494B0304
13D9F7EA
CEF720D8
14D800C8
02C504F7
3115030E
BC0200B8
EFE01B17
FC0E04F5
F206EAD1
D333F303
18F5D3BD
0AF8E52C
1CCA120D
F5C84018
FB023BF1
11EDE32A
03102CD1
0E363D15
D3F80CEF
312EE1E4
DF060AF5
2307C1FD
23F8DCEC
E719CD13
26DEF802
1D25DEEA
3A0AE305
3622F1FE
19FCE612
E20D19F7
DF021C19
FDF00DE7
F8EFFF16
D7FFF9D7
0F120A08
E2111D18
09FDFFE7
E5FFFEF5
19EC0F02
322D20FC
07CE060C
26FA14F8
FD0005F5
00D9F4FC
2E15EF2C
C4EE0EF8
22E7D2FE
F0E11D1D
FED7F102
FD0027DC
240628D5
D7F0EB24
13110EFE
0DF120FB
121BF6E8
131EDBF6
0DDE05FE
FF15FD0B
0F1C0EE7
0EFE4408
1F0316C8
19ECE6CB
EF0BDC26
06CAE216
06CCF111
09BBDFF3
FC1222DF
1C01F9FF
18E8FA0F
09F114F2
FE2F17DC
FDF904DB
F333080D
FD1AF0DC
65BD4AFB
1428DE01
AAE4BC14
21C835F3
10F757FF
D3234348
C111DDC7
2AFC0DE0
F305F33C
F1DB43E5
1EFE1DF3
D2BDD9EE
1711FE01
08DDC52C
F813140B
173CF2F8
AE0AE2E2
D020AFE4
CCC7AEAE
2009CDE9
F91BC308
F3F1FEF9
02FBF5EF
1A1D0101
F9160327
BA4330FF
1809E0E8
F50413DD
E900ECFE
EAE5FFF8
29F20D06
12E0FAF4
EEDFFD1F
4C491F2B
ED473D5F
C90BF62C
ED0CC41B
03CF4511
35A50928
0C0246FF
E3EFB1C8
FB08C40B
E0E6D3C0
0D13130D
20FFBF10
04000CF3
2234E1E8
C10AB948
4239DD0D
05AFECF1
CF09121F
0E39E040
D4F8CA3B
FBF1C9E1
DE25F6EA
F8260603
0CBDE4E2
1700F762
0525E9FD
E71904CD
F34FD81F
2A065600
ECF82E28
D32BFB0C
F6DBFBF3
FECF00DB
E62CF3B6
D8F4F926
FC06390F
FDE60708
4A251CFA
EB0902E6
2B030AF7
491619F6
0AEAFB05
C9EBEB3C
13011A31
F02DF8D6
F6F5F139
08B9BFFC
FBF70121
21FEF7E7
D4FCFDF5
32E00A08
04F613F5
D4F71718
DE185226
15CC03E6
23F0EB13
F7F919F9
E002FD52
DDEA052C
25F911EA
241F05E7
1D4522F3
2247FEFB
FFDAAC02
1130E1E3
F4D023EB
ECE2D9D7
FBD5FE35
24D7EC09
1CF6F929
DFFA3B27
FB21E9E7
FC13D921
0D22F824
0E360DDF
16F0E2C7
33ED04CE
EFCBCEF1
F126DAFB
1F0BD60D
FDEB3522
03001AF5
DA0517EC
12FDE5DF
F90E15D2
F91CE5F2
2AEA0DF4
05EEDBF2
20FDFBE3
C50928FD
23343F20
1721FCE8
E7F9E02B
16E8E11A
120135F8
EEF7FD04
039FF203
FC1415EF
0A1CF50E
14FFE6D6
0EFDC6E7
01FFE80B
E10DF906
F2172EEB
E2091CF2
19080DF0
15FE1129
2DEFECCB
140517F0
07D22700
0A08C006
DFF1FA00
0D14FDFA
E2F5FFE4
29090AEC
EFC103DF
24EFCFE2
01FAFDFD
0C0DF113
F711FAEA
E808F004
110D48F2
370E0A10
F61AC3E6
EAF5DAD4
FD060602
19FD0507
FD0EEE00
F71AFB19
1BC32AD1
ED171633
FD042CF0
CADF3335
20F60D1B
000A1109
DDF416EB
1F150600
EBE9C9DC
1AF6381E
DCE5F110
1710DC2A
1017DA02
3A00B7F2
F30932E9
133AF423
D5F50FB8
07E01B23
F4FDFED8
0FE00604
F92AFF01
E4EBE40C
1B00E810
F2050724
F4EEF0E1
F831DC07
01F700D7
D9040049
E8FAEEB8
DF1DFA19
DDF406F1
090101FF
FC01EFCC
EBF6DCB9
EBE8EEBF
E0391D2E
0C031301
11123C12
01DCE801
290F0E26
F911EFDF
23F0240D
E60322D8
10F0EDF7
E014D010
1817F30C
F5E912F9
1C091323
F9F81513
D90B1125
11FEF2DF
0C19250F
FBFD331E
DCF7FE2F
0A2FD0D9
DA180920
FCFDF00C
F2F8111A
01F3F21F
EAFC27E3
101719FB
1507C6EB
240AFD02
2CE7C41E
F8E805D4
1524EBF5
1E1403EF
0DE0E100
EDD5EB08
0A181401
113238DB
064DEFB3
16EE3100
0F0BDED9
0EFBC2F8
1FE7FE00
DDF1340D
ECF7F315
1CE107E4
0D04101C
FC0017ED
CC281320
0DF1BCFB
174B083A
22FDF60F
F12B0C3A
250921DF
1E34FBF9
E4F7C609
F5E9F0FC
DDDEFFAC
1BD53AF0
04D742D9
EA012F2A
05EBF009
F6DCF72E
10E8C703
0CD2FDE6
0D1015F6
E3D0F41B
ED33F613
01022F0E
B119DFE5
F7F7E504
031A131A
25F2DCD9
D2BAEFCB
F605EF42
D2470EFB
06CC1B09
7104ED24
AAD7DD32
FEF9EF09
15F5EB1A
31F4D201
4206F6FC
0A1505B9
4C2FF116
1C2D36FC
1B03EA22
211FE119
CCFAFB26
DDDD77C1
1C070831
22020BD1
1F0D080F
E62E3B3B
02D327D3
EBF139F1
FD1C1C25
32ED2DCD
EAADDB06
FB1132F4
03EEF9D1
07E0A304
185409F5
F6EE1DCA
5C00265D
DBE3232C
D504251B
E917369E
23DE2C04
1338F0B9
E9E2A736
E7E1DB0F
2BC9EF10
11D1F5DE
C4A636EF
FE28DAFC
12F6D309
F614E90E
2AF32811
22E6EF12
01FF1B0A
F21AF01E
DDFA2200
F6F912D5
08DB00DD
F841DFEA
E317F0C8
1E2E5E28
25BE21EE
F910F3E9
FC0806E2
EE320BF2
E4E9CE09
09391316
16EBE3F1
1610F0EE
0DDAD10D
FAF41AFE
0FE01F08
D6F11DDB
F6011106
0A132BD9
A707F80B
0725D82C
EFE01F31
C80F0AE2
21F528F6
EC07E2DE
04EC1EF7
06E53E2F
DDED402D
CC163818
19172A05
FB0B3402
0035FB07
F9140003
1419CCF3
0E191422
071FF320
DCF141D6
BBFA1E0C
040CD6FD
0902F230
ECFBFEE2
FDB0BEF2
27F4C9F5
00E1E7EB
0B07BB03
1F05F6FC
1217E60A
0A0713EF
0D0AF5D5
FCF608B0
36B70202
E34D0422
0CEADC08
0ECF0526
0B30DC16
14EDE70D
D73AFFE5
0EF5E615
E9061B42
EAEF4413
2CE7CAEA
0503ECDD
AF274F0E
5E18FD00
BDC0F709
1B1610EC
EF0036EE
22260500
F2270BE6
ED1D0B1B
0D0AE3B2
13E623E8
2FE0E3CA
212EBF1C
17F40B16
054C1CEB
1AD50CE0
D51101F5
D905F807
EE0EFDF8
1CFA11DD
C8070D21
2C200403
F41825F3
26141EE9
19652DF4
F2C8D7C8
1A1AF020
F50D2311
FC111A02
01F3FD1E
12D61EF6
0F100212
DABF0FEB
03F5ECA0
04F2FDFF
09151C1B
D8291FEB
18EDF2F0
0102E015
DEF50713
1F60F304
F5FBFF0D
18230916
07170B0A
E42B0A13
03E0E3D5
070B1A0F
FB09F511
EB120E1F
15EB28CC
DE243FF0
E61EDA07
17FBE5F1
E5150318
EF1405F6
0FF7EA19
13EC1600
00F714E7
4331E605
20EFCADE
291E2D11
23DB1227
E5F3E12E
1711080A
FC0AFB0B

