DCE0F01C
2FF827FD
C90FF537
0B06FF0E
B4F2DF16
BAF0001A
0CFA01E5
2ADCDBE2
04EFECEB
EBF70142
1A12F8F8
F7F6F902
E8E7181B
0DF3F418
3DEE26FE
35CD2912
F01E2C0D
0F0DD810
BAA5A729
1EF0F6F4
1209F1EF
F4FBEC3B
EE1507E5
1605FBD1
D8D70A28
2E143B2B
E12CB214
D4E6ED0C
0231FCF4
EC0BF528
064C13DE
B6EFC21C
15FFFBFA
E5541D00
CD07F9EA
07DEC90F
F742F1EC
F41BEB0C
F909B426
F0E83708
F0DEF4FE
00173E9C
C8A098FE
1FDB3824
E8CBE625
189CD704
2CF0D5DD
C50BC3D7
38F1FD29
2A25E5E1
3D0BE9F0
04F3DB21
3D41EC12
EC0320E1
2F172110
F10422F2
E0F30D03
E7271FEC
EBDFFC04
283DE302
F50D42B8
69D8F2E7
D239EF09
01180808
08FDF11F
36190012
2DEFFF05
030814FC
193B1919
03EE1AF3
8F24E507
DD0FEB2F
F209030D
EF2768FC
DF0F072B
F8FEF430
D304FF09
06FAE415
D60EF407
22F6F1D6
ED3CF5DF
11E4E9F6
F11B0BE5
F0E5D90A
09EBF210
222D1227
D41003E4
025519D7
BF09100A
FB21EED5
F11124F0
0608F3F2
C228081F
D9E714F9
E0ED091E
0D17FAF8
0EF0FF15
E9DBCA0E
003D21E8
1CFC21EA
65F001E4
FBDB01A4
F56FFCD3
F72C2509
FD4918F1
F20CCBE6
C10AF7F3
021F2E0F
D6CD10FD
03E7EBF7
34090DD7
EFF20116
FB2517FF
CDF0F7F7
31F305FD
0E1810FB
F20D0BD4
F8011227
EA28EEE7
FF2205FB
1D042112
07311326
FC0BDEF9
FF15FBE0
C82BC6D3
F100EBF8
01C3FEFF
0BF2FFF4
22F2FD15
E5C735DF
0307DEE3
170B0015
BF03311D
241402EF
FA04E8E9
F10820FA
EEDF58FA
22100E21
00F3D7F5
F81603F7
C214F1F4
08218114
10F345DE
F62B0F15
FEDBC21D
FCE00FDD
0207FF17
1C47D821
F7E80FF4
F8FD0710
FB0DF0E8
96FFE6E6
0C082BFC
D53CFBF1
400CC8EB
D2D633FE
F937FDFD
EB1FD9FA
1CFC03C7
FAE5DEE7
CE1824FB
0B17F6FF
020F09F6
5F2F03CE
22E7380B
11E01DEE
18E0E8E1
191ED80A
3300ECF4
BB20C0FA
F9EF5D33
FCD320FE
0E17D9BE
D60FE531
BC5A56FB
1337DEF3
17041509
25E80A1C
ED080A16
F9F7F728
09FD4710
E31CBEDC
10DAD722
19280FED
021D1E2E
05F4F9EC
FF0E1E19
09A610FF
17EF0517
F7F1EDE3
EB192201
D907EC0B
EF013A14
FBF2EE24
F5F75316
CAFA11F7
AEE01FF0
E9F4DCD3
0B20CBE5
FFE8DE28
030DF306
FA0CDDE9
F7FD1AEA
3718D037
F642100D
034B002B
20CFD5EA
250B05C6
0E0B0EED
11F2F3FF
410DEE00
200FCB13
32FF0FE2
EB27D0EE
E1BFD1EC
4B04140B
5F39F73B
11EEF806
B4E3D51F
17EC03FB
013216F4
0BF6343C
DD032DC6
F61A28D6
0DE34211
28F20DA6
08C0F6DB
0E0C0B18
F6231AFF
E4F3240A
D845F5D9
D5E513BB
52F8F214
1B10FCDD
0FF8432D
D03FFC1A
14DCBDCA
F6EBF713
15E8D611
F2FC0416
CD20FBF0
DEF8EA3D
E5F5060D
0B13C506
DF0CF2F5
DFEC18D4
EB0CF21A
0BDCE1FF
0307131E
EBF70E21
0F1C002D
3B26D232
091B0DFA
FF03CFED
3D2B371E
022BB211
1E30EFEB
FC020F16
10CBFBF9
E113FF02
190EC0EF
C934F8EA
24E21416
F811FBF1
F8EE2ED7
02F82AF9
F0BB0FFF
F4060AB4
023006BB
14F4FB12
0EF9F301
2D0419FF
0EDA0C15
0C2003FA
DECFD6FF
DD0FF9E2
1606F8FC
12CEEC15
F9E4181C
22D9ECDA
F50416ED
040CF411
09F0290A
09EE0703
D9FEEBFE
FEF4EBFC
11ECFC0F
22F3F7D5
09D70003
0721D7F7
CE13F81C
FB0CF625
EAFA1439
0625F4D5
DE511B08
0E12181E
02EE1408
14ED16FC
FE1EE6ED
D0F9FC07
12EAD303
EE1D04F7
F31E0113
1AF900FF
E9ED061E
F0FDF8F3
E90EC1DF
38E8E8FE
E2C621DF
F4F41F04
BF050AC1
B5FE094D
F7141BFE
17CC0120
FA34ED0A
FB10F0EA
1AFAFAFE
11EEEEEE
ED041D02
130E2EF0
F797F1DF
04EAE43F
0FB832EC
000C2BF2
2DFC09E1
F1FB2D3B
0421F7E9
F6E2F70D
F21FF2ED
3DFAFB85
1221D722
3FEEE63A
ED18F0F6
0E20E5E3
DF2BB41E
ECEAB8E5
04FA61F0
192EF10C
D3F1F203
181D09EF
0823D721
20ECF90A
0BD407E0
E0E5261B
DA2E0417
06CFEE00
E331EED5
FFF9DE7E
26F101E0
33EBF9EA
1904FA01
12FFD5E5
93FD1917
071FF1DB
D911F200
1303D108
FE2C3508
E90CE5FD
3DFD37C6
0EF7C502
D52CDBE4
E2370E0C
E031CF0B
0C1C2B0D
E70BE4A9
E0E5D6E4
FD3A0E02
EAF3F700
FFE4E510
E0E3DD0D
180C1008
F800C400
48F3C827
F5FC17F8
E8111FD9
43C23817
FF0602F3
3E0DEC15
0327870D
BD07DD4A
DFF80105
E2E3190F
09CE24F5
F0EC2916
E9043A0B
1F29E5DE
312FE3EB
C9470B09
180B3815
0028031C
F8E1D510
071F3108
C70AFCE9
DDFAD014
3805C30E
E10FDDF5
0A0211FE
F904F6C4
E21D4AF4
381A09D9
31EF050A
200BF6E4
ECF9FEC2
F6F90CF8
D8300AD7
CF2B0300
02AC1C1C
FDF129E5
01FCFFF6
FDFCD601
1606DFFE
3AC4CA07
F8311617
F3F8F107
0D511C0A
F0EECEF9
1AF30C44
EE05FFDD
E6221800
CD231CBF
C314E618
D7DE1614
FCF0040C
0C5F36E5
EDED000B
DBFD0CFE
D3DEE908
DED426CE
FB27ECD9
FCD60A21
EDFE181A
20E8CE1F
4402F401
D2EB10EA
EEC0362E
020AFA9B
FFE306E7
44EC42FB
2CFE1229
1FE9FAEF
1D47040E
EDDF3A3A
F604D1CD
3EF5DDF5
F02E0122
00140000
D13CFD07
02DD03FF
1EDCF60C
E4EAFEFB
0BDEE641
E4172727
F2210A12
EEF0FC0A
10F6D113
00E9F3EC
F1E0001B
1702CB23
1314DC05
F7E912FF
0B1528FE
D1C905F0
F5D2D302
23F2F6D5
E0FBE30D
0AE71222
2B31E93C
F0F7F0FD
F7D6F2FC
EAFA24F9
D502FAE1
16041824
F40F231E
4701F917
F11DEE24
28F71A0C
09FCFAFE
F20FFC09
F4EEDBF0
06FA0AE6
0001FD2C
F203FBF2
1EF8F1FD
002017F9
10F7FBFF
0AFF03F6
D7E539E1
250929EC
D5F4E62E
DFF90D05
0318F208
C9163705
0B00E6F9
F91AF014
BD0BC1F0
FEDA243A
1BED0EFC
091A12F4
0DF6F4DA
E4E512F7
0D0804ED
FA1BDB03
DA350831
20E800FA
F31A1808
0601041D
1F14FFE9
FFEAE1F6
1EF6F835
1C181D0F
C3E4CF04
DCE1222A
ECE3EDD1
F1FEE0E9
0CA60015
F32FFDDD
F418DE1A
F60111F0
FFDA0108
0604EBF0
241CFCE8
FF1DFB01
ED12E5FE
E8F41D16
40FB00F7
F7E80107
210A2B08
D408E20B
0A4208E8
0E25E436
E0FA18D6
2B32F6CF
1BDE0BE6
F5F1F019
C318FD04
E1F7FBFB
DE140BEC
07FCE8E3
C8CB01E9
3B1C031A
07E6FCC6
E52FCE0D
13FB2518
D009F317
01FCF713
0FFB1CD2
BFF9FF05
EE0EDE13
FFDAF002
E9FBD012
ECF7BE1E
18D2ED04
D8F310EC
F9EFEABD
0A13FFE6
F91B1C12
2CEC3D24
E6331DDE
29FC02EF
D7FCF610
C0C7F6F4
1203E92C
FF19FA10
17ECFE00
2B0AEBDA
11F9E806
F2BD01FA
E1C72409
13DFF8E5
E951E81F
08C3FBE9
F0E600F3
0FFEF2D9
D220F716
F724EB16
23F5F9EB
1E0029D8
A1F2E237
1C48DDD3
05FD46F7
FEEAF9E0
08FCD3DB
E82FDC09
16FC3BD5
461C39DE
A92A3622
081DE71D
FF08350C
9B0729E5
D5E4EF1D
19E4061D
11103118
D122F10D
EEDB1F27
FFDD14CC
24DE71CE
08EF0F15
EE13B5CB
0620CFE7
E3261AF7
33CDEB0B
EBEC0C0D
C61E1D2D
F34339E9
1ACC0306
25FBD10B
F7E646FF
EDEBCE36
A8EFC9C5
E207FFDA
F9F5DB0B
20EE1E27
2C20E949
E8EA38E8
34D3E517
16D3FB2D
B90CD840
F10E21E5
DC53FC1C
DFF8EA11
174119F8
C6F72630
33D9EBD8
F60EBC15
C525E6EF
E30BFB0F
0DF4FDE9
FE1D3318
C7E126DB
F7231F08
CA3C06FF
DEEE021C
09EFF31B
FFE118FC
FED1F704
0FF641F1
FCC1D3DF
18D83CCB
2AFB070D
F6182A06
1CEAF1E6
BA02DB08
F51EF5FD
100F00F2
EE0902F6
F1EBE911
F116DE55
E939D8ED
0905E8F9
F1DFDAD2
E1D7E7C7
0048F71E
EF280D25
28F70FFB
17F3FAED
F711D5F7
FD0FEF0A
0218E30F
FD17EB1A
09EE1C09
07302F42
03EFF6EF
04CD40F4
0F1848F5
0D0C0BEF
BA0E16E7
FB1704F7
071F14D8
E71C09EE
40CD2DD8
DCFB3E05
01E2E107
0A0DD7ED
F0F9F209
F21CEB10
FB07F41A
E123D9D4
F4E1FE48
120BFBFC
F738F831
B7E922DB
FFF73911
2DF3E020
EE05390D
2FEB0AF4
F6FF22EA
F8F1EB1C
DF38E1D6
EB0EEFE8
FC1B130F
16B4B508
FA04F1EB
E8DDE1FB
F8D8E8F7
2ECBE0C9
DC1FE100
FCD2D8F1
D9F533F2
F7110CC0
E0F206F9
FF3249E7
D1F1ECF1
06EDF2D4
010EEBD4
CE319BF4
EA4E1F3E
025E001E
3519D0EB
DAD70003
050F0905
FA0AED22
08E20103
E623ECFA
FDE6391C
F5CDA2FA
BFEAA322
371D0EE3
4E0BE4E7
D9F901F2
E71FDED3
EA04ECFC
FB17EC0B
FEFB2819
3E06CF1A
F220FB01
F2FAD8E2
D736F438
24F804F5
2AD3ECFD
0FFE27D5
09150744
0345F22D
BE2319F6
F4123AFC
1C1305F2
0C070507
BF1FEFE4
F7ECFA23
FD241DDB
08E700FA
08F8FE11
12E4C401
3C2DEFD3
E904C53F
1E330AE6
08F9DEE6
460107F3
D4E3E533
FD0EFE20
09E1EFFA
FF1B14F7
F4FBEE4B
CB37011E
CDFFBE10
2E000414
081408FD
1115E4E6
D5FE082E
F1EBE000
0822F7F6
03061E46
B72F04FB
0D2BFD01
A1EF1A3C
F8EFD9E9
02EBF8ED
09311B43
DDFDEBC5

