012C1D2C
F2116921
F93DFAEF
FDF01FF8
1A1AEC07
E1180903
0E3AD307
FD0E4321
00E93FBE
E9113A88
FB0D12DF
0A15F707
18D4F7FC
D12D7EF9
32D5FC0C
0003DED8
FF36DDCC
F9DAD9F3
D8343E15
47EBE109
02E1FA06
1EFAE53D
E64810CF
E4EEBEBC
1FF00E15
F6010CFB
01F503EA
F5EABBA3
E3EE03F9
F507D7CD
0BFCFB1A
CAEFE9AC
29F10909
F007D61A
24E3BDF6
FD00ED27
E8EBF0FF
E6DFC628
E85CF9F5
08201C20
0C17F1DF
FBB0C7F0
E23114F1
17FA0FFA
E60FDFE4
18E3F206
0C170AD5
0A2EFBE7
DEC401CC
02E7AD2F
E844071B
0BFF0321
0D363517
EC2A2004
E58602C1
0D02A31B
E9F4B417
D4DF1923
21180920
2CE8CF08
B9A3F1F6
06063D28
0034E9E3
B0020153
F900011C
E808DCDC
F3302218
BEF5E63D
B609FAF3
EE1CDFEE
01DCFF24
25DD39F2
00C2F0F9
EC24F20C
F50507E8
E9021C1B
F00116F9
DFE6DF27
F30FF61A
00FF1FE6
F87C1021
05FF0303
13C2F30C
E22AF723
3CAF0406
03FCF21D
0424B722
08090DE3
0023DE09
0B4FD1FC
DABD1201
0C0E3CE3
3BD5FEFC
17CFF102
2C1E291C
2917DE0A
EEE32936
EF0AF3E8
0738DC22
20F3F7FB
FCFCF0C7
F3F8E71E
0FD82909
FD1C06D4
23AEFCF2
F4CD0E17
D9F11105
0FD9F8E3
FA52E909
242A10DD
03C8F0ED
1416F4F5
FF10E922
05071A35
E6DA0BF6
CD2858BE
EF2AE5DC
FCE8E8FB
2613F610
2EE80010
F3DFE3E8
1429281A
FE2D0A03
00F2F4FA
04E5E20D
F008E5F1
150D1700
173109DA
EFE10BF3
0185404E
C31100F7
F4D2F00D
EBE312F3
11E6E728
03EB21F2
1307E802
EA0CCEBB
1436DD7E
11FC0BE8
F8F6FD1D
C7E4021C
DE1CFB1D
F0DF2302
E8031533
F11BF21E
E9EC11BB
01EC2C06
2525097E
E7F437D6
11EFF3F0
EDF5B7FD
FF1D10F2
09D5F7C8
0502EE0B
F308FF1F
000A1402
F00E02F9
C0F1CC27
34D523D0
0E53D56F
D51A030C
0FFB19EE
E60405FD
0325FD15
D12DEA0D
1E5BE15C
320A14ED
0CC61F04
13BF0113
0C25FBE1
FDF404FD
F4CAFAD7
1709F3DD
C7FE01E4
FEE50804
F6EEEFC5
040221F8
C52A017E
BDC30205
C3FF07CA
1DE1EBF6
C1E01E9D
EFEBBEEE
2AEF0B01
04450BF3
02F80CFE
FBF4EC16
1D2FEF7B
C2D91B16
23F81A29
F5FCE10E
03F5F5F0
AF1344FC
19E5EAF7
DDE90926
211DE1AF
2D5B1471
2AF40613
FC4ECC12
F30F2560
CE1239F8
E613E306
16FCC3F2
E3EAFFF5
ED2DFF0E
E40DD5EF
F60AB5F8
10EFFB57
E0A22EF4
1DEBEDB0
02D60623
E2E0D6DB
0C99080E
57351BC9
E60BE8E7
09072605
0C24DFDB
1C09E618
1C0EED07
D52EF302
45101D11
0F0A38DB
CF0DE815
EEFBC91B
0C4DF105
F043DF31
F12AE1F2
CF18CCF8
0BF90C14
38EAFAD9
D22026F2
EFDED4D5
F1FF29E0
F719D11B
F70C1CDF
C1F9F30C
14FBF0F6
02DA1723
D5042D02
CCF20AF0
1E24EAE5
1500D107
17B0A614
FDC91F17
12D6FF10
180801FB
EAFE1922
2F06E9D2
11ED9708
F0D1F1EA
F71CF9ED
FAE4D8E1
45F9C309
1C1721F7
16D81519
F902EBC8
10B0F8FF
E7F7E70C
C7460E1F
FEE40801
160E0100
09FE0CC6
F2FDE00D
F7EE2106
14813213
FFD616E9
04A4F9EA
02F80C11
DEEDE520
D5EDDD0C
D83E0B05
FAF4F319
FAEFE1FD
FA01F805
4500E720
F60D2626
3444F10B
C90CF327
FDE51008
ED270D30
31AEF9DF
0B2FF111
F8B70404
FFDBE1F5
52C33106
22E8DA14
09C016EE
C9D4EF0C
E417FEF2
0107291D
F81E0A11
08E50AE8
25CFFAE4
01240D28
0B3200FD
1CCF27DE
F8F31BFE
03D724E2
0754101E
EFF10F00
E1F81F1B
1818C130
FE34F716
1909D518
B906DFDF
F4E7F7F4
E1C92603
15FD1109
0C03DCDD
FAFE24AE
FE31FEDE
0E000310
270C2408
06DFFF0C
17A11016
F62CF7FA
E706130A
F8E028F4
EF32FAFD
E32900E3
00DF04F6
FC180913
4763F826
50F9B6D1
E813EAB8
E90221DD
E20A0146
0D3A1FAC
F039D203
37FAFAF3
F822D10D
3FD5CE0F
B905E50A
FE2CD7F8
55366706
DCF22008
180604C4
E1E6F0F6
EF1728FE
0604DED4
FDF817DA
1810102B
EF010EF4
021DE61D
1609E0E5
1C10E8F1
06E1E4FC
FE160A13
CD09F1FC
F527D0E5
F2DFF3D8
D0120506
2746E2E9
F804D734
160BDCEF
F2EE2423
09040613
171FE3EA
141A0AB6
C8B31BF0
153AF6F2
2CEEDAC8
E7167E1B
0502FF18
04C2131B
0A04E617
F6CB15DC
42E11FE3
E8D211D1
0A011849
F0F00A00
ECF92521
271CE1F4
13192B0C
D53AC216
D21EF2EA
1F19D8E2
EAD4191F
C915F71C
F51BCE5A
0DE0180B
CCF4DD12
ED06DBF1
291BD8DB
2D4833F8
3CEDF3E6
F8F4FFF3
61F8F8E6
2E3A11E0
39FFEAFE
E6F3EAF8
E1231E0C
0F2408C9
4606F929
0BCFFAEA
1F37EE0E
F114F7F6
EEFEF0E6
4C02FF14
04FAFA2D
04220005
0209102E
17FC53FD
C7EEFE47
1308EADD
F8EFE506
D2F1EBED
F5D422EA
C507CBD0
CE1D0BD9
22D713FA
FA0E2504
4A33473C
E8062817
013D0913
18FBE6F2
DE2216F2
2CF1D7EF
F71CF441
7E352A1D
B7E6E157
08FC99E8
03A61D0A
EF0BB2E6
DF04E60A
183C2B0B
F613CF05
3420F31C
1B2DF20A
05FF1CF8
20C70808
0C1C1800
0C020DF0
FDF21026
05F9E7FC
DF2FF7F6
2236F517
D0370304
F7202419
E4CF2531
CEFB1119
C903E8F3
06F026E4
D3983AE6
FFEF0BC9
3BF235ED
09FBDC09
EFFC4010
0EF6F4F6
F91BEBF7
0BF4F900
EEF8ED07
B5271E23
EE38E006
F5FFF6F2
0BFE2E04
160CFCEF
EB0AF2F5
FCEA0617
EEEA2009
E30FFAFC
180AF9FB
F9E8EE08
0304EBDE
F6EB0A05
F8EE0B06
0D1026EF
0C1105FB
E8BDE0F3
F60B2F34
E0FDE40E
0EE418D5
CE50FAF3
D70C1E08
4FCF34E2
FB100130
1915FDDE
F6330D1E
F710FA0F
E6B8E407
09E4FEEC
FAE8E931
0121F5FF
000B0EE0
F2F787E3
00FCD806
3F08FACB
F4133FDB
F1CC0B09
0E0812E2
1617E7F9
F32006C4
C0B9112C
EF44AA0B
EF15EA0C
17FC1CD8
E6D90221
15F9F507
3222D1F8
1D02F3F2
28EEFA00
0C2E1915
FDFFFF11
0417FE00
17FF4805
2DD32ECC
0A121D1D
D2070EDA
07060EFB
0DFCF2FE
E46E3811
35EA27FF
FE03EF00
EBF7F836
E82E1723
EA062702
25BFFD00
0013C0ED
B3EA360B
ECD9F20D
F9B903E3
EADD1A21
111DDEF4
10D40208
D8E310EE
E318E722
184505F0
D3D810F9
CFF824E0
EC08B220
069626F1
1D15EEC6
D80C15F2
3309F2FF
0FE30CCA
D70818E0
02D6EB08
28FEF927
F8CD21EC
040A08FD
CCE2FB06
0C0CF009
1F091720
F6F438C5
CEB01AE5
1E1FE6FA
DFE51CEF
DF23ED13
EAD12134
2CF62C12
F8300B20
F414DE0C
F79BEDF4
FC2636EA
D731D1E5
1EFB0EFE
F928FAF3
CA29D52D
F852F901
F5FDF70B
04F112FB
FEF51A00
F836F911
0F12C9E4
00E2E014
E9F902F4
DD39EEFC
FDD6000F
11BEF8ED
000605D7
E038FEF7
F808D7E3
EEB4D7EA
DE230303
E85ED61D
EC0E30FD
EACEFF15
D804BB13
E80212FE
0CF80C1C
4EE137F5
BFF006B2
FC1E0428
BBFD00DA
031ECB27
F8163710
D6162AEF
2BE6DAFF
BF11E5E8
2F08ED3A
0C253609
31FA3845
25F20A0A
231CB9E8
F9251F10
FF2BCF44
ADDAE315
F2FF3413
F0EFE61F
05D2D413
B0FB1802
FEDF2827
18FAEED9
35F33702
EBFB272A
F2DCA540
D03ADA06
34CDD116
021406FC
21341B62
DDF0E0DF
0C053239
050CFBF1
FDEC09D9
C5C61728
C85BEFD5
1F0CFBFD
0816D1C9
0FFAC3F4
B6FB2027
2BF9FB22
CD00F84E
EDDEF2E2
0C1D3050
DF2F08ED
30D3F4C0
E63010FA
F81004E6
120014E0
EBC615F8
09440E5C
CBF4E205
190508E3
4206FF1B
DB1EE4E6
E4142DF3
FBF61831
0BD1F304
161E0D39
2ADB0D44
F91B0204
FE070538
EBF7F2F3
260519FD
F5361113
1E0A5709
D2EA0B26
DBF81AF6
F9F70B05
F6FAE90B
2108FB1A
EEF3F50F
151DF60C
EEDEE01E
E9360A2B
16EE4CAD
01F60AF7
12052D18
4E11F9F3
01E9E91C
3DFED2F9
E7E10120
18D8FBF2
FE30EEF7
C62915F0
2B05FC81
3400E3EC
FEEEF9E3
2FF6FCF5
F302FA02
B0FFD237
01F908E3
0A1D2BCE
FF1F0349
24EFF7E8
EC13FD01
1211CE0C
0EFAD504
C705271D
15F31A10
F516D8FA
09F8FDC7
1DE13700
01E4F738
2C2BF1E5
DC22EFEE
D30B01E1
DFF6D03D
EF0217E6
F1F6F55F
FA0FE200
01E9179E
1BF1ECF8
E7032000
CF1EDBE6
F9F7DCFE
0F0C00F0
20F8FB10
0105FC1E
19E407F0
32C616EA
1F11D37E
E904FA15
DE0607E6
FCE4E515
E5E90BE6
B3B519E7
ED17DCD5
41E711E2
021335E6
CCF3D1CC
E7D10902
4020FBE5
0310E9C4
241302D5
130B0929
07EA050E
E80F22F8
1AEFF4F5
E4ED0525
1FE6030E
ECC6EFD4
FC144515
DCF2E5B6
0104E50F
ECE82913
D7D5FAEC
0225F60D
FA260BEF
1E0319D1
BFF7D6C3
58E236EF
07180600
07062624
FF14FCF9
26274922
07010DF4
E01ABE05
4067E0FE
1306C2EC
26E410F8
060E28D3
D4D212F8
03DA40EB
41F6E80C
48F708E6
D5C412F9
E82DB81B
0F35E414
DFB8DD36
2909D22A
06DD2F44
37F41B17
F529F3FC
A7D7C125
06FD2CDE
C608FAF4
38DB1902
D5DDDFE8
FE0109FD
3A15BDF5
E502D7DE
01D500E4
1304D7F4
31110BFC
D8151906
060FFB09
FEE7153B

